{
  "version": "1.0",
  "truncation": null,
  "padding": null,
  "added_tokens": [
    {
      "id": 0,
      "content": "<|endoftext|>",
      "single_word": false,
      "lstrip": false,
      "rstrip": false,
      "normalized": false,
      "special": true
    }
  ],
  "normalizer": null,
  "pre_tokenizer": {
    "type": "ByteLevel",
    "add_prefix_space": false,
    "trim_offsets": true,
    "use_regex": true
  },
  "post_processor": null,
  "decoder": null,
  "model": {
    "type": "BPE",
    "dropout": null,
    "unk_token": null,
    "continuing_subword_prefix": null,
    "end_of_word_suffix": null,
    "fuse_unk": false,
    "byte_fallback": false,
    "vocab": {
      "<|endoftext|>": 0,
      "!": 1,
      "\"": 2,
      "#": 3,
      "$": 4,
      "&": 5,
      "'": 6,
      "(": 7,
      ")": 8,
      "*": 9,
      "+": 10,
      ",": 11,
      "-": 12,
      ".": 13,
      "/": 14,
      ":": 15,
      ";": 16,
      "<": 17,
      "=": 18,
      ">": 19,
      "?": 20,
      "@": 21,
      "A": 22,
      "B": 23,
      "C": 24,
      "D": 25,
      "E": 26,
      "F": 27,
      "G": 28,
      "H": 29,
      "I": 30,
      "J": 31,
      "K": 32,
      "L": 33,
      "M": 34,
      "N": 35,
      "O": 36,
      "P": 37,
      "Q": 38,
      "R": 39,
      "S": 40,
      "T": 41,
      "U": 42,
      "V": 43,
      "W": 44,
      "X": 45,
      "Y": 46,
      "Z": 47,
      "[": 48,
      "\\": 49,
      "]": 50,
      "^": 51,
      "_": 52,
      "`": 53,
      "a": 54,
      "b": 55,
      "c": 56,
      "d": 57,
      "e": 58,
      "f": 59,
      "g": 60,
      "h": 61,
      "i": 62,
      "j": 63,
      "k": 64,
      "l": 65,
      "m": 66,
      "n": 67,
      "o": 68,
      "p": 69,
      "q": 70,
      "r": 71,
      "s": 72,
      "t": 73,
      "u": 74,
      "v": 75,
      "w": 76,
      "x": 77,
      "y": 78,
      "z": 79,
      "{": 80,
      "|": 81,
      "}": 82,
      "~": 83,
      "¡": 84,
      "¢": 85,
      "£": 86,
      "¤": 87,
      "¥": 88,
      "¦": 89,
      "§": 90,
      "¨": 91,
      "©": 92,
      "ª": 93,
      "«": 94,
      "¬": 95,
      "®": 96,
      "¯": 97,
      "°": 98,
      "±": 99,
      "²": 100,
      "³": 101,
      "´": 102,
      "µ": 103,
      "¶": 104,
      "·": 105,
      "¸": 106,
      "¹": 107,
      "º": 108,
      "»": 109,
      "¼": 110,
      "½": 111,
      "¾": 112,
      "¿": 113,
      "Â": 114,
      "Ã": 115,
      "Ä": 116,
      "Å": 117,
      "Æ": 118,
      "É": 119,
      "Ê": 120,
      "Ë": 121,
      "Ì": 122,
      "Í": 123,
      "Î": 124,
      "Ï": 125,
      "Ð": 126,
      "Ñ": 127,
      "Ò": 128,
      "Ó": 129,
      "Ô": 130,
      "Õ": 131,
      "Ö": 132,
      "×": 133,
      "Ø": 134,
      "Ù": 135,
      "Ú": 136,
      "Û": 137,
      "Ü": 138,
      "à": 139,
      "á": 140,
      "â": 141,
      "ã": 142,
      "ä": 143,
      "å": 144,
      "æ": 145,
      "ç": 146,
      "è": 147,
      "é": 148,
      "ê": 149,
      "ë": 150,
      "ì": 151,
      "í": 152,
      "î": 153,
      "ï": 154,
      "ð": 155,
      "Ā": 156,
      "ā": 157,
      "Ĉ": 158,
      "Ċ": 159,
      "ċ": 160,
      "Đ": 161,
      "Ę": 162,
      "ę": 163,
      "ě": 164,
      "Ğ": 165,
      "ğ": 166,
      "Ġ": 167,
      "ġ": 168,
      "Ģ": 169,
      "ģ": 170,
      "Ĥ": 171,
      "ĥ": 172,
      "Ħ": 173,
      "ħ": 174,
      "Ĩ": 175,
      "ĩ": 176,
      "Ī": 177,
      "ī": 178,
      "Ĭ": 179,
      "ĭ": 180,
      "Į": 181,
      "į": 182,
      "İ": 183,
      "ı": 184,
      "Ĳ": 185,
      "ĳ": 186,
      "Ĵ": 187,
      "ĵ": 188,
      "Ķ": 189,
      "ķ": 190,
      "ĸ": 191,
      "Ĺ": 192,
      "ĺ": 193,
      "Ļ": 194,
      "ļ": 195,
      "Ľ": 196,
      "ľ": 197,
      "Ŀ": 198,
      "ŀ": 199,
      "Ł": 200,
      "ł": 201,
      "Ń": 202,
      "Ø§": 203,
      "ĠØ": 204,
      "ÛĮ": 205,
      "Ø±": 206,
      "ÙĨ": 207,
      "Ùĩ": 208,
      "ÙĪ": 209,
      "Ùħ": 210,
      "Ø¯": 211,
      "Øª": 212,
      "Ø§Ø": 213,
      "ÙĦ": 214,
      "Ú©": 215,
      "ĠØ¨": 216,
      "ĠÙħ": 217,
      "Ø§ÛĮ": 218,
      "Ø§ÙĨ": 219,
      "âĢ": 220,
      "ĠØ¯": 221,
      "âĢĮ": 222,
      "Ø³": 223,
      "Ø´": 224,
      "Ø§Ø±": 225,
      "Ùģ": 226,
      "ĠØ§Ø": 227,
      "Ø¨": 228,
      "ĠÙĪ": 229,
      "Ú¯": 230,
      "ĠÚ©": 231,
      "ÙĤ": 232,
      "ĠØª": 233,
      "Ø²": 234,
      "ĠÛ": 235,
      "ĠØ¯Ø±": 236,
      "ĠØ±": 237,
      "ĠÙĨ": 238,
      "ĠØ³": 239,
      "Ù¾": 240,
      "Ø§Ùħ": 241,
      "Ø¹": 242,
      "ĠØ´": 243,
      "Ø§ÙĦ": 244,
      "ÙĨØ¯": 245,
      "ĠØ¨Ùĩ": 246,
      "Ø±ÛĮ": 247,
      "Ø§Ø¯": 248,
      "ØĮ": 249,
      "ÙĪØ¯": 250,
      "ĠØ®": 251,
      "ĠØ¢": 252,
      "Ø¬": 253,
      "ĠÙĩ": 254,
      "ĠØ§ÛĮ": 255,
      "ĠÙ¾": 256,
      "ĠØ§Ø²": 257,
      "Ø±Ø¯": 258,
      "Ø®": 259,
      "ĠØ§Ø³": 260,
      "ÛĮØ¯": 261,
      "Ø³Øª": 262,
      "ĠÙħÛĮ": 263,
      "ÙĩØ§ÛĮ": 264,
      "Ø§Ùĩ": 265,
      "ĠØ¨Ø±": 266,
      "ĠÙģ": 267,
      "ÛĮÙĨ": 268,
      "Ø§Øª": 269,
      "ÙĪØ±": 270,
      "ØŃ": 271,
      "ĠØ§Ø³Øª": 272,
      "Ø§Ø²": 273,
      "ĠØ¬": 274,
      "ĠÚ¯": 275,
      "±Û": 276,
      "ĠØ§ÛĮÙĨ": 277,
      "Øµ": 278,
      "ÙĦÛĮ": 279,
      "ÚĨ": 280,
      "ĠĊ": 281,
      "ĠÚ©Ùĩ": 282,
      "ĠØ¹": 283,
      "ĠØ¨Ø§": 284,
      "ĠØŃ": 285,
      "Ø§Ø¨": 286,
      "Ø±ÙĪ": 287,
      "Ø·": 288,
      "Ø§Ø³": 289,
      "ĠÙĤ": 290,
      "ĠØ±Ø§": 291,
      "Û°": 292,
      "ÛĮÙħ": 293,
      "ĠØ§": 294,
      "ÙĪÙĨ": 295,
      "Ø§Ø´": 296,
      "ĠÛĮ": 297,
      "ÛĮØ±": 298,
      "ĠÛ±Û": 299,
      "ÙĩØ§": 300,
      "ĠØ²": 301,
      "ÙģØª": 302,
      "ÙĪÛĮ": 303,
      "Ø¯Ùĩ": 304,
      "ÙĪÙĦ": 305,
      "Ø§Ø±ÛĮ": 306,
      "ĠÙĩÙħ": 307,
      "ĠØ§ÙĨ": 308,
      "Ø±Ø§ÙĨ": 309,
      "ĠÚĨ": 310,
      "ÙĪØ²": 311,
      "ØªÛĮ": 312,
      "ÙħØ§ÙĨ": 313,
      "ÙĪØ§ÙĨ": 314,
      "Ø¶": 315,
      "Ø³ÛĮ": 316,
      "ĠØ¨Ø±Ø§ÛĮ": 317,
      "ĠÛ²": 318,
      "ĠØµ": 319,
      "ØªØ±": 320,
      "ĠÙħÙĪ": 321,
      "ÙħÛĮ": 322,
      "ĠØ§Ùħ": 323,
      "Ġ/": 324,
      "ÙĨÚ¯": 325,
      "ĠÚ©Ø±Ø¯": 326,
      "ĠØ¢ÙĨ": 327,
      "³Û": 328,
      "Ø°": 329,
      "¹Û": 330,
      "Ú©ÙĨ": 331,
      "Ġ-": 332,
      "ĠÛĮÚ©": 333,
      "ĠØ·": 334,
      "ÛĮØ´": 335,
      "ĠÙħÙĨ": 336,
      "Ø§Ø¹": 337,
      "ĠÚ©ÙĨ": 338,
      "Ú¯Ø§Ùĩ": 339,
      "Ø§Ø±Ø¯": 340,
      "Ø¸": 341,
      "Ú¯ÛĮ": 342,
      "Ø§Ø¯Ùĩ": 343,
      "Ø§ÙĨÛĮ": 344,
      "ÙĪØ´": 345,
      "ØªÙĩ": 346,
      "ĠÙĨÛĮ": 347,
      "ĠÚ©Ø§Ø±": 348,
      "ĠâĢ": 349,
      "ĠÙĦ": 350,
      "ÛĮØª": 351,
      "ĠØªÙĪ": 352,
      "ĠØ¨Ø§Ø²": 353,
      "Ø¨Ø±": 354,
      "Ø§ÛĮÛĮ": 355,
      "Ø¨Ùĩ": 356,
      "ĠØ®ÙĪØ¯": 357,
      "Ø²Ø§Ø±": 358,
      "Ø§ÙĨÙĩ": 359,
      "Øº": 360,
      "Úĺ": 361,
      "ĠÙħØŃ": 362,
      "ÙĨÛĮ": 363,
      "ÛĮÙĦ": 364,
      "Ġ(": 365,
      "Ø±Ú©": 366,
      "Ú¯Ø±": 367,
      "Ø§Ùģ": 368,
      "Ø¢": 369,
      "ĠØ§Ø±": 370,
      "ĠØ¯Ø§ÙĨ": 371,
      "ĠØ´Ø¯": 372,
      "Ø§Ø®": 373,
      "Û±Û": 374,
      "ÙħØ§ÛĮ": 375,
      "Ø¨ÛĮ": 376,
      "ĠÙħØ¹": 377,
      "ĠÙħØ¯": 378,
      "ĠÙģØ±": 379,
      "ĠØ¨ÙĪØ¯": 380,
      "ÙĪÙħ": 381,
      "ØªØ±ÛĮ": 382,
      "Û²": 383,
      "ĠØ¢Ùħ": 384,
      "ĠâĢ¦": 385,
      "Ø§ØŃ": 386,
      "ĠØªØ§": 387,
      "Ø§Ø±Ùĩ": 388,
      "ĠÙħØ´": 389,
      "ĠÛ°": 390,
      "Ø§ÙħÙĩ": 391,
      "Â»": 392,
      "Ø§ÙĤ": 393,
      "ÙĩØ±": 394,
      "ĠØ®ÙĪ": 395,
      "ĠØ³Ø§ÙĦ": 396,
      "ĠÙħØ±": 397,
      "Ø¯ÛĮØ¯": 398,
      "ĠÛ±Û³Û": 399,
      "Ġ,": 400,
      "ĠÚ©Ø´": 401,
      "Ø²ÛĮ": 402,
      "ÙĦÙĪØ¯": 403,
      "ĠÂ": 404,
      "Ø«": 405,
      "ĠØ§Ùģ": 406,
      "ĠØ§ÛĮØ±Ø§ÙĨ": 407,
      "ÙĦØ§Ùħ": 408,
      "Ø§Ú©": 409,
      "ĠØ±ÙĪ": 410,
      "Ûµ": 411,
      "ÙĦÙĩ": 412,
      "ÙĨØ¯Ùĩ": 413,
      "ĠØ¯ÛĮ": 414,
      "Ø±Ùģ": 415,
      "ĠÂ«": 416,
      "ĠØ¯Ø³Øª": 417,
      "Ø¦": 418,
      "Ø¯Ø±": 419,
      "ĠØ³Ø±": 420,
      "ĠØ´Ùħ": 421,
      "Ø´ÙĨ": 422,
      "Ú©Ùĩ": 423,
      "Ø¬Ùĩ": 424,
      "Û´": 425,
      "ĠØ§ÙĦ": 426,
      "ØªÙĪØ§ÙĨ": 427,
      "ĠÙħØ³": 428,
      "ÙĪØ±ÛĮ": 429,
      "Ø¹Ùĩ": 430,
      "Ø¯ÛĮ": 431,
      "ĠØ¨Ø§Ø´": 432,
      "ĠÛ±Û³Û¹Û": 433,
      "Ø´ÙĪØ¯": 434,
      "ÙĤÛĮ": 435,
      "Ø§Ø¯ÛĮ": 436,
      "Ø§ÛĮØ¯": 437,
      "Ø§Ø³Øª": 438,
      "ĠØ¯Ø§Ø±": 439,
      "Ø§ÛĮØª": 440,
      "Ø§ÙĨØ¯": 441,
      "Ø±Ùħ": 442,
      "ĠØº": 443,
      "ĠÛĮØ§": 444,
      "ĠØ¨ÛĮ": 445,
      "Ø§ÙĦÛĮ": 446,
      "ĠÚ¯ÙģØª": 447,
      "ĠÙħÙĤ": 448,
      "ĠØ¯ÙĪ": 449,
      "ĠÙħØª": 450,
      "ĠÛ²Û°": 451,
      "ĠÙħØ¬": 452,
      "Ú©ÛĮ": 453,
      "ĠØ§ÙĨØª": 454,
      "Ø³ØªØ§ÙĨ": 455,
      "Ø´Ø¯Ùĩ": 456,
      "ĠÙĤØ±": 457,
      "Ø±Ø³": 458,
      "ØªØ±ÛĮÙĨ": 459,
      "ĠØ³ÛĮ": 460,
      "Ø§Ø·": 461,
      "ĠÙĨØ¸": 462,
      "Ø§Ø´Øª": 463,
      "Û¸": 464,
      "Ø§Ø²ÛĮ": 465,
      "ĠÚ©Ø´ÙĪØ±": 466,
      "ĠØ±ÙĪØ²": 467,
      "ĠÙ¾ÛĮØ´": 468,
      "ĠØ´Ø¯Ùĩ": 469,
      "Ø¨Øª": 470,
      "Û¶": 471,
      "ĠÙĩØ³Øª": 472,
      "ĠØ§Ø¹": 473,
      "ÙĨØ§ÙħÙĩ": 474,
      "ĠØ¹Ùħ": 475,
      "Û·": 476,
      "ĠÛ´": 477,
      "Ø§ÙĪ": 478,
      "Ø´ÛĮ": 479,
      "ĠÛµ": 480,
      "Ø§Ø¬": 481,
      "Ø±Ú©Øª": 482,
      "ÙĪØ¹": 483,
      "ĠØªØŃ": 484,
      "ĠÙ": 485,
      "ĠØ¯Ø§ÙĨÙĦÙĪØ¯": 486,
      "ÙħÛĮÙĨ": 487,
      "Ú©ÙĦ": 488,
      "ĠÙħÙĩ": 489,
      "ÙģØ§Ø¯Ùĩ": 490,
      "ÙħÙĨ": 491,
      "ĠØ®Ø¨Ø±": 492,
      "ĠÙĪÛĮ": 493,
      "ĠØ´ÙħØ§": 494,
      "Û°Û°": 495,
      "Ø§Ø¦": 496,
      "ĠØ§Ø¯": 497,
      "ĠØ§Ø¬": 498,
      "Ø§ÙħÙĦ": 499,
      "Ø§Ø®Øª": 500,
      "Ġ|": 501,
      "Ø±Ùĩ": 502,
      "Ú©Ø³": 503,
      "ÙģØªÙĩ": 504,
      "ÙĪØ±Øª": 505,
      "Ø®Øª": 506,
      "ĠØ¬Ùĩ": 507,
      "ĠÚ¯Ø±": 508,
      "ÛĮÙĩ": 509,
      "Ø®ÙĪ": 510,
      "ĠØ¯Ø§ÙĨØ´": 511,
      "ÛĮØ³": 512,
      "ĠØªØ¹": 513,
      "ĠÙ¾ÛĮ": 514,
      "ĠØ§Ø³ØªÙģØ§Ø¯Ùĩ": 515,
      "Ú¯Ø§ÙĨ": 516,
      "ĠØ¯Ø§Ø±Ø¯": 517,
      "ØªÙħ": 518,
      "ĠØ§Ø®": 519,
      "ĠØ¨Ø§Ø²ÛĮ": 520,
      "ØŁ": 521,
      "Ø§ÙĩØ¯": 522,
      "Ø±ÛĮØ¯": 523,
      "ĠÙĩØ±": 524,
      "ĠÙħØ±Ø¯": 525,
      "ĠØ¹ÙĦ": 526,
      "ĠÚ©Ùħ": 527,
      "ĠØªÙħ": 528,
      "ĠØ¨Ø¯": 529,
      "ÙħÙĩ": 530,
      "ĠØ§ÙĤ": 531,
      "ĠÙĨÛĮØ²": 532,
      "Ø®Øµ": 533,
      "ĠÙĨÙħØ§ÛĮ": 534,
      "Ø±ÙĪØ´": 535,
      "ĠØ§ÙĪ": 536,
      "Ø±Ø§ÛĮ": 537,
      "ĠÙĨÙĤ": 538,
      "Û±": 539,
      "ĠØ¨ÛĮØ´": 540,
      "ĠÛ³": 541,
      "ĠØ§Øµ": 542,
      "Ø§Ø³ÛĮ": 543,
      "Û³": 544,
      "ØªØ¨": 545,
      "ĠÙħØ·": 546,
      "er": 547,
      "ĠØ¬Ø¯ÛĮØ¯": 548,
      "ÙĩÙĨÚ¯": 549,
      "ĠØªÙĩ": 550,
      "ĠØ¨Ø§ÛĮØ¯": 551,
      "ĠØ´Ùĩ": 552,
      "ĠØ±Ø³": 553,
      "ĠÙħØ§": 554,
      "ĠØ·Ø±": 555,
      "ĠØ²ÛĮ": 556,
      "ĠÚ©ÙĨÛĮØ¯": 557,
      "ÙģØ±": 558,
      "ĠÛ¸": 559,
      "ĠØ´Ø±Ú©Øª": 560,
      "ĠØ¯Ø§Ø¯": 561,
      "ĠØ§ÙģØ²": 562,
      "ÙĤÙĩ": 563,
      "Ø§Øµ": 564,
      "ĠÙ¾Ø§ÛĮ": 565,
      "ÛĮÚ©": 566,
      "ĠÙĤØ±Ø§Ø±": 567,
      "ĠØ´ÙĩØ±": 568,
      "ĠØªØµ": 569,
      "Ø¯Ùħ": 570,
      "ĠÙħÙĪØ±Ø¯": 571,
      "in": 572,
      "Ø²Ø´": 573,
      "ÙħØ¯": 574,
      "ĠÚ©Ø±Ø¯Ùĩ": 575,
      "ĠØ§Ø¨": 576,
      "ÙĪÙĩ": 577,
      "ĠØ¢ÙħÙĪØ²": 578,
      "ĠØ¨Ø®": 579,
      "ĠÛ±Û°": 580,
      "Ø§ÛĮØ´": 581,
      "Ø¨Ø§Ø´": 582,
      "ĠØ§Ø´": 583,
      "Ø¨Ø§Ø±": 584,
      "ĠÚ©ÙĦ": 585,
      "ÙĨØ¬": 586,
      "Ø¯Ø§ÙĨ": 587,
      "Ø¬ÙĪØ¯": 588,
      "an": 589,
      "ĠÚĨÙĩ": 590,
      "ĠÙģÛĮÙĦ": 591,
      "ĠØ¨Ø³ÛĮ": 592,
      "ĠÛ¶": 593,
      "ĠØªÙĪØ³": 594,
      "Ø´Ø§ÙĨ": 595,
      "ĠØ§ÙħØ§": 596,
      "Ø§ØªÛĮ": 597,
      "ĠÛ¹Û": 598,
      "ĠØ±Ø§Ùĩ": 599,
      "ĠØ³Ø§Ø²": 600,
      "ĠØªÙĪÙĦ": 601,
      "Ú©ÙĨØ¯": 602,
      "Û¹": 603,
      "Ø´Øª": 604,
      "Ø¬Ø§Ùħ": 605,
      "ĠØ¯Ùĩ": 606,
      "Ø§ÛĮÙĨ": 607,
      "ĠØ±ÙĪÛĮ": 608,
      "Ú©Ø§ÙĨ": 609,
      "Ø²Ø§Ø±Ø´": 610,
      "Ø§ÛĮÙĦ": 611,
      "ĠØ§Øª": 612,
      "ÛĮÙħØª": 613,
      "ĠØ§Ø·": 614,
      "ÙĦÙģ": 615,
      "ÙĩØ§ÛĮÛĮ": 616,
      "ÙĨØ§": 617,
      "Ø¨Ø§ÙĨ": 618,
      "ÛĮÙģ": 619,
      "Ø§ÙħÛĮ": 620,
      "ĠÛ²Û°Û±Û": 621,
      "Ø¨ÙĦ": 622,
      "on": 623,
      "ĠÛ·": 624,
      "ĠØ¶": 625,
      "ÛĮØ§": 626,
      "ĠØ³ÙĨÚ¯": 627,
      "ĠØµÙĪØ±Øª": 628,
      "Ø±ÙĪØ²": 629,
      "Ø§Ø±ÛĮØ®": 630,
      "ĠÙ«": 631,
      "ÙĦÙĪ": 632,
      "ĠÚ¯Ø²Ø§Ø±Ø´": 633,
      "Ø§Ø´ØªÙĩ": 634,
      "Ø§Ù¾": 635,
      "ĠÚ¯Ø°": 636,
      "ØªØµ": 637,
      "ĠØªÙĪÙĦÛĮØ¯": 638,
      "Ø¯Ø§Ø±": 639,
      "ÙĪÙĨÙĩ": 640,
      "ĠØªÙĨ": 641,
      "ĠØ¨ÛĮÙĨ": 642,
      "ĠÙģÛĮÙĦÙħ": 643,
      "ĠÙģØ±ÙĪØ´": 644,
      "ar": 645,
      "ĠØ¨Ø¹": 646,
      "Ú©Ø§Ø±": 647,
      "ĠÛ±": 648,
      "ØĽ": 649,
      "ÙħØª": 650,
      "ÙĨÛĮÙĨ": 651,
      "ĠÙĨÙħÛĮ": 652,
      "ĠS": 653,
      "ĠÙĪØ±": 654,
      "ĠØŃØ§ÙĦ": 655,
      "ĠØ¬Ùħ": 656,
      "ĠÙĨØ¸Ø±": 657,
      "ĠÙ¾Ø³": 658,
      "Ø¨Ø±ÛĮ": 659,
      "ĠØ§ØŃ": 660,
      "ĠØ¯ÙĪØ±": 661,
      "ÙĦØ³": 662,
      "ĠØ§Ø³ØªØ§ÙĨ": 663,
      "ÚĺÙĩ": 664,
      "Ú©Ø±": 665,
      "ĠØ¹ÙĨ": 666,
      "Ø±ÛĮÙĨ": 667,
      "Ø¨Ø§Ø´Ø¯": 668,
      "ĠÙ¾Ø±": 669,
      "ĠÙĨÙħ": 670,
      "ĠØ¨Ø§Ø´Ø¯": 671,
      "Ø¹ÛĮ": 672,
      "ĠÙħØ§Ùĩ": 673,
      "ÙĪØ¨": 674,
      "ÙĦØ§Ø¹": 675,
      "ĠØ¨Ø§ÙĦ": 676,
      "ĠÙħØµ": 677,
      "ĠØ¯Ø§Ø´Øª": 678,
      "ĠØªØ±": 679,
      "ĠØŃØ³": 680,
      "Ú¯ÛĮØ±ÛĮ": 681,
      "ÚĨÙĩ": 682,
      "ĠØ¯ÛĮÚ¯Ø±": 683,
      "ĠØ®Ø±ÛĮØ¯": 684,
      "ĠÙĤÛĮÙħØª": 685,
      "ĠØ´ÙĪØ¯": 686,
      "ÙħØ§ÙĨÛĮ": 687,
      "ĠØ³Ùĩ": 688,
      "ÙĦØ¨": 689,
      "ØªØ§Ø¨": 690,
      "ĠÙ¾Ø±ÙĪ": 691,
      "Ø³Ø¨": 692,
      "Ø²Ø±": 693,
      "Û³Û": 694,
      "ĠØ§ÙĨØ¬Ø§Ùħ": 695,
      "ĠØ¯ÛĮØ¯": 696,
      "ĠØ¨Ø±ÙĨØ§ÙħÙĩ": 697,
      "ĠÙĩÛĮ": 698,
      "Ø´Ø§Ø±": 699,
      "ÙĪØ³": 700,
      "ĠØ§Ø·ÙĦØ§Ø¹": 701,
      "ÛĮÙĨÙĩ": 702,
      "Ø¯Ø§Ùħ": 703,
      "Ø§Ø¶": 704,
      "ĠÙĨØ§Ùħ": 705,
      "ĠØ³Ø§ÛĮØª": 706,
      "ÙĪÙĨØ¯": 707,
      "Ø±ÛĮÚ©": 708,
      "ĠØ¢Ø¨": 709,
      "ĠA": 710,
      "Ø´ØªÙĩ": 711,
      "ÙĪØª": 712,
      "ĠØ«": 713,
      "ĠØ³Ø§Ø®Øª": 714,
      "Ø±Ø§Ùĩ": 715,
      "ĠØ¢Ø²": 716,
      "Ø§Ø¹Øª": 717,
      "ĠØ§ÙĪÙĦ": 718,
      "Ø§ÙĪØ±": 719,
      "ĠÛ³Û": 720,
      "Ø±Ø³ÛĮ": 721,
      "ĠØ²ÛĮØ±": 722,
      "ĠÙĩØ³ØªÙĨØ¯": 723,
      "Ø®Ø§Ø¨": 724,
      "ĠÙĨØ³": 725,
      "ĠØªÙĩØ±Ø§ÙĨ": 726,
      "ÛĮØ±ÛĮ": 727,
      "âĢ¦": 728,
      "Ú©Ø±Ø¯": 729,
      "Ø³ØªÙĩ": 730,
      "ĠØ¨Ø±Ú¯": 731,
      "ĠØ§Ø³ÙĦØ§Ùħ": 732,
      "Ø´Ø¯": 733,
      "ĠØµÙĨ": 734,
      "Ø§Ø¨ÙĦ": 735,
      "ĠM": 736,
      "ĠÛĮÚ©ÛĮ": 737,
      "ÙĤÙĦ": 738,
      "Ø§Ø±Øª": 739,
      "ĠØ¹ÙĨÙĪØ§ÙĨ": 740,
      "or": 741,
      "ÙĪÙĨÛĮ": 742,
      "ÙĨØ¯ÛĮ": 743,
      "ĠØ¹Ø±": 744,
      "ÙĨÙĩ": 745,
      "ĠØ¨ÛĮÙħ": 746,
      "ÙħÙĦ": 747,
      "ĠØ¸": 748,
      "ĠØ±ÛĮ": 749,
      "ĠØ³ÙĪ": 750,
      "ĠÙĪØ¬ÙĪØ¯": 751,
      "ĠØ®ÙĪØ§ÙĩØ¯": 752,
      "Ø®ÛĮ": 753,
      "ĠØ§ÛĮÙĨÚ©Ùĩ": 754,
      "ĠÚ©Ø±Ø¯ÙĨ": 755,
      "ĠÙĩÙħÚĨ": 756,
      "ĠÙĨÛĮØ³Øª": 757,
      "ÛĮÙĨÛĮ": 758,
      "ĠÚ©ÙĨØ¯": 759,
      "Ø³Ø§ÙĦ": 760,
      "ĠØ¢ÙħÙĪØ²Ø´": 761,
      "ÙĪÙĤ": 762,
      "ĠØ¯Ø§Ø´ØªÙĩ": 763,
      "ĠÙħØ±Ø¯Ùħ": 764,
      "ĠP": 765,
      "ĠØŃØ¶": 766,
      "ĠØ§ÙĨØ¯": 767,
      "ĠØ¨Ø§Ø±": 768,
      "Ú¯Ø°": 769,
      "Ø§Ø²Ùħ": 770,
      "Ø¨Ø§": 771,
      "ĠÙģØ¹": 772,
      "Ú©Øª": 773,
      "Ú©ÙĨÙĨØ¯": 774,
      "ĠØªØ§Ø±ÛĮØ®": 775,
      "ĠØ§Ú¯Ø±": 776,
      "Ø±Ø§": 777,
      "Ú¯Ùĩ": 778,
      "Ø¯Ø§": 779,
      "ĠØªØ¬": 780,
      "Ø§ØŃÛĮ": 781,
      "ĠØ³Ø§Ø¹Øª": 782,
      "ĠC": 783,
      "ĠØ®Ø§ÙĨ": 784,
      "at": 785,
      "ĠØ´ÙĨ": 786,
      "ĠØ§ÙĨØªØ®Ø§Ø¨": 787,
      "ĠØ§Ø¯Ø§ÙħÙĩ": 788,
      "ÙĨØ¯Ú¯ÛĮ": 789,
      "Ø¯Ø§Ø¯": 790,
      "ØµØ¯": 791,
      "ĠØ¢ÙĨÙĩØ§": 792,
      "ĠÙħÛĮÙĦÛĮ": 793,
      "al": 794,
      "Ø§ÙĦØ¨": 795,
      "ÙħÙĪ": 796,
      "ĠÛ±Û²": 797,
      "ĠØ¯Ø§ÙĨØ´Ú¯Ø§Ùĩ": 798,
      "Ø§Ø¯Ø±": 799,
      "ĠØ´Ø¨": 800,
      "ĠØªÙĪØ³Ø·": 801,
      "ÙĦØ§": 802,
      "ĠÚ©ÙĨÙĨØ¯": 803,
      "ĠØ¨Ø³ÛĮØ§Ø±": 804,
      "ĠØªÙĦ": 805,
      "Ø¨Ø±Ø¯": 806,
      "ĠØ¯ÙĪÙĦ": 807,
      "ØµÙĪÙĦ": 808,
      "ĠØ¨Ø®Ø´": 809,
      "Ø®Ø§ÙĨÙĩ": 810,
      "ĠØ¨Ø²Ø±": 811,
      "ĠØ²ÙħÛĮÙĨ": 812,
      "ĠØ¨ÛĮØ´ØªØ±": 813,
      "Ø¬ÛĮ": 814,
      "ĠÙĩÙħÙĩ": 815,
      "ĠÚĨÙĨØ¯": 816,
      "en": 817,
      "ĠØ¹ÙĦÛĮ": 818,
      "Ø±ÙĪÙĩ": 819,
      "ĠÙĦÛĮ": 820,
      "ĠÚ©ØªØ§Ø¨": 821,
      "Ø´Ùħ": 822,
      "ÙĪØµ": 823,
      "ÙĦÛĮÙĦ": 824,
      "ĠØªÛĮÙħ": 825,
      "Ø¯Ø§ÙĨÙĦÙĪØ¯": 826,
      "Ø³Ø§Ø²ÛĮ": 827,
      "ĠÚ¯Ø±Ø¯": 828,
      "ĠâĢĵ": 829,
      "ÙĪÙħÛĮ": 830,
      "Ø¨Ø§Ø±Ùĩ": 831,
      "ĠØ§Ø³ÙĦØ§ÙħÛĮ": 832,
      "ĠØ³Ø§Ø²ÙħØ§ÙĨ": 833,
      "Ø´ÙĨØ¨Ùĩ": 834,
      "es": 835,
      "ØŃÙĩ": 836,
      "Ø³Ùĩ": 837,
      "ĠØ·Ø±ØŃ": 838,
      "Ú¯ÙĪ": 839,
      "ĠØ¯Ø§Ø¯Ùĩ": 840,
      "ĠØ¯ÙĦ": 841,
      "Ø§Ø¨ÛĮ": 842,
      "ĠØ§ÙģØ²Ø§ÛĮØ´": 843,
      "Ø¹Øª": 844,
      "ĠÙĩØ²Ø§Ø±": 845,
      "ĠØªÙĪØ¬Ùĩ": 846,
      "ÛĮØ²": 847,
      "Ġc": 848,
      "ĠØŃØ¯": 849,
      "ĠÙģØ¹Ø§ÙĦ": 850,
      "ĠØ¢ÙħØ±ÛĮÚ©": 851,
      "ÙĪØ±Ø¯": 852,
      "ĠØ§ÙĤØªØµ": 853,
      "Ø³ØªÙħ": 854,
      "ÙĪÛĮÛĮ": 855,
      "ĠÙħØŃØµÙĪÙĦ": 856,
      "ÛĮØ¯Ùĩ": 857,
      "Ø§ÙĦÙĩ": 858,
      "ÙĪÙĦÛĮ": 859,
      "ØªÙĪØ§ÙĨØ¯": 860,
      "ĠØªØ¨": 861,
      "ĠÙħØ®Øª": 862,
      "Ø§Ø²Ùĩ": 863,
      "ĠØ¬ÙĨ": 864,
      "ĠØ¨Ø§ÙĨ": 865,
      "ĠØ±ÙĪØ´": 866,
      "ĠØªØ´": 867,
      "ĠØ³Ø±ÛĮ": 868,
      "ĠT": 869,
      "ĠØ®Ø¯Ùħ": 870,
      "Ú¯Ø±ÛĮ": 871,
      "ĠÙĩÙĨ": 872,
      "Ø²Ø§Ø±ÛĮ": 873,
      "ĠØ¢ÙĩÙĨÚ¯": 874,
      "Ø§Øº": 875,
      "ÙĨØ¯Ø§ÙĨ": 876,
      "ĠØ°": 877,
      "ĠØ®ÛĮ": 878,
      "ĠØ¯Ø³ØªÚ¯Ø§Ùĩ": 879,
      "ĠÙĨØ¯": 880,
      "ĠØ¨Ø§Ø²Ø§Ø±": 881,
      "Ø±Ø¨": 882,
      "ØªØ´": 883,
      "ĠÙħØ¯ÙĦ": 884,
      "ĠØ¨ÙĨ": 885,
      "ĠØ¨Ø¹Ø¯": 886,
      "ĠÙĨÙĪ": 887,
      "ĠØ±Ø§ÛĮ": 888,
      "Ø¦ÛĮØ³": 889,
      "ĠÙĩÙħØ±Ø§Ùĩ": 890,
      "ĠØ®Ø§Ø±": 891,
      "ĠÙĨÙĩ": 892,
      "ĠØ²ÙħØ§ÙĨ": 893,
      "ĠÙģØ±ÙĩÙĨÚ¯": 894,
      "ĠÙĩÙĪ": 895,
      "ĠØ²ÙĨ": 896,
      "ÙĤÛĮÙĤ": 897,
      "ĠØ¨ÙĪØ¯Ùĩ": 898,
      "om": 899,
      "ĠØµÙģ": 900,
      "ĠÛ¹": 901,
      "ĠÙħØ´Ú©ÙĦ": 902,
      "ĠÚ¯ÙĦ": 903,
      "Ø¬Ø§Ø¯": 904,
      "ĠÙ¾Ø±Ø¯": 905,
      "Ø§Ø±Ø§ÙĨ": 906,
      "Ø±Ø§Øª": 907,
      "ĠØ¬Ø§Ùħ": 908,
      "Ø²Ø§ÙĨ": 909,
      "Ø´Ùĩ": 910,
      "ĠØ®Ø·": 911,
      "ĠD": 912,
      "Ġp": 913,
      "ĠÙħØ®ØªÙĦÙģ": 914,
      "ĠÙħØ³Øª": 915,
      "Ø£": 916,
      "ĠØ§ÙģØ±": 917,
      "Û¹Û": 918,
      "ĠÙĩÙħÚĨÙĨÛĮÙĨ": 919,
      "ĠÚ¯Ø±ÙĪÙĩ": 920,
      "ĠÙģØ§Ø±": 921,
      "Ø§Ø¹ÛĮ": 922,
      "Ú¯Ø±Ø¯": 923,
      "Ø¯ÙĨ": 924,
      "ĠÚ©ÙĦÛĮ": 925,
      "Ø¶ÙĪØ¹": 926,
      "Ø³ØªÛĮ": 927,
      "ĠÙħÙĦÛĮ": 928,
      "ØªÙĦ": 929,
      "Ġt": 930,
      "ĠØ¨Ø²Ø±Ú¯": 931,
      "ĠÙħØ±Ú©": 932,
      "ad": 933,
      "ĠÙĨØ´": 934,
      "ĠÙĨÙħØ§ÛĮØ´": 935,
      "Ø¶Ø§": 936,
      "ĠÚ©Ø§ÙħÙĦ": 937,
      "ĠØ´Ø¯ÙĨ": 938,
      "ĠØŃØ¶ÙĪØ±": 939,
      "Ø¯ÙĩØ¯": 940,
      "Ø±Øª": 941,
      "ĠÚ¯ÙĪØ´": 942,
      "ĠØ§ÙħØ±ÙĪØ²": 943,
      "ĠØ¯Ø§Ø±ÙĨØ¯": 944,
      "ĠØ®ÙĪØ¯Ø±ÙĪ": 945,
      "ĠØºÛĮØ±": 946,
      "ÙģÛĮ": 947,
      "ĠÚ©ÙĪØ¯": 948,
      "Ø¹ÛĮØª": 949,
      "ic": 950,
      "ĠØ§Ø·ÙĦØ§Ø¹Ø§Øª": 951,
      "ĠØªØº": 952,
      "ĠØ§Ø¹ÙĦØ§Ùħ": 953,
      "Ú¯Ø±Ø§ÙĨ": 954,
      "ĠØ§ÛĮØ¬Ø§Ø¯": 955,
      "ĠØ¯ÙĪÙĦØª": 956,
      "ĠÙħØ§ÙĨ": 957,
      "ir": 958,
      "st": 959,
      "ĠÙħØ®": 960,
      "ĠØªÙĪÙħØ§ÙĨ": 961,
      "ĠØ³Ø¨": 962,
      "ĠØ¨Ø±Ø±Ø³ÛĮ": 963,
      "ĠØªÙĤ": 964,
      "ĠØ¹Ú©Ø³": 965,
      "ĠØ¨ÙĦ": 966,
      "Ú©Ø¯": 967,
      "ĠÙħÙĪØ¶ÙĪØ¹": 968,
      "ĠÙħØ«": 969,
      "Ø²ÛĮÙĨÙĩ": 970,
      "ĠÙĨØ±Ùħ": 971,
      "Ø³Ø§ÙĨ": 972,
      "ĠØ´ÙĪØ±": 973,
      "ĠÚ©ÛĮÙģ": 974,
      "ÛĮÙĨÚ©": 975,
      "ĠØŃÙĤ": 976,
      "ĠÚ¯Ø±ÙģØª": 977,
      "Ø§ÙĩØ´": 978,
      "ĠØ¬ÙĩØª": 979,
      "ĠÙĨÛĮØ§Ø²": 980,
      "ĠÛ±Ûµ": 981,
      "ĠØ§ÙĨØªØ´Ø§Ø±": 982,
      "Ø§Ø³Ø¨": 983,
      "ĠØ¢ÙħØ±ÛĮÚ©Ø§": 984,
      "ĠØ¢ÛĮ": 985,
      "Ù¾ÛĮ": 986,
      "ÙĪØ·": 987,
      "ĠÚ©ÙĪ": 988,
      "ĠÙĤØ·": 989,
      "ĠÙĪØ§ÙĤ": 990,
      "ĠØ§Ø´Ø§Ø±Ùĩ": 991,
      "ĠB": 992,
      "ĠØ³Ù¾": 993,
      "ĠØ¯Ú©": 994,
      "Ø¨Ø§ÙĦ": 995,
      "ĠØ¯Ø±Ø¨Ø§Ø±Ùĩ": 996,
      "ĠÙĪÙĤ": 997,
      "ÚĺÛĮ": 998,
      "ĠÙ¾Ø§Ø³": 999,
      "ĠØ·Ø±Ø§ØŃÛĮ": 1000,
      "ĠÙª": 1001,
      "ĠÙħÙĦ": 1002,
      "ĠG": 1003,
      "ĠÙĩÙħÛĮÙĨ": 1004,
      "ĠÙħÙĩÙħ": 1005,
      "ĠÙħØ¯ÛĮØ±": 1006,
      "it": 1007,
      "Ø¶Ø§ÛĮ": 1008,
      "ÙĪØ²Ùĩ": 1009,
      "ĠØ±ÙĨÚ¯": 1010,
      "Ø¨ÙĪØ¯": 1011,
      "ĠÙĪØ§Ø±Ø¯": 1012,
      "ĠØ«Ø¨Øª": 1013,
      "ÙĪØ§Ø±": 1014,
      "ĠÙħØ¯ÛĮØ±ÛĮ": 1015,
      "ĠØ¨Ø¯ÙĪÙĨ": 1016,
      "ĠÙĨÙĪØ´": 1017,
      "ØªÙĪ": 1018,
      "ĠÚĨÙĩØ§Ø±": 1019,
      "am": 1020,
      "ĠØ¯Ø±ÛĮØ§": 1021,
      "Ø§Ø¦Ùĩ": 1022,
      "ĠØ¬Ø§ÛĮ": 1023,
      "ØªÙĪØ§ÙĨÛĮØ¯": 1024,
      "Ø±Ø§ÛĮØ·": 1025,
      "Ø¨ÛĮÙĨ": 1026,
      "ĠØªÙħØ§Ùħ": 1027,
      "Ø±ÙģÛĮ": 1028,
      "ÙģÙĩ": 1029,
      "ĠÙħÙĨØ·": 1030,
      "Ø´Ú©ÙĨ": 1031,
      "ĠØ§ÛĮØ±Ø§ÙĨÛĮ": 1032,
      "ĠØ¨Ø§Ø²Ø¯ÛĮØ¯": 1033,
      "ĠÚ¯Ø°Ø´ØªÙĩ": 1034,
      "ĠØ¨ÛĮØ§ÙĨ": 1035,
      "ht": 1036,
      "ÙĪØ¯ÛĮ": 1037,
      "ĠØ³ÛĮØ³ØªÙħ": 1038,
      "ĠØ§ÙģØ²ÙĪØ¯": 1039,
      "ĠØ³Ø§ÛĮ": 1040,
      "ĠÚ©Ø§ÙĩØ´": 1041,
      "ĠÙĪØ²": 1042,
      "ĠØ¯Ø§Ø®": 1043,
      "ĠØ¯Ø±ØµØ¯": 1044,
      "ĠÚ¯Ø±ÙģØªÙĩ": 1045,
      "le": 1046,
      "ĠÙĤØ¨ÙĦ": 1047,
      "Ø§Ø¨Ø·": 1048,
      "Ø§ÙģÛĮ": 1049,
      "ĠÛ±Û±": 1050,
      "ĠØªØ±Ú©": 1051,
      "ĠØ¹ÙħÙĦ": 1052,
      "ĠØ§ØµÙĦÛĮ": 1053,
      "ĠØ§Ø¬ØªÙħ": 1054,
      "ĠØ²ÙĨØ¯Ú¯ÛĮ": 1055,
      "Ø¶ÛĮ": 1056,
      "Ø±ÛĮÙĤ": 1057,
      "ĠØ§Ø±Ø§Ø¦Ùĩ": 1058,
      "ĠØºØ°": 1059,
      "ĠØ®Øµ": 1060,
      "Ú©Ø§Ø±ÛĮ": 1061,
      "ĠØ³ÙĦØ§Ùħ": 1062,
      "ĠØ´Ø±Ø§ÛĮØ·": 1063,
      "ÛĮÙħÛĮ": 1064,
      "ĠÙħØ³Ø¦": 1065,
      "ĠØ´ÛĮ": 1066,
      "ĠÙ¾Ø§Ø±": 1067,
      "ĠÙĩÛĮÚĨ": 1068,
      "ĠØ¬ÙĩØ§ÙĨ": 1069,
      "Ø§Ø«": 1070,
      "ÛĮÛĮØ±": 1071,
      "ĠØ±ÙģØª": 1072,
      "ĠÙĦÙĪ": 1073,
      "ĠØ®ÙĪØ§Ùĩ": 1074,
      "ĠÙĪÙĦÛĮ": 1075,
      "ĠØ®ØµÙĪØµ": 1076,
      "Ġ[": 1077,
      "ÙĪØ§Ø¹": 1078,
      "Ø²Ùĩ": 1079,
      "ĠØ¯ÙĪÙħ": 1080,
      "Ú¯ÛĮØ±": 1081,
      "ĠÚ©ÙħÛĮ": 1082,
      "ĠØ¢Ø³ÛĮ": 1083,
      "ĠÙĨØ´Ø§ÙĨ": 1084,
      "ĠØ§Ùĩ": 1085,
      "ĠØµÙģØŃÙĩ": 1086,
      "ĠØ¨Ø±Ø®ÛĮ": 1087,
      "he": 1088,
      "ĠØ§Ø¬ØªÙħØ§Ø¹ÛĮ": 1089,
      "Ú©ÙĪ": 1090,
      "ĠØ®Ø¯ÙħØ§Øª": 1091,
      "ĠÙħØ¯ÛĮØ±ÛĮØª": 1092,
      "ĠØ§ÙģØ±Ø§Ø¯": 1093,
      "Ø§ÙģØ²Ø§Ø±": 1094,
      "ĠH": 1095,
      "ĠÚĨÛĮ": 1096,
      "ÙĪÛĮØ³": 1097,
      "ÚĨØ³Ø¨": 1098,
      "ĠÙĩØ¯": 1099,
      "ĠR": 1100,
      "ĠÚ©Ø§ÙĦ": 1101,
      "ĠÚ©ÙħÚ©": 1102,
      "ĠØ§ÙħÚ©Ø§ÙĨ": 1103,
      "ĠØ¯Ø§Ø±Ø§ÛĮ": 1104,
      "ĠØ±Ø¦ÛĮØ³": 1105,
      "ØªØ±ÙĨ": 1106,
      "Ġs": 1107,
      "ĠÙ¾Ø²Ø´": 1108,
      "Ġm": 1109,
      "ĠÛĮØ§Ø¯": 1110,
      "ÛĮØ¯ÛĮ": 1111,
      "ĠØªØºÛĮÛĮØ±": 1112,
      "ĠÙ¾Ø§ÛĮØ§ÙĨ": 1113,
      "ĠF": 1114,
      "ĠÙħÙĨØ·ÙĤÙĩ": 1115,
      "ĠÙ¾Ø±Ø³": 1116,
      "ØµÙĦ": 1117,
      "ĠØ¨Ø±Ø¯": 1118,
      "ĠÙĤØ§Ø¨ÙĦ": 1119,
      "ĠÙĨÙĪØ¹": 1120,
      "ĠØ¢Ø±": 1121,
      "ĠØ§ÙħØ§Ùħ": 1122,
      "Ø¨Ø¹": 1123,
      "Ġw": 1124,
      "ĠÛ±Û´": 1125,
      "ĠØ¯ÙĦÛĮÙĦ": 1126,
      "ĠÚ¯ÛĮ": 1127,
      "ÙĩØ§Ø±": 1128,
      "ĠÙĨÛĮØ±ÙĪ": 1129,
      "ĠØ§ÙĤØ¯Ø§Ùħ": 1130,
      "ĠÙħÙĩØ±": 1131,
      "ĠÙĨÙģØ±": 1132,
      "ĠØªÚ©": 1133,
      "ĠÙģØ±Ø¯": 1134,
      "ÙħÙĨØ¯": 1135,
      "ĠØ§ÛĮÙĨØªØ±ÙĨ": 1136,
      "ĠÙ¾ÙĨØ¬": 1137,
      "ĠÙħÙĪØ§Ø¯": 1138,
      "ÙĪØ³Øª": 1139,
      "Ú¯ÙĪÙĨÙĩ": 1140,
      "ĠÙĪÛĮÚĺÙĩ": 1141,
      "Ø§ÙĦØ§Øª": 1142,
      "ĠÙĨØ³Ø¨Øª": 1143,
      "Ø¢Ùħ": 1144,
      "ĠÙģØ¹Ø§ÙĦÛĮØª": 1145,
      "ĠØ¨ÙĩØªØ±ÛĮÙĨ": 1146,
      "Ø¬Ø§": 1147,
      "ÙĪÛĮØª": 1148,
      "ĠØ§ÙĤØªØµØ§Ø¯ÛĮ": 1149,
      "ed": 1150,
      "ĠÛ±Û¶": 1151,
      "ÛĮØ´Ùĩ": 1152,
      "ĠÚ©ÛĮÙģÛĮØª": 1153,
      "ĠØ´Ú©": 1154,
      "Ġ+": 1155,
      "ÙħØ¹": 1156,
      "ØªØ¨Ø§Ø·": 1157,
      "Ø±ÛĮÙħ": 1158,
      "ĠÙĤØ§ÙĨ": 1159,
      "ĠÙģØ§ÛĮÙĦ": 1160,
      "ÙģÙĤ": 1161,
      "ĠØ´Ø¨Ú©Ùĩ": 1162,
      "ĠØ²ÙħÛĮÙĨÙĩ": 1163,
      "ĠØ¯Ø±ÛĮØ§ÙģØª": 1164,
      "ĠØ®Ø§ÙĨÙĩ": 1165,
      "ĠØ³Ùģ": 1166,
      "ĠØ§Ø¸": 1167,
      "ĠØ³Øª": 1168,
      "ĠØ³Ø·": 1169,
      "ĠÙħÛĮØ§ÙĨ": 1170,
      "Ø§ÙĪÙĨ": 1171,
      "lo": 1172,
      "ĠØ¢Ø®": 1173,
      "ĠØ¹ÙħÙĪÙħÛĮ": 1174,
      "ĠØ±Ø³ÛĮØ¯": 1175,
      "Û²Û°": 1176,
      "Ø®ÙĪØ§Ùĩ": 1177,
      "ĠØªÙĪØ§ÙĨ": 1178,
      "ĠØ³ÙĨ": 1179,
      "ĠØŃÙĪØ²Ùĩ": 1180,
      "ĠØ¨Ø±Ú¯Ø²Ø§Ø±": 1181,
      "ĠÙħØ¬ÙĦØ³": 1182,
      "ĠÚĺ": 1183,
      "ĠØ´ÙĪØ±Ø§ÛĮ": 1184,
      "ĠØ§ÙĨÙĪØ§Ø¹": 1185,
      "ĠÙģÙĤ": 1186,
      "ÙħØ±": 1187,
      "ĠÛ±Û³Û¹Û¸": 1188,
      "ĠÙ¾Ø§Ø³Ø®": 1189,
      "Ø±Ø®": 1190,
      "ĠØªÙĪØ³Ø¹Ùĩ": 1191,
      "Ø¯Ø§Ø´Øª": 1192,
      "ĠÙĩÙģØªÙĩ": 1193,
      "ÙħÙĪÙĨ": 1194,
      "ĠI": 1195,
      "ÙĪØ§Ø±Ùĩ": 1196,
      "Ø´ÙĪÙĨØ¯": 1197,
      "ÙĩÙĨ": 1198,
      "ĠØ¯ÙĪØ±Ùĩ": 1199,
      "as": 1200,
      "Ø§Ø¨Ø±": 1201,
      "ĠØ§Ø±ØªØ¨Ø§Ø·": 1202,
      "ĠØ§Ø¸ÙĩØ§Ø±": 1203,
      "Ø¨Ø§Ø³": 1204,
      "Ø®ØµØµ": 1205,
      "ĠØ¨Ø§ÙĨÚ©": 1206,
      "ĠÙĪØ¨": 1207,
      "ÙĤØ§ÛĮ": 1208,
      "ĠÛ±Û¸": 1209,
      "ĠØ¬Ø§ÙĨ": 1210,
      "ĠØªÙģ": 1211,
      "re": 1212,
      "Ø§ÙħÛĮÙĨ": 1213,
      "ĠØ§Ø±Ø¯": 1214,
      "Ø¬ÙħÙĩ": 1215,
      "ĠÚ©ÙĨÛĮÙħ": 1216,
      "ĠÙ¾ÙĦ": 1217,
      "ĠØ¬ÙĪØ§ÙĨ": 1218,
      "Ø±ÙģÙĩ": 1219,
      "ĠE": 1220,
      "ĠL": 1221,
      "ĠÚ©Ø§ÙĨ": 1222,
      "Ø§Ø¨Øª": 1223,
      "ro": 1224,
      "ĠÙħÙĨØ§Ø³Ø¨": 1225,
      "ĠØ§Ø«": 1226,
      "Ø§Ø´ÛĮÙĨ": 1227,
      "ĠØ¨Ø§Ø¹": 1228,
      "ĠÙĦÛĮÙĨÚ©": 1229,
      "Ø¯Ø§Ø±ÛĮ": 1230,
      "ĠØ´ÙĩØ±Ø³ØªØ§ÙĨ": 1231,
      "ĠØµØ¯": 1232,
      "ĠÙħØµØ±Ùģ": 1233,
      "ÙħØ§": 1234,
      "Ø§ÙĦÙĦÙĩ": 1235,
      "ĠØ´ÙĩØ±ÛĮ": 1236,
      "ĠØ´Ø±": 1237,
      "ĠØ¨Ø§Ø¹Ø«": 1238,
      "ÙĦØ§ÛĮÙĨ": 1239,
      "ĠØµØŃ": 1240,
      "Ø®Ø´": 1241,
      "ĠØ¨Ø§ÙĦØ§": 1242,
      "is": 1243,
      "ĠØ¯ÙĨÛĮ": 1244,
      "Ø³Ø±": 1245,
      "ĠØ¢ÙĦ": 1246,
      "ÙĨØ§ÙĨ": 1247,
      "ĠØ®ÙĪØ´": 1248,
      "Ø§Ø®ØªÙĩ": 1249,
      "ĠØ§Ø³ØªØ®": 1250,
      "ĠÙĪØ²Ø§Ø±": 1251,
      "ĠØ¬Ø²": 1252,
      "ĠØ§ÙĨÚ¯": 1253,
      "ØªÙĨ": 1254,
      "ØªØ§ÙĨ": 1255,
      "ĠØ§Ø®Ø¨Ø§Ø±": 1256,
      "ĠÙĪØ²Ø§Ø±Øª": 1257,
      "ĠØ±Ø§ÛĮÚ¯Ø§ÙĨ": 1258,
      "Ø§ÛĮØ¹": 1259,
      "Ø¨Ø±Ø§ÙĨ": 1260,
      "ĠÙĤØ³": 1261,
      "ĠÙģÙĪ": 1262,
      "Ø§ÙĩØ¯Ùĩ": 1263,
      "Ø´ÙĨØ§Ø³": 1264,
      "ĠÙĨÙĤÙĦ": 1265,
      "ĠÙģØ±ÙĩÙĨÚ¯ÛĮ": 1266,
      "Ø®ÙĪØ±Ø¯": 1267,
      "ĠÛ±Û³Û¹Ûµ": 1268,
      "ĠÛ±Û³Û¹Û·": 1269,
      "ĠÙħÛĮÙĦÛĮÙĪÙĨ": 1270,
      "ĠØªÙĨÙĩØ§": 1271,
      "ĠØ²ÛĮØ§Ø¯ÛĮ": 1272,
      "ĠN": 1273,
      "ĠØ§ÙĨÙĤÙĦ": 1274,
      "ĠÙħØ´Ø®Øµ": 1275,
      "ĠØ®Ø±Ø¯": 1276,
      "âĢ¦âĢ¦": 1277,
      "ĠÙħØ§ÙĦÛĮ": 1278,
      "ĠØ¹Ø¶": 1279,
      "ÙĨÙħØ§ÛĮ": 1280,
      "ĠØ®Ø§ÙĨÙĪ": 1281,
      "ÙĦØ§ØŃ": 1282,
      "ĠÚ©Ø±": 1283,
      "ĠÛ³Û°": 1284,
      "ĠØ³Ø±ÙħØ§ÛĮ": 1285,
      "Ø¨Ø§Ø²": 1286,
      "ØªÙĪØ±": 1287,
      "Ú¯Ø²Ø§Ø±ÛĮ": 1288,
      "ĠÙħØŃØµÙĪÙĦØ§Øª": 1289,
      "ĠÙĨØ®": 1290,
      "ĠÛ±Û·": 1291,
      "ĠÙħØªÙĨ": 1292,
      "ĠÙĨÙĪØ±": 1293,
      "Ú©ÙĨÙĨØ¯Ùĩ": 1294,
      "Ø¬ÙĩÛĮØ²": 1295,
      "ĠÙħÙħ": 1296,
      "ĠÙĨÙģØª": 1297,
      "ĠØŃØ¬": 1298,
      "ĠÚ©Ø§Ùħ": 1299,
      "ĠØ®ÛĮÙĦÛĮ": 1300,
      "Ø§ÙĩÛĮ": 1301,
      "ĠØ¬ÙĩØ§ÙĨÛĮ": 1302,
      "ion": 1303,
      "ĠÙħØ±Ú©Ø²": 1304,
      "ing": 1305,
      "ÙħÙĪØ¹Ùĩ": 1306,
      "Ø¨Ø§ÙĨÛĮ": 1307,
      "ĠÙ¾Ø±ÙĪÚĺÙĩ": 1308,
      "tp": 1309,
      "ĠØ§ÙģØª": 1310,
      "ĠÙĩÙħØ§ÙĨ": 1311,
      "ĠØ®Ø§Ø·": 1312,
      "Ø¯ÙĪ": 1313,
      "ÙħØŃ": 1314,
      "ÙĦØ§Øª": 1315,
      "ĠÙħØ§Ø´ÛĮÙĨ": 1316,
      "Ø·Ø±": 1317,
      "Ø¨ÙĨØ¯ÛĮ": 1318,
      "ĠØ¬ÙĪ": 1319,
      "ĠÚ©Ø³Ø¨": 1320,
      "ĠÙĨØµ": 1321,
      "ĠØ³Ø§Ùħ": 1322,
      "Ġf": 1323,
      "ĠØ³Ø·ØŃ": 1324,
      "ĠØ§Ø¨Øª": 1325,
      "ÙĪÙ¾": 1326,
      "ĠÚ¯ÙĪØ´ÛĮ": 1327,
      "ĠÙ¾Ø±Ø¯Ø§Ø®Øª": 1328,
      "ĠØªØ®": 1329,
      "ĠÙĪØ§ØŃ": 1330,
      "ĠØŃØªÛĮ": 1331,
      "Ø²Ø¯": 1332,
      "ĠØ³Ø®": 1333,
      "http": 1334,
      "ou": 1335,
      "ĠÛ²Ûµ": 1336,
      "ĠÙĩØ²ÛĮÙĨÙĩ": 1337,
      "ĠØ³Ø±ÙħØ§ÛĮÙĩ": 1338,
      "Ø§Ø¨ÙĤ": 1339,
      "ÛĮØ·": 1340,
      "ÛĮØ¯Ø§": 1341,
      "ĠØªØ¹Ø¯Ø§Ø¯": 1342,
      "ĠÙĨÙħÙĪØ¯": 1343,
      "ĠØ¨Ø§Ø´ÛĮØ¯": 1344,
      "Ø§ÙĦÙħÙĦ": 1345,
      "ĠØ§Ø¶": 1346,
      "ĠØ¢Ø°": 1347,
      "ĠØ´Ø®Øµ": 1348,
      "ĠÛ±Û³": 1349,
      "ĠØ·Ø±ÛĮÙĤ": 1350,
      "ÛĮØ±Ùĩ": 1351,
      "ĠØ§Ø±Ø³Ø§ÙĦ": 1352,
      "ĠØ¹ÙĦÙħÛĮ": 1353,
      "ĠØ²Ø¨Ø§ÙĨ": 1354,
      "ĠÙħÚ©": 1355,
      "ĠÙħØ§ÙĨÙĨØ¯": 1356,
      "ĠØ§Ø³Ø§Ø³": 1357,
      "ĠØ³ÛĮÙĨ": 1358,
      "ĠÙħÛĮØ²Ø§ÙĨ": 1359,
      "ĠÚ©Ø±Ø¯ÙĨØ¯": 1360,
      "ÙĦÛĮØª": 1361,
      "ĠÛ°Û°Û°": 1362,
      "ØªÙĪØ§ÙĨÙĨØ¯": 1363,
      "ĠÛ±Û³Û¹Û¶": 1364,
      "ĠØ¬Ø§ÙħØ¹Ùĩ": 1365,
      "ĠØ¨ÛĮÙħØ§Ø±ÛĮ": 1366,
      "Ø§ÙģÙĩ": 1367,
      "ÙĨØ§Ùħ": 1368,
      "et": 1369,
      "Ø±ÙĪØ³": 1370,
      "ĠÙħØ´Ø§ÙĩØ¯Ùĩ": 1371,
      "ĠØ§Ú©": 1372,
      "ĠØªØ£": 1373,
      "ØºØ§Ø²": 1374,
      "ĠØ·Ø¨": 1375,
      "ĠØ¯Ø±ÙħØ§ÙĨ": 1376,
      "ĠÙ¾ÛĮØ§Ùħ": 1377,
      "ĠÙħØ³ØªÙĤ": 1378,
      "Ø§ÙĦØª": 1379,
      "Ø§Ø¸": 1380,
      "ÙĪØ²ÛĮ": 1381,
      "ĠÙĪØ±Ø²Ø´": 1382,
      "ĠW": 1383,
      "ac": 1384,
      "Û±Û³Û": 1385,
      "ĠÙħØ¹Ø±ÙģÛĮ": 1386,
      "ĠÚ©Ø¯": 1387,
      "ĠÙĨØ¯Ø§Ø±Ø¯": 1388,
      "Ú¯ÛĮØ±Ø¯": 1389,
      "ĠØ¢Ø²Ø§Ø¯": 1390,
      "ĠÙĤØ³ÙħØª": 1391,
      "ÙĨØ¯Ú¯Ø§ÙĨ": 1392,
      "ĠØ®Ø§Øµ": 1393,
      "ĠØ¨ØŃ": 1394,
      "ĠØªØ¬ÙĩÛĮØ²": 1395,
      "Ġd": 1396,
      "Ġb": 1397,
      "ĠØ´ÙĪ": 1398,
      "Ú©ÛĮØ¯": 1399,
      "ĠÙĩØ¯Ùģ": 1400,
      "ew": 1401,
      "ØªÙĤ": 1402,
      "ĠÙħÙĪÙģÙĤ": 1403,
      "ĠÙħØ±Ø¨": 1404,
      "ĠÙħÙĤØ§ÙĦÙĩ": 1405,
      "ĠØ¨Ø³ÛĮØ§Ø±ÛĮ": 1406,
      "ĠÙħØ·ÙĦØ¨": 1407,
      "Ø¬ÙĪÛĮ": 1408,
      "ĠÙĪØ¶": 1409,
      "ĠØªØŃÙĤÛĮÙĤ": 1410,
      "ĠÚ¯ÙģØªÙĩ": 1411,
      "ĠÙģÙĤØ·": 1412,
      "ĠØªÙĦØ§Ø´": 1413,
      "Ú¯Ø§ÙĩÛĮ": 1414,
      "ĠØ®Ø§ÙĨÙĪØ§Ø¯Ùĩ": 1415,
      "ĠÙĪØ§ØŃØ¯": 1416,
      "ĠÛ²Û´": 1417,
      "ĠÙħØŃÙħØ¯": 1418,
      "ĠÛ²Û²": 1419,
      "Ø°ÛĮØ±": 1420,
      "Ø³Ø§ÙĨÛĮ": 1421,
      "Ø´ÙĨØ§Ø³ÛĮ": 1422,
      "ĠØŃÙģ": 1423,
      "ĠØ§ÙĨÙĤÙĦØ§Ø¨": 1424,
      "ĠÙĪØ§ÙĤØ¹": 1425,
      "ĠØªÙĩÛĮÙĩ": 1426,
      "ĠØŃÙħ": 1427,
      "Ġir": 1428,
      "ĠØ®ÙĪØ¨": 1429,
      "ĠÙĪØ§": 1430,
      "ĠÙħÙħÚ©ÙĨ": 1431,
      "ØªØ¨Ø§ÙĦ": 1432,
      "Ø¹ØªÛĮ": 1433,
      "Ø§Ø¨Ø¹": 1434,
      "Ø±ÙĪÛĮØ¯": 1435,
      "ĠØ·Ø¨ÛĮ": 1436,
      "ĠÙģØ§Ø±Ø³ÛĮ": 1437,
      "ĠØ±ÙĤ": 1438,
      "ĠØ³Ø±ÛĮØ§ÙĦ": 1439,
      "ĠÙħØ±Ø¨ÙĪØ·": 1440,
      "ĠÙħØ¹Ùħ": 1441,
      "ĠÙĤØ¯Ø±": 1442,
      "ĠØ®Ø¨Ø±ÛĮ": 1443,
      "ĠØµÙĨØ¹Øª": 1444,
      "ĠØ®ÙĦ": 1445,
      "ĠÙĦØ§Ø²Ùħ": 1446,
      "ĠÙ¾Úĺ": 1447,
      "ĠÙ¾ÛĮØ¯Ø§": 1448,
      "ĠÙģÙĦ": 1449,
      "ĠÚ¯ÙĪ": 1450,
      "ØµØ±": 1451,
      "Ú©ÙĨÙĪÙĨ": 1452,
      "ĠØ¬ÙĨÚ¯": 1453,
      "ĠØ±Ùĩ": 1454,
      "ĠØ§Ø¬Ø±Ø§ÛĮ": 1455,
      "ĠØ¬ÙħÙĦÙĩ": 1456,
      "ĠÙħÙĪØ¬ÙĪØ¯": 1457,
      "Ø«Ø±": 1458,
      "ØªØ´Ø±": 1459,
      "Ø±ÛĮØŃ": 1460,
      "Ø§ÙĪØª": 1461,
      "ĠÙħØ´Ú©ÙĦØ§Øª": 1462,
      "il": 1463,
      "ÙĩÙħ": 1464,
      "ĠÙģØ±ÙĪ": 1465,
      "ĠØ²ÛĮØ¨": 1466,
      "ĠÙħØ¬ÙħÙĪØ¹Ùĩ": 1467,
      "ÙĪØ±Ø´": 1468,
      "ĠØ³ÙĪÛĮ": 1469,
      "Ġcom": 1470,
      "Ø¨Ø¯": 1471,
      "ĠØ±Ø´ØªÙĩ": 1472,
      "ĠØ§Ù¾": 1473,
      "Ø®Ùĩ": 1474,
      "ĠØ¢ØºØ§Ø²": 1475,
      "Ø§ÙĪÛĮØ±": 1476,
      "ĠØ¢ÙĨÙĦØ§ÛĮÙĨ": 1477,
      "ĠÙħØ·Ø§ÙĦ": 1478,
      "Ø±Ø¨Ùĩ": 1479,
      "ĠÙ¾Ø²Ø´Ú©ÛĮ": 1480,
      "--": 1481,
      "Ø³Ø§ÛĮØª": 1482,
      "Ġv": 1483,
      "ĠØ§ÙĨØªÙĤ": 1484,
      "Ø§Ø³Ùħ": 1485,
      "ĠØ§ÙħÙĪØ±": 1486,
      "ĠØŃÙħØ§ÛĮ": 1487,
      "ÙĦÛĮØº": 1488,
      "ĠØ³ÛĮØ§Ø³ÛĮ": 1489,
      "Ø±Ø¯Ùĩ": 1490,
      "Ø¨Ø±ÚĨØ³Ø¨": 1491,
      "Ø§Ø´ÛĮ": 1492,
      "ĠÙ¾ÙĦÛĮ": 1493,
      "ĠÙĤØ¨": 1494,
      "ĠØŃÚ©": 1495,
      "ĠÙħÙĪØ¨": 1496,
      "ĠØ·ÙĪÙĦ": 1497,
      "ĠØ¨ÙĪØ¯ÙĨ": 1498,
      "Ú©ÛĮÙĦ": 1499,
      "ĠØ´Ú©ÙĦ": 1500,
      "ĠØ¨Ø±ÙĤ": 1501,
      "ĠØ§ÙħÛĮØ¯": 1502,
      "ĠØ·ÙĪØ±": 1503,
      "Ø³Ø§Ø²": 1504,
      "ĠØ¬ÙĦØ³": 1505,
      "ĠÙħØŃÛĮØ·": 1506,
      "ĠØ§ÙĦØ¨": 1507,
      "Ø±Ø¨ÛĮ": 1508,
      "ĠÙĪØ²ÛĮØ±": 1509,
      "ĠØªØ¬ÙĩÛĮØ²Ø§Øª": 1510,
      "ĠØ®Ø§Ø±Ø¬ÛĮ": 1511,
      "ĠØ¢ÛĮÙĨØ¯Ùĩ": 1512,
      "ĠØ´Ø¹": 1513,
      "ĠØ¨Ø§Ø´ÙĨØ¯": 1514,
      "ĠÙħØ³ØªÙĤÛĮÙħ": 1515,
      "ØªØ±ÙĦ": 1516,
      "ĠÙħÙĨØªØ´Ø±": 1517,
      "el": 1518,
      "Ø§ÛĮØ¬": 1519,
      "Ø³ÙĨ": 1520,
      "ÙĪÙĦÙĩ": 1521,
      "ĠØ¯Ùģ": 1522,
      "Ú¯Ø°Ø§Ø±ÛĮ": 1523,
      "ĠÚ©Ø§ÙĦØ§": 1524,
      "ĠØŃØ³Ø§Ø¨": 1525,
      "Ø²Ø¯ÛĮ": 1526,
      "ĠÙģÙĪØªØ¨Ø§ÙĦ": 1527,
      "ĠØ·ÛĮ": 1528,
      "ĠØ¢ÙħÙĪØ²Ø´ÛĮ": 1529,
      "ÙĤØª": 1530,
      "Ø§ÛĮÙĩ": 1531,
      "ĠØ¬Ø´ÙĨ": 1532,
      "Ø§Ú¯": 1533,
      "ØªÙĪÙĨ": 1534,
      "ĠÙĤØ¯": 1535,
      "ĠØŃØ¯ÙĪØ¯": 1536,
      "Ø¢ÙĨ": 1537,
      "ĠÙĨÙĤØ´": 1538,
      "Ø§Ú¯Ø±": 1539,
      "ĠÙĨÙģ": 1540,
      "Ø¶Ùĩ": 1541,
      "ĠÙħØŃÙĦ": 1542,
      "ĠÙħØ¯Øª": 1543,
      "ĠÙ¾ÙĪØ´": 1544,
      "ĠØ¨Ø¯ÙĨ": 1545,
      "ĠØ®ÙĪØ¨ÛĮ": 1546,
      "ĠØ³ÙĦØ§ÙħØª": 1547,
      "ÙħÛĮÙĦ": 1548,
      "ĠØ¯Ú©ØªØ±": 1549,
      "ĠØ¯Ø§Ø®ÙĦÛĮ": 1550,
      "ÙĦÛĮÙĩ": 1551,
      "ĠØªÙĦÙģ": 1552,
      "ÙħØ§ÛĮÛĮ": 1553,
      "Ø·ÙĪØ±": 1554,
      "ØªØ§Ø±ÛĮØ®": 1555,
      "ĠØ¯ÙĨ": 1556,
      "ÙĪÛĮØ±": 1557,
      "Ø±ÙĨ": 1558,
      "ĠÙĤØ§ÙĨÙĪÙĨ": 1559,
      "ĠØ®Ø¨Ø±ÙĨÚ¯": 1560,
      "ĠÙĨÛĮÙħ": 1561,
      "Ú¯ÙĪÛĮ": 1562,
      "ĠØ´ÙħØ§Ø±Ùĩ": 1563,
      "Ø§Ø¶ÛĮ": 1564,
      "ĠÙħÙĪØ¨Ø§ÛĮÙĦ": 1565,
      "ĠÛ±Û¹": 1566,
      "ĠÙģÛĮ": 1567,
      "ØªÛĮØ¬Ùĩ": 1568,
      "ĠØ¨ÙĩØ±Ùĩ": 1569,
      "ĠÚ©ÙĨØ§Ø±": 1570,
      "ÙħÛĮØ±": 1571,
      "ĠÙħÙĨØ¸": 1572,
      "ĠØ§ÙĪÙĦÛĮÙĨ": 1573,
      "ĠØªÛĮ": 1574,
      "ĠØ¬ÙħÙĩ": 1575,
      "Ú©ÙĨÛĮÙħ": 1576,
      "ÙħÛĮØª": 1577,
      "ĠØªØ¨ÙĦÛĮØº": 1578,
      "ĠÙħØ°": 1579,
      "id": 1580,
      "ĠÙĩÙħÚ©Ø§Ø±ÛĮ": 1581,
      "ĠØµÙĨØ¹ØªÛĮ": 1582,
      "ĠÙħØ³Ø¦ÙĪÙĦ": 1583,
      "Ø§ÙĪÛĮ": 1584,
      "ĠØ¨Ø±Ø§Ø¨Ø±": 1585,
      "Ø±ÛĮÙģ": 1586,
      "ĠØ¯ÙĤÛĮ": 1587,
      "Ø±ÛĮØ§ÙĨ": 1588,
      "ĠÚĨØ´Ùħ": 1589,
      "Ú¯ÙĦ": 1590,
      "ĠØ³Ø§ÛĮØ±": 1591,
      "ĠØ±Ø³Ø§ÙĨÙĩ": 1592,
      "ĠÙĦÙĪØ§Ø²Ùħ": 1593,
      "ĠØŃÙħØ§ÛĮØª": 1594,
      "ĠØ¸Ø±Ùģ": 1595,
      "Ø²ÙĨ": 1596,
      "Ø§ÛĮÙħ": 1597,
      "Ø³ÙĦ": 1598,
      "ĠÙ¾ÚĺÙĪÙĩ": 1599,
      "ÙħÛĮÙħ": 1600,
      "ĠØŃØ§Ø¶": 1601,
      "Ø¨ÛĮØ±": 1602,
      "ĠÙģØ¶Ø§ÛĮ": 1603,
      "Ø¯ÙĪØ¯": 1604,
      "ĠÚ©ÙĨØªØ±ÙĦ": 1605,
      "ĠØ§ÙĦØ¨ØªÙĩ": 1606,
      "ĠØ³ÙģØ±": 1607,
      "ĠÚĨØ±Ø§": 1608,
      "Ø§ÙħÙ¾": 1609,
      "ĠØ§Ø«Ø±": 1610,
      "ag": 1611,
      "Ú©Ø´": 1612,
      "ĠØ§ÙĨØ¯Ø±ÙĪÛĮØ¯": 1613,
      "ĠØ¬Ø°": 1614,
      "ĠØ±Ø´Ø¯": 1615,
      "ĠØ¢Ø®Ø±ÛĮÙĨ": 1616,
      "Ø§ÙĦÙħÙĦÙĦÛĮ": 1617,
      "Û±Û°": 1618,
      "ĠÚ©ÙĪÚĨ": 1619,
      "ĠØ¨Ø³ØªÙĩ": 1620,
      "ĠØ¬ÙħÙĩÙĪØ±ÛĮ": 1621,
      "ĠÙħÙĩÙĨØ¯": 1622,
      "ĠØ¹ÙĦÙĪÙħ": 1623,
      "ĠØŃÙĦ": 1624,
      "Ø§ÙģØª": 1625,
      "ĠÚ¯Ø±Ø¯Ø´": 1626,
      "ĠØ§Ø³ØªØ§ÙĨØ¯": 1627,
      "ent": 1628,
      "ĠÙĨØ³Ø®Ùĩ": 1629,
      "ĠÚ©ÙĪØ¯Ú©": 1630,
      "ÙĪØ§ÙĨÛĮ": 1631,
      "Ø§ÙĨØª": 1632,
      "ĠÙħÛĮÙĦÛĮØ§Ø±Ø¯": 1633,
      "ĠØ´Ø§ÙħÙĦ": 1634,
      "ĠØ±ÙĪØŃ": 1635,
      "ĠØµØ§Ø¯Ø±": 1636,
      "ĠØ´ÙĩØ±Ø¯": 1637,
      "ĠÙĨØ®Ø³Øª": 1638,
      "ÙĦÙħ": 1639,
      "ĠÙ¾Ø§ÛĮÚ¯Ø§Ùĩ": 1640,
      "ĠØŃÙĤÙĪÙĤ": 1641,
      "of": 1642,
      "ĠØ¯ÙĤÛĮÙĤÙĩ": 1643,
      "ĠØ¯ÙĪØ³Øª": 1644,
      "!!": 1645,
      "ĠØ¯ÙĨØ¨Ø§ÙĦ": 1646,
      "ot": 1647,
      "Ø§ÙĪÙĩ": 1648,
      "Ø¬ÙĪ": 1649,
      "ĠÙħØ¹Ø§ÙĪÙĨ": 1650,
      "Ġn": 1651,
      "ĠØ¹Ø§ÙĦÛĮ": 1652,
      "ĠØªÙħØ§Ø³": 1653,
      "ĠÙģØµÙĦ": 1654,
      "ĠØŃØ§Ø¶Ø±": 1655,
      "ĠØªÛĮØ±": 1656,
      "ØµÙĩ": 1657,
      "ĠÙĤØ·Ø¹": 1658,
      "Ø±ÙĪØ¹": 1659,
      "Ø±ÙĪØ±ÛĮ": 1660,
      "ĠØ±ÙĪØ³Øª": 1661,
      "ĠØ²ÙħØ§ÙĨÛĮ": 1662,
      "ÙħØ§Ùĩ": 1663,
      "and": 1664,
      "Ø§Ø±Ø³": 1665,
      "ĠÙĨØªÛĮØ¬Ùĩ": 1666,
      "ĠØ¹ÙħÙĦÛĮ": 1667,
      "..": 1668,
      "ĠÚĨÙĪÙĨ": 1669,
      "ĠØ¨Ø±Ø®ÙĪØ±Ø¯": 1670,
      "ĠØ§ÙĤØªØµØ§Ø¯": 1671,
      "ĠØ´ÛĮØ±": 1672,
      "ĠÛ²Û°Û°": 1673,
      "ĠØ§ÛĮÙĨØªØ±ÙĨØªÛĮ": 1674,
      "ĠÛĮÙĩ": 1675,
      "ow": 1676,
      "ĠÙĨÙĪØ´ØªÙĩ": 1677,
      "Ø®ÙĪØ§Ø³Øª": 1678,
      "Ø¯ÛĮÙĦ": 1679,
      "ĠÙħØ¨": 1680,
      "Ø´ØªÛĮ": 1681,
      "ĠØ§Ø¶Ø§ÙģÙĩ": 1682,
      "Ù¾Ø±Ø³": 1683,
      "ĠÙ¾ÙĪØ³Øª": 1684,
      "ĠØ®Ø±": 1685,
      "ĠÙģÙĨØ§": 1686,
      "ĠÙĦØ¨Ø§Ø³": 1687,
      "ÛĮÙĨÚ¯": 1688,
      "ĠÙĨÚ¯Ùĩ": 1689,
      "ĠØ§Ø®ÛĮØ±": 1690,
      "Ø§Ø³ØªØ§ÙĨ": 1691,
      "Ø§Ø³ÛĮÙĪÙĨ": 1692,
      "ĠÚ¯Ø³Øª": 1693,
      "ĠØ®Ø¨Ø±Ú¯Ø²Ø§Ø±ÛĮ": 1694,
      "ĠØ§Ø±Ø²Ø´": 1695,
      "ĠÙĪØ¶Ø¹ÛĮØª": 1696,
      "Ú¯Ø°Ø§Ø±": 1697,
      "us": 1698,
      "ĠØªØ§Ø¨": 1699,
      "ĠÙĨØµØ¨": 1700,
      "Ø²Ø´ÛĮ": 1701,
      "ÛĮØ¨": 1702,
      "ol": 1703,
      "ĠØ§ÙĨØªØ¸": 1704,
      "ĠØ±Ùģ": 1705,
      "ĠÚ©ÙĨÙĨØ¯Ùĩ": 1706,
      "ĠÙħØº": 1707,
      "ĠÙħØ¹Ø¯ÙĨ": 1708,
      "ĠØ³Ø§Ø®ØªÙħØ§ÙĨ": 1709,
      "ÙĪÛĮÙĨ": 1710,
      "ĠÚ©Ø§Ø±Ø¨Ø±Ø§ÙĨ": 1711,
      "ĠÚ©ÙĪØª": 1712,
      "Û±Û³Û¹Û": 1713,
      "ĠØ§ÙħÙĨ": 1714,
      "ĠØ§Ø±ÙĪÙ¾": 1715,
      "Ø§ÙĪÙħ": 1716,
      "ÙĨØ´": 1717,
      "ĠØ¯Ø³ØªÙĩ": 1718,
      "ĠØ³ÛĮÙħ": 1719,
      "Ø§Ø«ÛĮØ±": 1720,
      "Ø±ØŃ": 1721,
      "ĠØ·Ø±Ùģ": 1722,
      "ĠØ®ÙĪØ§ÙĨ": 1723,
      "Ø¢ÙħÙĪØ²": 1724,
      "ĠØªØ®ØµØµ": 1725,
      "Ø¶ÛĮØŃ": 1726,
      "Ø±Ø§ÙĨÛĮ": 1727,
      "ĠØ¢ÙħØ§Ø¯Ùĩ": 1728,
      "ÙģØ§ÙĤ": 1729,
      "ĠØ´Ø¯ÙĨØ¯": 1730,
      "ĠÙĨØ¸Ø§Ùħ": 1731,
      "ĠØ²ÛĮØ¨Ø§": 1732,
      "ĠÚ©Ø§Ø±ÛĮ": 1733,
      "ĠØ¯ÛĮÚ¯Ø±ÛĮ": 1734,
      "ĠÙĩÙĪØ´": 1735,
      "ĠØªØ§Ú©ÛĮØ¯": 1736,
      "ĠÙħØ´Ùĩ": 1737,
      "ĠÚ©ÛĮÙĦ": 1738,
      "ĠÙ¾ÛĮØ´ÙĨÙĩ": 1739,
      "ĠØ¨ÙĩØªØ±": 1740,
      "ĠÙħÙĪØ§Ø±Ø¯": 1741,
      "Ù¾Ø±": 1742,
      "ĠØªØŃØª": 1743,
      "ĠØ¢ÙĤØ§ÛĮ": 1744,
      "ĠÙħØ±ØŃ": 1745,
      "âĢı": 1746,
      "ĠÚ©Ø§Ø±Ø¨Ø±Ø¯": 1747,
      "ĠÙĤØ§ÙĦØ¨": 1748,
      "ĠK": 1749,
      "Ú©ÙĨÛĮØ¯": 1750,
      "ĠÚ©Ø±ÙĪ": 1751,
      "Ø´Ú©": 1752,
      "ÚĨÛĮ": 1753,
      "Ø§Ø¡": 1754,
      "Ø¹ÙĨÛĮ": 1755,
      "ĠØ¬ÙĦØ³Ùĩ": 1756,
      "ĠØ±ÙĪØ§Ø¨Ø·": 1757,
      "ĠÙĨØ¯Ø§Ø±": 1758,
      "ĠÙħÙĨØ§Ø¨Ø¹": 1759,
      "ĠÙĨÚ©": 1760,
      "ĠÛ²Û±": 1761,
      "ec": 1762,
      "ĠÙģÙĨØ§ÙĪØ±ÛĮ": 1763,
      "ĠÛ±Û³Û¹Û´": 1764,
      "ĠØ±Ø¶": 1765,
      "Ø§ØªØ±": 1766,
      "ÙĪØªØ±": 1767,
      "ĠØ¯ÙĦØ§Ø±": 1768,
      "ĠÙħÙģ": 1769,
      "Ø§ÙĩÙħ": 1770,
      "ĠÙħØ´ØªØ±ÛĮ": 1771,
      "ĠÙħØ´Ø§ÙĪØ±": 1772,
      "ĠØ§Ø¨Ø²Ø§Ø±": 1773,
      "ĠØ¨ÙĪØ¯ÙĨØ¯": 1774,
      "Ø¬Ø±": 1775,
      "ĠØ¯ÙĨÛĮØ§": 1776,
      "ĠØ³ÙĪÙħ": 1777,
      "ĠÙĩÙĨÚ¯": 1778,
      "ĠØ¢ÙĪØ±Ø¯": 1779,
      "ĠÛ°Û²": 1780,
      "ĠØ´Ø±ÙĪØ¹": 1781,
      "ĠÛ²Û³": 1782,
      "ĠÙĤØ§Ø¨": 1783,
      "ĠÙĨØ²Ø¯ÛĮ": 1784,
      "ĠO": 1785,
      "Ø¨Ø±Ø§ÛĮ": 1786,
      "ÙĨÙĪÛĮØ³": 1787,
      "ØºØ§ÙĦ": 1788,
      "ĠÙĪÙĤØªÛĮ": 1789,
      "ĠØ§Ø³Ù¾": 1790,
      "ĠØ¹Ø²ÛĮ": 1791,
      "ÙĨØ¸": 1792,
      "ĠØ¨Ø§Ø²ÛĮÚ©ÙĨ": 1793,
      "ĠØªÙĪØ±": 1794,
      "ĠØ¬ÙĦÙĪ": 1795,
      "ay": 1796,
      "ĠØ§ØŃØªÙħ": 1797,
      "ĠØ±Ø§Ø³Øª": 1798,
      "ĠØ¢Ø²ÙħÙĪÙĨ": 1799,
      "ÙħÙ¾": 1800,
      "ĠÚ©ÙĪØ¯Ú©Ø§ÙĨ": 1801,
      "ĠØ¹Ø¯": 1802,
      "Ø§ÙģØ¸": 1803,
      "Ġa": 1804,
      "ĠÛ²Û¶": 1805,
      "Ø±ÙĪÛĮ": 1806,
      "ĠÙĪØ±ÙĪØ¯": 1807,
      "ĠØ§ØªÙģØ§ÙĤ": 1808,
      "ĠØªØµÙħÛĮÙħ": 1809,
      "Ø¢ÙĪØ±ÛĮ": 1810,
      "ĠÙģØ±ÙĪØ´Ú¯Ø§Ùĩ": 1811,
      "ĠØªÙħØ§ÙħÛĮ": 1812,
      "ĠØªØ§Ø«ÛĮØ±": 1813,
      "Ø¬Ø¨": 1814,
      "ÙħØ§ÛĮØ´": 1815,
      "ĠØªØ¨Ø¯ÛĮÙĦ": 1816,
      "ĠØªØ§ÙħÛĮÙĨ": 1817,
      "ĠØ¹ÙħÙĦÚ©Ø±Ø¯": 1818,
      "ĠÚ¯Ø±Ùħ": 1819,
      "ÙħØ´": 1820,
      "ÙĪÙĦÙĪ": 1821,
      "ĠØ¯Ø®": 1822,
      "Ø¸ÛĮÙħ": 1823,
      "ĠÙħØ¨Ø§Ø±": 1824,
      "Ø±ÙĪÙĨÛĮ": 1825,
      "ĠØ³ÛĮØ§Ø³Øª": 1826,
      "ÂŃ": 1827,
      "Ø§ÙĨØ³": 1828,
      "Ú¯Ø§Ø±": 1829,
      "ĠÙģÙĨÛĮ": 1830,
      "Ø¢ÙħØ¯": 1831,
      "Ø±ÚĺÛĮ": 1832,
      "Ø¹Ú©Ø³": 1833,
      "ww": 1834,
      "ĠØ§Ø³ØªÙĤÙĦ": 1835,
      "ĠØ¯ÙĩÛĮØ¯": 1836,
      "ĠÙħØ±Ø§Ø¬": 1837,
      "Ø§Ø³Ùĩ": 1838,
      "ĠÙĨØ¨ÙĪØ¯": 1839,
      "ĠÚ©Ø§Ø±Øª": 1840,
      "ĠØ¹Ø±Ø¶Ùĩ": 1841,
      "Ú©ÙĨÙħ": 1842,
      "ØºØ§ÙĨ": 1843,
      "ĠÛ°Û¹": 1844,
      "ĠÙ¾ÙĨ": 1845,
      "ĠØ´ÙĩÛĮØ¯": 1846,
      "ĠØŃØ±ÙģÙĩ": 1847,
      "ĠÛĮØ¹ÙĨÛĮ": 1848,
      "Ø±Ø³Ø§ÙĨÛĮ": 1849,
      "Ú¯Ø§ÙĨÛĮ": 1850,
      "ĠØ§ÙĨØªØ®Ø§Ø¨Ø§Øª": 1851,
      "ĠØªØµÙĪÛĮ": 1852,
      "ĠÛ±Û¹Û": 1853,
      "ĠØ¨ÛĮÙħØ§Ø±": 1854,
      "Ø³ÙĦØ§Ùħ": 1855,
      "ØªØ§": 1856,
      "ÙĨÚ¯ÛĮ": 1857,
      "ĠØ¨Ø§Ø´Ú¯Ø§Ùĩ": 1858,
      "im": 1859,
      "ĠØ¯ÛĮØ¯Ø§Ø±": 1860,
      "ĠØ§ÙĨØ³Ø§ÙĨ": 1861,
      "ĠÙĨÛĮÙĪØ²": 1862,
      "ĠØ¨Ø±Ú¯Ø²Ø§Ø±ÛĮ": 1863,
      "ĠØ§ÙĦÚ©Øª": 1864,
      "Ø¦ÛĮ": 1865,
      "ĠÙħØ«ÙĦ": 1866,
      "ØªØŃ": 1867,
      "Ø±ÙĪØ¯": 1868,
      "ĠØ§ÙĨØ¯Ø§Ø²Ùĩ": 1869,
      "Ù¾ÙĪÙĦÛĮ": 1870,
      "Ø¯ÙĩÙĨØ¯": 1871,
      "Ø§ÙĦØ¹": 1872,
      "Ø§Ø³ØªÛĮ": 1873,
      "Ú¯ÙĩÛĮ": 1874,
      "ĠÙĨØª": 1875,
      "ĠÚ©Ø§ÙħÙ¾ÛĮ": 1876,
      "ÙĪØ¨ÛĮ": 1877,
      "ĠØªØ¨Ø±ÛĮ": 1878,
      "ĠØªØ´Ú©ÛĮÙĦ": 1879,
      "ĠÙĨÙħÙĪÙĨÙĩ": 1880,
      "ÙģÙĨØ¯": 1881,
      "Ù¾Ø±Ø¯": 1882,
      "ĠØ§Ø¯Ø§Ø±Ùĩ": 1883,
      "ĠØ²ÙĨØ§ÙĨ": 1884,
      "ĠØªØŃØµ": 1885,
      "ĠØªÙĪØ¶ÛĮØŃ": 1886,
      "ĠØ§ÙĨÚ¯ÙĦÛĮ": 1887,
      "âĢİ": 1888,
      "ĠÙģØ±Ø²": 1889,
      "Ø«Ø§Ø±": 1890,
      "ĠÙĨØ´Ø³Øª": 1891,
      "Ø¨ÙĪØ±": 1892,
      "ÛĮØ¯ÙĨ": 1893,
      "ĠØ¶Ø¯": 1894,
      "ĠØ¬ÙħØ¹": 1895,
      "ĠØ¹ÙĦÛĮÙĩ": 1896,
      "Ø²Ø§ÛĮ": 1897,
      "ĠÙ¾Ø§Ú©": 1898,
      "ĠØ·Ø¨ÛĮØ¹ÛĮ": 1899,
      "Ø¨ÙĩØ´Øª": 1900,
      "ĠØ§ØµÙģÙĩ": 1901,
      "ĠØªØµØ§ÙĪÛĮØ±": 1902,
      "ĠØ¯ÛĮØ¯Ú¯Ø§Ùĩ": 1903,
      "Ø³ÛĮÙĪÙĨ": 1904,
      "ĠØ³Ø±ÙĪ": 1905,
      "ĠÙħØ±Ú©Ø²ÛĮ": 1906,
      "ĠÙĦØŃ": 1907,
      "ig": 1908,
      "Ø§Ø¨Ùĩ": 1909,
      "ÙħØ¯ÛĮ": 1910,
      "ĠØºØ°Ø§ÛĮÛĮ": 1911,
      "ĠØ³Ø¹": 1912,
      "Ø®ØµÙĪØµ": 1913,
      "ĠØ§Ø³ØªÙĤÙĦØ§ÙĦ": 1914,
      "ĠÚ©ÙĪØªØ§Ùĩ": 1915,
      "ĠÙħÙĤØ§Ùħ": 1916,
      "ĠÛ²Û·": 1917,
      "ĠØ¢Ø´": 1918,
      "ĠØ±Ø§ØŃ": 1919,
      "ĠÚ©Ùģ": 1920,
      "ĠØ¹ÙĪ": 1921,
      "ĠØ¯Ø§Ø¯ÙĨ": 1922,
      "ĠØ¨ÙĨØ¯": 1923,
      "Ø¨ØŃ": 1924,
      "ĠØ¬Ø´ÙĨÙĪØ§Ø±Ùĩ": 1925,
      "Ø®ÙĪØ§ÙĩØ¯": 1926,
      ".Â»": 1927,
      "ÚĺÚ¯ÛĮ": 1928,
      "ĠØŃÛĮ": 1929,
      "Ø±ÙĪÙĨ": 1930,
      "ÛĮØ¨ÙĩØ´Øª": 1931,
      "ĠV": 1932,
      "ab": 1933,
      "ĠØŃØ§ÙĦÛĮ": 1934,
      "ĠÙģÙĪÙĤ": 1935,
      "ĠÚĨÛĮÙĨ": 1936,
      "ĠØµÙĨØ§ÛĮØ¹": 1937,
      "ÙģØ§": 1938,
      "ĠØ¨ÙĩÙħÙĨ": 1939,
      "ĠÙħØ±ØªØ¨": 1940,
      "ĠØ³ÙĦ": 1941,
      "ĠØ¯Ø§Ø±ÛĮÙħ": 1942,
      "Û±Û²": 1943,
      "ĠØ®ÙĪÙĨ": 1944,
      "ĠÙħØ·Ø§ÙĦØ¨": 1945,
      "Ú©ÙĪØ±": 1946,
      "ĠÙħÙĪØ³": 1947,
      "ĠÛµÛ°": 1948,
      "Ø¤": 1949,
      "ĠØªØ®ØµØµÛĮ": 1950,
      "Ø±Ø§ÙĨÙĩ": 1951,
      "ĠÚ©ÛĮ": 1952,
      "ĠØ±Ø§Ø¨Ø·": 1953,
      "Ø±Ø§ÛĮÛĮ": 1954,
      "ĠØ¯Ø§Ø®ÙĦ": 1955,
      "ĠÚ©ÙĪÚĨÚ©": 1956,
      "ĠÙħØ±ØŃÙĦÙĩ": 1957,
      ")ØĮ": 1958,
      "ĠÚ©Ø³ÛĮ": 1959,
      "ĠÛ°Û¸": 1960,
      "ĠÚ©Ø´Ø§ÙĪØ±": 1961,
      "ĠØ¹Ø±Ø§ÙĤ": 1962,
      "ĠÙĪÙĦ": 1963,
      "ĠÙħÙĤØ§Ø¨ÙĦ": 1964,
      "ĠÙħÙĨØª": 1965,
      "ĠØ´ÙĩØ±Ø¯Ø§Ø±ÛĮ": 1966,
      "ĠØ¸Ø±ÙģÛĮØª": 1967,
      "ĠÙĩÙĨØ±": 1968,
      "ĠÛ°Û±": 1969,
      "ĠÙģØ±Ùħ": 1970,
      "ĠÙħØªØ±": 1971,
      "Ø·Ùĩ": 1972,
      "ĠÙħÛĮÙĦ": 1973,
      "ĠÙģØ´Ø§Ø±": 1974,
      "ĠØ®ÙĪØ§Ø¨": 1975,
      "ĠÛ°Û´": 1976,
      "ĠØ¯ÙĩØ¯": 1977,
      "ĠØ§ÙħÙĨÛĮØª": 1978,
      "ĠÙģØ±ÙħØ§ÙĨ": 1979,
      "ĠÙħØ±Ø§Ø³Ùħ": 1980,
      "Ø§Ø·ÙĤ": 1981,
      "ĠØ¹Ø¶ÙĪ": 1982,
      "ĠØ³Ø±Ø¯": 1983,
      "ĠØ®Ø§Ø±Ø¬": 1984,
      "ĠÛ²Û¸": 1985,
      "ĠØ§ÙĨØ±ÚĺÛĮ": 1986,
      "ĠÙħÙĤØ§ÙĪÙħ": 1987,
      "ĠÙģÚ©Ø±": 1988,
      "ĠÙĩØªÙĦ": 1989,
      "ĠØ¹Ø¯Ùħ": 1990,
      "ĠÙ¾Ø±Ø³Ù¾ÙĪÙĦÛĮ": 1991,
      "ĠÚĨÙĨÛĮÙĨ": 1992,
      "ÙħØ§ÙĦ": 1993,
      "ĠÚ©Ø´ÙĪØ±ÙĩØ§ÛĮ": 1994,
      "ÙĩÛĮ": 1995,
      "Ø±Ø§ÛĮÙĨ": 1996,
      "ews": 1997,
      "ĠU": 1998,
      "Ø±Ø³Ø¯": 1999,
      "ĠÙĪØ±Ø²Ø´ÛĮ": 2000,
      "ØªØ¹": 2001,
      "Ø³Ùħ": 2002,
      "ĠÙħØŃØ¯ÙĪØ¯": 2003,
      "ĠÙ¾ÛĮØ´Ø±": 2004,
      "em": 2005,
      "Ġof": 2006,
      "ĠØ§Ø®ØªÛĮ": 2007,
      "ĠØ¨ÛĮÙħÙĩ": 2008,
      "ĠØ§Ø±Ø¯ÛĮØ¨ÙĩØ´Øª": 2009,
      "ĠÙħÙĪØ³ÛĮ": 2010,
      "ĠØ¨ÙĩØ¯Ø§Ø´Øª": 2011,
      "ĠØ®Ø±Ø¯Ø§Ø¯": 2012,
      "Ø¯Ø§ÛĮ": 2013,
      "ĠÙħÙĨØ¸ÙĪØ±": 2014,
      "ĠÙĤØ¯Ø±Øª": 2015,
      "ĠÙ¾ÙĪÙĦ": 2016,
      "ĠØ¬Ø±ÛĮØ§ÙĨ": 2017,
      "Ø³ÛĮÙĩ": 2018,
      "ĠØªØµÙĪÛĮØ±": 2019,
      "ĠØ¢Ø´ÙĨ": 2020,
      "ĠØ±ÙĪØ§ÙĨ": 2021,
      "Ø§Ø¯Øª": 2022,
      "Ø¬Ùħ": 2023,
      "ĠØ³Ø±Ø¹Øª": 2024,
      "ÙĪØ±ÛĮÙĩ": 2025,
      "ĠÙĩÙģØª": 2026,
      "ĠØ¨Ø´": 2027,
      "ÙģØ±ÙĪØ´": 2028,
      "ĠÙĦÛĮÚ¯": 2029,
      "ĠÙĩÙĨÙĪØ²": 2030,
      "ĠØ§ØµÙģÙĩØ§ÙĨ": 2031,
      "ĠØ´ÙĩØ±ÛĮÙĪØ±": 2032,
      "Ø¢Ø¨": 2033,
      "Ø¬ÙĪÛĮØ§ÙĨ": 2034,
      "ĠØ§Ø±Ø²": 2035,
      "ĠØ±Ùħ": 2036,
      "Ø¨Ø±Ø¯Ø§Ø±ÛĮ": 2037,
      "Ø§Ø¨ÙĤÙĩ": 2038,
      "ĠÙħØ³ÛĮØ±": 2039,
      "ĠØ·ÙĦ": 2040,
      "Ø±ÙĪÙģ": 2041,
      "ĠÛĮØ§ÙģØª": 2042,
      "ÙĪÙĦØ§": 2043,
      "iv": 2044,
      "ÙĪÚ©": 2045,
      "ĠØ§ØªØ§ÙĤ": 2046,
      "ĠÙģÙĪÙĦ": 2047,
      "Ø±ÛĮØ²ÛĮ": 2048,
      "ÛĮÛĮÙĨ": 2049,
      "ĠØ¯Ø¹": 2050,
      "Ø¬ÙħÙĩÙĪØ±": 2051,
      "ĠÙħÙĨØ§Ø·ÙĤ": 2052,
      "ĠØŃØ³ÛĮÙĨ": 2053,
      "ĠØŃÙħÙĦ": 2054,
      "ĠØ´ÙĪÙĨØ¯": 2055,
      "ĠØªÚ©ÙĨ": 2056,
      "ĠØ²ÛĮØ§Ø¯": 2057,
      "ÛĮØ¯Ø§ÙĨ": 2058,
      "ĠÙħÛĮØ²": 2059,
      "ĠØ¯Ø³ØªÙĪØ±": 2060,
      "ĠÛ°Û·": 2061,
      "ĠØ¢Ú¯ÙĩÛĮ": 2062,
      "ĠØ¶ÙħÙĨ": 2063,
      "ĠÙĤØ§Ø¨ÙĦÛĮØª": 2064,
      "ĠØ§ÙĪÙĨ": 2065,
      "ĠÙ¾ÛĮØ´ÙĨÙĩØ§Ø¯": 2066,
      "ĠØ¢ÛĮØ§": 2067,
      "ĠØªØ³": 2068,
      "Ø²ÙĦ": 2069,
      "ĠØªØ¬Ø±Ø¨Ùĩ": 2070,
      "ĠÙħØªÙģ": 2071,
      "ĠÛ±Û³Û¸": 2072,
      "ĠØ¢Ù¾": 2073,
      "ĠØ§ÙĨØ¬": 2074,
      "oo": 2075,
      "ĠÙħØªØ¹": 2076,
      "ĠØ¢Ø¨Ø§ÙĨ": 2077,
      "ĠÙħØ·Ø±ØŃ": 2078,
      "ĠÛ±Û°Û°": 2079,
      "ĠÙħØ·Ø§ÙĦØ¹Ùĩ": 2080,
      "ĠØªÙĦÙģÙĨ": 2081,
      "ÙĦÛĮÚ©": 2082,
      "Ø¨Ø§Øª": 2083,
      "ĠÚ©Ø§ÙħÙ¾ÛĮÙĪØªØ±": 2084,
      "ĠØ¹ÙĦØ§ÙĪÙĩ": 2085,
      "ÙģØªØ±": 2086,
      "ĠØ±Ø³ÙħÛĮ": 2087,
      "ĠØ¯ÙĪØ±Ø¨ÛĮÙĨ": 2088,
      "ĠÙ¾Ø±Ø³Ù¾ÙĪÙĦÛĮØ³": 2089,
      "Ú¯Ø±Ø¯Ø¯": 2090,
      "ĠØ¯Ø§Ùħ": 2091,
      "ĠÛ°Ûµ": 2092,
      "ĠÙĨØ²Ø¯ÛĮÚ©": 2093,
      "ĠÙĪØ³": 2094,
      "ĠØ³ÙħØª": 2095,
      "ĠØ¬Ø±": 2096,
      "Ú¯ÙĪÛĮØ¯": 2097,
      "Ø³ÙĪÙĨ": 2098,
      "ÛĮØ´ÙĨ": 2099,
      "Ø±ÙħØ²": 2100,
      "ĠÙĪÛĮÚĺÚ¯ÛĮ": 2101,
      "ĠØ±Ø§Ø¨Ø·Ùĩ": 2102,
      "ĠØ§Ø®ØªÛĮØ§Ø±": 2103,
      "Ġin": 2104,
      "ĠÙ¾Ø°ÛĮØ±": 2105,
      "ĠØ¢Ø°Ø±": 2106,
      "ĠØ³Ø§Ø®ØªÙĩ": 2107,
      "ĠØ³ÙĪØ¯": 2108,
      "ĠØ§ØµÙĦØ§ØŃ": 2109,
      "ÙĪØ´ÙĨ": 2110,
      "Ø§Ø¦ÙĦ": 2111,
      "ĠØ®Ø§Ø·Ø±": 2112,
      "ĠÙ¾Ø®Ø´": 2113,
      "Ø§Ø¯Ø«": 2114,
      "Ø¹Ø§ÙħÙĦ": 2115,
      "ĠØ¨ÙĨÛĮ": 2116,
      "un": 2117,
      "Ø³ÛĮÙħ": 2118,
      "Û³Û°": 2119,
      "Ø§ÙĩØ§ÛĮ": 2120,
      "ĠØ³Ø§ÙĦÙĩ": 2121,
      "ĠØ§ÙĨØªÙĤØ§ÙĦ": 2122,
      "ĠÙħÙĩÙĨØ¯Ø³ÛĮ": 2123,
      "ĠØ§ÙĦÚ©ØªØ±ÙĪÙĨÛĮ": 2124,
      "Ø±Ø§Ø±": 2125,
      "ĠÛ´Û°": 2126,
      "Ø²ÙħØ§ÙĨ": 2127,
      "ĠØªØ¹ÛĮÛĮÙĨ": 2128,
      "ĠÚ©Ø§Ø±Ø®Ø§ÙĨÙĩ": 2129,
      "ĠÚ¯Ø§Ø²": 2130,
      "ĠØ³Ø§Ø¯Ùĩ": 2131,
      "ĠØ¬ÙħØ¹Ùĩ": 2132,
      "ĠØ§ØŃØªÙħØ§ÙĦ": 2133,
      "ĠÙħØ³ÙĦ": 2134,
      "ĠÙĤÙĩØ±": 2135,
      "Ùª": 2136,
      "ÙĪÛĮØ²ÛĮ": 2137,
      "Ø¹ÙĦÛĮ": 2138,
      "ĠØŃÙģØ¸": 2139,
      "ĠÙ¾Ø§ÛĮÙĩ": 2140,
      "ĠÙ¾Ø³Øª": 2141,
      "ĠÚ©Ø§ÙħÙĦØ§": 2142,
      "ĠÚĨÛĮØ³Øª": 2143,
      "Ġ>": 2144,
      "Ø±ÛĮÙĩ": 2145,
      "ĠÙħØ±Ø§Ø¬Ø¹Ùĩ": 2146,
      "Ø§Ø¯Ú¯ÛĮ": 2147,
      "ĠÙħÙĪØªÙĪØ±": 2148,
      "ĠØ®ØµÙĪØµÛĮ": 2149,
      "ĠÙħØ±ØªØ¨Ø·": 2150,
      "ĠÙĨØ¨": 2151,
      "ĠÙĨÙħØ§ÛĮÛĮØ¯": 2152,
      "ĠÛ²Û°Û±Û·": 2153,
      "ĠÙĪÙĤØª": 2154,
      "ÙĪØ§": 2155,
      "Ø¦ÙĪ": 2156,
      "ĠÛ¹Ûµ": 2157,
      "Û±Ûµ": 2158,
      "Ø¹Ùģ": 2159,
      "ĠØ¯Ø±Ø³Øª": 2160,
      "ĠØ¨ÛĮØ´ØªØ±ÛĮ": 2161,
      "Ø¬Ø§ÙĨ": 2162,
      "ĠÙĤØ¶": 2163,
      "ĠÛ°Û³": 2164,
      "Ø§ÙĨØ¯Ø§Ø²ÛĮ": 2165,
      "ĠÚ©Ø§Ø±Ø´ÙĨØ§Ø³": 2166,
      "ÛµÛ°": 2167,
      "ĠØ§Ø±Ø´Ø¯": 2168,
      "ĠÙĨØŃ": 2169,
      "Ø§Ú©ÛĮ": 2170,
      "ĠØ§Ø¬Ø±Ø§": 2171,
      "ĠÙ¾Ø±ÙĪØ±Ø´": 2172,
      "Ø§Ø¨Ø§ÙĨ": 2173,
      "ĠØ¹ÙĦØ§ÙĤ": 2174,
      "Â»ØĮ": 2175,
      "ĠØ§ÛĮÙĨØ¬Ø§": 2176,
      "ĠØ¨Ø³Øª": 2177,
      "ĠØ´ÙĨØ§Ø³": 2178,
      "ĠÚĨØ§Ù¾": 2179,
      "ĠÙĩØ³ØªÛĮÙħ": 2180,
      "ĠÛ°Û¶": 2181,
      "ÙĤØ¯Ø±": 2182,
      "Ø±Ø¯ÛĮÙĨ": 2183,
      "ĠØ§Ø®ØªØµ": 2184,
      "ĠÛ²Û°Û±Û¶": 2185,
      "ĠÙ¾Ø§ÛĮÛĮÙĨ": 2186,
      "ÙĪÙĦÙĪÚĺÛĮ": 2187,
      "ĠØŃØ°": 2188,
      "ch": 2189,
      "ĠÙħØ±Ø¯Ø§Ø¯": 2190,
      "ĠØµØ¨ØŃ": 2191,
      "ĠØªØ±Ú©ÛĮÙĩ": 2192,
      "Ø®Ø±ÛĮØ¯": 2193,
      "ĠØ´Ø§ÛĮØ¯": 2194,
      "ĠØ§Ø³ÙģÙĨØ¯": 2195,
      "ÙĪÛĮÙĩ": 2196,
      "ĠØ§ØŃØ³": 2197,
      "Ø³ÛĮÙĨ": 2198,
      "Ø¯ÛĮÙĨ": 2199,
      "ĠÙĨÚ¯Ø§Ùĩ": 2200,
      "ĠØ¯Ø±ÛĮ": 2201,
      "Ġwww": 2202,
      "ĠØ¨Ø±ØªØ±": 2203,
      "ĠØ¯Ø´": 2204,
      "ĠØŃØ±Ú©Øª": 2205,
      "Ø¨ÛĮÙĨÛĮ": 2206,
      "ĠØ´Ø§Ø®": 2207,
      "ĠÙĨØ´Ø¯Ùĩ": 2208,
      "Ø²Ø§Ø¯Ùĩ": 2209,
      "ĠØŃØ§ÙĦØª": 2210,
      "Ø§Ø´ÙĤ": 2211,
      "ĠÚĨÚ¯ÙĪÙĨÙĩ": 2212,
      "Û±Û´": 2213,
      "ĠÚ©ÙĦÛĮÚ©": 2214,
      "ÙħÛĮÙĨÛĮ": 2215,
      "ĠØ¯Ø§Ø±ÛĮØ¯": 2216,
      "ĠØ§ÙĨØ¬ÙħÙĨ": 2217,
      "ĠÙģØ±Ø§": 2218,
      "Ø§ÙģÙĤ": 2219,
      "ĠØ§Ø®ØªÙĦ": 2220,
      "ĠÚĨÛĮØ²ÛĮ": 2221,
      "Ø±Ø§Ø¬": 2222,
      "ÙħÙĤ": 2223,
      "Ø¢ÛĮ": 2224,
      "ĠÚ¯Ø±Ø¯Ø´Ú¯Ø±ÛĮ": 2225,
      "ÙĤÙĤ": 2226,
      "Ø§Ø¨Ø±Ø§ÛĮÙĨ": 2227,
      "ĠÚ©Ø´Ø§ÙĪØ±Ø²ÛĮ": 2228,
      "ĠÙĩÙĨØ¯": 2229,
      "Ø¯ÙĩÛĮ": 2230,
      "ĠØ§Ø¹ØªØ¨": 2231,
      "ur": 2232,
      "ĠØ¹ÙĤ": 2233,
      "ĠØªÙĨØ¸ÛĮÙħ": 2234,
      "ĠÙħØ´ÙĩØ¯": 2235,
      "ÙĪØ±ØªÛĮ": 2236,
      "ĠØŃØ¶Ø±Øª": 2237,
      "ĠØ³ÛĮØ¯": 2238,
      "ÛĮÙĦÛĮ": 2239,
      "ĠÙĩÙħÛĮØ´Ùĩ": 2240,
      "ĠØªÙĪØµ": 2241,
      "ĠÙĨÙħØ§ÛĮØ´Ú¯Ø§Ùĩ": 2242,
      "ĠØ³Ø®Øª": 2243,
      "ĠØ²ÛĮØ¨Ø§ÛĮÛĮ": 2244,
      "ĠÙħÙĪØ³ÛĮÙĤÛĮ": 2245,
      "ĠØªØ§ÛĮ": 2246,
      "ÙĪØ±Ø§ÙĨ": 2247,
      "ĠÚ©ÙħØªØ±": 2248,
      "ĠØ±Úĺ": 2249,
      "ĠÙĤØ±Ø§Ø±Ø¯": 2250,
      "ĠØ³Ø±ÛĮØ¹": 2251,
      "Ú¯ÛĮÙĨ": 2252,
      "ĠØ§ÙģØºØ§ÙĨ": 2253,
      "Ø²ÛĮÙĨ": 2254,
      "ĠØªÙĦÙĪÛĮØ²ÛĮ": 2255,
      "Ø§Ø±Ø§Øª": 2256,
      "ĠÙ¾ÚĺÙĪÙĩØ´": 2257,
      "ĠØ§Ø®ØªØµØ§Øµ": 2258,
      "ĠÙĨÚ©Ø±Ø¯": 2259,
      "Ø¢ÙĦØ§Øª": 2260,
      "ĠØªØ§Ø²Ùĩ": 2261,
      "ĠÛ¹Û¶": 2262,
      "ĠØ¯Ø§Ø³ØªØ§ÙĨ": 2263,
      "Ø¨Ø§Ø²ÛĮ": 2264,
      "ĠØ§Ø¹Ø¶Ø§ÛĮ": 2265,
      "ØµÙĪØ±Øª": 2266,
      "ĠØ¯Ø§Ø±ÙĪ": 2267,
      "ĠÙĨØ±Ø®": 2268,
      "ĠØ§Ø±ÙĪÙ¾Ø§": 2269,
      "Ø±Ø¶Ø§": 2270,
      "ĠØ³Ù¾Ø³": 2271,
      "ĠØ¬ÙĦ": 2272,
      "ĠØ³Ø±Ø§Ø³": 2273,
      "ĠÙģØ±ÙĪØ±Ø¯ÛĮÙĨ": 2274,
      "Ú¯ÙģØª": 2275,
      "Û±Û¶": 2276,
      "ĠÙģØ±Ø§ÙĩÙħ": 2277,
      "Ø®ÛĮØµ": 2278,
      "Ø¨Ø§Ø²Ø¯ÛĮØ¯": 2279,
      "ĠØ±ÙĪÙĨØ¯": 2280,
      "ĠØ§Ø¬Ø±Ø§ÛĮÛĮ": 2281,
      "ĠØ¯Ø±Ø®ÙĪØ§Ø³Øª": 2282,
      "Ø§Ø¯ÙĦ": 2283,
      "ĠØ·ÙĦØ§": 2284,
      "load": 2285,
      "ut": 2286,
      "ĠÛ±Û±Û": 2287,
      "ĠØ¢ÙħØ¯Ùĩ": 2288,
      "Ø±ÙĪØ²ÛĮ": 2289,
      "ĠJ": 2290,
      "ĠØ´Ø®ØµÛĮ": 2291,
      "ĠÙħÙĪÙĤ": 2292,
      "ĠÙĦØ°": 2293,
      "ÙĤÛĮÙħØª": 2294,
      "ĠÙħØ³Ú©ÙĨ": 2295,
      "ĠØ³Ø±ÙĪÛĮØ³": 2296,
      "ĠØ®Ø¨Ø±ÙĨÚ¯Ø§Ø±": 2297,
      "ĠÙĪØ±Ø¯": 2298,
      "ĠØ§ÙĩÙħÛĮØª": 2299,
      "ØªÛĮØ§Ø²": 2300,
      "ĠÛ¹Û¸": 2301,
      "ĠÚ©Ø§ÙģÛĮ": 2302,
      "Ø§ØµÙĦÙĩ": 2303,
      "ĠÙħÙĪØ¬Ø¨": 2304,
      "ap": 2305,
      "ĠØ¢Ø³ÛĮØ¨": 2306,
      "âĢ¦âĢ¦âĢ¦âĢ¦": 2307,
      "ÙĨÙĪØ´": 2308,
      "ĠØ¯ÙģØªØ±": 2309,
      "ĠÚ¯Ø²ÛĮÙĨÙĩ": 2310,
      "ĠØ¯ÙģØ§Ø¹": 2311,
      "ĠØ§ÛĮÙĨØªØ±ÙĨØª": 2312,
      "ĠÙĪØŃ": 2313,
      "op": 2314,
      "ĠØ¯Ø±Ø¯": 2315,
      "ĠÚ©ÙĨÙħ": 2316,
      "ĠØ¨Ø±ÙĪØ²": 2317,
      "ĠÙĨÙĪÛĮØ³": 2318,
      "ĠØ¨ÙĦÚ©Ùĩ": 2319,
      "ĠÙĩÙĨÚ¯Ø§Ùħ": 2320,
      "ĠØ§ÛĮØ±": 2321,
      "Ġthe": 2322,
      "ĠÙģØ±Ø§ÙĨ": 2323,
      "ĠØ§ÙĩØ¯": 2324,
      "ĠØ¹ÙĦØª": 2325,
      "ĠÙĨÛĮØ±ÙĪÛĮ": 2326,
      "ĠÛ¹Û·": 2327,
      "Ø³ØªØ§ÙĨÛĮ": 2328,
      "ÙĪØªÛĮ": 2329,
      "ÛĮÙĦØ§Øª": 2330,
      "ĠØªØŃØ±ÛĮÙħ": 2331,
      "ĠØ±ÙĪØ³ÛĮÙĩ": 2332,
      "ÚĨØ§Ø±": 2333,
      "ĠØ´Ø§ÙĩØ¯": 2334,
      "Û±Û¸": 2335,
      "ĠØ¯ÙĤÛĮÙĤ": 2336,
      "ĠØ§ÙħØ³Ø§ÙĦ": 2337,
      "ĠÙħØ§ÙĦ": 2338,
      "ĠØ¬Ø¯": 2339,
      "ĠØµÙĨØ¯": 2340,
      "ĠÙħØ±Ø§Ú©": 2341,
      "ĠØ®Ø§Ú©": 2342,
      "ĠØ¨ØŃØ«": 2343,
      "Ø¯ÙĩÙħ": 2344,
      "ĠØªØ¹ÙħÛĮØ±": 2345,
      "Ø±Ø¦ÛĮØ³": 2346,
      "Ġh": 2347,
      "ĠÙħØ§Ø¯Ø±": 2348,
      "Ø±Ø´": 2349,
      "ÙĪØ´ÙĨØ¨Ùĩ": 2350,
      "ĠØ³ÙĪØ±ÛĮÙĩ": 2351,
      "ĠÛ²Û¹": 2352,
      "ÙĪØ±Ø³": 2353,
      "Ø§ØµÙĦ": 2354,
      "ĠÙĩÙĪØ´ÙħÙĨØ¯": 2355,
      "Ġ#": 2356,
      "Ø§ÙĩØ§": 2357,
      "ĠØ¢Ø¨ÛĮ": 2358,
      "ĠÙģØ±Øµ": 2359,
      "ĠØ§Ø³ØªØ§ÙĨØ¯Ø§Ø±Ø¯": 2360,
      "ĠØ®Ø§ÙĨÙħ": 2361,
      "Ġg": 2362,
      "ĠÙĨÙħØ§ÛĮÙĨØ¯Ùĩ": 2363,
      "ĠØ¹Ø±Ø¨": 2364,
      "Ø§Ø¨ÙĤØ§Øª": 2365,
      "ĠØ§ÙħØ±": 2366,
      "ĠØ¨ÙĦÙĨØ¯": 2367,
      "ĠÙĨÛĮØ±ÙĪÙĩØ§ÛĮ": 2368,
      "ĠÙħØ¬Ø§Ø²ÛĮ": 2369,
      "Ġhttp": 2370,
      "ĠØ®Ø¯ÙħØª": 2371,
      "ĠÚ¯ÛĮØ§Ùĩ": 2372,
      "ĠÚ©Ø±ÙĪÙĨØ§": 2373,
      "ĠØ®ÙĪØ§ÙĩÙĨØ¯": 2374,
      "Ø§Ø±Ú©": 2375,
      "Ø¨ÛĮØª": 2376,
      "ĠØ¢Ø«Ø§Ø±": 2377,
      "ĠØ³Ø§Ø²ÛĮ": 2378,
      "ĠØ´Ø§Ùĩ": 2379,
      "ĠÛ²Û°Û±Û¸": 2380,
      "Ø§Ø¨Ø¯": 2381,
      "ĠØªØŃÙĦÛĮÙĦ": 2382,
      "ĠØ¬ÙĦÙĪÚ¯ÛĮØ±ÛĮ": 2383,
      "Ø§ÙĤÙĦ": 2384,
      "ĠØ¨ÙĨØ§Ø¨Ø±Ø§ÛĮÙĨ": 2385,
      "ĠØ¯Ø®ØªØ±": 2386,
      "ĠØªØµØ±ÛĮØŃ": 2387,
      "ĠÙħÙĦØª": 2388,
      "ĠØŃØ°Ùģ": 2389,
      "Ø·Ø§ÙĨ": 2390,
      "ĠÙģØ§Ø±Ø³": 2391,
      "ĠØ¹Ø²ÛĮØ²": 2392,
      "Ø§Ø³Ø§ÙĨ": 2393,
      "ĠÚ¯Ø±ÙģØªÙĨ": 2394,
      "Ø³ÙĨÚ¯": 2395,
      "ĠÙ¾Ø´ØªÛĮ": 2396,
      "ĠÙĨØ¬": 2397,
      "ĠØ®Ø¯Ø§": 2398,
      "Ø§ØŃÙĦ": 2399,
      "ĠØ§ØŃØ³Ø§Ø³": 2400,
      "ĠÙħØ¨Øª": 2401,
      "Û±Û·": 2402,
      "ĠØ±ÚĺÛĮÙħ": 2403,
      "ĠÙĦØ·": 2404,
      "ĠØ§Ø±Ø²ÛĮ": 2405,
      "ĠØªØ¬Ø§Ø±Øª": 2406,
      "ĠØ³Ø¨Ú©": 2407,
      "ĠÚ©Ø±ÙħØ§ÙĨ": 2408,
      "Ø¢ÙĪØ±Ø¯": 2409,
      "ĠØŃØ¬Ùħ": 2410,
      "ĠØ§ÙĪÙĦÛĮÙĩ": 2411,
      "ĠØªØ¬Ø§Ø±ÛĮ": 2412,
      "Ø§Ø±Ø´": 2413,
      "ĠØ´Ú©Ø³Øª": 2414,
      "ĠØ¢Ø²ÙħØ§ÛĮØ´": 2415,
      "ĠØ®Ø§ÙĨÚ¯ÛĮ": 2416,
      "ÙĪÚ¯Ø±": 2417,
      "ĠÙĨØªØ§ÛĮØ¬": 2418,
      "ĠÙĪØ§ÙĦ": 2419,
      "ĠÙ¾Ø´Øª": 2420,
      "ĠÙħØ¯ÛĮØ±Ø§ÙĨ": 2421,
      "Ø±ÛĮØ¨": 2422,
      "Ú©ÙĨØ´": 2423,
      "ĠØ±ÙĪØ´ÙĨ": 2424,
      "ĠØ§ÙĨØ³Ø§ÙĨÛĮ": 2425,
      "ĠÚ¯Ø°Ø§Ø±ÛĮ": 2426,
      "ĠÙħÙĨØ§Ø³": 2427,
      "Ù¾Ø±Ø¯Ø§Ø²": 2428,
      "ÙĦØª": 2429,
      "ĠÙħØ´ØªØ±": 2430,
      "ĠØ¯Ø§ÙĨØ´Ø¬ÙĪÛĮØ§ÙĨ": 2431,
      "ĠØ±ÙĪØŃØ§ÙĨÛĮ": 2432,
      "od": 2433,
      "Ø®Ø¨Ø±": 2434,
      "ĠØ®ÙĪØ±Ø¯": 2435,
      "Ø´ÙĩØ±": 2436,
      "Ú©Ø³ÛĮ": 2437,
      "ĠÚ©ÙħÛĮØ³ÛĮÙĪÙĨ": 2438,
      "ĠÙħØ±Ø§Ú©Ø²": 2439,
      "ĠØªØ±Ø§ÙħÙ¾": 2440,
      "ĠÙĤÙĦ": 2441,
      "ĠØ§ÙħØªÛĮØ§Ø²": 2442,
      "ĠÚ©Ø±Ø¯Ùħ": 2443,
      "ØŁØŁ": 2444,
      "ĠØ¯Ø§Ø´ØªÙĨ": 2445,
      "ĠØ±Ø¶Ø§": 2446,
      "ĠÛ±Û³Û¹Û³": 2447,
      "ĠØ¬Ø§Ø±ÛĮ": 2448,
      "Ø§ÙĨÛĮÙĩ": 2449,
      "ĠÛ³Û²": 2450,
      "Ù¾Ø³": 2451,
      "ĠØ³Ø®ÙĨ": 2452,
      "ĠØ¹ÙħÙĦÛĮØ§Øª": 2453,
      "ĠØ¯Ø±Ø¢ÙħØ¯": 2454,
      "ĠÚ©ÙĦÛĮÙĩ": 2455,
      "ĠÙħØ³Ø§Ø¨ÙĤØ§Øª": 2456,
      "ĠØ§ÙĪØ±": 2457,
      "Ø¯Ø±ÛĮ": 2458,
      "ĠØ±ÙĪÙĨ": 2459,
      "ĠØ¨ÙĩØ¨ÙĪØ¯": 2460,
      "Ø¯Ø³": 2461,
      "ĠÙħØ§Ø¯Ùĩ": 2462,
      "Ø¯Ø³Øª": 2463,
      "ĠØ³ÙĤ": 2464,
      "ĠØ¹Ø´": 2465,
      "ÙħØ³": 2466,
      "ÙĪÙĨØª": 2467,
      "ĠØ²ÛĮØ±Ø§": 2468,
      "ĠÙĤØ±Ø§Ø±Ø¯Ø§Ø¯": 2469,
      "ĠØ§ÙħÛĮØ±": 2470,
      "ĠØ±ÛĮÛĮØ³": 2471,
      "ĠÙħÙĪÙģÙĤÛĮØª": 2472,
      "ĠØ³ÙĪØ§ÙĦ": 2473,
      "ĠØ¬Ø³Øª": 2474,
      "Ø§ÙĨÙĪ": 2475,
      "ĠØ®ÙĪØ§Ø³Øª": 2476,
      "ĠÙħÛĮØ±": 2477,
      "ĠØ´ÙĨØ¨Ùĩ": 2478,
      "ĠÚĨÛĮØ²": 2479,
      "ÙħØ¯ÛĮØ±": 2480,
      "Ø¢ÙħÙĪØ²Ø´": 2481,
      "ĠÙĨØ§ÙħÙĩ": 2482,
      "Ø§Ø¬Ùĩ": 2483,
      "ĠØ¨ÙĪ": 2484,
      "Ú©Ø±ÛĮ": 2485,
      "Ú©Ùħ": 2486,
      "Ø¯Ø±Ø³": 2487,
      "ĠÙħØªÙģØ§ÙĪØª": 2488,
      "ÙħØ¬": 2489,
      "Ø¢ÛĮØ¯": 2490,
      "ĠÙħØ¨ÙĦ": 2491,
      "Ø´ÙĪ": 2492,
      "ĠØ¢ÙħØ§Ø±": 2493,
      "ĠØ¨Ø§Ø´ÛĮÙħ": 2494,
      "ĠÙħÙĩØ¯ÛĮ": 2495,
      "Ø§Ù¾ÛĮÙħ": 2496,
      "ĠØ§ÙħÙĨÛĮ": 2497,
      "ĠØ¯ÙĪÙĦØªÛĮ": 2498,
      "ØªÙģ": 2499,
      "ah": 2500,
      "ĠØ¨ÙĪØ¯Ø¬Ùĩ": 2501,
      "ĠØ¢Ø±Ø§Ùħ": 2502,
      "Ø³ÙĪ": 2503,
      "ĠØ¨Ø±ÙĨØ¯": 2504,
      "ĠÛ¶Û°": 2505,
      "ation": 2506,
      "Ø¯ÙĪØ§Ø¬": 2507,
      "Ø§ÙĦØŃ": 2508,
      "ĠØ®ÛĮØ§Ø¨Ø§ÙĨ": 2509,
      "ĠÙħØ¯Ø±Ø³": 2510,
      "ĠØ³Ù¾Ø§Ùĩ": 2511,
      "ÚĺÙĨ": 2512,
      "ĠØ¨ÙĦÙĪ": 2513,
      "ĠØ§ÙĨÚ¯ÙĦÛĮØ³ÛĮ": 2514,
      "ĠØ§ÙĨØªØ¸Ø§Ø±": 2515,
      "Ø§Ø±Ú©Øª": 2516,
      "ĠØ¯ÙĪØ±Ø§ÙĨ": 2517,
      "ĠÛ²Û°Û±Û¹": 2518,
      "ĠØ¹ÙĦØ§ÙĤÙĩ": 2519,
      "ĠÙĨÙĩØ§Ø¯": 2520,
      "ĠØ§ÙģØºØ§ÙĨØ³ØªØ§ÙĨ": 2521,
      "ĠØ¯Ø§Ø±Ùħ": 2522,
      "ĠØ¸Ø§Ùĩ": 2523,
      "ĠØ±ÙģØ¹": 2524,
      "Ġand": 2525,
      "ĠØ¢Ø³ÛĮØ§Ø¨": 2526,
      "ĠØ´ÙĪÛĮØ¯": 2527,
      "ĠÙ¾ÙĦÛĮØ³": 2528,
      "ÙĪÛĮÙĨØª": 2529,
      "Ø§ÛĮØ§ÙĨ": 2530,
      "ĠÙħØ³Ø§Ø¦ÙĦ": 2531,
      "Ø²Ø§": 2532,
      "Ø§ÙħØ§": 2533,
      "ĠØ¬Ø°Ø¨": 2534,
      "ĠØ±ÙĩØ¨Ø±ÛĮ": 2535,
      "ul": 2536,
      "ĠØ¨Ø¹Ø¯ÛĮ": 2537,
      "ÙĪØ§Ø²": 2538,
      "ĠØ¬Ø¯ÛĮ": 2539,
      "ĠÚ©Ø§Ø±Ø´ÙĨØ§Ø³ÛĮ": 2540,
      "ÙĦØ§ÙĤ": 2541,
      "ĠØ·Ø¨ÙĤ": 2542,
      "ĠÙħØ´Ø§ÙĪØ±Ùĩ": 2543,
      "ĠØ¬ÙĪØ§ÙĨØ§ÙĨ": 2544,
      "ter": 2545,
      "ĠÙĦØ¨": 2546,
      "ĠØ¢ØªØ´": 2547,
      "ĠØ¹Ø§ÙħÙĦ": 2548,
      "ÙĨØª": 2549,
      "ĠØŃÙħÙĦÙĩ": 2550,
      "Ø§Ø´ØªÛĮ": 2551,
      "ÙĦÛĮÙĦÛĮ": 2552,
      "ĠØŃÙĪ": 2553,
      "ĠØ²ÙĨØ§ÙĨÙĩ": 2554,
      "ÛĢ": 2555,
      "Ø¯ÙĨÛĮ": 2556,
      "ĠÙħÙħÙĨ": 2557,
      "ĠØ§Ø³ØªØ®Ø¯Ø§Ùħ": 2558,
      "ĠØ¨Ø±ÚĨØ³Ø¨": 2559,
      "ĠØ±Ø³ÛĮØ¯Ùĩ": 2560,
      "ĠÙħØŃÙħ": 2561,
      "ĠØ±ÛĮØ§ÙĦ": 2562,
      "ï¯": 2563,
      "ĠÙĩØ³ØªÛĮØ¯": 2564,
      "ĠØ¨Ø®Ø´ÛĮ": 2565,
      "ĠØ§ÙħÙĨÛĮØªÛĮ": 2566,
      "ĠØ®Ø¯": 2567,
      "ĠØ§Ø³ØªØ§Ø¯": 2568,
      "ĠØµÙĪØ±ØªÛĮ": 2569,
      "ĠÚ©Ø±Ùĩ": 2570,
      "ĠÙħØªØ®ØµØµ": 2571,
      "ĠÙĪØ²ÙĨ": 2572,
      "Ø§ÙĪØ±Ù¾": 2573,
      "ĠÙĪØ³ÛĮ": 2574,
      "ØªØ¨Ùĩ": 2575,
      "ĠØ³ÙģÛĮØ¯": 2576,
      "Û°Û°Û°": 2577,
      "ĠØ¯ÛĮØ¯Ùĩ": 2578,
      "ĠØ±ÙĤØ§Ø¨Øª": 2579,
      "ĠØ³Ø¨Ø²": 2580,
      "ĠÙĨØ¸Ø§ÙħÛĮ": 2581,
      "av": 2582,
      "ĠØ¯ÚĨØ§Ø±": 2583,
      "Ú¯ÛĮØ±ÙĨØ¯": 2584,
      "ĠÙħØ±Ú¯": 2585,
      "Ø¢ÙĪØ±": 2586,
      "ĠØ¨ÚĨÙĩ": 2587,
      "ĠØ±Ø²": 2588,
      "ĠØªØ¨Ø±ÛĮØ²": 2589,
      "ĠØ§ØµÙĦ": 2590,
      "ĠØ®ÙĪØ¯Ø´": 2591,
      "ĠÙħÛĮØ´Ùĩ": 2592,
      "ÙĪÛĮÙĦ": 2593,
      "Ø§Ø¦ÛĮ": 2594,
      "Ø§ÙĪØ±Ù¾ÙĪÛĮÙĨØª": 2595,
      "Ø§ÙħØª": 2596,
      "ĠØ§Ø²Ø¯ÙĪØ§Ø¬": 2597,
      "ĠÙĩØ³ØªÙĩ": 2598,
      "ÙħØ§Øª": 2599,
      "Ø¸Ùĩ": 2600,
      "ĠØªØµÙĪÛĮØ±ÛĮ": 2601,
      "ØµÙģ": 2602,
      "Ú©Ø§Ø±Ø§ÙĨ": 2603,
      "ĠÙĩÙĪØ§Ù¾ÛĮÙħ": 2604,
      "own": 2605,
      "ĠØ¯ÙĨØ¯Ø§ÙĨ": 2606,
      "ĠÚ©ÙĨÙĨØ¯Ú¯Ø§ÙĨ": 2607,
      "ĠØ¨Ø¯Ø§ÙĨ": 2608,
      "ĠÚ¯ÙĪÙĨÙĩ": 2609,
      "ĠØ¢ÙĨØ§ÙĨ": 2610,
      "ĠÙħÙĪØ²": 2611,
      "ĠØµØŃØ¨Øª": 2612,
      "ĠØ®Ø±ÙĪ": 2613,
      "ĠØŃØ§ÙĦØ§": 2614,
      "ĠØ¯Ø±Ø¬Ùĩ": 2615,
      "ĠØ¢Ø³": 2616,
      "ĠØ¯ÙĪØ³ØªØ§ÙĨ": 2617,
      "ĠÙĤØ±Ø¢ÙĨ": 2618,
      "ÙĪØ³Ø·": 2619,
      "os": 2620,
      "ĠÙĪÛĮØ±ÙĪØ³": 2621,
      "Ø§ÛĮØ±": 2622,
      "ĠÙ¾Ø¯Ø±": 2623,
      "ĠØŃØ±Ùģ": 2624,
      "ÙħÙĨÛĮ": 2625,
      "ĠÛ±Û³Û¹Û¹": 2626,
      "ĠÙĨØŃÙĪÙĩ": 2627,
      "Ø®ØªÙĩ": 2628,
      "ĠÙĤÙħ": 2629,
      "ĠØ¢Ø±Ø§ÛĮ": 2630,
      "Ú¯Ø±Ø§Ùħ": 2631,
      "ĠØ§Ø±Ø²Ø§ÙĨ": 2632,
      "ĠØ±Ø§ÙĨ": 2633,
      "ĠØ§ÛĮØ´Ø§ÙĨ": 2634,
      "ĠØ§ÙħÚ©Ø§ÙĨØ§Øª": 2635,
      "ĠØ±ÙĪØ²ÙĨØ§ÙħÙĩ": 2636,
      "ĠØ¨Ø§ÙĦØ§ÛĮ": 2637,
      "ĠØ¢ÛĮØª": 2638,
      "ers": 2639,
      "ĠÙĨØ¨Ø§ÛĮØ¯": 2640,
      "ĠÙħÙĤØ§ÛĮ": 2641,
      "ØŃØ§ÙĦ": 2642,
      "ĠÙħØ³Ø§Ùģ": 2643,
      "ĠÚ©ÙħÛĮØªÙĩ": 2644,
      "ĠØªØ¨ÙĦÛĮØºØ§Øª": 2645,
      "ĠÙħØ´ØªØ±ÛĮØ§ÙĨ": 2646,
      "um": 2647,
      "ĠØ¨Ø±Ø³": 2648,
      "ĠÙ¾Ø±ÙĪÙĨØ¯Ùĩ": 2649,
      "ĠÙģØ±ØµØª": 2650,
      "ĠØºØ±Ø¨": 2651,
      "ĠØ¯Ø¨ÛĮØ±": 2652,
      "ĠÙħØ¹ÙĨ": 2653,
      "ĠØ¬ÙĨÙĪØ¨ÛĮ": 2654,
      "ĠØ¹ÙĪØ§ÙħÙĦ": 2655,
      "ĠÙĪØ¸": 2656,
      "Û²Û²": 2657,
      "Ø³ÙĨØ§": 2658,
      "ĠÙħØ§ÙĨØ¯": 2659,
      "ĠâĢ¦.": 2660,
      "ĠÙĨØ§": 2661,
      "ÙĨØ¯ÙĪØ²": 2662,
      "ĠÙħØ´Ø®ØµØ§Øª": 2663,
      ").": 2664,
      "ĠØ±ÙģØªØ§Ø±": 2665,
      "ĠØ³Ø§ÙħØ§ÙĨÙĩ": 2666,
      "::": 2667,
      "ĠØªØ±ÙĪØ±ÛĮ": 2668,
      "ĠÙħØ´ØªØ±Ú©": 2669,
      "ĠØŃØ¯Ø§ÙĤÙĦ": 2670,
      "Ø§ÙħÙĪØ´": 2671,
      "ĠÙ¾ÛĮØ±": 2672,
      "ĠÙħØ³Ø¦ÙĪÙĦØ§ÙĨ": 2673,
      "ĠØºØ°Ø§": 2674,
      "Ġ*": 2675,
      "Ø¯Ø§Ø±Ø§ÙĨ": 2676,
      "ĠØ¢ÙħØ¯": 2677,
      "ĠØ§ÙħÛĮØ¯ÙĪØ§Ø±": 2678,
      "Ú¯Ø§ÙĨÙĩ": 2679,
      "ÚĺØ§Ø¯": 2680,
      "ĠØ¯Ø§ÙĨØ³Øª": 2681,
      "ĠÚ©Ø§Ø±Ø¨Ø±Ø¯ÛĮ": 2682,
      "ĠÙħÙĤØ§ÛĮØ³Ùĩ": 2683,
      "ĠØ´ÙĨØ§Ø³Ø§ÛĮÛĮ": 2684,
      "ÙĨØ²": 2685,
      "Ø±Ú©Ø²": 2686,
      "ĠØ±ÛĮØ§Ø³Øª": 2687,
      "ĠØ§Ø¹ØªØ±": 2688,
      "ĠØ¯Ø±Ø³": 2689,
      "ĠØ¬Ø§ÙĦØ¨": 2690,
      "Ù¾ÙĪØ´": 2691,
      "Ø¨ÙĦØ§Ú¯": 2692,
      "ĠØŃØ³ÙĨ": 2693,
      "ess": 2694,
      "----": 2695,
      "ĠÚ¯ÙĪÚ¯ÙĦ": 2696,
      "Ø§Ø¦Ùħ": 2697,
      "ĠÙħØ®ØµÙĪØµ": 2698,
      "ĠÙĤØµØ¯": 2699,
      "Ø¨ÛĮÙĩ": 2700,
      "Ù¾Ø°ÛĮØ±": 2701,
      "ĠØ§ÙĤØ¯Ø§ÙħØ§Øª": 2702,
      "ĠÙħÚ©Ø§ÙĨÛĮ": 2703,
      "Ú¯ÛĮØ±ÛĮØ¯": 2704,
      "Ø¯Ø§Ø´ØªÛĮ": 2705,
      "ĠÚĨØ±Ø®": 2706,
      "ĠÙĨÛĮÙħÙĩ": 2707,
      "Û±Û±": 2708,
      "ĠÙĦÛĮØ³Øª": 2709,
      "Ø³ÙĪÙĨÚ¯": 2710,
      "ØºÙĨ": 2711,
      "ĠØ§ØªØŃ": 2712,
      "ĠÙĪØ§ÙĤØ¹ÛĮ": 2713,
      "ĠØ§Ø¯Ø§Ø±ÛĮ": 2714,
      "ĠÙĤØ¨ÙĦÛĮ": 2715,
      "ĠØ´ÙĩØ±ÙĪ": 2716,
      "Ġe": 2717,
      "ĠÛ³Ûµ": 2718,
      "ĠÙħØ°Ø§Ú©": 2719,
      "ÙĪØ¯Ùĩ": 2720,
      "»¿": 2721,
      "ï»¿": 2722,
      "Ú©Ø´ÛĮ": 2723,
      "ĠØ¢ÙĦØ¨": 2724,
      "ĠØ¯Ø´ÙħÙĨ": 2725,
      "Ø§Ø°": 2726,
      "ĠØ¯ÙĩÙĨØ¯": 2727,
      "ĠØªØ´Ø®ÛĮØµ": 2728,
      "ĠÛ¹Û°": 2729,
      "ĠÙĪØ±Ø¯Ù¾Ø±Ø³": 2730,
      "ĠÙħØ¹ÙħÙĪÙĦØ§": 2731,
      "Ø§Ø¯ÙĨ": 2732,
      "ĠÙĨØ¸Ø±Ø§Øª": 2733,
      "ĠØ§ÛĮØ³Øª": 2734,
      "ĠÙħØ±Ø¯Ø§ÙĨÙĩ": 2735,
      "ĠÙħØ¨Ø§Ø±Ø²Ùĩ": 2736,
      "ÙĩØ§ÛĮØª": 2737,
      "Ø¨ÛĮÙĦ": 2738,
      "Ø§ÙģÛĮÚ©": 2739,
      "ĠØ±Ø¹": 2740,
      "ĠØ°Ø®": 2741,
      "ĠÙĨÙĪØ²": 2742,
      "ĠØ´Øº": 2743,
      "ĠØ³Ø¹ÛĮ": 2744,
      "Ø§ÙĦÛĮØ§": 2745,
      "ĠÙĪÛĮÙĨØ¯ÙĪØ²": 2746,
      "ĠØµØ±Ùģ": 2747,
      "ĠØªØ§Ø±ÛĮØ®ÛĮ": 2748,
      "ĠÙħØ¹Øª": 2749,
      "Ø§Ø¦ÛĮØ¯": 2750,
      "Û±Û³": 2751,
      "ĠØ®Ø±Ø§Ø³Ø§ÙĨ": 2752,
      "Û´Û°": 2753,
      "ĠØ§Ø¨ØªØ¯Ø§": 2754,
      "ÙĨØ§Ø¯": 2755,
      "Ø±Ø§Ùģ": 2756,
      "ĠØ²ÙĨØ¯Ùĩ": 2757,
      "ĠÛ±Û³Û¹Û²": 2758,
      "ĠØ§ØªÙĪÙħ": 2759,
      "Ø¯Ø¯": 2760,
      "ĠØªÙĪØ§ÙģÙĤ": 2761,
      "ĠØ±ÙģØªÙĩ": 2762,
      "ĠÙĦÙĪÙĦÙĩ": 2763,
      "Ø¸Ùħ": 2764,
      "ĠÙĦØ§ÛĮÙĩ": 2765,
      "ĠØ´Ø§Ø®Øµ": 2766,
      "Ø¹ÙĪØ¯": 2767,
      "Ø¢Ø¨Ø§Ø¯": 2768,
      "ĠØ¢Ùģ": 2769,
      "Ø¬ÛĮØª": 2770,
      "ĠØµØ§Ø¯Ø±Ø§Øª": 2771,
      "Ø¬Ø¯": 2772,
      "ĠÙ¾ÙĪØ´Ø´": 2773,
      "Ø¢ÛĮÙĨØ¯": 2774,
      "ĠØ¨ÛĮÙħØ§Ø±Ø³ØªØ§ÙĨ": 2775,
      "ĠØªÙĦÙĪÛĮØ²ÛĮÙĪÙĨ": 2776,
      "ĠÙĩÛĮØ§Øª": 2777,
      "ĠØ§ÛĮÙħÛĮÙĦ": 2778,
      "up": 2779,
      "ĠØªÙħØ±ÛĮÙĨ": 2780,
      "ĠØ¨Ø§Ø¯": 2781,
      "ĠThe": 2782,
      "ĠØ²ÙĨØ¬": 2783,
      "ĠØªÙĤÙĪÛĮØª": 2784,
      "Ġi": 2785,
      "ĠØ¹Ø§Ø´ÙĤ": 2786,
      "ĠØ¨ÙĪØ±Ø³": 2787,
      "ØªÙħØ§": 2788,
      "ĠÚĨÙĩØ§Ø±Ø´ÙĨØ¨Ùĩ": 2789,
      "ĠØ±ÙĪØ²Ø§ÙĨÙĩ": 2790,
      "ĠÙĦØº": 2791,
      "ÙĪØ±Ùĩ": 2792,
      "ĠÚ©ÙħÙ¾": 2793,
      "ÙĪØ§ÙĦ": 2794,
      "ĠÙħÙĪØ§Ø¬Ùĩ": 2795,
      "Ø¯ÛĮØ¯Ùĩ": 2796,
      "ĠÙħØ§ÙĩÛĮ": 2797,
      "ĠÙĤØ§ÙĨÙĪÙĨÛĮ": 2798,
      "ĠÙħØ¹ÙħØ§Ø±ÛĮ": 2799,
      "ĠØ¯Ø³ØªØ±Ø³ÛĮ": 2800,
      "ĠØ§Ø¬Ø§Ø²Ùĩ": 2801,
      "ĠÙĨÚ¯Ø±Ø§ÙĨ": 2802,
      "ĠØªÙĪØµÛĮÙĩ": 2803,
      "ĠÙĩÙĪØ§": 2804,
      "ĠÙĨÙħÙĪØ¯Ùĩ": 2805,
      "ĠÚ©Ø¯Ø§Ùħ": 2806,
      "ĠÙħØ®Ø§Ø·": 2807,
      "ĠØ¨Ø¹Ø¶ÛĮ": 2808,
      "ĠÚ¯Ø±Ø§ÙĨ": 2809,
      "ĠÙĨÚ©ØªÙĩ": 2810,
      "ĠØ±ØªØ¨Ùĩ": 2811,
      "ĠÚ¯ÛĮÙĦ": 2812,
      "Û²Ûµ": 2813,
      "ĠØ¯Ø³ØªÛĮ": 2814,
      "ĠØ§Ø³Ùħ": 2815,
      "Ø³ØªÚ¯ÛĮ": 2816,
      "ĠÛ²Û°Û±Ûµ": 2817,
      "Ú©ÙĦÛĮ": 2818,
      "ÙħÛĮØ²": 2819,
      "ĠÙħØ¹ÙĦ": 2820,
      "ĠÙ¾Ø§Ø±Ú©": 2821,
      "Ø¦ÙĨ": 2822,
      "ak": 2823,
      "ĠØ¯ÙĤØª": 2824,
      "ĠØ§Ø³Ø§Ø³ÛĮ": 2825,
      "ĠØ°Ú©Ø±": 2826,
      "ĠØ§Ø´Øª": 2827,
      "Ø¨Ø®Ø´": 2828,
      "ĠÚ©Ø³Ø§ÙĨÛĮ": 2829,
      "Ø±ÛĮØª": 2830,
      "ÙĨÙĪØ§ÙĨ": 2831,
      "ĠØ³ÙĪØ§ÙĦØ§Øª": 2832,
      "Ú¯Ø±Ø¯Ø§ÙĨ": 2833,
      "ĠÙĪÛĮØ±": 2834,
      "ÙĩØ±Ùĩ": 2835,
      "Ø§Úĺ": 2836,
      "ĠÙħØŃØªÙĪ": 2837,
      "Ø´Ø§Ùĩ": 2838,
      "ĠØ¯Ø®Øª": 2839,
      "ÙģØ§ÙĨÙĩ": 2840,
      "ĠØ³Ø§ÙħØ³ÙĪÙĨÚ¯": 2841,
      "ĠØ±Ø§ØŃØªÛĮ": 2842,
      "Ġk": 2843,
      "ĠØµØ§Ø¯": 2844,
      "ĠÙĨØ®ÙĪØ§ÙĩØ¯": 2845,
      "Ø¬ÙĪÛĮÛĮ": 2846,
      "ĠØ¢ÙħØ±ÛĮÚ©Ø§ÛĮÛĮ": 2847,
      "ĠØ¨Ø§Ø²Ú¯": 2848,
      "ĠÙĨÙħØ§ÛĮÙĨØ¯Ú¯Ø§ÙĨ": 2849,
      "ĠØ¨Ø§Ø¨": 2850,
      "ĠÙ¾ÛĮØ´Ø±ÙģØª": 2851,
      "Ú©ÙĨØ§ÙĨ": 2852,
      "ĠØ´ÛĮÙħÛĮ": 2853,
      "ÙĪØ²ÛĮØ¹": 2854,
      "ĠØ§Ø³ØªÙĤ": 2855,
      "Ġâ": 2856,
      "Ġ[âĢ¦": 2857,
      "ĠÚ©Ø±ÛĮ": 2858,
      "ĠØ¯ÛĮØ¬ÛĮØª": 2859,
      "Ø¨ÙĪØ¨": 2860,
      "ØªÙħØ§Ø¯": 2861,
      "ĠX": 2862,
      "ĠØ¬Ø¯Ø§": 2863,
      "Ġ_": 2864,
      "ĠØ¬Ø§": 2865,
      "ĠØ¹Ø¨Ø§Ø±": 2866,
      "ÚĨÙĨÛĮÙĨ": 2867,
      "ĠÙħØŃØ³": 2868,
      "ĠØ§ÙģØ±Ø§Ø¯ÛĮ": 2869,
      "ĠØ¨Ø±Ø®ÙĪØ±Ø¯Ø§Ø±": 2870,
      "Ġ[âĢ¦]": 2871,
      "ĠØªÙĦÚ¯Ø±Ø§Ùħ": 2872,
      "ĠØ¢ÙĦÙħØ§ÙĨ": 2873,
      "ĠØ±Ø®": 2874,
      "ĠÙĨÛĮØ§Ø²Ùħ": 2875,
      "ĠÙģØ§ØµÙĦÙĩ": 2876,
      "ĠØªØŃÙĤÛĮÙĤØ§Øª": 2877,
      "ĠÚ©Ø§Ø±Ø¨Ø±": 2878,
      "ĠÙħÙĨØ¨Ø¹": 2879,
      "ĠØ¶Ø±": 2880,
      "ĠØ¨Ø±Ø¬": 2881,
      "ownload": 2882,
      "ĠØ±ÙħØ§ÙĨ": 2883,
      "ĠØ³ÛĮÙĨÙħØ§": 2884,
      "Ø§Ø³ØªÙĩ": 2885,
      "ĠÙħÛĮØ¯Ø§ÙĨ": 2886,
      "Ø§Ø³ÙĦØ§Ùħ": 2887,
      "ĠÚĨØ±": 2888,
      "Ø¦Øª": 2889,
      "ĠÙĨØ§Ø±": 2890,
      "ÙĪÙĦÛĮØª": 2891,
      "ĠÙ¾Ø´ØªÛĮØ¨Ø§ÙĨÛĮ": 2892,
      "ĠØ¨Ø§ÛĮ": 2893,
      "ĠØ±ÙĪØ²ÙĩØ§ÛĮ": 2894,
      "ĠÙĨØ®Ø³ØªÛĮÙĨ": 2895,
      "Ø§Ø²ÙĨØ¯": 2896,
      "ĠØªØ§Ø³": 2897,
      "ĠØ´Ø§Ø±": 2898,
      "ĠØ¨ÙĩØ¯Ø§Ø´ØªÛĮ": 2899,
      "ĠÙĨØ¸Ø§Ø±Øª": 2900,
      "ĠÙĩÙĨØ±Ùħ": 2901,
      "ĠÙ¾ÙĪØ±": 2902,
      "ĠÙĩÙħØ§Ùĩ": 2903,
      "ĠØ±Ø³ÛĮØ¯ÙĨ": 2904,
      "Ù¾Ø²": 2905,
      "ĠÙĨØ¯Ø§Ø´ØªÙĩ": 2906,
      "ĠÙĩÙĨØ±ÛĮ": 2907,
      "Ø§ÚĨ": 2908,
      "ØªÙĪØ§ÙĨÛĮÙħ": 2909,
      "ĠØ§Ø±Ø²ÛĮØ§Ø¨ÛĮ": 2910,
      "ĠØ¢ÛĮÙģ": 2911,
      "ÙĤÛĮÙĩ": 2912,
      "ĠÙĨÚ¯ÙĩØ¯Ø§Ø±ÛĮ": 2913,
      "ĠÙĨÙĪØ´Øª": 2914,
      "ĠØªØ³Ùĩ": 2915,
      "ĠÙĪØ§Ú©ÙĨØ´": 2916,
      "Ø¹Ø§Øª": 2917,
      "ĠÙħÙĤØ§ÙĪÙħØª": 2918,
      "ĠØ§ÛĮØ¯Ùĩ": 2919,
      "ÙĪÛĮØ³ÛĮ": 2920,
      "Ø©": 2921,
      "ÙĪØ§Ø±ÛĮ": 2922,
      "ĠØªØ±Ú©ÛĮØ¨": 2923,
      "Û¸Û°": 2924,
      "ĠÚ¯Ø°Ø§Ø´Øª": 2925,
      "ĠØ³Ø§ÙĦÙħ": 2926,
      "ĠÛ¹Û²": 2927,
      "ĠÙģØ±Ø´": 2928,
      "ĠÙģÛĮØ²ÛĮ": 2929,
      "ĠØµØ¯Ø§ÛĮ": 2930,
      "ĠØŃØ§ØµÙĦ": 2931,
      "ĠØ¬Ø§ÙĨØ¨ÛĮ": 2932,
      "ÙĪØ¬": 2933,
      "ĠØ¯Ø±ÙĪ": 2934,
      "ĠØ¹Ø±Ø¨Ø³ØªØ§ÙĨ": 2935,
      "Ø±Ø¨Ø§ÛĮØ¬": 2936,
      "ĠØ¨Ú¯ÛĮØ±ÛĮØ¯": 2937,
      "ĠØ§ÙĩØ¯Ø§Ùģ": 2938,
      "ÙģÛĮÙĦ": 2939,
      "ĠÙħØ´Ø§Ø¨Ùĩ": 2940,
      "ĠØ¹Ø´ÙĤ": 2941,
      "ĠÚ©ÙĨÚ©ÙĪØ±": 2942,
      "ĠØ¨Ø¨ÛĮÙĨ": 2943,
      "Ø§Ø³Ø§Ø³": 2944,
      "ĠØªØ§Ú©ÙĨÙĪÙĨ": 2945,
      "ĠØ±Ø¹Ø§ÛĮØª": 2946,
      "ard": 2947,
      "ĠÙĤØ¯ÛĮÙħÛĮ": 2948,
      "ĠÛµÛ°Û°": 2949,
      "ĠØ®ÙĪØ±": 2950,
      "ÙħØ§ÙĨØ¯": 2951,
      "ĠÙĩÙħÚĨÙĨØ§ÙĨ": 2952,
      "ĠØ³ÙĨØªÛĮ": 2953,
      "ĠØ³Ø§ÙĨ": 2954,
      "ĠØ¹ÙĦÙħ": 2955,
      "ĠØ³ÙĩØ§Ùħ": 2956,
      "Ú¯Ø±ÙĪÙĩ": 2957,
      "ĠØ¨Ø§Ø²ÛĮÚ©ÙĨØ§ÙĨ": 2958,
      "Ġr": 2959,
      "ĠØ¬Ø§ÛĮÚ¯Ø§Ùĩ": 2960,
      "ĠØ±Ú©": 2961,
      "Ø§ØªÛĮÚ©": 2962,
      "ĠÚ©ÙĦØ§Ø³": 2963,
      "Û³Ûµ": 2964,
      "¹Û°": 2965,
      "ÙĪØ¬Ùĩ": 2966,
      "ĠØ¯Ø±ÙħØ§ÙĨÛĮ": 2967,
      "ĠÙģØ¶": 2968,
      "ĠÙĩÙħØ³Ø±": 2969,
      "Ø°ÛĮÙĩ": 2970,
      "Ø¯ÛĮÚ¯Ø±": 2971,
      "ĠØªØ¹Ø·": 2972,
      "ĠØ³ØªØ§Ø¯": 2973,
      "ĠØ´Ø¯ÛĮØ¯": 2974,
      "ĠÙħÙĤØ¯Ø§Ø±": 2975,
      "Û²Û´": 2976,
      "ia": 2977,
      "ĠØ®ÙĪØ²": 2978,
      "ĠØ¢Ø²Ø§Ø¯ÛĮ": 2979,
      "Ø§ÙħØ¨Ø±": 2980,
      "Ø´Ø±Ú©Øª": 2981,
      "Ø§Ø¯ÛĮÙĩ": 2982,
      "Ø·ÛĮ": 2983,
      "ĠØµØ¯Ø§": 2984,
      "ĠÙħÙĨØ²ÙĦ": 2985,
      "ĠÙħØ±Ø²": 2986,
      "ÙĨÚ©": 2987,
      "ĠÛ¸Û°": 2988,
      "Ø¨Ø§Ø´ÙĨØ¯": 2989,
      "ĠØ¯Ø§Ø±Ùĩ": 2990,
      "Ø¨ÙĨØ¯": 2991,
      "ĠÙħÙĩØ§Ø¬": 2992,
      "ĠØ§Ø¨Ø±": 2993,
      "ĠØ¹ØµØ±": 2994,
      "ĠØ³ÛĮØ§Ùĩ": 2995,
      "ĠØ³ÙĨØ¯": 2996,
      "ĠØ«Ø§Ø¨Øª": 2997,
      "Ø¨Ø§Ø¨": 2998,
      "ĠØ¬Ø°Ø§Ø¨": 2999,
      "ĠÙģÙĦØ³": 3000,
      "Ø¢Ùģ": 3001,
      "ĠØ³ÛĮÙĦ": 3002,
      "ðŁ": 3003,
      "ĠØªÙĪØ²ÛĮØ¹": 3004,
      "Ø²ÛĮØ³Øª": 3005,
      "Û³Û´": 3006,
      "ĠÙĩØ´": 3007,
      "ĠÙĨØ¯Ø§Ø±ÙĨØ¯": 3008,
      "ĠØ´Ø´": 3009,
      "ØªØ±Ø§Ú©": 3010,
      "ĠÙħØ§Ùħ": 3011,
      "ÙĪØ§ÙĨÛĮÙĨ": 3012,
      "ĠÙħØ¹Ø±ÙĪÙģ": 3013,
      "ĠØ¯ÙĪØ¨Ø§Ø±Ùĩ": 3014,
      "Ø§ÙĦØ¹Ø§Ø¯Ùĩ": 3015,
      "ĠØŃØªÙħØ§": 3016,
      "ĠÙĨØ¯Ø§Ø´Øª": 3017,
      "ĠÙħØ²": 3018,
      "ĠÙĪØ¨ÙĦØ§Ú¯": 3019,
      "ĠØ¢ÙĨÚĨÙĩ": 3020,
      "ĠØ¢Ø®Ø±": 3021,
      "ĠÙħØ«Ø§ÙĦ": 3022,
      "ĠÙħÚ©Ø§ÙĨ": 3023,
      "ĠØ³ØªØ§Ø±Ùĩ": 3024,
      "ĠÙĨÙĤØ´Ùĩ": 3025,
      "ĠÙħÙģÛĮØ¯": 3026,
      "ĠÙħØ¤": 3027,
      "ĠâĢı": 3028,
      "ĠØªÙĪÛĮ": 3029,
      "ĠØ§ÛĮÙħÙĨÛĮ": 3030,
      "ĠØ®Ø¨Ø±ÙĨÚ¯Ø§Ø±Ø§ÙĨ": 3031,
      "ĠØªØ³Øª": 3032,
      "ĠÙĩÛĮØ¦Øª": 3033,
      "ĠØŃÚ©ÙĪÙħ": 3034,
      "Ġ?": 3035,
      "ĠØ¬Ø§ÙħØ¹": 3036,
      "ĠØ±ÙĪØºÙĨ": 3037,
      "ĠÙħØ³Ø¦ÙĦÙĩ": 3038,
      "ĠØ®ÙĪØ§ÙĩÛĮÙħ": 3039,
      "ØªØ§ØŃ": 3040,
      "ÙĦÙĤ": 3041,
      "ÙĦØŃ": 3042,
      "ĠØ¯ÙĩÙĩ": 3043,
      "ÙĪØ¯Ø±": 3044,
      "ĠØ¢ÙģØª": 3045,
      "ĠØ²ÛĮØ±ÙĨÙĪÛĮØ³": 3046,
      "Ú©ÙĨÙĨØ¯Ú¯Ø§ÙĨ": 3047,
      "ĠØ§Ø³ØªØ±Ø§Øª": 3048,
      "Ú¯ÙĨ": 3049,
      "ĠØ´ÙħØ§ÙĦ": 3050,
      "ĠØ¢ÙĦØ¨ÙĪÙħ": 3051,
      "ĠØ¨ØµÙĪØ±Øª": 3052,
      "ĠSt": 3053,
      "ĠØ¬ÙħØ¹ÛĮØª": 3054,
      "ov": 3055,
      "ĠØ¹Ùĩ": 3056,
      "Û²Û¶": 3057,
      "ĠÙĨØ§Ø´ÛĮ": 3058,
      "ĠÙģØ¯Ø±": 3059,
      "ĠØ§Ø³ØªØ±": 3060,
      "Ø§Ø´ÛĮÙĩ": 3061,
      "ĠÙħØ§Ø¯": 3062,
      "Û±Û¹": 3063,
      "ĠØ¯ÙĨÛĮØ§ÛĮ": 3064,
      "ÙĨØ¸Ø±": 3065,
      "ĠÚ©ÛĮÙĦÙĪÙħ": 3066,
      "Ø§ØªØ±ÛĮ": 3067,
      "Ø¹ÙĩØ¯": 3068,
      "ĠÙĨÙĩØ§ÛĮÛĮ": 3069,
      "ĠØ³Ø±Ø§Ø³Ø±": 3070,
      "ĠØ¯ÙĪØ´ÙĨØ¨Ùĩ": 3071,
      "ĠØŃØ§ÙģØ¸": 3072,
      "ate": 3073,
      "ĠÚ¯Ø³ØªØ±Ø´": 3074,
      "ĠØ¢ÙĩÙĨ": 3075,
      "ĠØ¯Ø§Ø´ØªÙĨØ¯": 3076,
      "ĠÙĨÙĪÛĮØ³ÙĨØ¯Ùĩ": 3077,
      "ĠÚ©ÙĪÙĩ": 3078,
      "ĠÙħØ¯Ø§Ø±Ø³": 3079,
      "ĠØªÚ©ÙĨÙĪÙĦÙĪÚĺÛĮ": 3080,
      "ĠØ°Ø®ÛĮØ±Ùĩ": 3081,
      "Ø§ÙĤØµÙĩ": 3082,
      "ĠØ¯ÛĮÚ¯Ùĩ": 3083,
      "Ø±Ø¨Ø§ÛĮØ¬Ø§ÙĨ": 3084,
      "ĠØ¨Ø¯Ùĩ": 3085,
      "ÙĪØ²ÛĮØ±": 3086,
      "ĠÙħØ®Ø§ÙĦ": 3087,
      "ĠØ¨Ø§Øº": 3088,
      "ĠÙħØ¯Ø±Ø³Ùĩ": 3089,
      "ĠØ¨Ø§ÙĨÚ©ÛĮ": 3090,
      "Ø¦ÛĮÙĨ": 3091,
      "ĠØ®Ø§Ø±Ø¬Ùĩ": 3092,
      "ĠØ±ÙģØªÙĨ": 3093,
      "ĠÛ·Û°": 3094,
      "ĠÙħØ±Øº": 3095,
      "ĠØ¹Ø¨Ø¯": 3096,
      "Ø§ÙĦØ´": 3097,
      "ÙħØ·": 3098,
      "Ú¯Ø²": 3099,
      "ÙĪÙĤÛĮ": 3100,
      "ĠØ´Ø§ÙĨ": 3101,
      "ÙħØ§ÙĨØ§ÙĨ": 3102,
      "Ø§ØŃØª": 3103,
      "ost": 3104,
      "ĠØ±ØŃ": 3105,
      "ĠØ®ÙĪØ²Ø³ØªØ§ÙĨ": 3106,
      "Ø®ÙĪØ§ÙĨ": 3107,
      "ĠÙĦØ§ÛĮ": 3108,
      "all": 3109,
      "eh": 3110,
      "ĠØ¬Ø±Ø§ØŃÛĮ": 3111,
      "ĠÙĩØ´Øª": 3112,
      "Û²Û¸": 3113,
      "ĠØ®Ø³": 3114,
      "ĠÙħØªÙĤ": 3115,
      "Û³Û²": 3116,
      "ÙĪÙĦÛĮÙĨ": 3117,
      "ĠÙħØŃØ³ÙĪØ¨": 3118,
      "Ø¯ÙĩÙĨØ¯Ùĩ": 3119,
      "ĠIn": 3120,
      "ØµØ¯ÛĮ": 3121,
      "ĠØ²Ø¯": 3122,
      "Ġl": 3123,
      "ĠØ§Ø³ØªØ¹": 3124,
      "ĠØ§ÛĮÙĨØ³Øª": 3125,
      "ĠØ¢Ø³ÛĮØ§": 3126,
      "ĠØªØºÛĮÛĮØ±Ø§Øª": 3127,
      "ct": 3128,
      "Ø²ÙħÛĮÙĨ": 3129,
      "Ú©ØªØ±ÛĮ": 3130,
      "ĠØ¢Ø³Ø§ÙĨ": 3131,
      "ĠØ§Ú©ÙĨÙĪÙĨ": 3132,
      "ĠØ²ÙĪØ¯": 3133,
      "ĠØ®Ø§ØµÛĮ": 3134,
      "ĠÙģØ±Ø§ÙĨØ³Ùĩ": 3135,
      "ÙħÙĨØ¯ÛĮ": 3136,
      "ĠØ´ÙħØ§ÙĦÛĮ": 3137,
      "Û³Û¶": 3138,
      "ĠØªÚ©ÙħÛĮÙĦ": 3139,
      "ĠØµØ§ØŃ": 3140,
      "ÛĮØ§ÙģØªÙĩ": 3141,
      "ob": 3142,
      "ĠØ¨Ø§ÙģØª": 3143,
      "ĠØ¹Ø¯Ø¯": 3144,
      "ĠØ§ÛĮØ³ÙĨØ§": 3145,
      "Ø¹ÙĦ": 3146,
      "ĠÛ¹Û´": 3147,
      "ĠØ¨ØŃØ±Ø§ÙĨ": 3148,
      "ĠØ±Ø§Ø³ØªØ§ÛĮ": 3149,
      "ÛĮÙħØ§ÙĨ": 3150,
      "Û²Û·": 3151,
      "ĠØªØ§ÛĮÛĮØ¯": 3152,
      "ĠØ¨Ø³": 3153,
      "ĠÙħÙĤØ¯Ø³": 3154,
      "ÛĮØŃ": 3155,
      "ĠÚ©ÙĦÛĮØ¯ÛĮ": 3156,
      "ĠØ§Ø´ØªØºØ§ÙĦ": 3157,
      "ĠØ§Ø¹ØªÙħØ§Ø¯": 3158,
      "ĠØªÙĪØ¶ÛĮØŃØ§Øª": 3159,
      "ĠØªØ±ØªÛĮ": 3160,
      "ĠØ®Ø·Ø±": 3161,
      "Ø®ÙĪØ§ÙĩÛĮØ¯": 3162,
      "ĠØ³ÙĦÛĮ": 3163,
      "ip": 3164,
      "ĠÙĦÙ¾": 3165,
      "ĠÙħØŃÙĪØ±": 3166,
      "ĠØªØŃØµÛĮÙĦÛĮ": 3167,
      "ĠÛ°Û°": 3168,
      "ĠÙĨÙĤØ·Ùĩ": 3169,
      "ĠÙĨÙĩØ§ÛĮØª": 3170,
      "ĠØ§Ø´ØªØ¨": 3171,
      "ĠØ³Ø±Ø·Ø§ÙĨ": 3172,
      "ĠØ§ÙģØ²Ø§Ø±": 3173,
      "ĠØ³ÙģØ§Ø±Ø´": 3174,
      "ĠÙĩÙĦ": 3175,
      "ĠÙĩØ§Ø´": 3176,
      "ĠØ³ÙĪØ®Øª": 3177,
      "ØªØ§Ù¾": 3178,
      "ĠØ´ÙħØ§Ø±": 3179,
      "ĠØŃÙģØ§Ø¸": 3180,
      "ĠÚ©Ø±Ø¯ÛĮÙħ": 3181,
      "Ø§Ø±Ø§ÙĨØªÛĮ": 3182,
      "ÙĪØ³ÛĮ": 3183,
      "ĠØ´ÛĮØ´Ùĩ": 3184,
      "ont": 3185,
      "ĠÙĤØ·Ø¹Ø§Øª": 3186,
      "Ø«ÛĮØ±": 3187,
      "ØµÙģØŃÙĩ": 3188,
      "ĠÙħØ´Ø§Ø±Ú©Øª": 3189,
      "ĠØ¬ÛĮ": 3190,
      "ĠØ³Ø§ÙĦÙĨ": 3191,
      "ine": 3192,
      "Ø§ØºØ°": 3193,
      "ĠÙĪÛĮØ¯": 3194,
      "ĠÙ¾ÛĮØ±ÙĪØ²ÛĮ": 3195,
      "ĠØ¬ÙĨÙĪØ¨": 3196,
      "ĠØªØ²": 3197,
      "ĠØ¨Ø§Ø´Ùĩ": 3198,
      "ĠÙģØ±Ø²ÙĨØ¯": 3199,
      "ĠÙħÛĮÚ©": 3200,
      "Ø·Ø±Ùģ": 3201,
      "ĠØ§ØµÙĪÙĦ": 3202,
      "ĠØ³Ú©": 3203,
      "Ø±ÛĮØ²": 3204,
      "ĠØ¨Ø§Ø²Ø§Ø±ÛĮ": 3205,
      "ĠØªØŃÙĪÛĮÙĦ": 3206,
      "ĠÙĨØ§Ø¨": 3207,
      "ĠÙħØ¹Ø§ÙħÙĦ": 3208,
      "Ø§Ø¯Ø«Ùĩ": 3209,
      "ĠÙħÙĪØ²ÛĮÚ©": 3210,
      "ĠØ¹ÙħØ¯Ùĩ": 3211,
      "ĠÙģÙĨ": 3212,
      "Ø§Ø¨ÙĦÙĩ": 3213,
      "ĠÙħØ³ÛĮ": 3214,
      "Ø¬ÙĪØ§ÙĨ": 3215,
      "Ú©ÙĨÙĩ": 3216,
      "ĠØ³Ø¨Ø¨": 3217,
      "ĠÙĪÛĮØª": 3218,
      "ÛµÛµ": 3219,
      "ĠØ¯Ø±ÙĪÙĨ": 3220,
      "ÛĮÙģÙĩ": 3221,
      "ĠØ®Ø´Ú©": 3222,
      "ĠÙ¾Ø§": 3223,
      "ĠØ¬Ø¯ÛĮØ¯ØªØ±ÛĮÙĨ": 3224,
      "ĠÛ³Û±": 3225,
      "ĠØ±Ø§Ø¯ÛĮ": 3226,
      "ĠÙ¾Ø±Ø¯Ø§Ø²": 3227,
      "ĠÙĨÙĪØ²Ø§Ø¯": 3228,
      "Ø§ØµØ±": 3229,
      "ĠÙģÙĪÙĦØ§Ø¯": 3230,
      "ĠÙ¾Ø§ÙĪØ±Ù¾ÙĪÛĮÙĨØª": 3231,
      "ĠØ²ÙĨØ¯": 3232,
      "ĠÙħØ¬ÙĦÙĩ": 3233,
      "Ø§ÙģØ¹": 3234,
      "ĠÛ³Û¶": 3235,
      "Ú¯Ø§Ø¨": 3236,
      "ĠØªØºØ°ÛĮÙĩ": 3237,
      "ĠÚ©Ø§Ø±Ø´ÙĨØ§Ø³Ø§ÙĨ": 3238,
      "ĠÚ¯ÛĮØ±": 3239,
      "ĠÙħØ¬ÙĪØ²": 3240,
      "Ø¯Ø§Ø¯ÛĮ": 3241,
      "ĠÙĤÙĪØ§ÙĨÛĮÙĨ": 3242,
      "ast": 3243,
      "ĠØ¨Ø§Ø±Ø¯": 3244,
      "Ø±ÛĮÙĨÛĮ": 3245,
      "ĠÙ¾ÛĮÚĨ": 3246,
      "ĠØ¹Øµ": 3247,
      "ĠÚ©Ø§ÙĨØ§ÙĦ": 3248,
      "ĠØ¢Ø°Ø±Ø¨Ø§ÛĮØ¬Ø§ÙĨ": 3249,
      "ĠØŃØ§Ø´ÛĮÙĩ": 3250,
      "ĠØªØ±Ø¬ÙħÙĩ": 3251,
      "ĠÙĤÙĦØ¨": 3252,
      "ĠÚ©Ø§Ø±Ø¨Ø±ÛĮ": 3253,
      "ĠØ±ÙĩØ¨Ø±": 3254,
      "Ġon": 3255,
      "ĠØªØ¨ÙĦÛĮØºØ§ØªÛĮ": 3256,
      "Ø¨Ø§ÛĮ": 3257,
      "ĠÙĨØ³ÙĦ": 3258,
      "ĠÙģØª": 3259,
      "ĠÙħÙĪØ«Ø±": 3260,
      "ĠØ¢Ø´ÙĨØ§": 3261,
      "ĠÙħØ¨ÙĦØº": 3262,
      "ĠØ§ÛĮØª": 3263,
      "Ø±Ø§ÙĨØ³": 3264,
      "Û³Û·": 3265,
      "ĠØ±Ø³Øª": 3266,
      "ĠØ¢ÛĮÙģÙĪÙĨ": 3267,
      "ÙħÙĨØ¯Ø§ÙĨ": 3268,
      "Ø²Ø¨": 3269,
      "ĠØªØ¹Ø±ÛĮÙģ": 3270,
      "Û¹Û±Û": 3271,
      "Ġto": 3272,
      "ĠØ¬Ø§Ø¯Ùĩ": 3273,
      "ÙĨØ¬ÛĮ": 3274,
      "ĠØ¢ÙĦÙĪØ¯": 3275,
      "ĠÙħÛĮÙĪÙĩ": 3276,
      "ĠÙħØªØŃ": 3277,
      "ĠÙħØ±Ø§ÙĤ": 3278,
      "ĠØ¬Ø¯ÛĮØ¯ÛĮ": 3279,
      "ĠÚ¯Ø³ØªØ±Ø¯Ùĩ": 3280,
      "ĠÙħØ¹Ø¸Ùħ": 3281,
      "ĠÙĨÙħØ§ÛĮÙĨØ¯": 3282,
      "ĠØ§ØŃÙħØ¯": 3283,
      "eb": 3284,
      "ĠÚĨÙĩØ±Ùĩ": 3285,
      "Û²Û±": 3286,
      "ĠÚ©ÙģØ´": 3287,
      "ĠØŃØ§Ø¯Ø«Ùĩ": 3288,
      "ĠÙĩÙħØ§ÛĮØ´": 3289,
      "ĠØ¬Ø²Ø¦ÛĮ": 3290,
      "ĠÛĮÚ©Ø´ÙĨØ¨Ùĩ": 3291,
      "Ù¾ÛĮØ´": 3292,
      "ĠÛĮØ²Ø¯": 3293,
      "ÙĪÛĮØ¯": 3294,
      "ĠÚ©Ø§Ø±ÙĩØ§ÛĮ": 3295,
      "ĠÙħÙĤØ§Ø¨ÙĦÙĩ": 3296,
      "ÙħØ¹Ø§ÙĪÙĨ": 3297,
      "ĠÛ²Û°Û±Û´": 3298,
      "ĠØµÙĨØ¯ÙĪÙĤ": 3299,
      "Û³Û¸": 3300,
      "ĠØªØ±ØªÛĮØ¨": 3301,
      "Ø¡": 3302,
      "ÙĩØ§Ùħ": 3303,
      "ĠÙħØ¬Ø§Ø²": 3304,
      "ĠÙħØ§Ø³Ùĩ": 3305,
      "ĠØ¹Ø±ØµÙĩ": 3306,
      "ĠØ§ØªØŃØ§Ø¯ÛĮÙĩ": 3307,
      "Ù¾ÙĪØ±": 3308,
      "ĠØ¯Ø§Ø¹": 3309,
      "ĠÙ¾ÛĮÚ¯ÛĮØ±ÛĮ": 3310,
      "ĠØ§Ø±ØªØ¨Ø§Ø·Ø§Øª": 3311,
      "ĠØ¹Ø¨ÙĪØ±": 3312,
      "ĠÙħÙĩØ§Ø±Øª": 3313,
      "ĠØ´ÛĮØ±Ø§Ø²": 3314,
      "ĠØ¯Ø¹ÙĪØª": 3315,
      "ĠØ²Ùħ": 3316,
      "ĠÚ¯ÛĮÙĦØ§ÙĨ": 3317,
      "ĠØ¯ÛĮØ¬ÛĮØªØ§ÙĦ": 3318,
      "ĠÙħÙĤØ±": 3319,
      "ĠØ¯Ø§Ø¯ÙĨØ¯": 3320,
      "ĠÙĪØ³ÛĮÙĦÙĩ": 3321,
      "ĠØ¯ÛĮÚ¯Ø±Ø§ÙĨ": 3322,
      "ĠØ¨Ø§ÙĤÛĮ": 3323,
      "ĠØ§ÙĦÛĮ": 3324,
      "Ø²Ø¯Ùĩ": 3325,
      "ĠØ²ÙĨÛĮ": 3326,
      "ĠÙģØ±Ø¯ÛĮ": 3327,
      "ĠØ¹Ø¨Ø§Ø±Øª": 3328,
      "ĠÙĤØ§Ø¯Ø±": 3329,
      "ĠØªØ§Ø³ÛĮØ³": 3330,
      "ĠØ¨ÙĨØ¯ÛĮ": 3331,
      "ÙĪØ´ÛĮ": 3332,
      "ĠØŃÙĤÙĪÙĤÛĮ": 3333,
      "Ú©Ø§": 3334,
      "Ø§ÛĮÙĨØ¯": 3335,
      "ĠÙħØ«Ø¨Øª": 3336,
      "ĠØ´Ø®ØµÛĮØª": 3337,
      "ĠÙĩÙħÚĨÙĪÙĨ": 3338,
      "ĠØ¨Ø²ÙĨ": 3339,
      "ĠØ¯ÛĮÙĨ": 3340,
      "ĠØ§Ø¹ÙħØ§ÙĦ": 3341,
      "Ġj": 3342,
      "art": 3343,
      "ĠÙĤØ±ÙħØ²": 3344,
      "ĠÙħÙĨØ¬Ø±": 3345,
      "Ø§Ø·ÛĮ": 3346,
      "ĠÙ¾ÙĪ": 3347,
      "ÛĮÚ©ÛĮ": 3348,
      "ĠØ§Ú©Ø³": 3349,
      "ĠØ§Ø¹ØªØ¨Ø§Ø±": 3350,
      "ĠØ°ÙĩÙĨ": 3351,
      "Ø¬Ø¹": 3352,
      "ĠØ±ÙĪØ¯": 3353,
      "ĠÙħØ§Ø²ÙĨØ¯": 3354,
      "ÙĤØ¨": 3355,
      "ĠÚ©Ø§ØºØ°": 3356,
      "Ø±ÛĮÚ©Ø§": 3357,
      "ĠØªÙĪÙĦÛĮØ¯ÛĮ": 3358,
      "ĠØ§ÙģØªØªØ§ØŃ": 3359,
      "Ø¬Ø§ÛĮÛĮ": 3360,
      "Â».": 3361,
      "Ġth": 3362,
      "ĠÙģØ¯Ø±Ø§Ø³ÛĮÙĪÙĨ": 3363,
      "ĠØ¢Ø¯Ø±Ø³": 3364,
      "ĠØªØ¶": 3365,
      "Ø±ÛĮØ¨Ø§": 3366,
      "ÙĪÙģ": 3367,
      "ĠÙħØŃØ¨ÙĪØ¨": 3368,
      "ĠØ§Ø®ÙĦØ§ÙĤ": 3369,
      "Ø²Ø§Ø¯": 3370,
      "ect": 3371,
      "ÙĨÙħ": 3372,
      "ĠØ²Ø¯ÙĨ": 3373,
      "Û´Ûµ": 3374,
      "ĠØ¬Ø§ÛĮÛĮ": 3375,
      "ĠØŃÛĮÙĪØ§ÙĨ": 3376,
      "ĠØºØ±Ø¨ÛĮ": 3377,
      "ØªÙĤØ¯": 3378,
      "ÙĦÛĮÚ©ÛĮØ´ÙĨ": 3379,
      "ĠØ¹Ø¶ÙĪÛĮØª": 3380,
      "ĠÙħØ¹ØªØ¨Ø±": 3381,
      "ĠØ²ÙĨØ¯Ø§ÙĨ": 3382,
      "ĠØ´Ø¯Øª": 3383,
      "ĠØ§Ø¯Ø¨ÛĮ": 3384,
      "ĠØ±Ø¶Ø§ÛĮØª": 3385,
      "Ø§ØµÙĩ": 3386,
      "ĠÚĨÙĩØ§Ø±Ùħ": 3387,
      "Ø²ÙĨÛĮ": 3388,
      "ĠÙħÙĩÙħØªØ±ÛĮÙĨ": 3389,
      "Ø³Ø§Ø®Øª": 3390,
      "ĠØ§Ø¹ØªØ±Ø§Ø¶": 3391,
      "ĠÚ¯ÛĮØ±Ø¯": 3392,
      "ĠÙĨÙĤØ¯": 3393,
      "Ø§Ø³ÙģØ§ÙĨÙĩ": 3394,
      "ĠØ¨ÛĮØ±ÙĪÙĨ": 3395,
      "ĠÙĤØ²": 3396,
      "Ø¢Ø®": 3397,
      "ĠÙħÙĤØ§ÙĦØ§Øª": 3398,
      "Ø§Ú¯Ø±Ø§Ùħ": 3399,
      "ĠÙħØ³Ø§Ø¨ÙĤÙĩ": 3400,
      "ĠÙĨÙħØ§Ø²": 3401,
      "ĠÙĪÛĮØ±Ø§ÛĮØ´": 3402,
      "ĠÙħØ±Ø§ØŃÙĦ": 3403,
      "ĠØ§Ø´ØªØ¨Ø§Ùĩ": 3404,
      "ĠØ¯Ø±ØµØ¯ÛĮ": 3405,
      "ĠØ§Ø´ØªØ±Ø§Ú©": 3406,
      "ce": 3407,
      "ĠÚ¯Ùħ": 3408,
      "ĠÙĤÙĩ": 3409,
      "ØŃØ§Øª": 3410,
      "ÙħÛĮÙĦÛĮ": 3411,
      "ĠØ§Øº": 3412,
      "ĠÙĨÙĤØ§Ø·": 3413,
      "ĠØ·Ø¨ÙĤÙĩ": 3414,
      "ĠØŃÚ©Ùħ": 3415,
      "ĠÙħØ§ÛĮ": 3416,
      "ĠÙħØ®ØªÙĦÙģÛĮ": 3417,
      "Ø±ÙĪÙħ": 3418,
      "ĠØ¨Ø±ÙĤÛĮ": 3419,
      "ord": 3420,
      "ack": 3421,
      "ĠÙĨÙħØ§ÛĮÙĨØ¯Ú¯ÛĮ": 3422,
      "ĠØ¨Ú¯Ø°Ø§Ø±": 3423,
      "ĠÚ¯Ø§Ùħ": 3424,
      "ĠÚ©Ø´Ùģ": 3425,
      "ĠÙ¾Ø²Ø´Ú©": 3426,
      "Ġx": 3427,
      "ĠÙĨØ´Ø¯": 3428,
      "ĠÚ©Ø§ÙĨÙĪÙĨ": 3429,
      "ĠØ§ÙĦÚ©ØªØ±ÙĪÙĨÛĮÚ©ÛĮ": 3430,
      "if": 3431,
      "Ø§ÙĦØ§Ø³ÙĦØ§Ùħ": 3432,
      "ĠØªØ±Ø¨ÛĮØª": 3433,
      "ĠØ¹ÙĩØ¯Ùĩ": 3434,
      "ÙĪØŃ": 3435,
      "ĠÚĨØ±Ø¨ÛĮ": 3436,
      "ÙĪÚ¯ÙĪ": 3437,
      "ĠØªØ§ÙĨ": 3438,
      "Ø¹Ùħ": 3439,
      "ĠØ¬ÙĨØ³": 3440,
      "ĠØ´Ø§Ø±Úĺ": 3441,
      "ĠØ¯Ø§ÙĪ": 3442,
      "ĠÙĩÙħØ³": 3443,
      "Ø§ÙģØ²": 3444,
      "ĠÚ©Ø´ØªÛĮ": 3445,
      "ĠÙĦØ±": 3446,
      "ĠÚ¯ÙģØªÚ¯ÙĪ": 3447,
      "ĠØ´Ø§Ø¯": 3448,
      "ĠÙħØŃÙĤÙĤ": 3449,
      "ĠØ²Ø§Ø¯Ùĩ": 3450,
      "ĠØ¨Ø§Ø²Ø±": 3451,
      "ĠØ§Ø±ØªØ´": 3452,
      "ĠØ§Ø³ÙĨØ§Ø¯": 3453,
      "ĠØ§ÙĦÙħ": 3454,
      "ĠÙĩÙĪØ§ÛĮÛĮ": 3455,
      "ĠÙĪØ§Ø±Ø¯Ø§Øª": 3456,
      "Ú¯ÙĪÛĮÙĨØ¯": 3457,
      "ĠØ¨ÙĪØ´": 3458,
      "ĠÙħØ§Ø¬": 3459,
      "ĠØ¯Ø±Ø¨": 3460,
      "ĠØªÙĪØ§ÙĨØ§ÛĮÛĮ": 3461,
      "ĠÙħÙĪÙĦ": 3462,
      "Ø®ÙĪØ¯": 3463,
      "Ø§Ú©ÙĨÙĪÙĨ": 3464,
      "ĠÙģØ±ÙĪØ¯": 3465,
      "ĠØªØ´Ú©Ø±": 3466,
      "ĠÙģÙĦØ²ÛĮ": 3467,
      "ĠØªØ±Ø³": 3468,
      "ÙĨÙĪØ´ØªÙĩ": 3469,
      "ĠØŃØ³Ø§Ø³": 3470,
      "ĠØ¯ÛĮØ¯ÙĨ": 3471,
      "ĠÙĩÙħÙĪØ§Ø±Ùĩ": 3472,
      "Ø§ÙĨÛĮØ§": 3473,
      "ÙħØŃÙħØ¯": 3474,
      "ĠÙĪÛĮØ¯ÛĮ": 3475,
      "ĠØ¯Ú©ÙĪØ±": 3476,
      "ĠÙĤØ¶Ø§ÛĮÛĮ": 3477,
      "ĠÙ¾Øª": 3478,
      "ĠØ¨Ø§ÙĪØ±": 3479,
      "ĠØ¯Ú©ØªØ±ÛĮ": 3480,
      "Ø²Ø§Ùħ": 3481,
      "ĠØ¹Ø¬ÛĮ": 3482,
      "ĠØŃØ³ÛĮÙĨÛĮ": 3483,
      "ĠØŃÚ©ÙĪÙħØª": 3484,
      "ÙĦØ²": 3485,
      "ĠÙĩÙħØ²ÙħØ§ÙĨ": 3486,
      "ÙģÛĮÙģ": 3487,
      "ĠÙĪØ¹": 3488,
      "ĠØ¨ÛĮÙĨÛĮ": 3489,
      "ĠÚĨÙĨØ¯ÛĮÙĨ": 3490,
      "ĠØŃØ²Ø¨": 3491,
      "ĠØªÙģØ§ÙĪØª": 3492,
      "ÙĨÙĪ": 3493,
      "ĠØ¹Ø±ÙĪØ³": 3494,
      "ĠÙĨÙħØ§ÛĮØ¯": 3495,
      "ĠÚ©ÙĨØ³": 3496,
      "ĠØªØŃÙĦÛĮÙĦÛĮ": 3497,
      "ÙħØªØ±": 3498,
      "Ú¯Ø§Ø±ÛĮ": 3499,
      "Ø§ØŃØ¨Ùĩ": 3500,
      "ĠÚ©Ø§Ø±Ú©ÙĨØ§ÙĨ": 3501,
      "Ú©Ø§ÙĦ": 3502,
      "Ø§Ø®Ø¨Ø§Ø±": 3503,
      "ĠÙħØ±ÙĪØ±": 3504,
      "ĠØ³Ø§Ø¹": 3505,
      "ĠÙĦØŃØ§Ø¸": 3506,
      "ĠÙĨØ§Ø®": 3507,
      "Ø³ØªØ±ÛĮ": 3508,
      "ĠâĢ¢": 3509,
      "ĠØªÙĩØ¯ÛĮØ¯": 3510,
      "ĠÙħØ§Ø³": 3511,
      "Ø´ÙĨØ§ÙħÙĩ": 3512,
      "ĠÙ¾Ø§Ø±Ø³": 3513,
      "ĠØŃØ§Ø¬": 3514,
      "ĠÛ³Û°Û°": 3515,
      "Ø±ÙĨØ´Ø§ÙĨ": 3516,
      "ĠÙĪØ³Ø§ÛĮÙĦ": 3517,
      "ĠØ´ÙĩØ§Ø¯Øª": 3518,
      "ex": 3519,
      "Ø§Ú©Ø³": 3520,
      "ĠØ±Ø¯": 3521,
      "ĠÚ¯Ø§Ø±Ø§ÙĨØªÛĮ": 3522,
      "ÚĨÙĩØ§Ø±": 3523,
      "Ø§ÙĨÚ¯ÛĮ": 3524,
      "Ø·ÙĦ": 3525,
      "ĠÚ¯Ø±Ø¯ÛĮØ¯": 3526,
      "est": 3527,
      "ĠØ§ÙĦÚ©ØªØ±ÙĪÙĨÛĮÚ©": 3528,
      "ĠØ¨Ø±Ø§Ø³Ø§Ø³": 3529,
      "ĠØ¯Ø§Ø¹Ø´": 3530,
      "ĠØ¢ÙĤ": 3531,
      "ĠÙħÙĪØ³Ø³Ùĩ": 3532,
      "ĠØ¬Ø³ØªØ¬ÙĪ": 3533,
      "Ø±Ø¶": 3534,
      "Ø§ÛĮØ±Ø§ÙĨ": 3535,
      "ĠØ¨ÛĮØ³Øª": 3536,
      "ĠÙĨÛĮØ§Ø²ÙħÙĨØ¯": 3537,
      "ĠØ´ÛĮÙĪÙĩ": 3538,
      "ĠÛ¸Û¸": 3539,
      "ĠØ§ÙĦØ§ÙĨ": 3540,
      "ØªÙĪØ¬Ùĩ": 3541,
      "ĠÙĤÙĩÙĪÙĩ": 3542,
      "ĠÙħØ±Ø¨ÛĮ": 3543,
      "Ø§Ú©ØªÙĪØ±": 3544,
      "Ø¨ÙĦØª": 3545,
      "ĠØ®Ø§Ø·Ø±ÙĨØ´Ø§ÙĨ": 3546,
      "ĠØ´Ú©ÙĨ": 3547,
      "ĠØ§Ù¾ÙĦ": 3548,
      "Ø§ÙĪÙĨØ¯": 3549,
      "ĠØ³ÛĮÙĨÙħØ§ÛĮÛĮ": 3550,
      "ĠØ®Ø´": 3551,
      "ĠØ¨ÙĨØ§": 3552,
      "ĠØ³ÙĩÙħ": 3553,
      "ĠØ®Ø§Ùħ": 3554,
      "Ø¯Ú©": 3555,
      "Ù¾Ø§": 3556,
      "Ø§ÙħÙĦÙĩ": 3557,
      "ĠØ¯ÙĪÙħÛĮÙĨ": 3558,
      "Ø§ÙĦÙħ": 3559,
      "ĠÛĮÚ©Ø¯ÛĮÚ¯Ø±": 3560,
      "ĠØ¨Ø§ÙĦØ§ÛĮÛĮ": 3561,
      "ĠÙĨÙĪØ¬ÙĪØ§ÙĨ": 3562,
      "Ø§Ø±ÚĨ": 3563,
      "ĠÛĮØ§Ø±": 3564,
      "ĠØ¨Ú¯ÛĮØ±Ø¯": 3565,
      "âĢĵ": 3566,
      "Ú¯ÙĪÛĮÛĮ": 3567,
      "ÙĨØ§Ú©": 3568,
      "ĠÚ©Ø´Øª": 3569,
      "Ú©Ø¯Ùĩ": 3570,
      "Ú¯Ø±ÙģØªÙĩ": 3571,
      "ĠØ¶Ø±ÙĪØ±ÛĮ": 3572,
      "ĠØªØµÙĪÛĮØ¨": 3573,
      "ĠØ´Ø¨ÛĮÙĩ": 3574,
      "ĠÙĪØ§ÙĤØ¹Ø§": 3575,
      "ĠÙ¾ÛĮØ§Ø¯Ùĩ": 3576,
      "ØªØ¹Ø¯Ø§Ø¯": 3577,
      "ĠÙĤÙĪÛĮ": 3578,
      "ÙĩØ±Ø³Øª": 3579,
      "ĠÙ¾Ø±ÙĪØ§Ø²": 3580,
      "ĠØ¢ÙĪØ±Ø¯Ùĩ": 3581,
      "ĠØ¢Ø´ÙĨØ§ÛĮÛĮ": 3582,
      "ĠÙģØ±Ø§ÙħÙĪØ´": 3583,
      "ĠØ¨Ø³ÛĮØ¬": 3584,
      "ØªØµØ§ÙĪÛĮØ±": 3585,
      "ĠÙ¾ÛĮØ´Ú¯ÛĮØ±ÛĮ": 3586,
      "ĠØ¹Ú©": 3587,
      "ÛµÛ¶": 3588,
      "Ø§Ø³ØªÙģØ§Ø¯Ùĩ": 3589,
      "ĠÙĨÚ©Ø±Ø¯Ùĩ": 3590,
      "ĠØ§ÛĮØ±ÙĨØ§": 3591,
      "ĠØµØŃÙĨÙĩ": 3592,
      "ĠØ®ÙĪØ±Ø´": 3593,
      "ĠØ¨Ø®ÙĪØ§ÙĨ": 3594,
      "ÙĨÙħØ§ÛĮÛĮ": 3595,
      "Ø²ÙĨØ¯": 3596,
      "ĠØ§Ø¯Ø¹": 3597,
      "ĠÚ¯Ø°Ø§Ø´ØªÙĩ": 3598,
      "ÛĮØ§Ø±": 3599,
      "Ú¯Ø§Ø¨Ø§ÛĮØª": 3600,
      "ĠØ¶Ø±Ø¨Ùĩ": 3601,
      "ĠÙĩÙħØ§ÙĩÙĨÚ¯ÛĮ": 3602,
      "Û´Û·": 3603,
      "ort": 3604,
      "ĠØ¹Ùģ": 3605,
      "ĠØ´Ùģ": 3606,
      "ĠÙħØ¯Ø§Ø±": 3607,
      "az": 3608,
      "ØªÙħÙĨØ¯": 3609,
      "Ø§Ø±Ùģ": 3610,
      "ĠØ³Ø§Ø®ØªØ§Ø±": 3611,
      "ĠØ§Ù¾ÙĦÛĮÚ©ÛĮØ´ÙĨ": 3612,
      "ĠØªÙħØ§Ø´": 3613,
      "Ø§Ø³ØªÛĮÚ©": 3614,
      "ĠØªØ±Ùħ": 3615,
      "ØªØ±Ùħ": 3616,
      "ĠØªÙĪÙ¾": 3617,
      "ĠÛ¹Û³": 3618,
      "ĠÙħØ§Ø²ÙĨØ¯Ø±Ø§ÙĨ": 3619,
      "Ø¯Ø§ÛĮÛĮ": 3620,
      "ÙģÙĦ": 3621,
      "ĠØ¨Ø±Ø¬Ø§Ùħ": 3622,
      "Ø§Ù¾ÛĮ": 3623,
      "âĢ¢": 3624,
      "ĠØ®ÙħÛĮÙĨÛĮ": 3625,
      "ĠØŃØ±": 3626,
      "ÙĪØ±ÛĮØª": 3627,
      "ĠPro": 3628,
      "ĠØµØ¯ÙĪØ±": 3629,
      "ĠØ¬ÙĪØ§Ø¨": 3630,
      "ĠØ¨Ø§Ø²Ú¯Ø´Øª": 3631,
      "ĠØªØ¦": 3632,
      "ĠØ³Ø§Ø¨ÙĤ": 3633,
      "Ù¾Ø±Ø³Øª": 3634,
      "ĠÚ©ÙĦÛĮØ¯": 3635,
      "ĠØ³ÙĨØ¬": 3636,
      "ĠÙģØ¶Ø§": 3637,
      "ÙħØ¯ÙĦ": 3638,
      "ĠØ§ÙĩÙĦ": 3639,
      "ĠØ·ÙĪÙĦØ§ÙĨÛĮ": 3640,
      "ĠÙ¾Ø§ÛĮØ¯": 3641,
      "https": 3642,
      "Ø¢Ø®Ø±ÛĮÙĨ": 3643,
      "Ú¯ÙĪÙĨ": 3644,
      "ĠØ´ÙĩØ±ÙĪÙĨØ¯Ø§ÙĨ": 3645,
      "Ø¨Ø®": 3646,
      "ĠÚ¯Ø§ÙĩÛĮ": 3647,
      "ĠÙħØ¹Ø¯ÙĨÛĮ": 3648,
      "ĠÙĦØ·ÙģØ§": 3649,
      "ĠØµÙĪØªÛĮ": 3650,
      "ĠÛ±Û³Û¹Û±": 3651,
      "ĠØ§Ø·ÙĦØ§Ø¹Ø§ØªÛĮ": 3652,
      "ĠÙħØ²Ø§ÛĮ": 3653,
      "ĠØ¹ÛĮØ¯": 3654,
      "Ø´ÛĮÙĨ": 3655,
      "ĠØ§ÛĮÙĨØ³ØªØ§Ú¯Ø±Ø§Ùħ": 3656,
      "ĠØ³ÙĨÚ¯ÛĮÙĨ": 3657,
      "se": 3658,
      "ĠØ´Ø±ØŃ": 3659,
      "Ø´Ø¨": 3660,
      "ĠÚ©ÙĨÙģ": 3661,
      "Ø¯ÙĦ": 3662,
      "ĠÂ·": 3663,
      "ĠÙħØŃØ§ÙģØ¸": 3664,
      "ĠÙħØªÙĪØ¬Ùĩ": 3665,
      "ĠØ§ØªØµ": 3666,
      "ĠØªØŃÙĪÙĦ": 3667,
      "Ø¹Ø§Ø¯": 3668,
      "ĠØ¢Ø³Øª": 3669,
      "ĠØ¬ÙĪØ´": 3670,
      "ØªÙĨÙĩØ§": 3671,
      "Û²Û³": 3672,
      "ĠÙĦØŃØ¸Ùĩ": 3673,
      "one": 3674,
      "ĠØ§Ø¬Ø§Ø±Ùĩ": 3675,
      "ĠÚĺØ§Ù¾": 3676,
      "ĠØ±Ø§ØŃØª": 3677,
      "ÙĨÙĪØ¹": 3678,
      "Ù¾Ø§Ø³": 3679,
      "ĠÛĮØ§ÙģØªÙĩ": 3680,
      "Ġ;": 3681,
      "ĠØ³Ø±Ø®": 3682,
      "ĠØ¬ÙĩØ§Ø¯": 3683,
      "ĠÙ¾ÛĮØ´Ø±ÙģØªÙĩ": 3684,
      "Ø¨Ø¹Ø¯ÛĮ": 3685,
      "ĠØ´Ø³Øª": 3686,
      "ĠØªÙĤØ¯": 3687,
      "ĠØ´ÙĨØ§Ø®ØªÙĩ": 3688,
      "ĠØ¨ÛĮØª": 3689,
      "ĠØªØ¨ÙĦØª": 3690,
      "Ù¾Ø°": 3691,
      "ĠØ¹ÙħØ±": 3692,
      "ĠØ²ÛĮØ¨Ø§ÛĮ": 3693,
      "ĠØªØŃØµÛĮÙĦ": 3694,
      "ĠÙĤÙĩØ±ÙħØ§ÙĨÛĮ": 3695,
      "ĠØ´Ø±ÙĤÛĮ": 3696,
      "ÙĨØ³": 3697,
      "ØºÙĩ": 3698,
      "ĠØ´Ø¹Ø±": 3699,
      "ĠØ§ÙĨØªØ¸Ø§ÙħÛĮ": 3700,
      "ĠÚĨØ§ÙĦØ´": 3701,
      "ÛµÛ·": 3702,
      "ĠØªÚ©Ø±": 3703,
      "Û´Û¶": 3704,
      "ĠØ¨Ø²Ø±Ú¯ØªØ±ÛĮÙĨ": 3705,
      "ĠØµØŃÛĮØŃ": 3706,
      "Ø¯Ø§ÙħÛĮ": 3707,
      "ĠÙħØŃÚ©": 3708,
      "ĠØ¢ÙħÙĪØ²Ø§ÙĨ": 3709,
      "ĠÙħÙĨØªØ¸": 3710,
      "ĠÙħØ¹Ø§ÙĪÙĨØª": 3711,
      "ĠÙħØ¨ÙĨÛĮ": 3712,
      "ĠÙĪØ¸ÛĮÙģÙĩ": 3713,
      "ĠØ¯Ø±Ú©": 3714,
      "ĠØªØ£ÙħÛĮÙĨ": 3715,
      "ĠØ¨ÙĨÛĮØ§Ø¯": 3716,
      "Ø¨ÙĦÙĩ": 3717,
      "ĠÙĩØ³ØªÙħ": 3718,
      "ĠÙħØµØ§ØŃØ¨Ùĩ": 3719,
      "ĠÚ©Ø§Ø¨ÙĦ": 3720,
      "ĠØ¬ÙĨØ³ÛĮ": 3721,
      "ĠØ§Ø³ØªØ®Ø±Ø§Ø¬": 3722,
      "nd": 3723,
      "ÙĪØ§ÛĮ": 3724,
      "ĠØ¢Ø±Ø§ÛĮØ´": 3725,
      "ĠÚ¯ÙĪØ´Øª": 3726,
      "ĠØ¨ÙĨØ¯Ø±": 3727,
      "Ø§ÙĪØ±Ø¯": 3728,
      "ĠØ®ÙĪØ§ÙĩÛĮØ¯": 3729,
      "ĠØ³Ø§Ø®ØªÙħØ§ÙĨÛĮ": 3730,
      "ĠØ¢Ø´Ù¾Ø²": 3731,
      "ĠÙħØŃØ³ÙĨ": 3732,
      "ĠØ§Ø®ØªÙĦØ§Ùģ": 3733,
      "Ġfor": 3734,
      "Ø¬Ø§Øª": 3735,
      "ĠÛĮÙĪÙĨ": 3736,
      "ØŃÙĦ": 3737,
      "Ø¯Ø±Ø¶Ø§": 3738,
      "ĠØªÙĤØ±ÛĮØ¨Ø§": 3739,
      "ĠÙĦØºÙĪ": 3740,
      "Ø¨ÙĨ": 3741,
      "Ø¶Ø§ÙĨ": 3742,
      "ĠØ±ÙĤÙħ": 3743,
      "Ø±ÙģØª": 3744,
      "ĠÙĦØ°Øª": 3745,
      "ĠØ¨Ø§ÙĨÙĪØ§ÙĨ": 3746,
      "Ø²ÙĪÙħ": 3747,
      "ĠØ¢ÙĨØ¬Ø§": 3748,
      "ĠÙĩÙĪØ§ÛĮ": 3749,
      "ĠØ¨Ø§Ø²Ø±Ú¯Ø§ÙĨÛĮ": 3750,
      "ĠØ¨Ø§Ø²Ø§Ø±ÛĮØ§Ø¨ÛĮ": 3751,
      "Ø§ØªØ±ÛĮÙĨ": 3752,
      "ÙģÛĮÙĦÙħ": 3753,
      "ĠØ´Ø§ÛĮ": 3754,
      "ĠÙħØ¹ÙĨÛĮ": 3755,
      "ĠÙĪØ±ÙĪØ¯ÛĮ": 3756,
      "ĠÙħØ«ÙĦØ§": 3757,
      "ØªÚ©": 3758,
      "ĠÙħØ·Ùħ": 3759,
      "ĠØ¨ÙĨØ§Ùħ": 3760,
      "Ġvi": 3761,
      "ĠØ¨Ø§Ø²ÛĮÚ¯Ø±": 3762,
      "ĠÙħÙĩÙħÛĮ": 3763,
      "ĠÙģØ±Ø¢ÛĮÙĨØ¯": 3764,
      "ĠØ§Ø¨ØªØ¯Ø§ÛĮ": 3765,
      "log": 3766,
      "ĠÙĪØ§Ø¨": 3767,
      "ĠÙģØ³": 3768,
      "ran": 3769,
      "ĠÚ©Ø§Ø´": 3770,
      "ĠÙħÙĨØ§Ø³Ø¨ÛĮ": 3771,
      "Ú©Ø§Ùħ": 3772,
      "ĠÚ©Ø§Ø¨": 3773,
      "Ø§ÙĦÙĪ": 3774,
      "ĠØªØ³ÙĩÛĮÙĦØ§Øª": 3775,
      "ĠØ¨ÛĮÙħØ§Ø±Ø§ÙĨ": 3776,
      "Ø®ÙĪØ§ÙĩÙĨØ¯": 3777,
      "ian": 3778,
      "ĠØ§Ø³Ø±": 3779,
      "ĠØ¯ÙĩÛĮÙħ": 3780,
      "ÙĤØ§ÙĨ": 3781,
      "ĠØ³Ø±ÙĪØ±": 3782,
      "ĠØ§ÙĨØªÙĤØ§Ø¯": 3783,
      "ĠØªØ£Ø«ÛĮØ±": 3784,
      "ĠØ¨ÙĩØ§Ø±": 3785,
      "ĠÚ¯ÙĪÙĨ": 3786,
      "ĠØ¨ÛĮØ´ØªØ±ÛĮÙĨ": 3787,
      "ĠÚ¯Ø±Ø¯Ø¯": 3788,
      "ĠØ¸Ø§ÙĩØ±": 3789,
      "ĠÛ²Û°Û±Û³": 3790,
      "ĠÙħØ°Ùĩ": 3791,
      "ĠÙħÙĪÙĤØ¹ÛĮØª": 3792,
      "Ø§ÙĪØ±ÛĮ": 3793,
      "Ø³ÙĪØ±": 3794,
      "ĠÙħØŃÙĦÛĮ": 3795,
      "ĠÙĦØ°Ø§": 3796,
      "ĠÙģÛĮÙĦØªØ±": 3797,
      "ĠØ®ÙĪØ¯Ø±ÙĪÛĮ": 3798,
      "ĠÙ¾Ø°ÛĮØ±Ø´": 3799,
      "ĠÙ¾Ø±ÙĪØª": 3800,
      "Ø´ÙħØ§": 3801,
      "ÙĪÙĦØª": 3802,
      "ĠØµÙģØ±": 3803,
      "ĠØ¯ÛĮÙĪØ§Ø±": 3804,
      "ÙĪÚ¯Ø±Ø§ÙģÛĮ": 3805,
      "ĠÙħØ³Ø¦ÙĪÙĦÛĮØª": 3806,
      "ĠØ³ÙĦÙĪÙĦ": 3807,
      "ĠØ§Ø³ØªÙĤØ¨Ø§ÙĦ": 3808,
      "Ø´Ø§Ø¯": 3809,
      "ĠÙĨØ´Ø§ÙĨÙĩ": 3810,
      "ĠØ±Ø¶ÙĪÛĮ": 3811,
      "ĠØ§Ø¨Ø¹Ø§Ø¯": 3812,
      "ĠØ·Ø¨ÛĮØ¹Øª": 3813,
      "ive": 3814,
      "ud": 3815,
      "ĠØ¨ÙĪØ¯Ùħ": 3816,
      "ĠÙħØ¹Ø§ÙħÙĦÙĩ": 3817,
      "ĠÙħØ¬ÙħØ¹": 3818,
      "ĠØ®ÛĮØ±": 3819,
      "are": 3820,
      "Û´Û´": 3821,
      "iz": 3822,
      "ĠØ±ÛĮØ§Ø¶ÛĮ": 3823,
      "ĠÚĨØ´": 3824,
      "ĠØ´ÙĩØ±Ú©": 3825,
      "ĠØ¢Ø¯Ùħ": 3826,
      "ĠÙ¾Ø§ÙĨ": 3827,
      "ĠÙħØ¹Ø§Ø¯ÙĨ": 3828,
      "our": 3829,
      "ĠØ§ØŃÙħØ¯ÛĮ": 3830,
      "ĠØ§ØµÙĦØ§": 3831,
      "ĠØ¨Ø±Ø¯Ø§Ø´Øª": 3832,
      "ĠØ§Ø®ØªØµØ§ØµÛĮ": 3833,
      "ĠØ®ÙĪØ±Ø¯ÙĨ": 3834,
      "ĠÙħØªÙĩ": 3835,
      "ĠÙħØ¹ØªÙĤØ¯": 3836,
      "ĠØ¢ÙħØ§Ø¯Ú¯ÛĮ": 3837,
      "ĠØ¨ÙĩÛĮÙĨÙĩ": 3838,
      "ĠØŃØ¯Ø§Ú©": 3839,
      "ĠÙħØºØ²": 3840,
      "ÛĮØ¯Ø§Ø¯": 3841,
      "ĠØ³Ø±Ú¯Ø±": 3842,
      "ĠØ¨Ø²Ø±Ú¯ÛĮ": 3843,
      "ØªÙĪÙĦ": 3844,
      "ĠÛ²Û°Û²Û°": 3845,
      "ĠÙħØ±Ø¯Ø§ÙĨ": 3846,
      "ĠØ´Ø±ÙĤ": 3847,
      "Ø´ÙĪÛĮÛĮ": 3848,
      "Ù¾Ø±ÙĪ": 3849,
      "ĠØŃØ§Ú©": 3850,
      "ĠØ±ÙĪØ²Ùĩ": 3851,
      "Ġy": 3852,
      "Ø±ÙĤ": 3853,
      "ĠÙģÙĩØ±Ø³Øª": 3854,
      "ĠÙĪÙĦØ§ÛĮØª": 3855,
      "Ø§ÚĨØ§ÙĤ": 3856,
      "Ø®ÙĦ": 3857,
      "ĠØ§ÙĨÛĮÙħ": 3858,
      "ĠÛ´Ûµ": 3859,
      "ĠÙĤØ²ÙĪÛĮÙĨ": 3860,
      "ĠÙħØŃØªØ±Ùħ": 3861,
      "ĠØ²ÛĮØ³Øª": 3862,
      "ĠØ§Ú¯Ùĩ": 3863,
      "ĠÚ©ÛĮÙĦÙĪÙħØªØ±": 3864,
      "ĠÚ©Ø§Ø±Ú¯Ø§Ùĩ": 3865,
      "ĠÚ©Ø±Ø¬": 3866,
      "ĠØµØ§ØŃØ¨": 3867,
      "ĠØ¢Ø´Ù¾Ø²Ø®Ø§ÙĨÙĩ": 3868,
      "Ø³Ú©": 3869,
      "ĠØªÙĨØ¯": 3870,
      "Ø§ØªÙĪØ±": 3871,
      "Ø®ÙĪØ§ÙĩÛĮÙħ": 3872,
      "ĠØ¬Ø²Ø¦ÛĮØ§Øª": 3873,
      "ÚĺØ§ÙĨØ³": 3874,
      "ÙĪØ±ÙĪ": 3875,
      "ĠÚ¯ÙĨ": 3876,
      "ĠØ®ÙĪØ¯Ùħ": 3877,
      "ĠÚ¯Ø°Ø´Øª": 3878,
      "ĠÚ©ØªØ§Ø¨Ø®Ø§ÙĨÙĩ": 3879,
      "ĠÙĨÙĪØ³": 3880,
      "ĠØ±ÙĪØ³ØªØ§ÛĮÛĮ": 3881,
      "ĠØ§ÙģØ³": 3882,
      "Ú©Ø±Ø¯ÙĨØ¯": 3883,
      "ÙĨÙĤ": 3884,
      "ĠØ¯ÙĦØ§ÛĮÙĦ": 3885,
      "ÚĨÙĨØ¯": 3886,
      "ĠÙħØªØ§Ø³ÙģØ§ÙĨÙĩ": 3887,
      "ĠØ®Ø±ÙĪØ¬": 3888,
      "ĠØŃÛĮÙĪØ§ÙĨØ§Øª": 3889,
      "Ú©ØªØ§Ø¨": 3890,
      "ĠØ§ÙĪÙĦÙĪÛĮØª": 3891,
      "ÙħØ§ÙĨØ¯Ùĩ": 3892,
      "ĠÚ©Ø§Ø±Ú¯Ø±Ø§ÙĨ": 3893,
      "ĠØ±Ø§ÙĩÛĮ": 3894,
      "ĠØªÙĪÙĦØ¯": 3895,
      "ĠÙĨÙĪØ¹ÛĮ": 3896,
      "ĠØ¹Ø¯Ø§ÙĦØª": 3897,
      "ĠØ¹Ø¬ÛĮØ¨": 3898,
      "ĠÛĮØ®": 3899,
      "ĠØ¯Ø§Ø¯Ú¯Ø§Ùĩ": 3900,
      "Ú©ØªÙĪØ±": 3901,
      "ĠØ®ÙĪØ¯Ø±ÙĪÙĩØ§ÛĮ": 3902,
      "ÙħØ±Ø¯": 3903,
      "ĠÛ³Û´": 3904,
      "Ù¾Ø§Ø±": 3905,
      "ĠÙħÙĨØŃ": 3906,
      "ĠÙħØ¯Ø±ÙĨ": 3907,
      "ĠÙħÛĮØ±Ø§Ø«": 3908,
      "ĠØŃØ§ÙģØ¸Ùĩ": 3909,
      "Ø±ÙĨÚ¯": 3910,
      "ĠØ§Ø®Ø°": 3911,
      "ĠØ¬Ø§ÛĮØ²Ùĩ": 3912,
      "ĠÛĮÙĪ": 3913,
      "ĠÙĪØ¹Ø¯Ùĩ": 3914,
      "Ø±Ø§ÙģÛĮ": 3915,
      "Û²Û¹": 3916,
      "ĠØ´ÙĩØ±ÙĩØ§ÛĮ": 3917,
      "Ø¯ÛĮÙĩ": 3918,
      "ĠÛ³Û¸": 3919,
      "ĠØ®ÙĦØ§ÙĤ": 3920,
      "ĠÚ©Ø´ÙĪØ±ÛĮ": 3921,
      "ÙĪÛĮØ§": 3922,
      "ĠÙħØ³ØªÙĨØ¯": 3923,
      "ĠØªØ£Ú©ÛĮØ¯": 3924,
      "ÙĪØ°": 3925,
      "Û´Û¸": 3926,
      "ĠØºÙĦ": 3927,
      "Û³Û±": 3928,
      "ĠÙĨÛĮØ³ØªÙĨØ¯": 3929,
      "ĠØªÙĤØ§Ø¶": 3930,
      "ĠÙĨØ´ÙĪØ¯": 3931,
      "ĠØ²Ø®": 3932,
      "ĠØ±Ø§ÙĩÙĨÙħØ§ÛĮ": 3933,
      "ĠÙĤØ§ÚĨØ§ÙĤ": 3934,
      "ĠZ": 3935,
      "ĠÚĨÙĤØ¯Ø±": 3936,
      "ĠÙħØ¯ÛĮØ±Ø¹Ø§ÙħÙĦ": 3937,
      "ĠØ¹Ø¨Ø§Ø³": 3938,
      "Ø¢ÙĩÙĨ": 3939,
      "Ø§Ø¯Ø§Ø±": 3940,
      "ra": 3941,
      "ÙħÙĪØ¹": 3942,
      "Û±Û±Û": 3943,
      "ĠØ¯Ø§Ø±ÛĮ": 3944,
      "Ø§Ú©Øª": 3945,
      "ÙĪÛĮØ´": 3946,
      "ÛĮÙĨØ§ÙĦ": 3947,
      "ØŃØ³ÛĮÙĨ": 3948,
      "Ø§Ú¯ÙĪÙĨ": 3949,
      "ĠØ´ÛĮÙħÛĮØ§ÛĮÛĮ": 3950,
      "ĠØŃÙģØ§Ø¸Øª": 3951,
      "ist": 3952,
      "ĠØªØ¯Ø±ÛĮ": 3953,
      "ÚĺÛĮÚ©": 3954,
      "ĠÚĺÙĨ": 3955,
      "ile": 3956,
      "Ø§ÛĮÙĤ": 3957,
      "ĠØ¢ÙĨÚ©Ùĩ": 3958,
      "Ø¹ÙĨÙĪØ§ÙĨ": 3959,
      "ØªÛĮÚ©": 3960,
      "ĠÙĪØ§ØŃØ¯ÙĩØ§ÛĮ": 3961,
      "ĠÙħØ¬ÙħÙĪØ¹": 3962,
      "ĠØ¹ÙĤØ¨": 3963,
      "ÙĨÙħØ§ÛĮØ¯": 3964,
      "ĠØ¯Ú©ÙĪØ±Ø§Ø³ÛĮÙĪÙĨ": 3965,
      "ĠØ§ÙĨÚ¯ÛĮ": 3966,
      "ĠÚ©Ø´ØªÙĩ": 3967,
      "ĠØªØ¹ÙĪÛĮ": 3968,
      "Ø®Ø§ÙĨ": 3969,
      "ĠÙħØ±Ø¯ÙħÛĮ": 3970,
      "oc": 3971,
      "ÙĦÛĮÙħ": 3972,
      "ĠÙħØªÙĤØ§Ø¶ÛĮ": 3973,
      "ĠÙ¾ÙĦØ§Ø³": 3974,
      "Ø¯Ú©ØªØ±": 3975,
      "ĠÙ¾Ø§Ø¯": 3976,
      "ĠØ§Ø³Ú©": 3977,
      "ĠÙħÙĨÙģÛĮ": 3978,
      "ĠØ¯ÛĮÙĨÛĮ": 3979,
      "ĠØªÙħØ§ÛĮ": 3980,
      "ÙĪÙĦØ§ÙĨ": 3981,
      "ĠØ§ØŃØ¯": 3982,
      "Ø²Ùħ": 3983,
      "ĠØ¢ÙģØªØ§Ø¨": 3984,
      "ĠÙħØ§Ø±": 3985,
      "ĠØ³Ø§Ø¨ÙĤÙĩ": 3986,
      "ÛĮØ¯ÙĨÛĮ": 3987,
      "ĠØªØµØ§Ø¯": 3988,
      "Ø§ÙħØ¯": 3989,
      "ĠØ¨Ø§ÙĦØ§ØªØ±": 3990,
      "Ø³Ø±ÛĮ": 3991,
      "ĠÚĨÚ©": 3992,
      "ÙĪÙħÙĩ": 3993,
      "ĠØ§Ú©Ø«Ø±": 3994,
      "Ø§Ø±ØªÙħØ§ÙĨ": 3995,
      "ĠØŃØ¬Øª": 3996,
      "ĠÙĩØ§Ø´ÙħÛĮ": 3997,
      "ĠÚ©Ø±Ø¯Ø³ØªØ§ÙĨ": 3998,
      "Ø²Ø´Ú©ÛĮ": 3999,
      "Ø§Ø²Ø¯ÙĩÙħ": 4000,
      "ĠØ¨Ø§Ø²ÛĮÚ¯Ø±Ø§ÙĨ": 4001,
      "ĠØªÙĪØ§ÙĨØ³Øª": 4002,
      "ĠØ¯Ùħ": 4003,
      "ĠØªØ§ÙĦ": 4004,
      "ĠÙģØ§Ø±Ú©Ø³": 4005,
      "ĠÙħÙĦÙĦ": 4006,
      "ĠÙģØ±ÙħØ§ÙĨØ¯Ùĩ": 4007,
      "ĠØ¬Ø¯ÙĪÙĦ": 4008,
      "ĠØ¢Ú¯Ø§ÙĩÛĮ": 4009,
      "ĠÙħÙĨØ§ÙĤØµÙĩ": 4010,
      "ĠØ±Ø³ØªÙĪØ±Ø§ÙĨ": 4011,
      "ub": 4012,
      "ĠÚ¯ÛĮØ§ÙĩØ§ÙĨ": 4013,
      "ĠÙĨØ§ÙĨ": 4014,
      "Ø§Ø´ÙĨ": 4015,
      "min": 4016,
      "ĠØªØ±Ø¯": 4017,
      "ÙĦÙĪØ¨": 4018,
      "ĠØ³Ø¹ÛĮØ¯": 4019,
      "ÙĦÛĮÙĨÚ©": 4020,
      "ĠÙĪÛĮØ¯Ø¦ÙĪ": 4021,
      "ev": 4022,
      "ĠØªØ¹ÙĩØ¯": 4023,
      "ĠØ²Ø¯Ùĩ": 4024,
      "ĠØ§Ø·ÙħÛĮÙĨ": 4025,
      "ĠØ§Ø·Ø±Ø§Ùģ": 4026,
      "ĠØ¨Ø§Ø±Ø¯Ø§Ø±ÛĮ": 4027,
      "ĠÚĨØ§ÛĮ": 4028,
      "Ú¯Ø°Ø§Ø±Ø¯": 4029,
      "ĠØ§Ø±ÙĪÙ¾Ø§ÛĮÛĮ": 4030,
      "ĠØ²Ø±Ø¯": 4031,
      "ĠØ¨Ø´Ø±": 4032,
      "sh": 4033,
      "Ġst": 4034,
      "ĠÙ¾ÙĪØ¯Ø±": 4035,
      "ĠÙħØ¨ØªÙĦØ§": 4036,
      "ep": 4037,
      "ĠY": 4038,
      "ĠÙħÛĮÙĦØ§Ø¯ÛĮ": 4039,
      "ĠØ¨ØªÙĪØ§ÙĨØ¯": 4040,
      "ĠÙħÙĪØ±": 4041,
      "ĠÚ©ÙĨÙģØ±Ø§ÙĨØ³": 4042,
      "wn": 4043,
      "Ø¬Ø§ÛĮ": 4044,
      "ĠÙģÙĪØª": 4045,
      "ĠØ§ÙħØ±ÛĮÚ©Ø§": 4046,
      "Ø§Ø³ØªØ®": 4047,
      "ĠØ¯Ø§ÙĨØ´Ú¯Ø§ÙĩÛĮ": 4048,
      "Ù¾ÙĨØ¬": 4049,
      "ĠØ±ÙĪÛĮÚ©Ø±Ø¯": 4050,
      "ĠÙħØ®Ø¯Ø±": 4051,
      "ĠÙĤØ·Ø¹Ùĩ": 4052,
      "ĠÙħØ´Øº": 4053,
      "ĠÙħØ·Ø§ÙĦØ¹Ø§Øª": 4054,
      "ĠÙħÙĤØ¯Ùħ": 4055,
      "ĠÙ¾ÙħÙ¾": 4056,
      "ÙħØ±Ø¨ÛĮ": 4057,
      "ax": 4058,
      "Ø´ÙĪÙĨ": 4059,
      "ĠÙ¾Ø§ÙĦ": 4060,
      "ĠÙĨØ§Ø²": 4061,
      "ĠØ±Ø³ÛĮØ¯Ú¯ÛĮ": 4062,
      "ĠØ§ÙĨÚ¯ÙĦÛĮØ³": 4063,
      "ĠÙĪÛĮÙĦ": 4064,
      "ĠÙħØªÙĪØ³Ø·": 4065,
      "ĠØ¯Ø±ÛĮØ§ÛĮÛĮ": 4066,
      "ĠØ±ÙħØ²": 4067,
      "Ġ'": 4068,
      "ÙĨÚ¯ÙĪÛĮ": 4069,
      "ĠÙħØ±Ø§ÙĤØ¨Øª": 4070,
      "ĠØ¹Ø±ÙĪ": 4071,
      "ĠÙħØ§ÙĩÙĩ": 4072,
      "ĠÙģØ±Ø¯Ø§": 4073,
      "Ø®Ø§Ø±": 4074,
      "ÛĮÙħÙĨ": 4075,
      "ĠØŃÙĪØ§Ø¯Ø«": 4076,
      "ĠÙ¾Ø§ÛĮØª": 4077,
      "ĠØ·ÙĪØ±ÛĮ": 4078,
      "ĠØ±ÙĪÛĮØ¯Ø§Ø¯": 4079,
      "ĠØ§ÙĦÙĦÙĩ": 4080,
      "ĠÙħÙĨØ§Ø³Ø¨Øª": 4081,
      "ĠÙ¾Ùĩ": 4082,
      "ĠØ±ÙĪØ¨": 4083,
      "ĠØ±ÙĪÙĨÙħØ§ÛĮÛĮ": 4084,
      "Ø¨Ø±ÙĨØ¯": 4085,
      "ĠÙģØ±ÙħØª": 4086,
      "ĠØ§ÙģØ²ÙĪÙĨÙĩ": 4087,
      "ĠÙģØ¹ÙĦÛĮ": 4088,
      "ĠØ±Ø§ÙĩÚ©Ø§Ø±": 4089,
      "ĠÙħÙħÙĨÙĪØ¹": 4090,
      "Ø§Ø±Ø³Ø§ÙĦ": 4091,
      "ĠÙĩØ¯Ø§ÛĮØª": 4092,
      "ĠØ§Ø·ÙħÛĮÙĨØ§ÙĨ": 4093,
      "ĠÙ¾Ø³Ø±": 4094,
      "ĠÚ©ÙĨÚ¯": 4095,
      "Ù¾Ø§ÛĮ": 4096,
      "ÙħÙ¾ÛĮÚ©": 4097,
      "âĢ¦âĢ¦âĢ¦âĢ¦âĢ¦âĢ¦âĢ¦âĢ¦": 4098,
      "ĠØ¢Ùĩ": 4099,
      "ĠØ¨Ø¯Ø§ÙĨÛĮØ¯": 4100,
      "Ø§Ø®ØªÛĮ": 4101,
      "ĠØªØ¹Ø¯Ø§Ø¯ÛĮ": 4102,
      "Ø¹ÛĮÙģ": 4103,
      "ĠÙ¾Ø±Ø³Øª": 4104,
      "ĠØ¹Ø§Ø´ÙĤØ§ÙĨÙĩ": 4105,
      "Ø§Ø¯Ø§ÙĨ": 4106,
      "ĠÙ¾ÛĮÙħØ§ÙĨ": 4107,
      "Û°Û·": 4108,
      "Ú¯Ø±ÙģØª": 4109,
      "ĠÙĪØ¨Ø³Ø§ÛĮØª": 4110,
      "ĠØ§ØºÙĦØ¨": 4111,
      "ĠÚ©ÛĮØ´": 4112,
      "ĠØ§Ø¨ØªØ¯Ø§ÛĮÛĮ": 4113,
      "ĠØŃÙħÛĮØ¯": 4114,
      "ĠÙģØ±Ø²ÙĨØ¯Ø§ÙĨ": 4115,
      "ĠÙĩÙĨØ±ÙħÙĨØ¯Ø§ÙĨ": 4116,
      "ĠØ¯Ø§ÙĨØ´Ø¬ÙĪÛĮÛĮ": 4117,
      "ĠÙĨÙĤØ§Ø´ÛĮ": 4118,
      "ĠÙ¾ÙĨØ¬Ø´ÙĨØ¨Ùĩ": 4119,
      "ĠÚ©ÙĦÙħÙĩ": 4120,
      "ĠÙĨÙģØ³": 4121,
      "Ø¯Øª": 4122,
      "ĠÙħØ®Ø§ÙĦÙģ": 4123,
      "Ġre": 4124,
      "ĠÙĨÙĪÛĮØ³ÛĮ": 4125,
      "ĠÙħØ³Ø¬Ø¯": 4126,
      "ĠÙħØ±Ø¬Ø¹": 4127,
      "ĠÚ©ÙħØ¨ÙĪØ¯": 4128,
      "ĠØªÙģØ±ÛĮØŃ": 4129,
      "ĠÙĨÙĪØ±ÙĪØ²": 4130,
      "ĠØ¨Ø±Ø³Ø¯": 4131,
      "ĠØ¹Ø·Ø±": 4132,
      "ĠØ¨Ø±Ø¯ÙĨ": 4133,
      "ĠØ¢Ø±Ø§ÙħØ´": 4134,
      "ĠØ®Ø¯Ø§ÙĪÙĨØ¯": 4135,
      "ĠÛ²Û°Û±Û²": 4136,
      "ĠØ¹Ø±Ø¨ÛĮ": 4137,
      "ÙħØªØŃ": 4138,
      "ÙĪÙĨØ§": 4139,
      "usic": 4140,
      "ĠØªØ§Ø¨Ø³ØªØ§ÙĨ": 4141,
      "Ù¾Ø§Ø³Ø®": 4142,
      "ĠØ¨Ú©": 4143,
      "ÛµÛ¸": 4144,
      "ÛĮØ§Ø¨Ø¯": 4145,
      "ÙĦØ³ÛĮ": 4146,
      "ĠØ±ÙĪØ§ÙĨÛĮ": 4147,
      "Û°Û¸": 4148,
      "ĠÚĨÙĪØ¨": 4149,
      "ĠÚ¯Ø±Ø§ÙħÛĮ": 4150,
      "ore": 4151,
      "ĠØ§ØŃØ¯Ø§Ø«": 4152,
      "han": 4153,
      "ĠÚ¯Ø§ÙĦ": 4154,
      "Ø¢ÛĮØ§": 4155,
      "ĠÚ©Ø§ÙĨØ§Ø¯": 4156,
      "ĠØ®ÙĪØ§Ø³ØªÙĩ": 4157,
      "ĠÙĪØ§Ùħ": 4158,
      "ĠØ¯Ø±Ø®Øª": 4159,
      "Û°Û¶": 4160,
      "ĠØ¢ÛĮÛĮÙĨ": 4161,
      "ÙĩÙħÚĨÙĨÛĮÙĨ": 4162,
      "ĠØ§Ø³Ø±Ø§Ø¦": 4163,
      "Ø¨Ø±ÙĨØ§ÙħÙĩ": 4164,
      "ĠÚ¯Ø±ÙĪÙĩÛĮ": 4165,
      "ĠÚ©Ø±ÙħØ§ÙĨØ´Ø§Ùĩ": 4166,
      "Ġ\"": 4167,
      "ĠØµÙĦØŃ": 4168,
      "ĠÙĨØ¸Ø±ÛĮ": 4169,
      "ĠÚ©Ø´ÙĪØ±ÙħØ§ÙĨ": 4170,
      "age": 4171,
      "ĠÙ¾Ø±Ø³Ø´": 4172,
      "ÙĨÙħØ§ÛĮØ´": 4173,
      "ĠÙħØªÙĨÙĪØ¹": 4174,
      "Ø¯ÙĪÛĮÙĨ": 4175,
      "ĠØªØ®ÙģÛĮÙģ": 4176,
      "ĠÙĨÙĪÛĮÙĨ": 4177,
      "ÙĨØ±Ùħ": 4178,
      "ĠÙĨÚ©ÙĨÛĮØ¯": 4179,
      "ĠØ¹ÙĦÛĮØ±Ø¶Ø§": 4180,
      "ight": 4181,
      "ÙĨØ§ÛĮ": 4182,
      "ĠÙģØ¬Ø±": 4183,
      "Ø²ÙĪ": 4184,
      "Ø·ÙĦØ¨": 4185,
      "ĠSh": 4186,
      "ĠØµÙģØŃØ§Øª": 4187,
      "ĠØ¨Ø§Ø±Ùĩ": 4188,
      "Ø§ÙĤÛĮ": 4189,
      "ĠÚ©ÙħÙ¾Ø§ÙĨÛĮ": 4190,
      "ĠØ§Ø³ØªØ±Ø§ØªÚĺÛĮ": 4191,
      "ÙħØ§Ùħ": 4192,
      "Ø³ØªØ±": 4193,
      "ĠØ¯ÙĩÙħ": 4194,
      "ĠØ±Ø¯Ùĩ": 4195,
      "ĠÙ¾Ø§Ø±ÚĨÙĩ": 4196,
      "Ġ=": 4197,
      "ĠØ´ÛĮÚ©": 4198,
      "ĠØ®Ø§ÙĦÛĮ": 4199,
      "Ø§ÙĦÙħÙĦÙĦ": 4200,
      "ĠØ§Ø¨Ø±Ø§Ø²": 4201,
      "ial": 4202,
      "Ø¬ÛĮÙĩ": 4203,
      "ĠÛ³Û·": 4204,
      "Ø¬Øª": 4205,
      "ĠØ¹ÛĮÙĨ": 4206,
      "ĠØŃÙĤÛĮÙĤ": 4207,
      "Û³Û³": 4208,
      "ĠÚ¯ÛĮØ§ÙĩÛĮ": 4209,
      "ĠÙĩØ§Ø³Øª": 4210,
      "ĠØ§ÛĮØ§ÙĦØ§Øª": 4211,
      "ĠÙĦÙĨØ¯": 4212,
      "ĠØ±ÙĨÚ¯ÛĮ": 4213,
      "ĠÙ¾ÙĨØ¬Ùħ": 4214,
      "ĠØªÙĪÙĨ": 4215,
      "ĠÛ¹Û¹": 4216,
      "ĠÙĨÚ¯Ø±Ø§ÙĨÛĮ": 4217,
      "ĠAr": 4218,
      "ĠHD": 4219,
      "ĠØ¯Ø®ØªØ±Ø§ÙĨÙĩ": 4220,
      "Ø±ÙĪØ§ÙĨ": 4221,
      "ĠØ«Ø§ÙĨÛĮÙĩ": 4222,
      "Ġviews": 4223,
      "Ú¯Ø±Ø¯Ø§ÙĨÛĮ": 4224,
      "ĠÙħÙģÙĩ": 4225,
      "ĠÚ©Ø§ÙĦØ§ÛĮ": 4226,
      "ĠÙĤÛĮ": 4227,
      "Ø¢ÙģØ±ÛĮÙĨÛĮ": 4228,
      "Ø§ÙħØ±ÙĪØ²": 4229,
      "ĠØ®ÙĦÛĮ": 4230,
      "ĠØ¸ÙĩØ±": 4231,
      "ĠØªØ¨Ø±ÛĮÚ©": 4232,
      "Ø¯Ø§ÙĨØ´": 4233,
      "ĠØ¬Ø³": 4234,
      "ĠØ§Ø±Øª": 4235,
      "ĠØ±ÙĪØ³ØªØ§ÛĮ": 4236,
      "ĠØŃØ±Ùħ": 4237,
      "ĠØ®ÙĪØ§ÙĨØ¯ÙĨ": 4238,
      "Û°Û²": 4239,
      "ĠØ³Ø®ÙĨØ±Ø§ÙĨÛĮ": 4240,
      "ÙĦØ§Ú©": 4241,
      "ĠÙĪØ¬Ùĩ": 4242,
      "ĠÙĨÚ©Ø§Øª": 4243,
      "ĠÙħØ´ØºÙĪÙĦ": 4244,
      "ÙħØªØŃØ¯Ùĩ": 4245,
      "ĠÙĨØ§ØŃ": 4246,
      "ĠÙĨØ¸ÛĮØ±": 4247,
      "ĠÛĮØ§Ø¯Ú¯ÛĮØ±ÛĮ": 4248,
      "ĠØªÙĪØ¬ÛĮÙĩ": 4249,
      "ĠÙĪÛĮØ¯ÛĮÙĪ": 4250,
      "ĠØ§ÛĮØ§Ùħ": 4251,
      "Ø¨Ø¹Ø¯": 4252,
      "ment": 4253,
      "ĠØ¹ÙĪØ§Ø±": 4254,
      "pp": 4255,
      "ĠØªØ®Ùħ": 4256,
      "ĠØ³ÙĤÙģ": 4257,
      "ĠÙħØ°ÙĩØ¨ÛĮ": 4258,
      "ĠÙħØ¹Ø§ÙħÙĦØ§Øª": 4259,
      "ĠØ¯Ø±Ø¬": 4260,
      "ĠØ²Ø§Ø¦": 4261,
      "ĠÛ´Û°Û°": 4262,
      "ĠØªØ¯": 4263,
      "ĠÙħÙĨØµ": 4264,
      "ĠØ§ÙĩÙĪØ§Ø²": 4265,
      "ĠÙħØ³ÙĦØŃ": 4266,
      "ÙĨÚĺØ§Ø¯": 4267,
      "Ø³Ø§": 4268,
      "ĠÙģØ§Ø·": 4269,
      "ĠÚĨÙĨØ§ÙĨ": 4270,
      "ĠØ®ÙĪØ§Øµ": 4271,
      "ĠÙĪØ§ÙĤØ¹ÛĮØª": 4272,
      "ĠÛ¸Û¶": 4273,
      "ĠØ§ÙħØ±ÙĪØ²Ùĩ": 4274,
      "ĠØ¯Ø§Ø±ÙĪÛĮÛĮ": 4275,
      "ĠÙħØŃØ¯ÙĪØ¯ÛĮØª": 4276,
      "ĠÚ¯ÙĦÚ©Ø³ÛĮ": 4277,
      "ĠØ¢ÙĦÙĪØ¯Ú¯ÛĮ": 4278,
      "ĠØ¨Ùħ": 4279,
      "ĠØ±Ø§ÛĮØ§ÙĨÙĩ": 4280,
      "ĠØŃØ§ÙĪÛĮ": 4281,
      "ĠØ´ÙģØ§Ùģ": 4282,
      "Û°Û¹": 4283,
      "ĠØ¨Ø¯ÛĮÙĨ": 4284,
      "ĠØ´Ø±Ø§ÛĮØ·ÛĮ": 4285,
      "ĠØ§ÙĨÛĮÙħÛĮØ´ÙĨ": 4286,
      "ĠØ´ØºÙĦ": 4287,
      "Ġ&": 4288,
      "ĠØ®ÙĪØ¯Ú©Ø§Ø±": 4289,
      "ĠØªØ¹ÙħÛĮØ±Ø§Øª": 4290,
      "ĠÙĨØ¬Ø§Øª": 4291,
      "ØªÙħØ¹": 4292,
      "ĠØ³Ø§ÙħØ§ÙĨ": 4293,
      "ĠØ³Ø¹ÙĪØ¯ÛĮ": 4294,
      "Û°Ûµ": 4295,
      "ØªÙĪØ§ÙĨØ³Øª": 4296,
      "ĠØ±ÙħØ¶Ø§ÙĨ": 4297,
      "th": 4298,
      "Ø¬ÙĨ": 4299,
      "Ø§ÙħÙĪÙĨ": 4300,
      "ĠØ³Ø¨Ø²ÛĮ": 4301,
      "ĠØ§ÛĮØ±Ø§ÙĨÛĮØ§ÙĨ": 4302,
      "Ø·Ø¨": 4303,
      "ĠØ´Ø¯Ùħ": 4304,
      "ĠØ¨ÙĪÛĮ": 4305,
      "ĠÚĨÛĮÙĨÛĮ": 4306,
      "ĠØ³Ø±ÙħØ±Ø¨ÛĮ": 4307,
      "ĠØ®Ø±ÛĮØ¯Ø§Ø±ÛĮ": 4308,
      "ity": 4309,
      "ĠØ³Ø§ÛĮØ²": 4310,
      "ĠÙģØ±Ø§ÛĮÙĨØ¯": 4311,
      "ĠÙħÙĨØªÙĤÙĦ": 4312,
      "ĠØ§Ø³ØªØ§ÙĨØ¯Ø§Ø±": 4313,
      "ĠØ±ÛĮØ³": 4314,
      "ĠØ³ÛĮØ±": 4315,
      "ĠØµØ§Ø¯ÙĤ": 4316,
      "qu": 4317,
      "ĠØ§ÙħØªØŃ": 4318,
      "ĠØ§ÙĪÙĤ": 4319,
      "ĠØ³Ø§Ø²Ùĩ": 4320,
      "ĠÙĨØ§ØŃÛĮÙĩ": 4321,
      "eg": 4322,
      "ĠÙħØ·Ø¨": 4323,
      "ĠÙ¾Ø§ÛĮØªØ®Øª": 4324,
      "Û°Û´": 4325,
      "ĠØ§Ú©Øª": 4326,
      "ĠØ³Ø®ÙĨØ§ÙĨ": 4327,
      "):": 4328,
      "lay": 4329,
      "ĠØ´Ø´Ùħ": 4330,
      "ĠØ¨Ø±ÙĨØ¬": 4331,
      "ĠØŃØ¯Ø§Ú©Ø«Ø±": 4332,
      "ĠÙĤÙĪÙĩ": 4333,
      "ĠÙĤØªÙĦ": 4334,
      "ÙĪØ´Ø§Ù¾": 4335,
      "Ø¨ÙĩÙĩ": 4336,
      "Ø³ÙĨÛĮÙħ": 4337,
      "ĠØ§Ø¨Ø±Ø§Ùĩ": 4338,
      "ĠÙ¾ÙĨØ¬Ø±Ùĩ": 4339,
      "ĠØ¬ÙĦØ¨": 4340,
      "Ø·Ø±Ø§ØŃÛĮ": 4341,
      "ĠÛ±Û³Û¹Û°": 4342,
      "Ø§ÙĨØ¯ÙĨ": 4343,
      "ĠÙħØ·ÙħØ¦ÙĨ": 4344,
      "ĠÙħÙĪØ²Ùĩ": 4345,
      "ÙģØ±Ùĩ": 4346,
      "ĠÚ©Ø±Ø¨": 4347,
      "ÙĨØ¯Ùħ": 4348,
      "ĠØ§ÙĦÙħÙ¾ÛĮÚ©": 4349,
      "Ø¨Ø±Ø²": 4350,
      "ĠØªØ±Ú©ÛĮ": 4351,
      "Ø¬ÙħÙĩÙĪØ±ÛĮ": 4352,
      "ĠØ³Ø±Ú©": 4353,
      "ĠØ¬ÙħØ¹ÛĮ": 4354,
      "ĠØ²ÙĨØ¯Ø§ÙĨÛĮ": 4355,
      "Ø§Ø³Ø¨Ùĩ": 4356,
      "ĠØ¬Ø±Ùħ": 4357,
      "ØºÙħ": 4358,
      "ĠÚ¯ÙĦØ³ØªØ§ÙĨ": 4359,
      "ĠÙĤÙĦÙħ": 4360,
      "ĠØ§Ø±ØªÙĤ": 4361,
      "ĠØ§Ø±ØªÙģ": 4362,
      "ĠØ±ÙĪØ²ÛĮ": 4363,
      "ĠØ±Ø³Ø§ÙĨÛĮ": 4364,
      "ĠÙģØ±ÙĪØ¯Ú¯Ø§Ùĩ": 4365,
      "ĠÙĩØ§": 4366,
      "ĠØ¨Ø§Ø²Ø¯Ø§Ø´Øª": 4367,
      "ĠÙĨÙģÙĪØ°": 4368,
      "ĠÙ¾ÚĺÙĪÙĩØ´ÛĮ": 4369,
      "ĠÙĪÛĮØªØ§ÙħÛĮÙĨ": 4370,
      "ĠØ¨Ø®ÙĪØ§ÙĨÛĮØ¯": 4371,
      "ĠØªØ¯ÙĪÛĮÙĨ": 4372,
      "ØŃØ³": 4373,
      "ĠÙħÛĮÚ©Ø±ÙĪ": 4374,
      "Û±Û¹Û": 4375,
      "ĠØªØŃÙĤÙĤ": 4376,
      "ĠØªÙĤØ³ÛĮÙħ": 4377,
      "ĠÙħØ³Ø§ÙģØ±": 4378,
      "ĠÙĩØ´Ø¯Ø§Ø±": 4379,
      "ÙĪÙĨÙħ": 4380,
      "Ø§ÙĨÚ¯ÛĮØ²": 4381,
      "Ø¬ÙĩØ²": 4382,
      "ĠØ§Ø¯Ø¨ÛĮØ§Øª": 4383,
      "ĠÙħØ¶": 4384,
      "ĠÙĨÚĺØ§Ø¯": 4385,
      "ĠÙģØ§Ø²": 4386,
      "ĠØ¢ÙĨØªÛĮ": 4387,
      "ĠØ³Ø®ØªÛĮ": 4388,
      "ĠÙĤØ¯Ùħ": 4389,
      "ĠÛµÛµ": 4390,
      "ib": 4391,
      "ĠØ¨Ø´Ùĩ": 4392,
      "ĠÚ©ÙĪÙĦ": 4393,
      "Ø«ÛĮ": 4394,
      "Ø§ÙĨØ¯Ø§Ø²": 4395,
      "ĠØ¨ÛĮØ§ÙĨÛĮÙĩ": 4396,
      "ĠØ®ÙĦØ§ØµÙĩ": 4397,
      "ĠÙħÙĨØªØ¸Ø±": 4398,
      "Ø²Ø§ÛĮÛĮ": 4399,
      "ĠÙħØ°Ø§Ú©Ø±Ø§Øª": 4400,
      "ĠÙ¾Ø¯ÛĮØ¯Ùĩ": 4401,
      "ĠÚ©Ø´ÙĪØ±ÙĩØ§": 4402,
      "Ú¯Ùħ": 4403,
      "ĠØ¯Ø§ÙĨØ´Ú©Ø¯Ùĩ": 4404,
      "ĠØ¹Ø±Ø¶": 4405,
      "Ø²ÛĮÙĩ": 4406,
      "ĠØ¯ÙĪØ¨ÙĦÙĩ": 4407,
      "ĠØ¨ÙĪØ´ÙĩØ±": 4408,
      "ey": 4409,
      "ik": 4410,
      "ĠØ´ÙĨØ§Ø®Øª": 4411,
      "ĠØ®ÙĦÙĤ": 4412,
      "Ġsh": 4413,
      "ĠØ¯Ø§ÙħÙĨÙĩ": 4414,
      "ĠÙħØŃØªÙĪØ§ÛĮ": 4415,
      "ĠØ¬Ø¹": 4416,
      "ĠØ¨Ø§ØªØ±ÛĮ": 4417,
      "ÙģØ§ÛĮÙĦ": 4418,
      "Ø·Ø¹": 4419,
      "Û°Û±": 4420,
      "ĠØªØ®Øª": 4421,
      "Ø²ÛĮØª": 4422,
      "ĠÛ´Û¸": 4423,
      "ĠØ±Ø§ÙĩÙĨÙħØ§ÛĮÛĮ": 4424,
      "ĠÙĨÙģØªÛĮ": 4425,
      "Ú¯Ø²ÛĮÙĨ": 4426,
      "ĠÙĩØ§ÛĮÛĮ": 4427,
      "ÚĨÛĮÙĨ": 4428,
      "Ø·ÙĦØ¨Ø§ÙĨ": 4429,
      "ĠÙħØ´Ú©ÙĦÛĮ": 4430,
      "ĠÙĩÙĪØ§Ø¯": 4431,
      "ĠØ¯Ø§Øº": 4432,
      "ĠØ¹Ø¨": 4433,
      "ĠØ³ÙĨØª": 4434,
      "ĠÙħØ¨Ø§Ø±Ú©": 4435,
      "ĠØ§ØŃØªÙħØ§ÙĦØ§": 4436,
      "ĠØ¯Ø§ÙĨÙĩ": 4437,
      "Ø¬Ø§Ø±": 4438,
      "ØŁ!": 4439,
      "ĠØ¶Ø±ÙĪØ±Øª": 4440,
      "ĠÙħØªØ±ÛĮ": 4441,
      "Ø³Ø§ÛĮ": 4442,
      "ĠØ§Ø³ÙĦ": 4443,
      "ĠØºÛĮ": 4444,
      "ĠØªÚ©Ø±Ø§Ø±": 4445,
      "ĠØ³Ú©Ùĩ": 4446,
      "Ø§ØºÙĦ": 4447,
      "ĠØ±ÛĮØ´Ùĩ": 4448,
      "ĠØ³Ø¯": 4449,
      "ÙĦØ§Øº": 4450,
      "Ø¨Ø±ÛĮØ¯": 4451,
      "ĠØ³Ø¦ÙĪ": 4452,
      "ĠØ±ÙĪØ²ÙĩØ§": 4453,
      "og": 4454,
      "ĠØ¨Ù¾Ø±Ø¯Ø§Ø²": 4455,
      "ĠØ§ÙĤØ§ÙħØª": 4456,
      "ĠÚ©Ø±Ùħ": 4457,
      "ĠÙħØ°Ø§Ú©Ø±Ùĩ": 4458,
      "ĠØ®ÙĪØ±Ø§Ú©ÛĮ": 4459,
      "Ø´ÛĮÙĪ": 4460,
      "ĠØªØ´Ø±ÛĮØŃ": 4461,
      "ass": 4462,
      "ĠØ¨Ú¯Ø°Ø§Ø±ÛĮØ¯": 4463,
      "ĠØ§Ø³ÛĮØ¯": 4464,
      "ĠØ§ÛĮØªØ§ÙĦÛĮØ§": 4465,
      "ĠØ¨ØªÙĪØ§ÙĨÙĨØ¯": 4466,
      "Ú©ÙĨÛĮ": 4467,
      "ĠØ³Ø±Ø§ÙĨ": 4468,
      "ĠÙ¾Ø±ÛĮÙĨ": 4469,
      "ĠØ³ÛĮÙħØ§ÙĨ": 4470,
      "ĠÚ©ÙĦÛĮÙ¾": 4471,
      "ĠØ³ÛĮÙĨÙħØ§ÛĮ": 4472,
      "ĠØ§ÙĨÙģ": 4473,
      "Ġ--": 4474,
      "ĠØ§Ø±Ø´Ø§Ø¯": 4475,
      "ĠÙħØŃÙħØ¯ÛĮ": 4476,
      "ĠØªØ±ÙĪØ±ÛĮØ³ØªÛĮ": 4477,
      "ĠÙĩØ¯ÛĮÙĩ": 4478,
      "ĠÚ¯Ø±Ø§ÙģÛĮÚ©": 4479,
      "ĠØŃÙĤÛĮÙĤØª": 4480,
      "ĠØ´ØºÙĦÛĮ": 4481,
      "Ø¨Ø±Ø±Ø³ÛĮ": 4482,
      "ĠØ¯Ø§ÙĨØ´Ø¬ÙĪ": 4483,
      "ĠÙħØ±Ø¨ÙĪØ·Ùĩ": 4484,
      "ĠÙĨÚ¯Ø§Ø±": 4485,
      "Ú¯ÛĮÙĦ": 4486,
      "AT": 4487,
      "Ø§ÙĦØ³ÙĦØ§Ùħ": 4488,
      "ĠÙĤØ±ÙĨ": 4489,
      "ĠÛ¸Ûµ": 4490,
      "ĠØªÚ©ÙĨÛĮÚ©": 4491,
      "ï¿": 4492,
      "ĠÙĨØ¨Ø§Ø´Ø¯": 4493,
      "ĠØŃØ³Ø§Ø¨Ø¯Ø§Ø±ÛĮ": 4494,
      "ÙĦØ²ÙĦÙĩ": 4495,
      "ÙĪØ¨Ùĩ": 4496,
      "Ø¯Ø³ØªÙĩ": 4497,
      "ĠØ´ÛĮØ±ÛĮÙĨ": 4498,
      "ĠÙħÙĤØ§ÙħØ§Øª": 4499,
      "Ø§ØªÙĪ": 4500,
      "ĠÛĮØ§Ø¨Ø¯": 4501,
      "ĠØ²ÙĦØ²ÙĦÙĩ": 4502,
      "ĠØµÙĩÛĮ": 4503,
      "ï¿½": 4504,
      "Ġad": 4505,
      "ĠÙħØ¬Ø¯Ø¯": 4506,
      "Û³Û¹": 4507,
      "ĠÙģØ¶Ø§ÛĮÛĮ": 4508,
      "ĠØ§ØªØµØ§ÙĦ": 4509,
      "Ø§ÙĨÚ¯": 4510,
      "Ø´Ø§": 4511,
      "ĠØªÙħØ±Ú©Ø²": 4512,
      "ÚĨÙĩØ§Ø±Ø´ÙĨØ¨Ùĩ": 4513,
      "ge": 4514,
      "ĠØ§Ø±ØªÙģØ§Ø¹": 4515,
      "ĠÚ¯ÛĮØ±ÛĮ": 4516,
      "ĠØ¹Ø§Ø¯ÛĮ": 4517,
      "ĠØ®ÙĪØ¯ØªØ§ÙĨ": 4518,
      "ĠØ§ÙĦØ¹": 4519,
      "ĠØ³Ø±Ø¯Ø§Ø±": 4520,
      "ĠÙģØªÙĪØ´Ø§Ù¾": 4521,
      "ĠØ§Ø°": 4522,
      "Ø´Ø±": 4523,
      "ĠØ®Ø±Ùħ": 4524,
      "ĠØ¢ÙĪØ±ÛĮ": 4525,
      "Ø§Ø³ØªØ®Ø¯Ø§Ùħ": 4526,
      "Û´Û²": 4527,
      "ĠÚ©ÙĦØ§ÙĨ": 4528,
      "Ø§ÙĦØ¯": 4529,
      "ÚĨØ±Ø®": 4530,
      "ĠÙĤØ¯Ø±ØªÙħÙĨØ¯": 4531,
      "Ø¨ÙĪÙĦ": 4532,
      "ĠÙħØ³Ø§ÙĦÙĩ": 4533,
      "Ø³Ø§Øª": 4534,
      "Ø¨Ú©": 4535,
      "ĠÙĩÛĮØ¯": 4536,
      "ĠØ§ÙħØ¯Ø§Ø¯": 4537,
      "ĠÙĩÙĪØ§Ù¾ÛĮÙħØ§": 4538,
      "ĠÙĨÙħØ§Ø¦ÛĮØ¯": 4539,
      "ĠØ´Ø¹Ø§Ø±": 4540,
      "ĠÙħØŃØ§Ø³Ø¨Ùĩ": 4541,
      "ØªÙĪØ³Ø·": 4542,
      "ĠÙĨØ§ÙĨÙĪ": 4543,
      "Û¹Ûµ": 4544,
      "ĠÙħÙĪØ§Ø±Ø¯ÛĮ": 4545,
      "ÙħØ±Ú©Ø²": 4546,
      "ĠØµØ¯Ø±": 4547,
      "ÙħÛĮÙĩ": 4548,
      "ĠÚ©Ø§ÙĦØ§ÙĩØ§ÛĮ": 4549,
      "af": 4550,
      "Ù¾ÙĦÙħ": 4551,
      "ĠÙ¾ÛĮÙĪÙĨØ¯": 4552,
      "Û¹Û²": 4553,
      "ash": 4554,
      "ĠÙ¾ÙĨÙĦ": 4555,
      "ĠØ§ÙĦÙĩÛĮ": 4556,
      "ĠØªØ¬Ø±Ø¨ÛĮ": 4557,
      "ĠØ³ÙĦØ§ÙħØªÛĮ": 4558,
      "ĠØªØ¦Ø§ØªØ±": 4559,
      "Ø±ÙĪØª": 4560,
      "ĠÛ´Û¶": 4561,
      "ĠÙĪØ§ÚĺÙĩ": 4562,
      "ith": 4563,
      "ĠØ¹Ø³ÙĦ": 4564,
      "ĠØ¨Ø§Ø²ÙĨØ´": 4565,
      "ĠÙģØ±ÛĮ": 4566,
      "ĠØ³Ø±Ø§Ø³Ø±ÛĮ": 4567,
      "ĠÛĮØ§Ø±Ø§ÙĨÙĩ": 4568,
      "ĠÙħØ¬ÙĩØ²": 4569,
      "ĠØ¨Ø§ÙĤ": 4570,
      "ØªÛĮØ§Ø¯": 4571,
      "ĠÙĤØ¨ÙĪÙĦ": 4572,
      "ml": 4573,
      "Ø°Ø±": 4574,
      "ÙĩØ±Ø§": 4575,
      "ĠÙħØ³Ú©": 4576,
      "ĠÙħØ¬ØªÙħØ¹": 4577,
      "ĠØºØ°Ø§ÛĮ": 4578,
      "ĠÙħÚ¯": 4579,
      "ĠØªØ³ÙĨÛĮÙħ": 4580,
      "ĠÙĩÙħÚ©Ø§Ø±Ø§ÙĨ": 4581,
      "ĠØ¨Ø¯ÙĨÙĩ": 4582,
      "ĠØ§Ø¨ÙĦØ§Øº": 4583,
      "ĠÙĨØ¨ÙĪØ¯Ùĩ": 4584,
      "Û¹Û¸": 4585,
      "ĠØ¹ÙĪØ§Ø±Ø¶": 4586,
      "Ù¾Øª": 4587,
      "ĠÙħÙĪØ¬": 4588,
      "ĠÙħÙĪÙĤØ¹": 4589,
      "ĠØ³Ø§Ø²ÙĨØ¯Ùĩ": 4590,
      "ĠÙĤØ·Ø¹Ø§": 4591,
      "ĠØ®ÙĪØ§Ø³ØªØ§Ø±": 4592,
      "ÛĮØ¯Ùħ": 4593,
      "Ø±ÙĪÙĨØ¯": 4594,
      "ĠÙĤÙĦØ¨ÛĮ": 4595,
      "ĠÙħØŃÙħØ¯Ø±Ø¶Ø§": 4596,
      "zwn": 4597,
      "ĠØ¨ÙĪØ¯ÛĮÙħ": 4598,
      "ĠØ§Ø³Ø±Ø§Ø¦ÛĮÙĦ": 4599,
      "ĠØ³Ø§ÙĦØ§ÙĨÙĩ": 4600,
      "--------": 4601,
      "ĠÙĩÙĪØ§Ø¯Ø§Ø±Ø§ÙĨ": 4602,
      "Ø¯Ø³ØªÛĮ": 4603,
      "ice": 4604,
      "zwnj": 4605,
      "Ø§ÛĮÙģ": 4606,
      "Ø¯ÙĩÛĮÙħ": 4607,
      "ĠÛ¶Û´": 4608,
      "Û¹Û·": 4609,
      "Ø§Ø°Ø¨Ùĩ": 4610,
      "ĠØ³Ø§ÙĨØªÛĮ": 4611,
      "ĠÙĨÙĤØ±Ùĩ": 4612,
      "ĠØ§ÙĨØ¯ÛĮØ´Ùĩ": 4613,
      "ÙģØ§Ø±Ø³": 4614,
      "ĠÙ¾ÙĪØ´Ø§Ú©": 4615,
      "ĠØ³Ø±Ú¯Ø±ÙħÛĮ": 4616,
      "ÙĪÛĮÙħ": 4617,
      "Ù¾ÙĦ": 4618,
      "ĠØ¬Ø²ÙĪ": 4619,
      "ÙħÙĤØ§ÙĦÙĩ": 4620,
      "io": 4621,
      "ĠØ¬Ø§ÛĮÚ¯Ø²ÛĮÙĨ": 4622,
      "ram": 4623,
      "ĠÙ¾Ø³ØªÛĮ": 4624,
      "Ø§ÙĪØ§": 4625,
      "ĠBl": 4626,
      "ĠÙģÚ©ÛĮ": 4627,
      "ĠØ¹ÙħØ±Ø§ÙĨ": 4628,
      "ĠÙĨÙħÚ©": 4629,
      "Ø§ÛĮØ¹Ø§Øª": 4630,
      "ĠÃ": 4631,
      "ÙħØµ": 4632,
      "ĠÙĪØ§ÙĦÛĮ": 4633,
      "ÙĦÛĮØ·": 4634,
      "Ø±Ø§Ùħ": 4635,
      "ÙģÛĮÙĩ": 4636,
      "ĠØŃØ¯ÛĮ": 4637,
      "ind": 4638,
      "ĠÙħÙĦÚ©": 4639,
      "ĠØµÙĨØ¯ÙĦÛĮ": 4640,
      "ĠÙģÙĦØ³Ø·": 4641,
      "ĠÙĩÙħØ¯Ø§ÙĨ": 4642,
      "ĠØ¨Ø¯Ø³Øª": 4643,
      "Ø¯Ø³ØªÚ¯Ø§Ùĩ": 4644,
      "ĠØ§ÙĦÚ©ØªØ±ÛĮ": 4645,
      "ĠÙħØ§ÙĨØªÙĪ": 4646,
      "ĠÙħÙĪØ¶ÙĪØ¹Ø§Øª": 4647,
      "ĠØ®Ø·ÙĪØ·": 4648,
      "Ø³Ø§Ùħ": 4649,
      "Ø¬Ø§ÙĨÛĮ": 4650,
      "ĠÙģØ´": 4651,
      "ĠØ³ÛĮØ¨": 4652,
      "ĠÚ©ÙĨÚ¯Ø±Ùĩ": 4653,
      "Ø³ÛĮØ³ØªÙħ": 4654,
      "ĠÙħÙĩÙĨØ¯Ø³": 4655,
      "ĠØ®Ø±ÙĪØ¬ÛĮ": 4656,
      "ĠØªØ¹ÙĪÛĮØ¶": 4657,
      "ĠØ§ÙħØªØŃØ§ÙĨ": 4658,
      "ĠØ§ÚĨ": 4659,
      "Ø±ÙĪØ´ÛĮÙħÛĮ": 4660,
      "ĠPM": 4661,
      "ĠØ³ÙĤÙĪØ·": 4662,
      "ĠØ²ÙĨØ¬Ø§ÙĨ": 4663,
      "ĠÙĨÛĮØ§Ø²ÙĩØ§ÛĮ": 4664,
      "amp": 4665,
      "Ø§ÙĪÙĦÛĮÙĨ": 4666,
      "Ø¯ÛĮØª": 4667,
      "ĠÙĩØ±ÙħØ²": 4668,
      "ĠØ´ÙĩØ±Ø³Ø§Ø²ÛĮ": 4669,
      "ill": 4670,
      "ĠØ³Ú¯": 4671,
      "Ø§ÙħÛĮØ¯": 4672,
      "Ø®ÙĪØ§ÙĨÛĮ": 4673,
      "ĠÚ©Ø§Ø±Ú¯Ø±Ø¯Ø§ÙĨÛĮ": 4674,
      "ĠØ¯ÛĮØ±ÙĪØ²": 4675,
      "Ġup": 4676,
      "ĠÙħØ§ÛĮÚ©": 4677,
      "ĠÙħØªÙĩÙħ": 4678,
      "ĠØ³Ø§": 4679,
      "ĠÚĨØ³Ø¨": 4680,
      "ĠÚ©ÛĮÙĦÙĪÚ¯Ø±": 4681,
      "ØªÙĪÙĦÛĮØ¯": 4682,
      "ØŃØµ": 4683,
      "ĠÛ´Û·": 4684,
      "ĠØ¯Ú©ÙħÙĩ": 4685,
      "ĠØ·ÙĦØ§ÛĮÛĮ": 4686,
      "ĠAd": 4687,
      "ĠÙĤØ·Ø±": 4688,
      "ĠÙħØ¬ÛĮØ¯": 4689,
      "ĠØ§Ø¹ØªÙĤ": 4690,
      "ĠØ§ØªÙĪÙħØ§ØªÛĮÚ©": 4691,
      "Û¹Û´": 4692,
      "ĠÙħØ¸": 4693,
      "Ú¯Ø°Ø´Øª": 4694,
      "ÙĤÙĪÙĦ": 4695,
      "Ø§ÙħÙĦÛĮ": 4696,
      "ĠØ§Ø¹ØªÛĮØ§Ø¯": 4697,
      "ĠØ§ØŃØªØ±": 4698,
      "ĠAl": 4699,
      "ĠØ¨Ø§Ø±Ø§ÙĨ": 4700,
      "ĠÙħØ§ÙĦÛĮØ§Øª": 4701,
      "ide": 4702,
      "ĠØµÙĩÛĮÙĪÙĨÛĮ": 4703,
      "ĠØ§Ø³ØªØ±Ø³": 4704,
      "Ø§Ø¬Ø¯": 4705,
      "ĠØ²ÙĨÚ¯": 4706,
      "ĠÙ¾Ø§Ú©Ø³ØªØ§ÙĨ": 4707,
      "Ø¬Ø²": 4708,
      "ØŃÛĮ": 4709,
      "ĠÙĪÚ©ÛĮÙĦ": 4710,
      "ĠØ´ÙĩØ¯Ø§ÛĮ": 4711,
      "ĠØ§ØªÙĪ": 4712,
      "ĠÙĦØ²ÙĪÙħ": 4713,
      "Ø§Ø·Ø±": 4714,
      "ĠØ³Ùħ": 4715,
      "ÙĦÛĮÙģ": 4716,
      "ĠØ·Ø±Ø²": 4717,
      "Ġnews": 4718,
      "ĠÙħØŃØ¯ÙĪØ¯Ùĩ": 4719,
      "ĠÙħØ·Ø§Ø¨ÙĤ": 4720,
      "ĠØ±ÙĪØ³ØªØ§": 4721,
      "ĠØ¨Ø±Ø¬Ø³ØªÙĩ": 4722,
      "ĠÙħØ³Ú©ÙĪÙĨÛĮ": 4723,
      "ĠÙħØ¬Ø¨ÙĪØ±": 4724,
      "ĠÚĺØ§Ù¾ÙĨ": 4725,
      "Ø§Ø±ÙĪ": 4726,
      "ĠÙħÙĤØ±Ø±Ø§Øª": 4727,
      "ÙĩÙħØ§ÙĨ": 4728,
      "ĠØ¯Ø§ÙĪØ±": 4729,
      "ĠÙĪØ§Ø±ÛĮ": 4730,
      "ĠØªØ±ÛĮ": 4731,
      "ĠØ·Ø±Ø§ØŃ": 4732,
      "ĠØ§Ø±Ø¯Ø¨ÛĮÙĦ": 4733,
      "ĠØ²Ø±": 4734,
      "ÛµÛ´": 4735,
      "ĠØ¹Ú©Ø§Ø³ÛĮ": 4736,
      "ĠÚ©Ø§ÙĨØ§Ø¯Ø§": 4737,
      "ĠÙĨØ¨Ø§Ø´": 4738,
      "ÚĨØ±Ø§": 4739,
      "ĠÙħØ¹ÙĨØ§ÛĮ": 4740,
      "Ø¯Ø§ÙĨÙĨØ¯": 4741,
      "ÙģØ±Ùħ": 4742,
      "ĠÙ¾Ø¯": 4743,
      "ĠØ§Ø³ØªØ®ÙĪØ§ÙĨ": 4744,
      "ĠÙħØ°Ú©ÙĪØ±": 4745,
      "ĠÙħØ¯ØªÛĮ": 4746,
      "ĠCh": 4747,
      "end": 4748,
      "ÙħØ¹Ø±ÙģÛĮ": 4749,
      "ng": 4750,
      "ĠÙģÙĦØ´": 4751,
      "ĠÚ¯ÙĪÙĨØ§Ú¯ÙĪÙĨ": 4752,
      "ĠØªØ§Ø¬": 4753,
      "ĠØ³Ø§ÙĦÛĮ": 4754,
      "ĠØ´ÙĩØ¯Ø§": 4755,
      "ĠÙħØ®Ø§Ø¨": 4756,
      "Ù¾ÙĨ": 4757,
      "ĠØ³ÙĨØ¬Ø´": 4758,
      "ĠØªÙħÛĮØ²": 4759,
      "ĠØ´Ú¯ÙģØª": 4760,
      "ĠØ§ÙĦØ¨Ø±Ø²": 4761,
      "ĠÙĪÙĤÙĪØ¹": 4762,
      "Ø¨ÙĩØªØ±ÛĮÙĨ": 4763,
      "ĠØ®ÙĪØ¯Ø´Ø§ÙĨ": 4764,
      "ĠÚĺØ§ÙĨ": 4765,
      "Ø²ÙħÛĮÙĨÛĮ": 4766,
      "ÙĪÙĤÙģ": 4767,
      "ĠÚ©Ø¬Ø§": 4768,
      "ĠØ³ÙĪØ²": 4769,
      "ĠÙĪØ§Ø³": 4770,
      "ÙħØ§ÙĨÙĩ": 4771,
      "ĠØ³Ø§ÙĦÚ¯ÛĮ": 4772,
      "ĠØ¨Ú¯ÛĮØ±ÙĨØ¯": 4773,
      "ĠØ§Ø±ØªØ¨Ø§Ø·ÛĮ": 4774,
      "ĠÙħØ´ÙĩÙĪØ±": 4775,
      "ÙĨØ´ÛĮÙĨ": 4776,
      "ĠÙħØ³Ø¦ÙĪÙĦÛĮÙĨ": 4777,
      "Ø§ÙĤØ¹": 4778,
      "ĠÙ¾ØªØ±ÙĪØ´ÛĮÙħÛĮ": 4779,
      "ĠØªÙĪØ±Ùħ": 4780,
      "ĠØ´ÛĮØ±ÛĮ": 4781,
      "ĠØ¹ÛĮÙĨÚ©": 4782,
      "ĠØ¨Ø±ÙĨØ¯Ùĩ": 4783,
      "ĠØ³Ø§Ø²ÙħØ§ÙĨÛĮ": 4784,
      "ĠØ´Ø±Ø·": 4785,
      "ĠÙĤØ¨ÛĮÙĦ": 4786,
      "ÙĨÙĪØ¹ÛĮ": 4787,
      "ĠØ¬Ø¨ÙĩÙĩ": 4788,
      "ĠØ·Ø§ÙĦ": 4789,
      "ĠÙĩØ±Ú¯ÙĪÙĨÙĩ": 4790,
      "ĠÙĪØŃØ¯Øª": 4791,
      "ĠÙĪØ§ÙĦØ¯ÛĮÙĨ": 4792,
      "ĠØ³ÛĮÙĨÙĩ": 4793,
      "Ø´ÙĩØ±ÛĮ": 4794,
      "ĠÙħØ§ÙĨØ¹": 4795,
      "ĠÙ¾ÛĮØ´ÙĨÙĩØ§Ø¯ÛĮ": 4796,
      "ĠÚ©ÛĮÚ©": 4797,
      "ĠØªÙĪÙĤ": 4798,
      "ÙħÙĨØ§ÙĨ": 4799,
      "ĠÙħØµÙĪØ¨": 4800,
      "ĠØ®ÙĦÛĮØ¬": 4801,
      "ĠØ¨Ú©Ø§Ø±": 4802,
      "ĠØ´Ú©Ø±": 4803,
      "ĠØ±ÙĪØ§ÛĮØª": 4804,
      "ĠØ¢Ù¾Ø§Ø±ØªÙħØ§ÙĨ": 4805,
      "ĠØ´ÛĮØ®": 4806,
      "ĠÙĤØ¯Ø³": 4807,
      "Ø¨Ø·": 4808,
      "ĠÙħØ¯Ø§Ø±Ú©": 4809,
      "ĠÛĮØ§Ø¯Ø¢ÙĪØ±": 4810,
      "ĠÙħØŃÙħÙĪØ¯": 4811,
      "ĠØµÙĦØ§ØŃ": 4812,
      "ØºØ¯": 4813,
      "ĠÙ¾ÛĮÙĪØ³Øª": 4814,
      "ĠØ¬Ø²ÛĮØ±Ùĩ": 4815,
      "ĠÙħÙĨØŃØµØ±": 4816,
      "ĠÙģÛĮØ³": 4817,
      "ĠÛ±ÛµÛ°": 4818,
      "Ø§Ø¶ÙĦ": 4819,
      "ĠÙħØªØ¹ÙĦÙĤ": 4820,
      "ĠØ¨Ø¨ÛĮÙĨÛĮØ¯": 4821,
      "ĠÙĩÙħØª": 4822,
      "ĠØ¯ÛĮÙĪØ§Ø±ÛĮ": 4823,
      "Û¹Û¶": 4824,
      "Ø®Ø¨Ø±Ú¯Ø²Ø§Ø±ÛĮ": 4825,
      "ĠÙĪØ§Ø¨Ø³ØªÙĩ": 4826,
      "ÙĪØ±Ø§": 4827,
      "Ø¯Ø§ÙĨÛĮØ¯": 4828,
      "ĠØ¨Ø±Ø¯Ùĩ": 4829,
      "ĠØ±Ø£": 4830,
      "ĠØ¢Ú¯Ø§Ùĩ": 4831,
      "Û´Û¹": 4832,
      "ĠÛµÛ·": 4833,
      "ĠØªØ®ÙĦÙģ": 4834,
      "ĠÙĤÙĩØ±ÙħØ§ÙĨ": 4835,
      "ĠØ¹Ø·": 4836,
      "ĠØ¹ÙĦØ§Ø¦Ùħ": 4837,
      "ĠÚ©ÙĦØ§Ùĩ": 4838,
      "ĠØ¨Ø±Ø·Ø±Ùģ": 4839,
      "ĠÙ¾Ø§ÛĮØ¯Ø§Ø±": 4840,
      "ĠÙ¾ÙĨÙĩ": 4841,
      "ĠØ´ÙĦÙĪ": 4842,
      "Ġ()": 4843,
      "ĠØªØ²Ø±ÛĮÙĤ": 4844,
      "ĠÚ©Ø§Ø±Ú¯Ø±Ø¯Ø§ÙĨ": 4845,
      "Ø¯ÙĪØ´ÙĨØ¨Ùĩ": 4846,
      "ĠØ¶Ø¹ÛĮÙģ": 4847,
      "ĠØ¨ÛĮØ¯": 4848,
      "ĠØ¹Ø²ÛĮØ²Ø§ÙĨ": 4849,
      "ĠØ¢ÙĤØ§": 4850,
      "ĠÙħØ¹ÙĦÙħ": 4851,
      "ĠÚ©ÙĨÙĪÙĨÛĮ": 4852,
      "Ø£Øª": 4853,
      "ver": 4854,
      "ĠØ¨Øª": 4855,
      "ĠØªÙĪØ§ÙĨØ³ØªÙĩ": 4856,
      "ĠØ±Ø§Ø³ØªØ§": 4857,
      "Ø¨Ø§Ø±ÛĮ": 4858,
      "ĠÚ©Ø§Ø±Ø¯": 4859,
      "ĠÙħØ®ÙĦÙĪ": 4860,
      "Ġby": 4861,
      "ĠØªÙħØ§ÛĮÙĦ": 4862,
      "ĠØ¯ÛĮÙĪØ§ÙĨ": 4863,
      "ĠØªØµÙģÛĮÙĩ": 4864,
      "ĠØªØ±Ø§ÙģÛĮÚ©": 4865,
      "ĠÙģÛĮØ²ÛĮÚ©ÛĮ": 4866,
      "ĠØ¨ØªÙĨ": 4867,
      "Ø¨Ø®Øª": 4868,
      "Ú¯Ø²Ø§Ø±Ø´": 4869,
      "ĠÙ¾ÙĪÙĦÛĮ": 4870,
      "ĠÚ©ÙĦÛĮÙĨ": 4871,
      "ĠØ§Ø¶Ø·Ø±": 4872,
      "ĠÚ¯ÙħØ±Ú©": 4873,
      "ĠÙ¾Ø§ÛĮÛĮ": 4874,
      "ĠØªØµÙĪØ±": 4875,
      "ĠÛ¶Û¶": 4876,
      "ĠØ®Ø·Ø±ÙĨ": 4877,
      "ĠÙ¾ÙĨØ§Ùĩ": 4878,
      "Ù¾Ø°ÛĮØ±ÛĮ": 4879,
      "ĠØ¯ÙħØ§ÛĮ": 4880,
      "Ø¨Ø³": 4881,
      "ĠÚ¯Ø²Ø§Ø±": 4882,
      "Ø®ÙĪØ§Ø¨": 4883,
      "ĠÛ·Ûµ": 4884,
      "Ø§Ø²Ú¯ÛĮ": 4885,
      "ĠØ§ÙģØªØ§Ø¯": 4886,
      "Ø¨ÛĮØ´": 4887,
      "ĠÙĪØ§Ø±": 4888,
      "ĠÙħØŃÚ©ÙĪÙħ": 4889,
      "Û´Û±": 4890,
      "ĠÙ¾Ø±ÚĨ": 4891,
      "ĠØ²ØºØ§ÙĦ": 4892,
      "ĠØ¯ÛĮØ¯ÙĨÛĮ": 4893,
      "ÙħÙĪÙĦÛĮ": 4894,
      "ĠØ§ÛĮÚ©Ø³": 4895,
      "ĠÙħØ¯Ø¹ÛĮ": 4896,
      "Ø±Ø³Ø§ÙĨ": 4897,
      "ead": 4898,
      "Û°Û³": 4899,
      "ÙĨÙĪÛĮØ³ÙĨØ¯Ùĩ": 4900,
      "ĠØ§ÙħÛĮØ¯ÙĪØ§Ø±ÛĮÙħ": 4901,
      "ĠÛ°Û¹Û±Û": 4902,
      "ĠÙĨÙħØ§Ø¯": 4903,
      "Ø¢ÙħÙĪØ²ÛĮ": 4904,
      "ÙĩÙħÙĩ": 4905,
      "ĠÙĩØ§ÛĮ": 4906,
      "ĠØ¯ÙĩØ§ÙĨ": 4907,
      "ĠØ³ÛĮÙħØ§": 4908,
      "ĠÙĦØ§ÛĮØŃÙĩ": 4909,
      "ĠÙħØ³Ø¹ÙĪØ¯": 4910,
      "Ù¾Ø§ÛĮØ§ÙĨ": 4911,
      "ÙĨØ¯Ø±": 4912,
      "ĠÛĮÙĪØ±ÙĪ": 4913,
      "Ø§ÙĪØªÛĮ": 4914,
      "ĠØ§ØµØ·": 4915,
      "ĠØ¨ÙĨØ²ÛĮÙĨ": 4916,
      "ĠÙ¾Ø±Ø¯Ùĩ": 4917,
      "ĠÙħØ§ÙĦÛĮØ§ØªÛĮ": 4918,
      "ĠÙħÛĮÙĦØ§Ø¯": 4919,
      "ĠØ¯Ø±Ú¯ÛĮØ±ÛĮ": 4920,
      "ĠØ¨Ø§Ø²Ø³Ø§Ø²ÛĮ": 4921,
      "ĠÙ¾Ø±Ø¯Ø§Ø®ØªÙĩ": 4922,
      "ĠØ§ÙĨÙĤÙĦØ§Ø¨ÛĮ": 4923,
      "ĠØªÙĤØ¯ÛĮØ±": 4924,
      "ĠØŃÙĦÙĤÙĩ": 4925,
      "ĠØ±ÙĪØ§ÙĨØ´ÙĨØ§Ø³ÛĮ": 4926,
      "ĠØ¬Ø§Ø°Ø¨Ùĩ": 4927,
      "ĠØ¨ÙĨÛĮØ§ÙĨ": 4928,
      "ĠØ±Ú©ÙĪØ±Ø¯": 4929,
      "Ú¯ÙĪÙĨÚ¯ÛĮ": 4930,
      "ĠØ³Ø§Ø±": 4931,
      "ĠÚ©ÛĮÙĦÙĪÚ¯Ø±Ùħ": 4932,
      "ĠØ¨Ø§Ùħ": 4933,
      "ĠØ§ÛĮÙĦ": 4934,
      "ÛĮØ¯Ø±": 4935,
      "ĠÙ¾Ø²Ø´Ú©Ø§ÙĨ": 4936,
      "ĠØ´ÙĩØ±Ø¯Ø§Ø±": 4937,
      "Ġht": 4938,
      "ĠÙħÙĤØ·Ø¹": 4939,
      "ĠÙĪØ±Ø²Ø´Ú¯Ø§Ùĩ": 4940,
      "ĠÚĨØ±Ø§Øº": 4941,
      "ĠØ®Ø§ÙĦ": 4942,
      "ĠÙħÙĪÙĩØ§ÛĮ": 4943,
      "ĠÛ¶Û°Û°": 4944,
      "ĠÙĨÙĪØ§Ø±": 4945,
      "ĠÙħØ§ÙĦÚ©": 4946,
      "ĠÙģØ§ÛĮ": 4947,
      "ĠÙħØ±Øª": 4948,
      "ĠØ¬ÙĨØ¨": 4949,
      "ĠÙĩÙħØ§ÙĨÙĨØ¯": 4950,
      "ĠÙ¾ÛĮØ§ÙħÚ©": 4951,
      "ĠÙĨØ¹": 4952,
      "ĠÛ³Û±Û": 4953,
      "ĠÙħÙħÙĨÙĪÙĨ": 4954,
      "Ø§ÙĨØ¯Ùĩ": 4955,
      "ĠØ±Ø¯ÛĮ": 4956,
      "ĠÙĨÙĪØ±ÛĮ": 4957,
      "ĠØŃØ±Ú©": 4958,
      "ĠÙħÙĨÙĪ": 4959,
      "Ú©Ø§Ø±Øª": 4960,
      "ĠÙ¾Ø±ÙĪØ§ÙĨÙĩ": 4961,
      "ĠÙħØ¯ÛĮØ±Ú©ÙĦ": 4962,
      "ØŃØ§ÙĦÛĮ": 4963,
      "ĠØ§ÛĮØ³ØªÚ¯Ø§Ùĩ": 4964,
      "ite": 4965,
      "ĠÙħÙģÙĩÙĪÙħ": 4966,
      "ĠØ§Ø³ØªØ§ÙĨÛĮ": 4967,
      "ĠÛ¸Û·": 4968,
      "ĠÛĮÙħÙĨ": 4969,
      "ĠØ¨Ø§ÙĨØ¯": 4970,
      "ĠÙħØ§ÙĨØ¯Ùĩ": 4971,
      "ĠÙħÙĤØ§ÙĪÙħØªÛĮ": 4972,
      "ÙĪØ±Ú©": 4973,
      "ĠØ³Ø±ÙĤØª": 4974,
      "ĠØ¯Ø´ÙħÙĨØ§ÙĨ": 4975,
      "ĠØ¨ÙĤÛĮÙĩ": 4976,
      "ÙģØ¹": 4977,
      "Ø·Ø±ØŃ": 4978,
      "ĠØ§ÙĪØ±Ø§ÙĤ": 4979,
      "ĠØ¢ÙģØ±ÛĮÙĤ": 4980,
      "ĠØ¨Ø²ÙĨÛĮØ¯": 4981,
      "ĠÙħØ¨ØªÙĨÛĮ": 4982,
      "OS": 4983,
      "ÙĩØ§Ø³Øª": 4984,
      "Ø³Ø®": 4985,
      "ĠØ§Ø¦": 4986,
      "ÙħØ§ÛĮÛĮØ¯": 4987,
      "ĠØ¯Ø§Ø±Ø§ÛĮÛĮ": 4988,
      "ĠÚ©ÙħØªØ±ÛĮÙĨ": 4989,
      "ÙĨÙħØ§ÛĮÙĨØ¯Ùĩ": 4990,
      "ĠÙħØ³ÙĪ": 4991,
      "ĠØ¯ÙĪÙĨ": 4992,
      "ĠØ³ÙĨÛĮ": 4993,
      "Ø±ÛĮÛĮØ³": 4994,
      "ÙħÛĮÙĤ": 4995,
      "ĠØ³Ø±Ø²ÙħÛĮÙĨ": 4996,
      "Ú©ÛĮÙĩ": 4997,
      "ĠÙĨØ¯Ø§Ø±ÛĮÙħ": 4998,
      "SB": 4999,
      "Ø¬Ø³ØªØ§ÙĨ": 5000,
      "ĠÚ©ÙĨÙĩ": 5001,
      "ĠØµØ±ÙģØ§": 5002,
      "ÙĦØ±": 5003,
      "ĠÚ¯Ø±Ø¯ÛĮØ¯Ùĩ": 5004,
      "ĠÙĪØ§ÙĨ": 5005,
      "her": 5006,
      "ĠØ¯Ø±Ú¯ÛĮØ±": 5007,
      "ĠÙħØ¹Ø±Ø¶": 5008,
      "ĠØ´Ø¨Ø§ÙĨÙĩ": 5009,
      "ÙħØ±Øº": 5010,
      "Ø§ÛĮØªÛĮ": 5011,
      "ĠØ§Ø³ØªÛĮÙĦ": 5012,
      "!!!": 5013,
      "ĠÙ¾Ø§ÛĮØ§ÙĨÛĮ": 5014,
      "ĠØ¨Ø¨Ø±ÛĮØ¯": 5015,
      "ĠØ§Ø³ØªØ®Ø¯Ø§ÙħÛĮ": 5016,
      "ĠØ±Ø§Ø¯ÛĮÙĪ": 5017,
      "Ø´ØªØ±": 5018,
      "ĠÙħØŃØ±Ùħ": 5019,
      "ĠØ§ÙģÚ©Ø§Ø±": 5020,
      "**": 5021,
      "Û´Û³": 5022,
      "ĠÙħØªÙĪÙĤÙģ": 5023,
      "ĠØªØ§Ø¨ÙĦÙĪ": 5024,
      "ĠÙĨØ±": 5025,
      "ĠØ´ÛĮÙĪØ¹": 5026,
      "ĠÙ¾ÛĮØ§ÙħØ¨Ø±": 5027,
      "ĠÙĦØ±Ø³ØªØ§ÙĨ": 5028,
      "ĠØ¨Ø§Ø±ÛĮ": 5029,
      "ĠØ¨Øº": 5030,
      "ĠÙĩÙĪÛĮØª": 5031,
      "ÚĨØ§ÙĦ": 5032,
      "ĠØ²Ø¨": 5033,
      "ÙħØ§ÙĨØª": 5034,
      "ĠÙħÙĨØ§ÙģØ¹": 5035,
      "ĠÙģØ±Ø³Øª": 5036,
      "ĠÙħØ¬ÙĦØ³ÛĮ": 5037,
      "ĠSp": 5038,
      "ĠÙĨØ´Ø±": 5039,
      "ĠØ¯Ø±ÙĪØ§Ø²Ùĩ": 5040,
      "Ø³ÛĮØ±": 5041,
      "ÙģÙĪ": 5042,
      "ĠØ±ÙĪØ¨Ø±ÙĪ": 5043,
      "ĠÙģØ§Ø¶ÙĦ": 5044,
      "ĠØ§ÙĨØ¹": 5045,
      "ĠÙħØ±Ø§": 5046,
      "ĠÙĤØ±Ø¨Ø§ÙĨÛĮ": 5047,
      "ĠØªÙĪØ¬ÙĩÛĮ": 5048,
      "ĠNew": 5049,
      "ï¯¿": 5050,
      "ĠÙģØ³Ø§Ø¯": 5051,
      "ĠQ": 5052,
      "ØŃØ¬Ùħ": 5053,
      "Ø§ØŃÙħØ¯": 5054,
      "Ø§Ø·Ø¹": 5055,
      "ÛĮÚ©Ø´ÙĨØ¨Ùĩ": 5056,
      "ant": 5057,
      "ome": 5058,
      "ĠØ§Ø±Ø¯ÙĪ": 5059,
      "Ø´ÙĨØ§Ø³Ùĩ": 5060,
      "ĠØ¯ÛĮØ±": 5061,
      "ĠÙħØµÙĨÙĪØ¹ÛĮ": 5062,
      "ĠØ§Ø¨ØªÙĦØ§": 5063,
      "Û±Û³Û¹Û¸": 5064,
      "ry": 5065,
      "ĠØ±Ø´Øª": 5066,
      "ĠÙĩØ¬": 5067,
      "Ø§Ø®Ø±": 5068,
      "ĠÙ¾Ø±Øª": 5069,
      "ĠÙģØ¹Ø§ÙĦØ§ÙĨ": 5070,
      "ĠØ§ÙģØ²ÙĪØ¯Ùĩ": 5071,
      "ĠØªØ¹Ø·ÛĮÙĦ": 5072,
      "ĠÙĦØ§Øº": 5073,
      "ĠØŃÙħØ§Ùħ": 5074,
      "ĠØ¨ÙĦÛĮØ·": 5075,
      "ĠØ³ÙĦØ§ØŃ": 5076,
      "ĠØ®Ø§Øª": 5077,
      "ÚĨØ±": 5078,
      "ĠØ¯Ø³ØªØ±Ø³": 5079,
      "ĠØºØ°Ø§ÙĩØ§ÛĮ": 5080,
      "ĠØ¬Ø¨Ø±Ø§ÙĨ": 5081,
      "Ø³ÛĮÙĦ": 5082,
      "Ø§Ú©Ùĩ": 5083,
      "ĠØ¯Ø§Ø´ØªÙħ": 5084,
      "ĠÙħØ³ØªÙĤÙĦ": 5085,
      "ĠØ¬ÙĦØ³Ø§Øª": 5086,
      "ĠØ§ÙħÛĮØ¯ÙĪØ§Ø±Ùħ": 5087,
      "ÙĪØ¦": 5088,
      "Ø¢ÙĪØ±Ø¯Ùĩ": 5089,
      "))": 5090,
      "ure": 5091,
      "Ġis": 5092,
      "Ú©Ø±Ø¯Ùĩ": 5093,
      "Ø±Ø§Ø±ÛĮ": 5094,
      "ĠØ²ÙĪØ¯ÛĮ": 5095,
      "ÙĪÙĦØ¯": 5096,
      "ĠØªÙĨÙĪØ¹": 5097,
      "ĠØ¨Ø§Ø²Ø§Ø±ÙĩØ§ÛĮ": 5098,
      "Ø±ÙĪØ³Ø§ÙģØª": 5099,
      "ĠØªÙĪØ±ÛĮ": 5100,
      "Ú©ÛĮÙģ": 5101,
      "ĠÙħØµØ¯": 5102,
      "ĠÙĨÙĪØ±ÙĪØ²ÛĮ": 5103,
      "ĠØ§ØŃØªØ±Ø§Ùħ": 5104,
      "ĠØ®ÙĨØ¯Ùĩ": 5105,
      "ĠØ§ÙĪÙħ": 5106,
      "ĠØ²ØŃ": 5107,
      "ĠØªØ¹Ø§ÙħÙĦ": 5108,
      "ĠØ¢Ø¯": 5109,
      "ĠØ®ÙĪØ§ÙĨÙĨØ¯Ùĩ": 5110,
      "ØªØ³": 5111,
      "ĠØ²ÙĪØ¬": 5112,
      "ĠÛµÛ¶": 5113,
      "ĠØ³Ø§ÛĮÙĩ": 5114,
      "ly": 5115,
      "Ø¹Ø¨Ø§Ø³": 5116,
      "ÛµÛ²": 5117,
      "Ø§ÙĦØ¨ØªÙĩ": 5118,
      "ĠØ¢Ø³ØªØ§ÙĨÙĩ": 5119,
      "ĠÛĮØ§Ø²Ø¯ÙĩÙħ": 5120,
      "ÛµÛ³": 5121,
      "ĠØ§ÙĪØ¬": 5122,
      "ĠØ³Ø·ÙĪØŃ": 5123,
      "ÙħØ´Ø®Øµ": 5124,
      "Ø¹Ø¶": 5125,
      "Ø§ÙĦØ¯ÛĮÙĨ": 5126,
      "ĠÙĨÙĤØ¯ÛĮ": 5127,
      "ĠØ´ÙĨØ§Ø³ÛĮ": 5128,
      "ĠØ³Ù¾Ø±Ø¯Ùĩ": 5129,
      "ĠØ¯ÙħÙĪ": 5130,
      "ĠÚ©Ø§Ø¯Ø±": 5131,
      "ĠØ§Ø±Ø§ÛĮÙĩ": 5132,
      "ĠØ§ÙģØªØ®Ø§Ø±": 5133,
      "ĠØ¨ÙĨØ¯Ùĩ": 5134,
      "ĠØ¯ÛĮÙ¾ÙĦÙħ": 5135,
      "ĠÙĩÛĮØ¯Ø±ÙĪ": 5136,
      "ail": 5137,
      "ĠØºÙĨÛĮ": 5138,
      "ĠÙĪØ§Ú¯Ø°Ø§Ø±ÛĮ": 5139,
      "ĠØ¢Ø³ÙħØ§ÙĨ": 5140,
      "Ø´ÛĮØ±": 5141,
      "ĠÙħØ¯Ø±Ú©": 5142,
      "ĠÙĩØ±Ú¯Ø²": 5143,
      "Ø¬ÙħØ¹Ùĩ": 5144,
      "Ø§ÙĨÙĦÙĪØ¯": 5145,
      "ĠÙħØ¹ÙħÙĪÙĦÛĮ": 5146,
      "Û³Û±Û": 5147,
      "ĠØ§ÙĨÚ¯Ø´Øª": 5148,
      "ĠØ±ÙĪÙĨÙĤ": 5149,
      "ĠÚ©Øª": 5150,
      "ĠØ³Ø¨Ø¯": 5151,
      "ĠØ´Ú©Ùħ": 5152,
      "ĠØ¯Ø±ÙĪØº": 5153,
      "ĠÙģÙĪØ±ÛĮ": 5154,
      "ĠÚ¯Ø´Øª": 5155,
      "ĠÚĨØ·ÙĪØ±": 5156,
      "ĠØªÙĪÙħØ§ÙĨÛĮ": 5157,
      "ĠÙĩØ±ÚĨÙĩ": 5158,
      "ĠØ±Ø§ÙĩØ¨Ø±Ø¯": 5159,
      "ĠØªØ®Ø±ÛĮØ¨": 5160,
      "ĠØªÙĪØµÛĮÙģ": 5161,
      "ber": 5162,
      "ust": 5163,
      "Ø³Ø§Ø¹Øª": 5164,
      "ĠØ´Ú©Ø§ÛĮØª": 5165,
      "ĠØ§ÙģØªØ§Ø¯Ùĩ": 5166,
      "ĠÙĤÙĦØ¹Ùĩ": 5167,
      "ĠÙĪØ§ÙĦÛĮØ¨Ø§ÙĦ": 5168,
      "ĠØ´Ø±ÛĮ": 5169,
      "ÛµÛ¹": 5170,
      "ĠØ¶Ø¹Ùģ": 5171,
      "ĠÙ¾Ø±Ø¯Ø§Ø²Ø´": 5172,
      "ĠÙħØ®ÙĦÙĪØ·": 5173,
      "ÙģØ³": 5174,
      "ÙģØ±ÙĪ": 5175,
      "ĠÙĤÛĮÙħ": 5176,
      "ĠÛ¹Û±": 5177,
      "Ú¯ÛĮØ±ÛĮÙħ": 5178,
      "ĠÙĨÙĪØ¬ÙĪØ§ÙĨØ§ÙĨ": 5179,
      "ØºÛĮØ±": 5180,
      "Ú©ÛĮØ¬": 5181,
      "ĠÙĦØ¨ÙĨØ§ÙĨ": 5182,
      "ĠØ²Ø§ÛĮ": 5183,
      "ĠÙĨÛĮØ§Ø²ÛĮ": 5184,
      "ĠØ³Ø±Ù¾Ø±Ø³Øª": 5185,
      "ĠÙĦÛĮØ²Ø±": 5186,
      "ĠÙĤØ·Ø¹ÛĮ": 5187,
      "ĠØ¨Ø±Ø§Ø¯Ø±": 5188,
      "ĠØ¹Ø§Ø´": 5189,
      "ĠØ¨Ø³ØªØ±": 5190,
      "ĠÙħÙĩÙĦØª": 5191,
      "ĠÙħØ®Ø±ÙĪ": 5192,
      "ĠÚ©ÛĮÙĦÙĪ": 5193,
      "ĠÙħÛĮØ²Ø¨Ø§ÙĨ": 5194,
      "ĠØ§ÙĨÚ¯ÛĮØ²Ùĩ": 5195,
      "gle": 5196,
      "ĠØ®Ø³ØªÙĩ": 5197,
      "Ø¶ÙĦ": 5198,
      "ĠØ¯Ø§Ø´ØªÛĮÙħ": 5199,
      "ĠØ³ÙĪØ¡": 5200,
      "Ø¨Ø¹ÛĮÙĨ": 5201,
      "ĠÙģÙĦØ²": 5202,
      "ĠÙĨÙģØ±Ùĩ": 5203,
      "ĠÙĩÙĦØ§ÙĦ": 5204,
      "ÛĮØ§Ø¯": 5205,
      "ĠÚ©Ø±Ú©": 5206,
      "Ø±Ø¯Ú¯ÛĮ": 5207,
      "ĠØµØ§ÙĦØŃ": 5208,
      "ĠØ§ÙħÙĦØ§Ú©": 5209,
      "ĠÙĨØ§ÙħØ²Ø¯": 5210,
      "act": 5211,
      "ØºØ¯ØºÙĩ": 5212,
      "ÙĦÛĮØ³": 5213,
      "ĠÛĮØ§Ø³": 5214,
      "ĠÛ±Û°Û°Û°": 5215,
      "ĠØ±ÛĮØ²": 5216,
      "Ø§ÙģÛĮÚ©ÛĮ": 5217,
      "ĠØ±ÙĨØ¬": 5218,
      "ĠØ®Ø³Ø§Ø±Øª": 5219,
      "ĠØ¨Ø·ÙĪØ±": 5220,
      "Ø´ÙĪØ±": 5221,
      "ĠÙģØ±Ø§Ø±": 5222,
      "ĠØ±Ø§ÙĨÙĨØ¯Ú¯ÛĮ": 5223,
      "ies": 5224,
      "ĠÚ©Ù¾ÛĮ": 5225,
      "ĠØ±ÛĮØ³Ú©": 5226,
      "ĠÛ±Û³Û·": 5227,
      "ĠØ¨Ø§Ø±Ø´": 5228,
      "Ø±Ø§ØªÙĪØ±": 5229,
      "ĠDownload": 5230,
      "ĠÙĩÙĨÚ¯Ø§ÙħÛĮ": 5231,
      "ÙħØ¯ÛĮØ±Ú©ÙĦ": 5232,
      "__": 5233,
      "Ø§Ø³ØªÛĮÚ©ÛĮ": 5234,
      "ĠØªÙģÚ©Ø±": 5235,
      "ĠØªÙĨÚ¯": 5236,
      "ÛµÛ±": 5237,
      "ĠÙĨÙĪØ¨Øª": 5238,
      "ear": 5239,
      "ĠØ¨Ø±ÛĮ": 5240,
      "ĠÙ¾ÙĦØ§Ø³ØªÛĮÚ©": 5241,
      "ĠÙģØ§Ø·ÙħÙĩ": 5242,
      "Ø§Ø·ÙĦØ§Ø¹": 5243,
      "ÙħØªÙĨ": 5244,
      "ĠØ§Ú©Ø´ÙĨ": 5245,
      "Ġhttps": 5246,
      "ĠØ§Ø¹ØªÙĤØ§Ø¯": 5247,
      "ER": 5248,
      "Ø¯Ø§ÙĨØ¯": 5249,
      "ĠÙĩÙĪØ±": 5250,
      "ĠÛ´Û²": 5251,
      "ĠØ³ÙĪØ¦": 5252,
      "ĠØ¬ÙĨÚ¯ÙĦ": 5253,
      "Ø§ÙģØªØ¯": 5254,
      "ĠÙĪØ¸Ø§ÛĮÙģ": 5255,
      "ĠØ§ØŃØªÙħØ§ÙĦÛĮ": 5256,
      "ĠØ®Ø·Ø±ÙĨØ§Ú©": 5257,
      "ef": 5258,
      "ĠØ®ÙĪÛĮØ´": 5259,
      "Ø§ÙģÙĦ": 5260,
      "ĠØ§ÙĦÚ¯ÙĪÛĮ": 5261,
      "ĠÙħØ·ÙĦÙĪØ¨": 5262,
      "ĠÙħØ·Ø¨ÙĪØ¹": 5263,
      "Ú©ÙĪÙĩ": 5264,
      "ĠÙħØ§Ú©": 5265,
      "Ø§Ø¨Ø±ÛĮ": 5266,
      "ĠØ¯Ø³ØªØ§ÙĪØ±Ø¯": 5267,
      "Ú©ÙĦØª": 5268,
      "ĠÛ³Û³": 5269,
      "ÙĪÙħÛĮÙĩ": 5270,
      "ĠÙĩÙħØ±Ø§ÙĩÛĮ": 5271,
      "ĠØµØ±ÙģÙĩ": 5272,
      "ĠØ§ÙĩÙĨÚ¯": 5273,
      "ĠÚ¯ÛĮÚ¯Ø§Ø¨Ø§ÛĮØª": 5274,
      "ĠÚ©Ø±ÛĮÙħ": 5275,
      "ĠÙ¾ÛĮØ±Ø§ÙħÙĪÙĨ": 5276,
      "ĠÚ¯Ø±Ø¯ÙĨ": 5277,
      "Ø±Ø¯ÛĮ": 5278,
      "ÚĨÚ¯ÙĪÙĨÙĩ": 5279,
      "ĠØºÙĦØ§Ùħ": 5280,
      "ĠØ¨Ø±ÙĤØ±Ø§Ø±": 5281,
      "ĠÙħØ²Ø§ÛĮØ§ÛĮ": 5282,
      "ĠÙħÙĪÙĨ": 5283,
      "ĠÙģÚ©Ø±ÛĮ": 5284,
      "ÙĪØ²Ø´": 5285,
      "ĠØ§Ø±Ø¨Ø¹ÛĮÙĨ": 5286,
      "ĠØ¹ÙħÙĪÙħ": 5287,
      "ĠÙħØ·ÙĦ": 5288,
      "ĠØ§Ø®ØªÙĦØ§ÙĦ": 5289,
      "ĠØ¹ÙħÙĦÛĮØ§ØªÛĮ": 5290,
      "ontent": 5291,
      "Ø§ÛĮØ§Øª": 5292,
      "ĠØŃÙħÙĦØ§Øª": 5293,
      "Ø´Ø¹": 5294,
      "ĠØ³Ø®ÙĨÚ¯ÙĪÛĮ": 5295,
      "Ø§ÙĦØ¹ÙħÙĦ": 5296,
      "ĠØªØµØ§Ø¯Ùģ": 5297,
      "Ú¯Ø²Ø§Ø±": 5298,
      "ĠÙ¾ÙĪØ±Øª": 5299,
      "ary": 5300,
      "ĠØ¸Ø±ÛĮÙģ": 5301,
      "ĠÙħØ¹ÙĨÙĪÛĮ": 5302,
      "ĠØ§ÙĦÚ©ØªØ±ÛĮÚ©ÛĮ": 5303,
      "Ú¯Ø§Ùħ": 5304,
      "ĠØ¯Ø±Ø®": 5305,
      "Ø¯ÙĩÛĮØ¯": 5306,
      "ĠÚĨÙ¾": 5307,
      "ĠØ¨Ø§ÙĦØ§ØªØ±ÛĮÙĨ": 5308,
      "ĠØ¨Ø±Ú¯Ø´Øª": 5309,
      "Û¹Û³Û": 5310,
      "ĠØ´ÙĪØ±Ø§": 5311,
      "ĠÙħØ³ØªÙħ": 5312,
      "ĠØ®ÙĪØ´Ùħ": 5313,
      "ĠÙħØªÙĨØ§Ø³Ø¨": 5314,
      "ĠÙħØ®Ø§Ø·Ø¨": 5315,
      "ĠÙ¾Ø§Ø´": 5316,
      "ĠØ§Ø¹Ø²Ø§Ùħ": 5317,
      "ĠØ¢ÙĪØ±Ø¯ÙĨ": 5318,
      "ĠØ¯Ø®ØªØ±Ø§ÙĨ": 5319,
      "ĠØ§ØµØ·ÙĦØ§ØŃ": 5320,
      "oh": 5321,
      "ĠÙħÛĮØ®ÙĪ": 5322,
      "ĠÚ¯ÛĮÙħ": 5323,
      "Ø·ÙģÛĮ": 5324,
      "Ø¢ÙħÛĮØ²": 5325,
      "ĠÚ¯ÙģØªÙħ": 5326,
      "ĠÛ²Û°Û±Û±": 5327,
      "ĠØ´Ø¹Ø¨Ùĩ": 5328,
      "ain": 5329,
      "ĠÙĨÚ¯Ø§ÙĩÛĮ": 5330,
      "ĠÚ©ÙĨÛĮ": 5331,
      "ĠØ¢ÙħØ¯ÙĨ": 5332,
      "Ø®ØµÛĮ": 5333,
      "ĠØŃØ±Ø§Ø±Øª": 5334,
      "line": 5335,
      "ue": 5336,
      "ĠØ§Ú©Ø±Ø§ÙĨ": 5337,
      "nt": 5338,
      "Ø¨ÙĪ": 5339,
      "ĠØªØ§Ø²Ú¯ÛĮ": 5340,
      "ĠØ´Ø¬": 5341,
      "ĠØ¨Ø±ÙĪØ¯": 5342,
      "ĠÙ¾ÙĨÙĩØ§ÙĨ": 5343,
      "ĠÙħØ¹Øµ": 5344,
      "ĠÙĩÛĮØ£Øª": 5345,
      "ĠÙĩØ²Ø§Ø±Ùĩ": 5346,
      "ĠÙ¾Ø§Ø±ÙĦ": 5347,
      "ĠØ®ÙĪØ´ØŃØ§ÙĦ": 5348,
      "ĠØªÙĦÙĪÛĮØ²ÛĮÙĪÙĨÛĮ": 5349,
      "Ø®ÙĪØ¯Ø±ÙĪ": 5350,
      "ED": 5351,
      "Ú¯Ø³ØªØ±ÛĮ": 5352,
      "ĠÚĨÚ¯ÙĪÙĨÚ¯ÛĮ": 5353,
      "ĠØ¬ÙĦÙĪÛĮ": 5354,
      "ON": 5355,
      "ĠØ®Ø§ÙĪØ±": 5356,
      "ĠØ§Ø³Ø¨": 5357,
      "ĠØ¨Ø¯ÛĮ": 5358,
      "ĠÙĩÛĮØ¬Ø§ÙĨ": 5359,
      "ÙħØ¬ÙħÙĪØ¹Ùĩ": 5360,
      "AM": 5361,
      "ĠØ¨Ø§Ø¨Øª": 5362,
      "ĠØ¨ØªÙĪØ§ÙĨÛĮÙħ": 5363,
      "ĠØ¯ØºØ¯ØºÙĩ": 5364,
      "ÙģØµÙĦ": 5365,
      "ĠØºÙħ": 5366,
      "ĠØªÙĪØ¬ÛĮÙĩÛĮ": 5367,
      "ĠØ§ÙĪÙĤØ§Øª": 5368,
      "ĠØ¹ÙħØ±Ø§ÙĨÛĮ": 5369,
      "ĠÙħØ¨Ø§ØŃ": 5370,
      "ÙħØ´Ø®ØµØ§Øª": 5371,
      "Ø§ÛĮØ¨": 5372,
      "ĠÛ·Û·": 5373,
      "ĠØ¨Ø¹ÙĨÙĪØ§ÙĨ": 5374,
      "ĠÙĨÙĩÙħ": 5375,
      "ĠØ¬ÙĪØ§Ùĩ": 5376,
      "ĠØ§Ø®ÙĦØ§ÙĤÛĮ": 5377,
      "ĠØ²Ø®Ùħ": 5378,
      "ÙĪÙħÛĮÙĨ": 5379,
      "Ø§ØŃØªÛĮ": 5380,
      "ix": 5381,
      "ĠØ¨Ø§Ø·": 5382,
      "ĠØ§ÛĮÙĦØ§Ùħ": 5383,
      "ĠÙģØ±Ø§ÙĪØ§ÙĨÛĮ": 5384,
      "Ø§ØªÛĮØ¯": 5385,
      "Ø§Ø²Ø¯Ùĩ": 5386,
      "ĠÚĨØ±Ùħ": 5387,
      "ĠÚ©Ø´ÛĮØ¯Ùĩ": 5388,
      "ĠÛ²Û°Û±Û°": 5389,
      "ĠÚ©Ø±ÛĮÙħÛĮ": 5390,
      "Ø®Ø¨": 5391,
      "ĠØªÙģØ±ÛĮØŃÛĮ": 5392,
      "ÙģÙĤÛĮÙĩ": 5393,
      "ĠØ¹ÙħÛĮÙĤ": 5394,
      "ĠØ¯Ø§Ø¯Ú¯Ø³ØªØ±ÛĮ": 5395,
      "ĠØ¢ÙĨØ¯": 5396,
      "ĠØªØ¶ÙħÛĮÙĨ": 5397,
      "ĠØ®ÙĪØ±Ø´ÛĮØ¯": 5398,
      "ĠÙģØ±Ùĩ": 5399,
      "ĠØ³ÛĮÚ¯Ø§Ø±": 5400,
      "ark": 5401,
      "ell": 5402,
      "ĠØªÙĦÙģÙĨÛĮ": 5403,
      "ĠØ¯Ø³": 5404,
      "ĠØ¬Øº": 5405,
      "ÙĪÛĮØ²": 5406,
      "ÙĤÛĮÙĤÛĮ": 5407,
      "ĠØ¨Ø±ØªØ±ÛĮÙĨ": 5408,
      "ØµØ§Ø¨": 5409,
      "Ø§Ø¬ÛĮ": 5410,
      "ĠÙ¾Ø®Øª": 5411,
      "ĠØ³Ø±Ø¨Ø§Ø²": 5412,
      "Ú©ÙĦÙĨ": 5413,
      "Ġ{": 5414,
      "ĠØ·ÙĨØ²": 5415,
      "Ġpro": 5416,
      "ĠØ§ÙĨØµ": 5417,
      "ÙħÙĪØ¶ÙĪØ¹": 5418,
      "ĠÙ¾Ø§Ø±Ø³ÛĮ": 5419,
      "ÙĨÙĪØ´Øª": 5420,
      "ÙĤØ¨ÙĦÛĮ": 5421,
      "ÙĨÛĮÙĪØ²": 5422,
      "ĠØ§Ø¹ØªØ¨Ø§Ø±ÛĮ": 5423,
      "Ø§ÙģØ²Ø§ÛĮØ´": 5424,
      "Ú¯Ø§": 5425,
      "Ø±ÛĮØ§": 5426,
      "ĠØ¯ÙĩÛĮ": 5427,
      "ĠØ§Ø¨Ø²Ø§Ø±ÙĩØ§ÛĮ": 5428,
      "ĠÚĨÙĪØ¨ÛĮ": 5429,
      "Ø´Ú©ÙĦ": 5430,
      "ĠØ§Ø³Ú©ÙĨ": 5431,
      "ĠÙģÚ©": 5432,
      "ĠÛ±Û²Û°": 5433,
      "ĠØ¨ÙĨÙĪÛĮØ³": 5434,
      "ree": 5435,
      "ĠØ§Ø¨Ø±Ø§ÙĩÛĮÙħ": 5436,
      "ĠØ¹Ø¯Ùĩ": 5437,
      "ĠÛ±Û³Û¸Û¹": 5438,
      "AN": 5439,
      "Ø§ÙĨÙĪØ§Ø¹": 5440,
      "ĠÚ©Ø§ÙħÛĮ": 5441,
      "ĠÙĨØ¸Ø±ÛĮÙĩ": 5442,
      "ĠÚ©Ø±Ø¨ÙĦ": 5443,
      "ĠØ¨ÙĪÙħÛĮ": 5444,
      "ĠÙĦÙĩ": 5445,
      "ĠØ§ÛĮÙħØ§ÙĨ": 5446,
      "ØŃØ¶": 5447,
      "ĠÙħØŃÙĦÙĩ": 5448,
      "Ø¢ÙĨÛĮ": 5449,
      "Ġhtml": 5450,
      "ĠØªØ±ÙĪÛĮ": 5451,
      "ĠØªØ§ÙĦØ§Ø±": 5452,
      "pt": 5453,
      "ĠØ±Ø¨Ø§Øª": 5454,
      "ĠØ¨Ø±Ø´": 5455,
      "ĠÙĤÙĪÙĦ": 5456,
      "ĠØ§ÙĦÚ¯ÙĪ": 5457,
      "ĠÚ©ÙĦØ§Ø³ÛĮ": 5458,
      "Ø³Ø§Ø²Ø¯": 5459,
      "ĠØ¹Ø±ÙĪØ³ÛĮ": 5460,
      "ĠÚ¯Ø§ÙĦØ±ÛĮ": 5461,
      "ĠØ´Ø§Ùħ": 5462,
      "ĠØ¢ÚĺØ§ÙĨØ³": 5463,
      "ĠØ§ÛĮØ«Ø§Ø±": 5464,
      "ĠÙħÛĮØ§ÙĨÚ¯ÛĮÙĨ": 5465,
      "ĠØ¢Ù¾Ø¯ÛĮØª": 5466,
      "ext": 5467,
      "ĠÙĪØ§ÛĮ": 5468,
      "ĠØ´Ø±ÛĮÙģ": 5469,
      "ĠÙħØ¹Ø§Ø¯ÙĦ": 5470,
      "Ú¯ÙĪÛĮÙħ": 5471,
      "ame": 5472,
      "ĠØ¬ÙĪØ§Ø¯": 5473,
      "Ø³ÙĪÛĮ": 5474,
      "ĠØ¨Ø§Ø²Ø±Ø³ÛĮ": 5475,
      "ĠÚĨÙĨØ¯Ø§ÙĨ": 5476,
      "ÙĪÙħÛĮØª": 5477,
      "ĠØ§Ø¸ÙĩØ§Ø±Ø§Øª": 5478,
      "ĠØ§ØªÙĪÙħØ¨ÛĮÙĦ": 5479,
      "ĠØ´ÙĨØ§": 5480,
      "ĠØ§Ø±ÙĪÙħÛĮÙĩ": 5481,
      "ĠAM": 5482,
      "ĠÚ©ÛĮÙģÛĮ": 5483,
      "ĠØ³ÙĪÙħÛĮÙĨ": 5484,
      "ook": 5485,
      "ĠØ¹ÙģÙĪÙĨØª": 5486,
      "ĠÙģØ§Ø¶ÙĦØ§Ø¨": 5487,
      "bo": 5488,
      "Ø¨ØªÛĮ": 5489,
      "ĠØ¯Ø±Ø§ÛĮ": 5490,
      "ĠØ§ÙħØ¶Ø§": 5491,
      "ØªÙĩØ±Ø§ÙĨ": 5492,
      "ÙĤÛĮØ¨": 5493,
      "sp": 5494,
      "Ø±ÙĪØŃ": 5495,
      "Ø°Ú©Ø±": 5496,
      "Ø³ÙĦÙħÛĮÙĨ": 5497,
      "ĠÚ©Ø§Ø±Ú¯Ø±": 5498,
      "ĠÙģØ±Ø§ÙĪØ§ÙĨ": 5499,
      "ĠØ¯Ø²": 5500,
      "Ø«Ø¨Øª": 5501,
      "ÙħÙĨØ¨Ø¹": 5502,
      "ĠÙĨÙĩØ§Ø¯ÙĩØ§ÛĮ": 5503,
      "ĠØ§Ø±ØªÙĤØ§ÛĮ": 5504,
      "ĠÚ©Ø§Ø®": 5505,
      "ĠØªØ±Ø§ÙĨÙĩ": 5506,
      "ĠâĢ¦..": 5507,
      "ĠØ§ÙĨØªØ®Ø§Ø¨Ø§ØªÛĮ": 5508,
      "ĠÙĩØ±ÙħØ²Ú¯Ø§ÙĨ": 5509,
      "ĠÙĤÛĮÙħØªÛĮ": 5510,
      "ĠØªÙĨÙĩØ§ÛĮÛĮ": 5511,
      "ĠØ±ÙģØ§Ùĩ": 5512,
      "ĠÙħØ§Ø³Ú©": 5513,
      "ĠØ§ÙĨÙģØ¬Ø§Ø±": 5514,
      "ĠÛµÛ¸": 5515,
      "ĠØªØ±Ø§Ú©ØªÙĪØ±": 5516,
      "Ø¢ÙĨÙĦØ§ÛĮÙĨ": 5517,
      "ĠØ±ÙĪØ¯Ø®Ø§ÙĨÙĩ": 5518,
      "ĠØŃØ§Ú©Ùħ": 5519,
      "ĠÙħØ±ÛĮÙħ": 5520,
      "ĠÙħØ¯Ø§ÙĦ": 5521,
      "Ø§Ø³ØªØ§ÙĨÛĮ": 5522,
      "ĠÙĪØ±ÚĺÙĨ": 5523,
      "ĠÙĨÙĪØ´ØªÙĨ": 5524,
      "ĠØŃÛĮØ§Øª": 5525,
      "ĠÙħØ±ÙĪØ±Ú¯Ø±": 5526,
      "ĠÛĮØ¯": 5527,
      "ĠØ¯Ø³ØªÚ¯ÛĮØ±": 5528,
      "ÙĪØ±Ø¯ÛĮ": 5529,
      "ĠØªØ§Ø³ÛĮØ³Ø§Øª": 5530,
      "ĠØŃÛĮÙĨ": 5531,
      "ĠØ§ÙĦØŃ": 5532,
      "ĠÙ¾ÛĮÚĨÛĮØ¯Ùĩ": 5533,
      "ĠÙħØŃÙĤÙĤØ§ÙĨ": 5534,
      "ĠÙħÛĮÚ©ÙĨÙĩ": 5535,
      "ĠØ¨Ø®Ø§Ø±": 5536,
      "ĠØ³ÙħÙĨØ§ÙĨ": 5537,
      "ĠØ®Ø§ÙħÙĪØ´": 5538,
      "ÛĮÙĨÙĪ": 5539,
      "ĠØ¬ÙĪÛĮ": 5540,
      "ĠÙ¾Ø°ÛĮØ±ÙģØªÙĩ": 5541,
      "ĠÙĩÙĨØ±ÙħÙĨØ¯": 5542,
      "ĠÚĨØ±Ø§Ú©Ùĩ": 5543,
      "ok": 5544,
      "Ú©ÛĮÚ©": 5545,
      "ĠØ±Ø³ÙĪÙĦ": 5546,
      "ĠØªØ¬Ø²ÛĮÙĩ": 5547,
      "able": 5548,
      "ĠÙĪØ§Ø³Ø·Ùĩ": 5549,
      "Ø§Ø±ØªÛĮ": 5550,
      "ĠØ¯Ø±Ú¯Ø°Ø´Øª": 5551,
      "ĠØ³Ø¤": 5552,
      "ĠÙħÚ©ÙħÙĦ": 5553,
      "ĠÙħØ§ÛĮÚ©Ø±ÙĪØ³Ø§ÙģØª": 5554,
      "ĠØ¨Ø¯ÙĨÛĮ": 5555,
      "ĠØºÛĮØ±Ùĩ": 5556,
      "ĠÙħØªÙĤØ§Ø¶ÛĮØ§ÙĨ": 5557,
      "Ú©ÙĪÙĦ": 5558,
      "ĠÙħØ§ÙĨÛĮ": 5559,
      "ĠØ¢ØªÛĮ": 5560,
      "ĠØ¨Ø±Ùģ": 5561,
      "ĠÙħÙĪÙĤØª": 5562,
      "man": 5563,
      "Ø³ÙĨØ¬": 5564,
      "ĠÙĩØ§ÛĮØ´": 5565,
      "Ø§ÙģÙĤØª": 5566,
      "ĠØªÙĨØ´": 5567,
      "ĠØ¨Ø±Ú¯Ø²": 5568,
      "ÙĦØ§ÙĨ": 5569,
      "ĠÙħØ±ÛĮ": 5570,
      "ĠØ¯Ø¨ÛĮ": 5571,
      "ĠØ§Ø³Ø§ØªÛĮØ¯": 5572,
      "ĠÙĤØ±Ø¢ÙĨÛĮ": 5573,
      "ĠCom": 5574,
      "ĠÙħÙĩØ§Ø¬Ø±Øª": 5575,
      "Ġor": 5576,
      "ØªÛĮÙħ": 5577,
      "ĠØ±Ø¨": 5578,
      "ĠÙ¾Ø§Ø±ÛĮ": 5579,
      "Ø§ÙĩÙĪ": 5580,
      "ĠÙħÙĪÛĮ": 5581,
      "ĠÙĪÛĮØ²ÛĮØª": 5582,
      "ĠØ¯Ø±ÛĮØ§ÚĨÙĩ": 5583,
      "ĠØªØ¯Ø±ÛĮØ³": 5584,
      "ĠÙĪØ±ÙĤ": 5585,
      "ĠÙĩÙģØªÙħ": 5586,
      "ĠÙĪÙģ": 5587,
      "ĠÙħØ¯Ø§ÙģØ¹": 5588,
      "ĠØ§ØªÙĪØ¨": 5589,
      "ĠGB": 5590,
      "!!!!": 5591,
      "ĠØ¯Ø§ÙĪØ·ÙĦØ¨Ø§ÙĨ": 5592,
      "Ø³ÛĮØ¯": 5593,
      "ĠØ¨ÙĩÙħ": 5594,
      "ĠÚ¯ÙĨØ¯Ùħ": 5595,
      "ĠØ¹ÙĪØ¶": 5596,
      "ress": 5597,
      "ug": 5598,
      "ÙħÛĮØ¯": 5599,
      "ĠØ¨Øµ": 5600,
      "Ù¾Ø²Ø´Ú©ÛĮ": 5601,
      "ÛĮÙĨØª": 5602,
      "ĠØµÙĩÛĮÙĪÙĨÛĮØ³ØªÛĮ": 5603,
      "OO": 5604,
      "ĠÙħØ¨Ø§ÙĨÛĮ": 5605,
      "Ù¾ÙĪØ²": 5606,
      "ĠÚ©ÙĨÙĪÙĨ": 5607,
      "ĠØªÙħØ¯ÛĮØ¯": 5608,
      "ĠÚĨÙĩÙĦ": 5609,
      "ĠØªÙħØ±ÛĮÙĨØ§Øª": 5610,
      "ĠØ¨ÙĦØ§": 5611,
      "ĠÙĨØ§Ø¯Ø±": 5612,
      "ĠÙ¾Ú©ÛĮØ¬": 5613,
      "Ø®Ø§Øµ": 5614,
      "ĠÚ©Ø§Ø±ÙĩØ§": 5615,
      "Ġwp": 5616,
      "Ù¾Ø§ÛĮÚ¯Ø§Ùĩ": 5617,
      "Ø¢ÙĩÙĨÚ¯": 5618,
      "ĠÙ¾ÛĮØ´ÛĮÙĨ": 5619,
      "ĠØ¨Ø§Ø±ÙĩØ§": 5620,
      "ĠØ°ÙĪØ¨": 5621,
      "ĠÙģØ±ÙħØ§Ø¦ÛĮØ¯": 5622,
      "ĠÙħØªØ¹Ø¯Ø¯": 5623,
      "ĠØ§Ø³ØªØ±Ø§ÙĦÛĮØ§": 5624,
      "ĠÚĨØª": 5625,
      "ĠÙħØªØµÙĦ": 5626,
      "ĠÙĪØ§Ø´": 5627,
      "Ø§ÙĩÙĨ": 5628,
      "ÙĪØ·Ùĩ": 5629,
      "ĠÙĨØ²Ø¯ÛĮÚ©ÛĮ": 5630,
      "ĠØ³ÙĦÛĮÙħØ§ÙĨÛĮ": 5631,
      "ĠØ¯Ø±Ø³ØªÛĮ": 5632,
      "ÛĮØ±Ø§ÙĨ": 5633,
      "ĠÙħÙĤØ¯": 5634,
      "Ø§Ø¦ÙħÛĮ": 5635,
      "ĠÛ¸Û°Û°": 5636,
      "ĠTr": 5637,
      "ĠØ®Ø§Ø·Ø±Ùĩ": 5638,
      "ous": 5639,
      "ĠØ¬Ø§ÙĪØ§": 5640,
      "ØªÙħØ§Ùħ": 5641,
      "ĠÙĨØ¯Ø§Ø±Ùħ": 5642,
      "ĠØ±Ø£ÛĮ": 5643,
      "ie": 5644,
      "ĠØ¯Ø§ÛĮ": 5645,
      "ĠØªØ§Ù¾": 5646,
      "Ø¢ÙĤØ§ÛĮ": 5647,
      "ĠÛ±Û±Û°": 5648,
      "Û¹Û°": 5649,
      "ĠÛ±Û¹Û¹Û": 5650,
      "ĠÚ©ÙĨØ³Ø±Øª": 5651,
      "ÙĪØ¦ÙĨ": 5652,
      "ĠØ³ÙĪØ±": 5653,
      "ĠØ¨ÙĩØªØ±ÛĮ": 5654,
      "ÙĩØ§ÛĮØ´": 5655,
      "ĠØ¨Ø§Ú©ØªØ±ÛĮ": 5656,
      "Ú¯Ø±Ø§ÛĮÛĮ": 5657,
      "ĠÙħØ®Ø§Ø·Ø¨Ø§ÙĨ": 5658,
      "ĠÙ¾Ø±Ùĩ": 5659,
      "Ø®Ø±": 5660,
      "ĠØ§ÙĨØ¯Ø§Ùħ": 5661,
      "ĠØ¶ÙħØ§ÙĨØª": 5662,
      "ĠÙħØµØ±": 5663,
      "ĠØ°Ùĩ": 5664,
      "ĠØ¨ÙĩØ§ÙĨÙĩ": 5665,
      "Ø§ÙĤØªØµ": 5666,
      "ĠØªØŃÙħÙĦ": 5667,
      "ĠÙĤØ¨ÙĦØ§": 5668,
      "ĠÛĮØ§ÙģØªÙĨ": 5669,
      "ĠÛ±Û³Ûµ": 5670,
      "ĠØ§ØªÙħØ§Ùħ": 5671,
      "ĠÙħØŃØªÙĪØ§": 5672,
      "ĠÙĩØ´ØªÙħ": 5673,
      "Ú©ÛĮÙģÛĮØª": 5674,
      "ĠÙħØ§Ø³Øª": 5675,
      "ĠÙĩÚ©Øª": 5676,
      "ĠØ¬ÙĪØ±": 5677,
      "Ø·ÙĪØ¨": 5678,
      "ĠØ¢Ø±Ø´ÛĮÙĪ": 5679,
      "ĠØ¢ÙĦÙħØ§ÙĨÛĮ": 5680,
      "Ø³Ø§Ø²Ø§ÙĨ": 5681,
      "Û±Û³Û¹Ûµ": 5682,
      "ĠØªØ±Ú©ÛĮØ¨ÛĮ": 5683,
      "ÙĨØ§Ø²": 5684,
      "ĠÙħÚ¯Ø±": 5685,
      "ĠÙħØ³ÙĦÙħØ§ÙĨØ§ÙĨ": 5686,
      "ï¯¾": 5687,
      "ĠÙģÙĩÙħ": 5688,
      "ÙĪÙħÛĮÙĨÛĮ": 5689,
      "ĠØ²ÛĮØ±Ø³Ø§Ø®Øª": 5690,
      "Ø´ÙħØ§Ø±Ùĩ": 5691,
      "ĠÙĩÙħØ³Ø±Ø´": 5692,
      "ĠØ¨Ø¯ÙĩØ¯": 5693,
      "ĠÚ©ÙĪØ±": 5694,
      "Ø§ÙħØ§Ùħ": 5695,
      "ĠØ§ÙĦÙĩ": 5696,
      "ĠÙħÙĩØ¯": 5697,
      "ĠØ§Ø³ØªØ§ÙĨØ¨ÙĪÙĦ": 5698,
      "ÙħÙĪØ±Ø¯": 5699,
      "ĠÚ¯Ø±ÙģØªÙĨØ¯": 5700,
      "ĠÙħØºØ§Ø²Ùĩ": 5701,
      "ï¯½": 5702,
      "ĠÛĮØ®ÚĨØ§ÙĦ": 5703,
      "Ú¯ÙĪØ´ÛĮ": 5704,
      "Ø±Ø¯Ø§Ø¯": 5705,
      "Ø§Ø¨ØªÛĮ": 5706,
      "ĠÙĩØ§Ø±Ø¯": 5707,
      "ĠÚ¯Ø±Ø¯Ø´Ú¯Ø±Ø§ÙĨ": 5708,
      "ĠØ§ØªÙģØ§ÙĤÛĮ": 5709,
      "Ø§ØŃÙħØ±": 5710,
      "ĠØªØ¹Ø±ÙģÙĩ": 5711,
      "ĠÛ¶Û·": 5712,
      "Ø§ÙĨØ§": 5713,
      "Ø®Ø¯Ùħ": 5714,
      "ink": 5715,
      "ĠÙĤÙĩØ±ÙħØ§ÙĨØ§ÙĨ": 5716,
      "ÙģØ±Ø¯": 5717,
      "ĠØ¨Ø²": 5718,
      "ĠØ¨ÙĪÚ©": 5719,
      "Ù¾Ùĩ": 5720,
      "ĠÙħÙĪØ§ÙģÙĤØª": 5721,
      "ÙĨÚ¯Ø§Ùĩ": 5722,
      "ĠÚ©Ø§Ø±Ø¢ÙģØ±ÛĮÙĨÛĮ": 5723,
      "ÙĪÙĤØªÛĮ": 5724,
      "ĠÙħØŃÛĮØ·ÛĮ": 5725,
      "ĠØ¢Ø²ÙħØ§ÛĮØ´Ú¯Ø§Ùĩ": 5726,
      "df": 5727,
      "ÙħØªÛĮ": 5728,
      "ĠØ¨ÛĮÙĦ": 5729,
      "ÛĮØ¯Ú¯ÛĮ": 5730,
      "ĠÚ¯Ø§Ø²ÛĮ": 5731,
      "ĠØ§ÙħÛĮÙĨ": 5732,
      "Ø¨Ø±Ú¯": 5733,
      "ĠÙĨÙħÙĪØ¯Ø§Ø±": 5734,
      "ĠØ¯ÙħÙĪÚ©Ø±": 5735,
      "Ø§ÙĤØ¯": 5736,
      "Ú©ÙĦÙħØ§Øª": 5737,
      "ĠÙħØµÙĪØ¨Ùĩ": 5738,
      "ĠÙĨØ¯Ø§Ø±Ùĩ": 5739,
      "Ø¢ÙħÙĪØ²Ø§ÙĨ": 5740,
      "ĠÙħØ®Ø±ÙĪØ·ÛĮ": 5741,
      "ĠØ²ÙĩØ±Ø§": 5742,
      "ĠÛ·Û°Û°": 5743,
      "ĠÙĦÛĮÙĨÚ©ÙĩØ§": 5744,
      "ĠØ´ÙĪÛĮÙħ": 5745,
      "ĠÙħØŃØ§ÙģØ¸Øª": 5746,
      "ĠÚ¯ÙĨØ¬": 5747,
      "Ġph": 5748,
      "Û±Û³Û¹Û·": 5749,
      "ĠØŃØ³Ø§Ø³ÛĮØª": 5750,
      "ĠØµÙĦØ§ØŃÛĮØª": 5751,
      "aj": 5752,
      "Ø§ÙĦØªÛĮ": 5753,
      "ĠÙĩØ§Ø¯ÛĮ": 5754,
      "ĠÛĮÚ©Ø¨Ø§Ø±": 5755,
      "Ø¯Ø§ÙĨÙħ": 5756,
      "ars": 5757,
      "ĠÚ¯Ø²Ø§Ø±Ø´ÛĮ": 5758,
      "ĠÙĪÚ©": 5759,
      "ĠÚ©Ø§Ù¾": 5760,
      "Ø²ÛĮØ³ØªÛĮ": 5761,
      "ĠÙħØ´Ú©ÙĦØ§ØªÛĮ": 5762,
      "ĠØ®Ø§ÙĨÙĪØ§Ø¯Ú¯ÛĮ": 5763,
      "ÙħÙĪÙĦ": 5764,
      "ĠØ¯Ø§Ø±Ø§": 5765,
      "ÙħÙĩØ¯ÛĮ": 5766,
      "ĠØ·ÙĦØ§ÙĤ": 5767,
      "ĠÙħØ§ÙĦØ²ÛĮ": 5768,
      "ĠÙģÙĦØ³Ø·ÛĮÙĨ": 5769,
      "Ø¨Ø³ØªÙĩ": 5770,
      "ĠØ¨Ø®Ø§Ø·Ø±": 5771,
      "ĠØªÙģØ§ÙĩÙħ": 5772,
      "ĠØ§Ø³ØªØ±Ø§ØªÚĺÛĮÚ©": 5773,
      "ĠØ¢ÙĤØ§ÛĮØ§ÙĨ": 5774,
      "ign": 5775,
      "Ø¹Ø¶ÙĪ": 5776,
      "ĠØªØ±ÙĪÛĮØ¬": 5777,
      "ĠÙĤÙĨØ¯": 5778,
      "ĠÙħÙĪØ¶": 5779,
      "ÙħÛĮØ²ÛĮ": 5780,
      "ĠÙħØŃØ±ÙĪÙħ": 5781,
      "Ø¢Ø²": 5782,
      "ĠØ¹ÙĦÙħÛĮÙĩ": 5783,
      "ĠØ¬Ø³ØªØ¬ÙĪÛĮ": 5784,
      "ĠØµØ§Ø¯ÙĤÛĮ": 5785,
      "ss": 5786,
      "Ø®ÙĪØ§ÙĩÙħ": 5787,
      "ĠÙĨÚ¯ÙĩØ¨Ø§ÙĨ": 5788,
      "ff": 5789,
      "ĠØ³Ø±Ø§Øº": 5790,
      "ÙħØ¯Øª": 5791,
      "ĠÚ©ÙĦÙħØ§Øª": 5792,
      "ĠÙħØµØ§ÙĦØŃ": 5793,
      "ĠØ¨Ø§Øª": 5794,
      "ĠÙĨØ§Ø¸": 5795,
      "Ù¾Ø²ÛĮ": 5796,
      "Ø¹Ø¯": 5797,
      "Ø§ÙģØ²Ø§Ø±ÛĮ": 5798,
      "ĠØ®Ø§ÙĨÙĪØ§Ø±": 5799,
      "ĠÚ©ÙĪÙĦØ±": 5800,
      "ĠØªØ´ÙĪÛĮ": 5801,
      "ÙħÛĮÙĦÛĮÙĪÙĨ": 5802,
      "ĠÙĪØ§Øª": 5803,
      "ĠØ±ÙĩØ§": 5804,
      "Ú©ÙĦÛĮØ¯": 5805,
      "ÛĮÚ©Ø±": 5806,
      "oft": 5807,
      "ÙĨØ¸ÛĮØ±": 5808,
      "ØŁØŁØŁØŁ": 5809,
      "ĠØ³Ù¾Ø§ÙĩØ§ÙĨ": 5810,
      "ĠÙħØ¨Ø§ØŃØ«": 5811,
      "ĠØ§ØªÙĪØ¨ÙĪØ³": 5812,
      "ĠÙĨØ§Ø¯": 5813,
      "ĠÙĨÚ¯ÛĮÙĨ": 5814,
      "ĠÙĨÛĮÚ©": 5815,
      "ĠØ²ÙħÛĮÙĨÛĮ": 5816,
      "ĠØ®ÙĦØ§Ùģ": 5817,
      "Û±Û³Û¹Û¶": 5818,
      "ÚĨØ±Ø®Ùĩ": 5819,
      "ĠØ§ÛĮÙĦÙĨØ§": 5820,
      "ĠÙħÛĮØ¯": 5821,
      "ĠÙĩÙħØ¯": 5822,
      "ĠÚ©Ø´ÛĮØ¯ÙĨ": 5823,
      "ĠÛ´Û´": 5824,
      "ĠÙĦÙĪÚ©Ø³": 5825,
      "Ø®ÙĪØ§ÙĩÛĮ": 5826,
      "ĠØ±Ø§ÙĨÙĨØ¯Ùĩ": 5827,
      "ĠÙĨÙĪØ³Ø§ÙĨ": 5828,
      "ĠÙħÙĩÙħØ§ÙĨ": 5829,
      "ĠÙħØµØ±ÙģÛĮ": 5830,
      "ĠÙħØ¯ÛĮØ±ÛĮØªÛĮ": 5831,
      "ĠØ²ÙħØ³ØªØ§ÙĨ": 5832,
      "Ø§ÙģØ±": 5833,
      "Ø¯Ø±Ø¨Ø§Ø±Ùĩ": 5834,
      "ĠØ§ØªÙĩØ§Ùħ": 5835,
      "ÙĦÙĪØ§Ø²Ùħ": 5836,
      "ĠØ±Ø§ÛĮØ¬": 5837,
      "ĠÚ©Ø§ÙĨØ¯ÛĮØ¯": 5838,
      "Ø¨ÛĮÙħ": 5839,
      "ĠÚ©Ø§Ø±Ú©Ø±Ø¯": 5840,
      "ĠÚ¯Ø±Ø§ÛĮØ´": 5841,
      "ĠÛ¶Ûµ": 5842,
      "ĠØ¢Ø¨Ø§Ø¯": 5843,
      "ĠØ§Ø±Ø²Ø´ÙħÙĨØ¯": 5844,
      "ĠUSB": 5845,
      "ĠØ³Ø§ÙħØ§ÙĨØ¯ÙĩÛĮ": 5846,
      "ĠØ¹Ø¸ÛĮÙħ": 5847,
      "ong": 5848,
      "ĠØªØ¬ÙħØ¹": 5849,
      "ĠØ´ÛĮØ¹Ùĩ": 5850,
      "Ġwith": 5851,
      "ĠØªÙĪÙĤÙģ": 5852,
      "ĠÙħØ±ØªØ¶ÛĮ": 5853,
      "ĠØ±Ø§Ùħ": 5854,
      "ĠÙĨØ§Ù¾": 5855,
      "ĠØ§ÛĮÙĨÚ¯ÙĪÙĨÙĩ": 5856,
      "ĠÚ©Ø±Ø¨ÙĨ": 5857,
      "âĢĻ": 5858,
      "Ø§Ø±ÛĮØ¯": 5859,
      "Ø¨ÙĪÚ©": 5860,
      "ĠØ´Ø±Ú©": 5861,
      "Ø§Ø³ÙħÛĮ": 5862,
      "ÛĮØªØ§": 5863,
      "Ú©Ø§Øª": 5864,
      "ĠØ¨Ú¯ÛĮØ±": 5865,
      "ÙħÛĮØ§ÙĨÙĩ": 5866,
      "ĠÙħØ±Ø§Ø¬Ø¹": 5867,
      "ĠØ¯Ø§Ø±ÙĪÙĩØ§ÛĮ": 5868,
      "ĠÙĨØ§Ø®ÙĨ": 5869,
      "ĠØ®Ø§ÙħÙĨÙĩ": 5870,
      "ĠØ¨ÛĮÚ©Ø§Ø±ÛĮ": 5871,
      "ĠÙĨÙĪØ´ÛĮØ¯ÙĨÛĮ": 5872,
      "ish": 5873,
      "ĠÙħØ§Ø±Ú©": 5874,
      "ÙģØ´": 5875,
      "ĠÛĮØ§Ø¯Ø¯Ø§Ø´Øª": 5876,
      "old": 5877,
      "ĠÙħÙĪØ³ÙĪÛĮ": 5878,
      "ĠØªÙħØ§Ø´Ø§": 5879,
      "Ġupload": 5880,
      "per": 5881,
      "ĠÙħØ¹Ø¯Ùĩ": 5882,
      "ĠØ¨Ø®ØªÛĮ": 5883,
      "ĠÙĩÙħØ§ÙĨØ·ÙĪØ±": 5884,
      "ĠØ·Ø§ÙĦØ¨Ø§ÙĨ": 5885,
      "content": 5886,
      "Ø¬Ø§Ø³Øª": 5887,
      "Ù¬": 5888,
      "ĠØ§Ø´Ú©": 5889,
      "ĠÙĦØ·Ùģ": 5890,
      "ĠÙ¾Ø§ÙĦØ§ÛĮØ´": 5891,
      "ĠÙħÚ¯Ø§Ø¨Ø§ÛĮØª": 5892,
      "ĠØ¬Ø§Ø¨": 5893,
      "ĠÙ¾ÙĦØ§Ú©": 5894,
      "ĠÙĪØ¶Ø¹": 5895,
      "ĠÙħØ¹ÙħÙĪÙĦ": 5896,
      "ĠØ¸Ø§ÙĩØ±ÛĮ": 5897,
      "Ø²ÛĮØ±": 5898,
      "ĠØ§ÙĨØ¨Ø§Ø±": 5899,
      "ĠØ¢ÙĦÙĪÙħÛĮÙĨÛĮ": 5900,
      "Ú©ÛĮÙĨ": 5901,
      "Ø´Ø§ÛĮÛĮ": 5902,
      "ĠØ¨Ø¯ÙĩÛĮØ¯": 5903,
      "ĠØ²ÛĮÙĨ": 5904,
      "ĠØ§ÙĨØ³": 5905,
      "ĠØ¨Ø±Ú¯Ø±Ø¯": 5906,
      "Ġdownload": 5907,
      "ĠØ³ÙĪÙĨÛĮ": 5908,
      "ĠØ¨Ø±Ø²": 5909,
      "ĠØ®ÙĪØ´Ø¨Ø®Øª": 5910,
      "ĠØ±Ø§Ø²": 5911,
      "Ù¾Ú©": 5912,
      "Ú¯Ø±Ùħ": 5913,
      "Ø¨Ø§ÛĮØ³Øª": 5914,
      "ĠØ´ÛĮØ±ÛĮÙĨÛĮ": 5915,
      "ĠØ¬ÙĨØ¨Ø´": 5916,
      "Ġz": 5917,
      "Ø§Ø¢": 5918,
      "ĠÚ¯Ø§ÙĪ": 5919,
      "Ø·Ø¨ÛĮ": 5920,
      "Ø¯Ø¯ÛĮ": 5921,
      "ĠØ§Ø³ØªÛĮ": 5922,
      "ĠØ§Ø³ØªØ§Ø±Øª": 5923,
      "Ø±Ú©Ø§ÙĨØ³": 5924,
      "ĠØŃØ¬Ø§Ø¨": 5925,
      "ĠØ¯ÙĤÛĮÙĤØ§": 5926,
      "ĠÙĪØ§Ø±ÛĮØ²": 5927,
      "SI": 5928,
      "oot": 5929,
      "ÙĪØ³ØªÙĩ": 5930,
      "ĠØ´Ø§Ø¹": 5931,
      "ĠÛĮÙĪØ³": 5932,
      "Ú©ÛĮØ§": 5933,
      "ĠØ³ÛĮØ³ØªØ§ÙĨ": 5934,
      "ĠÙ¾Ø±Ø¯Ø§Ø²ÙĨØ¯Ùĩ": 5935,
      "Ø¬ÙĦ": 5936,
      "ĠÙħØ´Ø§ØºÙĦ": 5937,
      "ĠØ§ØŃØªÛĮ": 5938,
      "ĠMusic": 5939,
      "ĠØ§Ø³ØªØ§ÙĨØ¯Ø§Ø±ÛĮ": 5940,
      "ĠÙģØ´Ø±Ø¯Ùĩ": 5941,
      "Ø³Ùģ": 5942,
      "ĠÚ¯Ø±Ø¬Ø³ØªØ§ÙĨ": 5943,
      "ĠØ³Ø§ÛĮÙ¾Ø§": 5944,
      "ĠØ§ÙĨÚ¯ÙĦ": 5945,
      "Ø¨Ø§ÙħØ§": 5946,
      "ĠØ§Ø³Ø¨Ø§Ø¨": 5947,
      "ĠÙħÛĮØªÙĪØ§ÙĨ": 5948,
      "Ø·ÙĪ": 5949,
      "Ø§ÙĦÛĮØ²": 5950,
      "ĠØªÙĪÙĦÛĮØ¯Ø§Øª": 5951,
      "ĠÙģØ§Ø±Øº": 5952,
      "ĠØ§Ø³ØªØ®Ø±": 5953,
      "ĠÙħØ³Ø§ÙģØ±Ø§ÙĨ": 5954,
      "ĠØ´Ø§ÛĮØ³ØªÙĩ": 5955,
      "ĠÙħÙĪØ±Ø®": 5956,
      "Ø§ÙħÙĨ": 5957,
      "ĠÙģØ§Ú©ØªÙĪØ±": 5958,
      "ĠØµØ¹ÙĪØ¯": 5959,
      "Ø«Ø±ÛĮ": 5960,
      "ĠØ¹ÙħÙĪØ¯ÛĮ": 5961,
      "Ø¨Ø§ÙĨÚ©": 5962,
      "ĠOn": 5963,
      "ĠÙħØ¤Ø«Ø±": 5964,
      "Ġal": 5965,
      "ĠÙĩØ±Ú©": 5966,
      "ĠÙħÙĪØ´": 5967,
      "ĠØ¬ÙĨØ§Ø¨": 5968,
      "oogle": 5969,
      "ĠØ¨ÙħØ¨": 5970,
      "ĠØ¨Ø·": 5971,
      "ĠÛ³Û³Û": 5972,
      "ðŁĺ": 5973,
      "ĠØ®ÙĪØ´ÙħØ²Ùĩ": 5974,
      "ĠØ¨ØªÙĪØ§ÙĨ": 5975,
      "ĠÙĨÙĪØ¯": 5976,
      "ĠÙĨØ±Ø³": 5977,
      "Ø·Ø§ÙĨÛĮ": 5978,
      "ĠØ®ÙĪØ¯Ø¯Ø§Ø±ÛĮ": 5979,
      "ĠØ§Ø¹Ùħ": 5980,
      "rom": 5981,
      "ĠÚ¯ÙĪÛĮ": 5982,
      "ĠØªÚ©ÙĦÛĮÙģ": 5983,
      "ĠÃĹ": 5984,
      "news": 5985,
      "Ø±ØºÙħ": 5986,
      "ĠÙģØ§ÙĤØ¯": 5987,
      "ĠÙħÙĤØµØ¯": 5988,
      "ĠØ¬Ø¹Ø¨Ùĩ": 5989,
      "ĠÚ©Ø§Ø´Øª": 5990,
      "ĠÙĨØ²Ø¯": 5991,
      "ĠÙħØ±Ø§Øª": 5992,
      "ĠÛ·Û¶": 5993,
      "ĠØ§Ø«Ø±Ø§Øª": 5994,
      "ĠÙĤØ¯ÛĮÙħ": 5995,
      "Ø§Ø²ÙĨ": 5996,
      "ĠMan": 5997,
      "Ø®ÛĮÙĦÛĮ": 5998,
      "Ø¯Ùģ": 5999,
      "ĠÙħÛĮØ§Ø¯": 6000,
      "ĠØ¬Ø±ÛĮ": 6001,
      "ĠØ¹ÙĦØ§Ùħ": 6002,
      "ĠØ§ÙĨØ¨": 6003,
      "Ú©Ø§ÙĨØª": 6004,
      "ĠØ¯ÛĮØ¯Ùħ": 6005,
      "ĠØ¢Ø±ÙħØ§ÙĨ": 6006,
      "ĠØ¨ÙĦÙĪÚĨ": 6007,
      "ĠØ¯Ø§ÙħÙ¾": 6008,
      "ĠÙħØ±Ø²ÛĮ": 6009,
      "ĠØ¯ÛĮØ³Ú©": 6010,
      "ĠÙħØ®ÙģÛĮ": 6011,
      "Ø§ÙĪÛĮÙĩ": 6012,
      "ĠÙģØ±ÙħÙĪØ¯": 6013,
      "ĠÙĩÚ©ØªØ§Ø±": 6014,
      "ĠÙ¾ÙĪÛĮØ§": 6015,
      "ĠÙĤØ§Ø±ÚĨ": 6016,
      "ĠØ¯ÙģØªØ±ÚĨÙĩ": 6017,
      "ĠØ§Ø³ØªØ¹Ø¯Ø§Ø¯": 6018,
      "AR": 6019,
      "ĠØªØ¨ÛĮ": 6020,
      "ĠÙĨØ§Ú©": 6021,
      "Ù¾Ø§ÙĪØ±Ù¾ÙĪÛĮÙĨØª": 6022,
      "ĠØ¹Ø¨Ø¯Ø§ÙĦ": 6023,
      "ĠØ®Ø§ÙĪØ±ÙħÛĮØ§ÙĨÙĩ": 6024,
      "ĠÙħØ£": 6025,
      "ÙĤØ§Ø¨": 6026,
      "ĠÙħÛĮØª": 6027,
      "ĠØŃØ§ÙħØ¯": 6028,
      "ĠÙħØ±Ø¨Ø¹": 6029,
      "ĠØ¶Ø±Ø¨": 6030,
      "ĠØ±ÛĮØ²Ø´": 6031,
      "ĠÙĨØ´Ø§ÙĨÛĮ": 6032,
      "ĠØªÙĨØ¸ÛĮÙħØ§Øª": 6033,
      "ĠØªØ±ÙĪØ±ÛĮØ³Øª": 6034,
      "âĻ": 6035,
      "ĠÙĪØ§Ø³Ùĩ": 6036,
      "ĠÚ©ÛĮØ³": 6037,
      "ĠØªØ§Ø±ÛĮ": 6038,
      "ĠØ§Ø³Ùģ": 6039,
      "ĠØ¨Ø§Ø¯ÛĮ": 6040,
      "Ø³ÙħØª": 6041,
      "ĠØ§ÛĮÙĨÙĩØ§": 6042,
      "ĠØ¯ÛĮØ§Ø¨Øª": 6043,
      "ØªØŃÙĤÛĮÙĤ": 6044,
      "ĠÙħØªØ¹Ø¯Ø¯ÛĮ": 6045,
      "ĠÙ¾Ø±Ø¯ÛĮØ³": 6046,
      "ace": 6047,
      "ĠØ§Ø³Ù¾Ø§ÙĨÛĮØ§": 6048,
      "ĠÙħØ®Ø§ÙĦÙģØª": 6049,
      "ÙĤØ§Ø¨ÙĦ": 6050,
      "ĠØªØ±Ùģ": 6051,
      "ĠEx": 6052,
      "ĠØ²ÙĪØ¯ØªØ±": 6053,
      "ĠÚĨÙĨØ§ÙĨÚĨÙĩ": 6054,
      "Ø´ÙĪÛĮ": 6055,
      "ÙģÙĪÙĦ": 6056,
      "ÙĤØ¯": 6057,
      "ĠÙ¾Ø±ÛĮ": 6058,
      "ĠØ¬Ú©": 6059,
      "ĠÚĨØ§Ùĩ": 6060,
      "ĠÚ©Ø§Ø±Ø§ÛĮÛĮ": 6061,
      "ĠÛ²ÛµÛ°": 6062,
      "ĠÙģØ±ÙħØ§ÙĨØ¯Ø§Ø±": 6063,
      "ĠØ¢ÙĩÚ©": 6064,
      "IN": 6065,
      "ĠØ£": 6066,
      "ĠÙħØ§ÛĮØ¹": 6067,
      "ĠØ¨Ø±ÙħÛĮ": 6068,
      "ĠØªÛĮØªØ±": 6069,
      "Ġuploads": 6070,
      "ÙĦØ§Ø³": 6071,
      "ĠØ¬Ø§Ø³": 6072,
      "ĠØªØ±Ø¬ÛĮ": 6073,
      "ĠØªØ®ÙĦÛĮÙĩ": 6074,
      "ĠÙģÙĦØ³ÙģÙĩ": 6075,
      "ÙĨÙħØ§": 6076,
      "ĠØ¨Ø±Ø§ÙĨ": 6077,
      "ĠØ§ÙĨØªÙĩØ§ÛĮ": 6078,
      "ĠØ´ÙĩØ±ÙĩØ§": 6079,
      "ĠÙ¾Ø³ÙĨØ¯": 6080,
      "ĠØ§Ø®ÛĮØ±Ø§": 6081,
      "Ù¾ÛĮÙħ": 6082,
      "Ø§ÙħÛĮÚ©": 6083,
      "ĠÙħÛĮØªÙĪÙĨ": 6084,
      "ĠÚ©Ø§Ø±Ú¯Ø±ÙĪÙĩ": 6085,
      "ĠÙĤØ±Øµ": 6086,
      "ĠÛ´Û³": 6087,
      "ĠØªØ±Ø¯Ø¯": 6088,
      "Ø¯Ø±ÙħØ§ÙĨ": 6089,
      "ĠØªÙĤØ§Ø¶Ø§": 6090,
      "ĠÙħÙĪØ¯": 6091,
      "Ø§Ø¹Ø¯": 6092,
      "ĠØ§ØŃØ³Ø§ÙĨ": 6093,
      "ĠØ®ÙĪØ§ÙĩØ§ÙĨ": 6094,
      "ĠØ§ØªÙģØ§ÙĤØ§Øª": 6095,
      "ĠÛ±Û³Û¸Û¸": 6096,
      "ĠØ¯Ø±Ø³ÛĮ": 6097,
      "Ø¹Ø¨": 6098,
      "ĠÚ©ÙĪÛĮÙĨ": 6099,
      "ĠØ¹Ø¨Ø¯Ø§ÙĦÙĦÙĩ": 6100,
      "Ġadmin": 6101,
      "ĠÙĨØ§ÙĪ": 6102,
      "ĠÙħØ±Ø·ÙĪØ¨": 6103,
      "ĠØ°ÛĮÙĦ": 6104,
      "ae": 6105,
      "ĠØ¯ÙĪØ¯": 6106,
      "ĠÚ©Ø§Øª": 6107,
      "ĠØŃØ§ÙħÛĮ": 6108,
      "ĠÛĮØ§Ø±ÛĮ": 6109,
      "Ø§Ø®ÙĪØ§ÙĨ": 6110,
      "ĠÚ¯Ø°Ø§Ø±": 6111,
      "Ú©Ø±Ø¯Ùħ": 6112,
      "ĠTh": 6113,
      "ĠØ²Ø§ÛĮÙħØ§ÙĨ": 6114,
      "PS": 6115,
      "Ø¬Ø¯ÛĮØ¯": 6116,
      "ĠÙħØ¤Ø³": 6117,
      "ĠØ¨ÙĩØ²ÛĮØ³ØªÛĮ": 6118,
      "Ø¢Ø¯Ø±Ø³": 6119,
      "ĠØ¨Ø§Ø´Ùħ": 6120,
      "ÙħÙĨØ§ÙĤØµÙĩ": 6121,
      "ang": 6122,
      "ĠØªØ¬Ø¯ÛĮØ¯": 6123,
      "ĠØ³Ù¾Øª": 6124,
      "Ø¨Ø¯ÙĪÙĨ": 6125,
      "ÙħØ§Ø±": 6126,
      "ĠÙħÚ©Ø§ÙĨÛĮÚ©": 6127,
      "ĠØ¨ÙħØ§ÙĨØ¯": 6128,
      "ĠØ¢Ú©": 6129,
      "ĠØ§ÙħØ§Ø±Ø§Øª": 6130,
      "ÙħØ´Ø§ÙĩØ¯Ùĩ": 6131,
      "ĠØ®Ø´ÙĪÙĨØª": 6132,
      "ĠÙ¾Ø±ÙĪØªØ¦ÛĮÙĨ": 6133,
      "Ø¨Ø§ÛĮØ¯": 6134,
      "ĠÙĨØ²": 6135,
      "Ø§ÙĦØ¨ÛĮ": 6136,
      "ĠÛĮØ§Ø¨": 6137,
      "ĠØ·Ø±ÙģØ¯Ø§Ø±Ø§ÙĨ": 6138,
      "Ú©Ø±ÛĮÙ¾Øª": 6139,
      "ÙħØ·Ø§ÙĦØ¨": 6140,
      "ĠÚ©ÙĦØ§Ø³ÛĮÚ©": 6141,
      "ĠÙĤÙģÙĦ": 6142,
      "ÙĪØ²ÙĨ": 6143,
      "Ø¸Ø§Ùĩ": 6144,
      "alax": 6145,
      "ĠØ¬ÙĨØ¨Ùĩ": 6146,
      "ult": 6147,
      "alaxy": 6148,
      "ÙĪØ§Øª": 6149,
      "ÙĤØ±": 6150,
      "ĠØ¹Ø²": 6151,
      "ĠØ§Ø´Ú©Ø§ÙĦ": 6152,
      "ĠÙħØ³ÙĦÙħØ§ÙĨ": 6153,
      "ĠØ´ÙĨØ§Ø³Ùĩ": 6154,
      "ĠØ®ÙĪØ§ÙĨØ¯": 6155,
      "Ø§Ø´ÙĨØ§Ø³ÛĮ": 6156,
      "ck": 6157,
      "Ø±Ø¯Ø§Ø±": 6158,
      "ÛĮÙĨØ§": 6159,
      "ĠØ§ÙĦØ²": 6160,
      "ĠÙĨÙĪØ§ÙħØ¨Ø±": 6161,
      "ĠÙ¾Ø±Ø³Ø´ÙĨØ§ÙħÙĩ": 6162,
      "Ġat": 6163,
      "ĠØ´Ø§": 6164,
      "ĠØ¨Ø±ÙĪ": 6165,
      "ĠØ§Ø±Ø¬": 6166,
      "ĠØ³Ù¾ØªØ§ÙħØ¨Ø±": 6167,
      "ÙĨÙĪÛĮØ³ÛĮ": 6168,
      "ĠØ¨Ú¯ÙĪÛĮ": 6169,
      "ÙģØ§ÛĮ": 6170,
      "Ø§ÙĩÛĮÙħ": 6171,
      "ĠØ¨Ø±Ùĩ": 6172,
      "ĠØ§Ú©Ø§ÙĨØª": 6173,
      "ÙħØ§ÛĮØ´ÛĮ": 6174,
      "ĠØ³Ø±ÙĨÙĪØ´Øª": 6175,
      "ĠØ¨Ø§Ø±Ø³ÙĦ": 6176,
      "ĠÛ¹Û°Û°": 6177,
      "low": 6178,
      "ĠÛ±Û¹Û¸": 6179,
      "ĠÙħØ¬Ø§Ø²Ø§Øª": 6180,
      "ĠØ²Ø¨Ø§ÙĦÙĩ": 6181,
      "ĠÙħØ¯ÙĨÛĮ": 6182,
      "ĠÛ²Û°Û°Û°": 6183,
      "ĠÛ¶Û¸": 6184,
      "ĠÚ¯Ø°Ø±": 6185,
      "ĠÚ¯ÙĪØ´Ùĩ": 6186,
      "ĠÙħÛĮØ²Ø¨Ø§ÙĨÛĮ": 6187,
      "ave": 6188,
      "ES": 6189,
      "ĠØ¨ØªÙĪØ§ÙĨÛĮØ¯": 6190,
      "ĠÙĪØ§Ú©": 6191,
      "ĠÚ¯Ø±ÛĮ": 6192,
      "ĠÙĤØ·Ø§Ø±": 6193,
      "ĠØ¨Ø±ÙĤØ±Ø§Ø±ÛĮ": 6194,
      "ĠØªØ±ÙģÙĨØ¯": 6195,
      "Ø§ÙħÚ©Ø§ÙĨ": 6196,
      "ÙĨÛĮØ§Ø²": 6197,
      "Ø¨ÛĮØ§": 6198,
      "ĠØ§Ø¨Ø±ÙĪ": 6199,
      "ĠÙĦÛĮØªØ±": 6200,
      "ĠØ¨Ø®ØªÛĮØ§Ø±ÛĮ": 6201,
      "ĠØ³ØŃ": 6202,
      "ĠØ§Ø¯Ø§Ø±Ø§Øª": 6203,
      "ĠØ¶Ø¨Ø·": 6204,
      "ari": 6205,
      "ĠØŃØ¶ÙĪØ±ÛĮ": 6206,
      "ÙĪØ§ÛĮÛĮ": 6207,
      "Ø§ÙĦØ§ÙĨ": 6208,
      "Ú¯ÙĪØ´": 6209,
      "ĠÙĩØ±ÚĨÙĨØ¯": 6210,
      "ØªØ§Úĺ": 6211,
      "ĠØ¬ØºØ±Ø§ÙģÛĮ": 6212,
      "ĠÙ¾Ø§Ø±ÛĮØ³": 6213,
      "ĠØ´Ø§Ø¯ÛĮ": 6214,
      "ĠØ´Ø§Ù¾": 6215,
      "ĠØ²Ø¹Ùģ": 6216,
      "ĠÙħØªÙĪÙĦØ¯": 6217,
      "ory": 6218,
      "ĠØ³ÙĪØ§Ø±": 6219,
      "ĠÙĨÙħØ§ÛĮØ´Ú¯Ø±": 6220,
      "Ú©ÙĪÚ©": 6221,
      "ĠØ¹Ø¶ÙĦØ§Øª": 6222,
      "obile": 6223,
      "ÙĨØ§ÛĮÛĮ": 6224,
      "ØŃØ¬Øª": 6225,
      "ĠØ±Ø¶Ø§ÛĮÛĮ": 6226,
      "ĠÙģÛĮØ²ÛĮÚ©": 6227,
      "Ù¾Ø§ÛĮÛĮ": 6228,
      "ĠØ§ÙĪØ§Ø®Ø±": 6229,
      "ĠØ±Ø³Ø§ÙĨØ¯": 6230,
      "ĠØ´ÙĪÙĩØ±": 6231,
      "ĠØ¯Ø³ØªÛĮØ§Ø¨ÛĮ": 6232,
      "Â¬": 6233,
      "ĠÚ©ÙĪØ¨": 6234,
      "ÙħÙħ": 6235,
      "Ø¦Ùĩ": 6236,
      "ĠÙħØ¬Ø±ÛĮ": 6237,
      "ĠØ§ÙħØ§Ú©ÙĨ": 6238,
      "ĠÙħÙĨØ·ÙĤÛĮ": 6239,
      "ĠØ¯ÙģØ§Ø¹ÛĮ": 6240,
      "Ø´ÙĪÛĮØ¯": 6241,
      "ÙĩØªÙĦ": 6242,
      "ĠÚ¯Ø§Ùĩ": 6243,
      "ĠÛ±Û²Û¸": 6244,
      "ĠØ¯ÙĦØ§Ø±ÛĮ": 6245,
      "ĠÚ©ÙĪÚĨÙĩ": 6246,
      "ĠÙħÙĪØ³Ø³Ø§Øª": 6247,
      "ĠØ¯Ø¹Ø§": 6248,
      "ĠØªØ¹Ø·ÛĮÙĦØ§Øª": 6249,
      "ĠÙħØ§Ø±Ú©Øª": 6250,
      "ĠØ¯Ø±ØŃØ§ÙĦÛĮ": 6251,
      "Ø®ÙĪØ±": 6252,
      "ĠÙģØªØŃ": 6253,
      "ĠÙħØŃØ§Ø³Ø¨": 6254,
      "ĠØ¹ÙĨØ§ØµØ±": 6255,
      "ĠÙ¾ÙĦØ§Ø³ØªÛĮÚ©ÛĮ": 6256,
      "ĠØ®Ø§Ø·Ø±Ø§Øª": 6257,
      "ĠÙģØ±Ø§ÙĨØ³ÙĪÛĮ": 6258,
      "ĠØ¨Ø¯ÙĩÛĮ": 6259,
      "ĠØ¨Ø±ÛĮØª": 6260,
      "ÙĨÚ¯ØªÙĨ": 6261,
      "ĠPh": 6262,
      "ĠØ®Ø±Ø§Ø¨": 6263,
      "ĠÛ³Û²Û°": 6264,
      "ĠØ³Ø¨Ø²ÛĮØ¬Ø§Øª": 6265,
      "ĠÙ¾Ø§ÙĪØ±": 6266,
      "ĠÙĤØ¨Ø§ÙĦ": 6267,
      "ĠÙĪÛĮØ²Ø§ÛĮ": 6268,
      "ÛĮØ¯Ø§ÙĨÙĦÙĪØ¯": 6269,
      "ction": 6270,
      "Ù¾ÙĨØ¬Ø´ÙĨØ¨Ùĩ": 6271,
      "Ø²ÙĪÛĮ": 6272,
      "ĠÙĨÙĪØª": 6273,
      "ĠØ´Ø§ÛĮØ¹": 6274,
      "ĠØ®ÙĨÚ©": 6275,
      "ĠÙģØ±ÛĮØ¯": 6276,
      "Ø§ØªÙĪÙĨ": 6277,
      "Ø§Ø²ÙĦ": 6278,
      "ĠâĢİ": 6279,
      "ork": 6280,
      "ĠØ¯ÙĦØ®ÙĪØ§Ùĩ": 6281,
      "ĠÚ¯ÙĪØ§ÙĩÛĮ": 6282,
      "ĠØ¬ÙĦØ¯": 6283,
      "ĠØªØ³ÙĩÛĮÙĦ": 6284,
      "ĠÚ©ÙĦÛĮÙĨÛĮÚ©": 6285,
      "Ø¹ØµØ±": 6286,
      "ĠÙ¾Ø±ØªØ§Ø¨": 6287,
      "ek": 6288,
      "Ġas": 6289,
      "Ø§ÛĮÙĦÛĮ": 6290,
      "Ø®ÛĮØ±": 6291,
      "ĠÙħØ´Ø±ÙĪ": 6292,
      "ĠØ§ÙĪØ¨Ø§ÙħØ§": 6293,
      "Ø¨Ø±Ú¯Ø²Ø§Ø±ÛĮ": 6294,
      "Ø§Ø®ÛĮØ±": 6295,
      "ĠÙħÙĩØ±Ø§ÙĨ": 6296,
      "ĠÙģØ±ÙĪØ´ÙĨØ¯Ùĩ": 6297,
      "ĠØ®Ø·ÛĮ": 6298,
      "ĠØ¢Ø´Ú©Ø§Ø±": 6299,
      "ĠØªØŃÙĪÙĦØ§Øª": 6300,
      "ĠÙĦÙĨØ¯ÙĨ": 6301,
      "ØŃÙħÙĦ": 6302,
      "ÙĪÛĮÙĪØ±Ú©": 6303,
      "ØºØ±": 6304,
      "Ġpost": 6305,
      "Ú¯Ø±Ø¯ÛĮ": 6306,
      "ĠØ¨Ø§ÛĮÚ¯Ø§ÙĨÛĮ": 6307,
      "ĠØªØ´ÙĪÛĮÙĤ": 6308,
      "ĠÙĩÙħÙĪÙĨ": 6309,
      "Ø§ÙĤØµ": 6310,
      "Û³Û³Û": 6311,
      "ĠØªÙĦØ®": 6312,
      "ĠØ¯ÙĦÙħ": 6313,
      "ĠØ³ÙģØ±Ùĩ": 6314,
      "ĠØŃØ±ÛĮÙģ": 6315,
      "ĠÙħØªØ®ØµØµØ§ÙĨ": 6316,
      "ĠØ§Ø³ØªØ±Ø§ØŃØª": 6317,
      "Ø³ÛĮØ³": 6318,
      "Ø§ÙĪÛĮÙĨ": 6319,
      "Ø¯Ø§ÙĨØ³Øª": 6320,
      "ĠSc": 6321,
      "ĠØ§Ø³Ù¾Ø±Øª": 6322,
      "ĠØ´Ø§ÙĨÙĩ": 6323,
      "ĠÚĨØ§Ø±ÚĨ": 6324,
      "Ø¦Ø§ÙĦ": 6325,
      "Ø§Ø¬Ø±Ø§ÛĮ": 6326,
      "ase": 6327,
      "ĠÙĨØ§Ú¯Ùĩ": 6328,
      "ĠÙħØ¹Ø§ÙħÙĦØ§ØªÛĮ": 6329,
      "lus": 6330,
      "Ù¾ÙĪÙĦ": 6331,
      "ĠØ´Ø¯ÛĮÙħ": 6332,
      "Ø§ÙĨØªØ®Ø§Ø¨": 6333,
      "ĠÙħØ³ØªÙħØ±": 6334,
      "ØŃÙĤ": 6335,
      "ĠØ§ØªØ®": 6336,
      "ĠØ¨Ø³ØªÚ¯ÛĮ": 6337,
      "ĠØ§Ø¯Ø¹Ø§": 6338,
      "ĠÙĦØ§ØºØ±ÛĮ": 6339,
      "Ø²Ø¨Ø§ÙĨ": 6340,
      "ĠÙħØŃÙĪØ·Ùĩ": 6341,
      "ĠFor": 6342,
      "ĠÚĺÙĪØ¦ÙĨ": 6343,
      "ÙģØ±ÙĪØ´ÛĮ": 6344,
      "ĠÙħØ§Ø±Ø³": 6345,
      "Ø§Ø±Ùħ": 6346,
      "Ø§Ø¯Ø§ÙħÙĩ": 6347,
      "ĠØ³ØªÙĪÙĨ": 6348,
      "ĠØ§ÙģØ³Ø±Ø¯Ú¯ÛĮ": 6349,
      "ÙĩÙĪØ±": 6350,
      "ÙģØ±ÛĮ": 6351,
      "ĠØŃÙĤÛĮÙĤÛĮ": 6352,
      "ĠÚĨØ±Ø¨": 6353,
      "ĠÚ©Ø±Ø¯ÛĮØ¯": 6354,
      "ĠØªÙĪÙĦÛĮØ¯Ú©ÙĨÙĨØ¯Ú¯Ø§ÙĨ": 6355,
      "ĠØ§ÙĨØªØ´Ø§Ø±Ø§Øª": 6356,
      "ĠÙħØªÙģØ§ÙĪØªÛĮ": 6357,
      "ĠÚ©ÙĨØ³ÙĪÙĦ": 6358,
      "ĠØ¨ÛĮÙĪÚ¯Ø±Ø§ÙģÛĮ": 6359,
      "ĠØ§ÙĩØ§ÙĦÛĮ": 6360,
      "ÙħØŃÛĮØ·": 6361,
      "ĠØ¹Ø¨Ø§Ø±ØªÙĨØ¯": 6362,
      "ĠØ³Ø§Ø¹Ø§Øª": 6363,
      "ĠÙĪÛĮÙĦØ§": 6364,
      "ÛĮØ±Ø¯": 6365,
      "ĠÚ©ÙĦØ§Ùħ": 6366,
      "Ø¹Ø§Ø±": 6367,
      "ÙħØ§ÙĨÙĨØ¯": 6368,
      "ĠÚ©Ø±Ø¯ÛĮ": 6369,
      "Ú©Ø³ÙĦ": 6370,
      "ĠØ¯Ø§ÙĨØ´Ø¬ÙĪÛĮ": 6371,
      "ĠØ§ØªÙħÛĮ": 6372,
      "ĠÙħØ§ÙĩÙĪØ§Ø±Ùĩ": 6373,
      "ĠØ³ÙĩÙħÛĮÙĩ": 6374,
      "ĠØ®Ø¯ÙħØ§ØªÛĮ": 6375,
      "ĠØ¬ÙĦÙĪÙĩ": 6376,
      "Ø¢ÙģØ±ÛĮÙĨ": 6377,
      "ĠØ®ÙĪØ´Ø¨Ø®ØªØ§ÙĨÙĩ": 6378,
      "ĠØ¹ÙĦØ§ÙħØª": 6379,
      "lic": 6380,
      "Ø®ÙĨØ¯": 6381,
      "ĠÛ±Û³Û¶": 6382,
      "ĠØ±ÙĪØ¨Ùĩ": 6383,
      "ĠÚ©ÙħØ§ÙĦ": 6384,
      "ĠØ¹Ø§Ø¯Øª": 6385,
      "ĠØµØ¨Ø±": 6386,
      "Ø¨Ø±Ø®ÛĮ": 6387,
      "ĠÙ¾ÛĮÚ©": 6388,
      "Ġpdf": 6389,
      "ĠÙħØ¯ÛĮØ±Ùĩ": 6390,
      "ĠØ¬Ø²ÙĪÙĩ": 6391,
      "ech": 6392,
      "ĠÙħØ¹ÙĦÙħØ§ÙĨ": 6393,
      "ĠØ³Ú©ÙĪØª": 6394,
      "DF": 6395,
      "ĠÙĤØ§Ø´ÙĤ": 6396,
      "ÙĨÛĮØ§": 6397,
      "ĠØ§ÙĨØ¯Ø§Ø®Øª": 6398,
      "ĠØ®ÙĪØ§ÙĨØ¯Ùĩ": 6399,
      "ĠØ±Ø²Ø±ÙĪ": 6400,
      "ĠØ®ÙĦØ§ÙĤÛĮØª": 6401,
      "ØªØº": 6402,
      "ĠÙĤØ§Ø³Ùħ": 6403,
      "ĠÙħØµØ·ÙģÛĮ": 6404,
      "ĠÙħØ¨ÙĨØ§ÛĮ": 6405,
      "Ø¬Ø§ÙĨØ¨Ùĩ": 6406,
      "ĠÙħØªØŃØ¯": 6407,
      "ØªÙĪÛĮ": 6408,
      "ÙģÙĪÙĨ": 6409,
      "Ø§ÙħØ¹": 6410,
      "Ø®Ø·": 6411,
      "ØµÙĨ": 6412,
      "ĠØ®ÙĪØ¯ÙħØ§ÙĨ": 6413,
      "Ø¢Ø±": 6414,
      "ĠØ§ÙĪØ§ÛĮÙĦ": 6415,
      "ung": 6416,
      "ĠØ´Ø§Ø®Ùĩ": 6417,
      "ĠØ®ÙĪØ±Ø´ÛĮØ¯ÛĮ": 6418,
      "Ù¾Ø§Ø±ÚĨÙĩ": 6419,
      "ÙĨÙĦ": 6420,
      "ĠØ¨Ø±ÙĪÛĮØ¯": 6421,
      "Ø§ØªÙĦ": 6422,
      "ĠØ¯Ø³ØªÙħ": 6423,
      "ĠØ¯Ø´ÙĪØ§Ø±": 6424,
      "ĠØ§ØªØ®Ø§Ø°": 6425,
      "ĠØªØ³ÙĦÛĮØª": 6426,
      "ĠØ¨ÙĦÙĪÚĨØ³ØªØ§ÙĨ": 6427,
      "DB": 6428,
      "vi": 6429,
      "ÙĪÚ©Ø§Ø±": 6430,
      "ĠÙħÙĪØ§ÙĨ": 6431,
      "Ø²ÙĦÛĮ": 6432,
      "ĠÙħÛĮÙĨÛĮ": 6433,
      "ĠØ·Ø¹Ùħ": 6434,
      "ĠÙħØŃØ±ÙĪ": 6435,
      "ĠÙģØ±Ø¶": 6436,
      "ĠØªØ±Ø´": 6437,
      "ĠÙħØ®Ø²ÙĨ": 6438,
      "ĠØ¢Ø±Ø§ÛĮØ´ÛĮ": 6439,
      "ĠÙĪÛĮÙĨ": 6440,
      "ĠØ±Ø´": 6441,
      "ĠØ·Ø±ÙģÛĮ": 6442,
      "Ø¯ÛĮØ¯Ø§Ø±": 6443,
      "ĠÙħØ¬Ø§ÙĩØ¯": 6444,
      "ÙħÙĨØª": 6445,
      "und": 6446,
      "ĠØ¯ÙĪØ´": 6447,
      "Ø¨Ø³ÛĮ": 6448,
      "ĠØ§ÙĦÙģ": 6449,
      "ĠØªØ¹Ø§Ø¯ÙĦ": 6450,
      "ĠÛ·Û¸": 6451,
      "Ú¯Ø°Ø±Ø¯": 6452,
      "ower": 6453,
      "ĠØ²Ø§Ø¦Ø±Ø§ÙĨ": 6454,
      "ĠØ°ÙĩÙĨÛĮ": 6455,
      "ÙħÙĩØ±": 6456,
      "ÙħØ«": 6457,
      "ØªØ¬": 6458,
      "Ø¨Ø²Ø±": 6459,
      "ĠÚ©ÙĪØ´": 6460,
      "ĠØ§ÛĮÙħÙĨ": 6461,
      "ĠÙħØŃØ¶": 6462,
      "ĠÙħØ´Ú©ÛĮ": 6463,
      "ĠØ´ÙĨÛĮØ¯Ùĩ": 6464,
      "ĠÙĨÙĪØ¢ÙĪØ±ÛĮ": 6465,
      "ĠÙ¾Ø§Ø³Ø¯Ø§Ø±Ø§ÙĨ": 6466,
      "Ø³Ø§Ø²ÙħØ§ÙĨ": 6467,
      "ÙħØ¯ÛĮØ±Ø¹Ø§ÙħÙĦ": 6468,
      "Ù¾Ø³Øª": 6469,
      "ĠØ§Ø¨Ø±ÛĮ": 6470,
      "ĠÙħÙĪØ¶ÙĪØ¹ÛĮ": 6471,
      "ĠØ¨Ø±Ø¯Ø§Ø´ØªÙĩ": 6472,
      "ĠÚ©Ø§ÙģÙĩ": 6473,
      "ØµÙĦÛĮ": 6474,
      "ĠØ¹Ø±Ùģ": 6475,
      "ĠØ³Ø±Ùħ": 6476,
      "ĠØµÙĨÙģÛĮ": 6477,
      "ĠÙħØ²ÛĮØª": 6478,
      "ĠØ±ÙĪÙĦ": 6479,
      "ĠÙĨØ¨Ø±Ø¯": 6480,
      "ĠØ§Ø³Ø¯": 6481,
      "Ø¢ÙħØ¯Ùĩ": 6482,
      "Ø¨Ø®Ø´ÛĮ": 6483,
      "ĠØ³Ø§Ú©ÙĨ": 6484,
      "Ø§Ø±Ø§": 6485,
      "ĠØªÚ©ÛĮÙĩ": 6486,
      "ĠØ§ÛĮØ§ÙĦØª": 6487,
      "Ø§Ø±ÛĮØ¬Ø§ÙĨÛĮ": 6488,
      "ĠØ¹ØµØ¨ÛĮ": 6489,
      "ĠÙħÙĤØ±Ø±": 6490,
      "ĠØªÙĤØ§Ø¶Ø§ÛĮ": 6491,
      "ĠÚĺØ§ÙĨÙĪÛĮÙĩ": 6492,
      "ÙĤØ³ÙħØª": 6493,
      "ĠØ¨Ø±ÙĪÙĨ": 6494,
      "ÙĪÛĮÚĨ": 6495,
      "ĠÙ¾ÛĮØ§Ø²": 6496,
      "ĠÙĦÛĮÙĪØ§ÙĨ": 6497,
      "Ø¨Ø§ÛĮÚ¯Ø§ÙĨÛĮ": 6498,
      "ĠØ¨ÙĪØ±": 6499,
      "ĠØ²Ø§ÙĨÙĪ": 6500,
      "Ú¯ÙĨØ§ÙĦ": 6501,
      "ĠÙ¾ÙĪØ³ØªÙĩ": 6502,
      "ĠØ§Ø³ÙĦØ§ÛĮØ¯": 6503,
      "ÙĦØ·": 6504,
      "ĠØ¨ÙģØ±": 6505,
      "Ø¬ÛĮÙĨØ§ÙĦ": 6506,
      "ĠÙĦØ§Ú©": 6507,
      "ĠØ§ÙģØ²Ø§Ø±ÙĩØ§ÛĮ": 6508,
      "ĠØ´Ø§ÙĨØ³": 6509,
      "ĠØ®Ùħ": 6510,
      "ĠÚĨØ§ÙĤ": 6511,
      "ĠØ¯Ø§Ø¯ÛĮÙħ": 6512,
      "ĠCon": 6513,
      "ĠÚ©ÙĪØ¯Ú©ÛĮ": 6514,
      "out": 6515,
      "ĠÙħÙģØ§ÙĩÛĮÙħ": 6516,
      "ĠØ§Ø±ØªÙĤØ§Ø¡": 6517,
      "ĠÙĨØ§Ùĩ": 6518,
      "Ø§Ø®Ø±Ùĩ": 6519,
      "Ø§ÙĤØ§Øª": 6520,
      "Û¶Û¶": 6521,
      "ĠÙĩØ²Ø§Ø±Ø§ÙĨ": 6522,
      "ams": 6523,
      "ĠØªØ±ÙĪØ±ÛĮØ³Ùħ": 6524,
      "ĠÚ©Ø§Ø´Ø§ÙĨ": 6525,
      "Ø¯Ø¨ÛĮØ±": 6526,
      "ĠØªØ§ÛĮÙĦ": 6527,
      "ĠÙħØ¯Ø§ÙĪÙħ": 6528,
      "ĠØ§ÙĦÚ¯": 6529,
      "ĠØ§Ø´Ø®Ø§Øµ": 6530,
      "Ø·ÙĪØ¨Øª": 6531,
      "ĠÚĨØ§Ø±ÚĨÙĪØ¨": 6532,
      "ĠØ¬Ø§Ø¯": 6533,
      "Ø¨ÛĮÙĨØ¯": 6534,
      "ĠÙ¾ÛĮÚ©Ø±": 6535,
      "ĠØªØ±Ø§Ø´": 6536,
      "ĠÚ¯ÚĨ": 6537,
      "ĠÙħÙĤØ¯Ø§Ø±ÛĮ": 6538,
      "Ø¹ÙģØ±ÛĮ": 6539,
      "Ġjp": 6540,
      "ĠÙ¾ÙĪØ³ØªÛĮ": 6541,
      "ĠÙ¾Ø±ÛĮÙĨØªØ±": 6542,
      "ĠØ³Ø§Ø¯Ú¯ÛĮ": 6543,
      "ĠØ¹Ø³": 6544,
      "ĠØ¨Ø§Ú©Ø³": 6545,
      "Ø¯Ø§ÙĪÙħ": 6546,
      "ĠØ¬ÙĨØ§ÛĮØª": 6547,
      "ĠØ¨Ø²Ø±Ú¯Ø³Ø§ÙĦ": 6548,
      "ĠÙħØ·Ø§ÙĦØ¨Ø§Øª": 6549,
      "ĠØ¬Ø¯Ø§ÛĮÛĮ": 6550,
      "ĠÙħØ§Ø¬Ø±Ø§ÛĮ": 6551,
      "ĠØ¨Ø±Ø§ÙĨÚ©ÙĪ": 6552,
      "ĠØ¨Ø§Ø±Ø³ÙĦÙĪÙĨØ§": 6553,
      "ÛĮØ§ÛĮ": 6554,
      "ĠÙģÛĮØ´": 6555,
      "Ġ-Ùª": 6556,
      "ĠØ·ÛĮÙģ": 6557,
      "ĠÙģØ±ÙħØ§ÛĮÛĮØ¯": 6558,
      "Ø§Ø³ØªØ§ÙĨØ¯": 6559,
      "Û·Û·": 6560,
      "ĠØ§Ø·ÙĦØ§Ø¹ÛĮÙĩ": 6561,
      "ĠØªØ´Ø¯ÛĮØ¯": 6562,
      "Û¹Û¹": 6563,
      "Ø·Ø±Ø²": 6564,
      "ĠØ¶Ø±Ø±": 6565,
      "IS": 6566,
      "ÙĩØ±ÛĮ": 6567,
      "ÙĪØ¶": 6568,
      "ĠÙ¾Ø±Ùģ": 6569,
      "ĠØ¹Ø§ÙĦÙħ": 6570,
      "Ø´Ø¯ÙĨ": 6571,
      "ĠØ§ÛĮØ±Ø§Ø¯": 6572,
      "ĠÙħØ¹ÙĦÙĪÙħ": 6573,
      "ĠØ¬Ø¯Ø§Ú¯Ø§ÙĨÙĩ": 6574,
      "ØªØ¬ÙĩÛĮØ²": 6575,
      "ĠÙĤØ´": 6576,
      "ÙĪØ§ÙĨÙĩ": 6577,
      "ĠÚ©ÙħØªØ±ÛĮ": 6578,
      "ĠØªØ¨Ø§Ø¯ÙĦ": 6579,
      "ĠØ§ØµÙĦØ§ØŃØ§Øª": 6580,
      "apt": 6581,
      "ĠÙĨÛĮØ´": 6582,
      "ĠØ³Ø§ÙĦÙĩØ§ÛĮ": 6583,
      "Ø¯Ø§ÙĨÛĮÙħ": 6584,
      "ĠÛ·Û²": 6585,
      "ĠÙĨÙģØ±ÛĮ": 6586,
      "ĠÙħÙĨØªØ®Ø¨": 6587,
      "ĠÚ¯Ø°Ø§Ø´ØªÙĨ": 6588,
      "pe": 6589,
      "Ø±Ø²": 6590,
      "ĠÙĩÙĪØ§Ø´ÙĨØ§Ø³ÛĮ": 6591,
      "ĠÙħØ®Ø§Ø¨Ø±Ø§Øª": 6592,
      "ÛĮÛĮØ¯": 6593,
      "ĠØ¯Ø±Ø®ØµÙĪØµ": 6594,
      "Ø±ÙĪÙĦ": 6595,
      "ĠØ«Ø¨Ø§Øª": 6596,
      "ĠØ´Ø¹Ø¨": 6597,
      "ÙģØ±ÙĪØ´Ú¯Ø§Ùĩ": 6598,
      "ĠØ¯Ø³ØªÙĪØ±Ø§ÙĦØ¹ÙħÙĦ": 6599,
      "ĠØ¢Ø²ÙħØ§ÛĮØ´Ú¯Ø§ÙĩÛĮ": 6600,
      "ĠÚ©ÛĮÙĦÙĪÙħØªØ±ÛĮ": 6601,
      "ĠÙ¾ÙĩÙĦ": 6602,
      "ĠÙ¾Ø§ÛĮÛĮØ²": 6603,
      "Ø®ØµÛĮØµ": 6604,
      "ĠÙħÚĨÛĮ": 6605,
      "ĠØ´Ø¨Ùĩ": 6606,
      "ØŃØ³ÙĨ": 6607,
      "ĠØ¹ÛĮ": 6608,
      "ĠØ³ÙĨØ³ÙĪØ±": 6609,
      "ĠØ¯Ø±ÛĮØ§ÛĮ": 6610,
      "ÙħØ³Ø¦": 6611,
      "ĠÙħÚ©Ø§ÙĨÛĮÚ©ÛĮ": 6612,
      "ĠâĨ": 6613,
      "NA": 6614,
      "ÙĩØ²ÛĮÙĨÙĩ": 6615,
      "Ø³ÙĪØ²ÛĮ": 6616,
      "ĠÙĨÚ©ÙĨØ¯": 6617,
      "ĠØ¢ÙħØ§Ø±ÛĮ": 6618,
      "ĠØ¯ÙĪØ³ØªÛĮ": 6619,
      "ĠØ¹ÙħÙĤ": 6620,
      "ĠÛ¸Û´": 6621,
      "Ø®ÙĪØ±ÛĮ": 6622,
      "ĠØ§Ø±Ø§Ø¶ÛĮ": 6623,
      "ĠØ¨ÛĮØ§ÛĮØ¯": 6624,
      "ĠÙ¾ÛĮØ±ÙĪØ²": 6625,
      "Ú©Ø±Ø¯ÙĨ": 6626,
      "ĠØ¸Ø±ÙĪÙģ": 6627,
      "ĠØ³ÙģÛĮØ±": 6628,
      "ĠÙĨÙģØ¹": 6629,
      "ĠØ¨Ø§ÛĮØ³ØªÛĮ": 6630,
      "ĠÙĨØ¨Ø§Ø´ÛĮØ¯": 6631,
      "âĢ¬": 6632,
      "ĠÙģØ§ÙĦ": 6633,
      "ĠÙ¾Ø§Ø³Ø®Ú¯ÙĪÛĮÛĮ": 6634,
      "ĠØ§Ø±Ø³": 6635,
      "ĠØ¯ÙĪÚĨØ±Ø®Ùĩ": 6636,
      "ĠÚ¯ÙĦÙĪÙĦÙĩ": 6637,
      "ĠÙģÛĮØ±ÙĪØ²": 6638,
      "ĠØ²ÙĨØ¯Ø§ÙĨÛĮØ§ÙĨ": 6639,
      "Ø³Ø±ÙĪ": 6640,
      "ĠØ±Ø§Ø¶ÛĮ": 6641,
      "ĠØ´ÙĪÙħ": 6642,
      "ĠØ®ÛĮØ±ÛĮ": 6643,
      "ĠÙģØ±Ø³": 6644,
      "ĠÛ¸Û¹": 6645,
      "ĠØ®Ø·Ø§Ø¨": 6646,
      "ĠEd": 6647,
      "ĠØ§Ø«Ø¨Ø§Øª": 6648,
      "ÙħØ´Ø§ÙĪØ±": 6649,
      "ĠØ´Ø³ØªØ´ÙĪ": 6650,
      "ĠÙĪØ§Ø´ÙĨÚ¯ØªÙĨ": 6651,
      "ĠØ¯Ø§Ø¦ÙħÛĮ": 6652,
      "ÙĦÛĮØ³Øª": 6653,
      "Ú©ÙĪÙ¾": 6654,
      "ĠØ¢ÙĦÙĪØ¯Ùĩ": 6655,
      "ĠÙħÙĨØ¹": 6656,
      "Ø¬ÙĩØª": 6657,
      "Û¹Û³": 6658,
      "icro": 6659,
      "ĠØªÙģØ³ÛĮØ±": 6660,
      "ÙħÙĤØ§Ùħ": 6661,
      "Ù¾Ø±Ø¯Ø§Ø²Ø¯": 6662,
      "Ú©Ø§ÙĨÛĮ": 6663,
      "ĠØ¨Ú¯ÛĮØ±ÛĮÙħ": 6664,
      "Ø¨Ø§Ø¹": 6665,
      "ĠØ¯Ø§Ø¯Ùħ": 6666,
      "Ø¯Ø§Ø±Ø§ÛĮ": 6667,
      "ĠØ§Ø±Ø¯ÙĪÛĮ": 6668,
      "ĠØ¨Ø±ÙĪØ²Ø±Ø³Ø§ÙĨÛĮ": 6669,
      "Ø¹Ø¬": 6670,
      "ĠØ®Ø¯Ø§ÛĮ": 6671,
      "ĠÙ¾ÛĮÙħ": 6672,
      "ĠØŃØ´": 6673,
      "ĠØ§Ø±Ø§Ú©": 6674,
      "ĠØ¨Ø§ÙĦØº": 6675,
      "ĠØªØ£ÛĮÛĮØ¯": 6676,
      "ĠÙĩÙħØ§ÙĩÙĨÚ¯": 6677,
      "ĠÚ¯ÙĨØ§Ùĩ": 6678,
      "ĠØ³Ø±Ø§ÙĨØ¬Ø§Ùħ": 6679,
      "ĠØ²Ø¹ÙģØ±Ø§ÙĨ": 6680,
      "ĠØ¨ÙĦÛĮØª": 6681,
      "ĠØ§Ø³Ú©Ø±ÛĮÙ¾Øª": 6682,
      "ØºØ§Ùħ": 6683,
      "ĠÚ©Ø´ÛĮØ¯": 6684,
      "ator": 6685,
      "ĠÙģØ±ÙĩÙĨÚ¯ÛĮØ§ÙĨ": 6686,
      "ĠØ¯Ø¨ÛĮØ±Ø³ØªØ§ÙĨ": 6687,
      "ĠØ²ÙĨØ¬ÛĮØ±Ùĩ": 6688,
      "Ġan": 6689,
      "ĠØ¨Ø§Ø³": 6690,
      "ĠØ¢Ø±Øª": 6691,
      "ĠØ§ÛĮÙħØ§ÙĦ": 6692,
      "ĠÙ¾ÙĦØ§": 6693,
      "ĠÙĩÙĪØ§Ù¾ÛĮÙħØ§ÛĮ": 6694,
      "ĠØ³ÙĦÙģ": 6695,
      "ĠÙħØ¹ÛĮØ§Ø±": 6696,
      "ĠØ³ÛĮÚ¯ÙĨØ§ÙĦ": 6697,
      "ĠØªØŃÙĤÛĮÙĤØ§ØªÛĮ": 6698,
      "ĠØ±ÙģØ³ÙĨØ¬": 6699,
      "ĠØªØ¹ÙĩØ¯Ø§Øª": 6700,
      "ØŃØ³Ø§Ø¨": 6701,
      "ĠÙĪÚ©Ø§ÙĦØª": 6702,
      "ĠØ§ÛĮÙħØ§ÙĦØ²": 6703,
      "Ġus": 6704,
      "ÙĪØ§ÙĦÛĮ": 6705,
      "Ø´Ø§ÛĮØ¯": 6706,
      "ĠÚ¯Ø±ÛĮÙĩ": 6707,
      "Ø·Ø§Ùģ": 6708,
      "esh": 6709,
      "ĠØµØ§Ø¯Ø±Ø§ØªÛĮ": 6710,
      "Ø®ÙĦØ§Ùģ": 6711,
      "Ġim": 6712,
      "ĠØ¹Ø¸": 6713,
      "ĠØ¯Ø³ØªÚ¯ÛĮØ±ÛĮ": 6714,
      "ĠÙħØªØºÛĮØ±": 6715,
      "ĠØªØ¹Ø¨ÛĮØ±": 6716,
      "ĠÚ©ÙĦØ³ÛĮÙħ": 6717,
      "ĠÛ·Û²Û°": 6718,
      "ĠÙĩÙĪØ§ÙĪÛĮ": 6719,
      "ire": 6720,
      "ĠÙ¾Ø§ÛĮØ¯Ø§Ø±ÛĮ": 6721,
      "ĠØ§ÙĨÚ¯ÙĦØ³ØªØ§ÙĨ": 6722,
      "ĠØ¨Ø±Ø³Ø§ÙĨ": 6723,
      "ĠØ¶Ø®": 6724,
      "ĠØ§Ú¯Ø±ÚĨÙĩ": 6725,
      "ØªÙĦÙģ": 6726,
      "ĠØªÛĮØ²": 6727,
      "ĠÙĤØ§Ø¶ÛĮ": 6728,
      "Ø¶Ø§Ø¹": 6729,
      "Ø§ÙĨØ¯ÛĮØ´": 6730,
      "ĠÙħØ¬Ø¯": 6731,
      "ĠØ´Ø±Ú©ØªÙĩØ§ÛĮ": 6732,
      "ĠØ¢Ø´Ù¾Ø²ÛĮ": 6733,
      "ĠØ¹ÙĤØ¯": 6734,
      "Ø¨Ø§ÛĮÛĮ": 6735,
      "Ø§Ø¯ÙħÛĮ": 6736,
      "ĠÙģØ§ÙĨØª": 6737,
      "ĠØ±ÙĪØŃÛĮÙĩ": 6738,
      "ĠØµØ¨ØŃØ§ÙĨÙĩ": 6739,
      "ĠÙħØ§ÙĨØ¯ÙĨ": 6740,
      "ld": 6741,
      "ĠÙĤØµÙĩ": 6742,
      "ĠÙ¾ÛĮØ´ÙĪØ§Ø²": 6743,
      "ĠØªØ´Ú©ÙĦ": 6744,
      "ĠØªØ±Ø¬ÛĮØŃ": 6745,
      "ĠÙħÙĪØ§ÙĨØ¹": 6746,
      "Ġjpg": 6747,
      "ĠØªÛĮØ±Ùĩ": 6748,
      "ĠØ®ÙĪØ±Ø¯Ùĩ": 6749,
      "ĠÙħØ±ØŃÙĪÙħ": 6750,
      "ĠÙħØ§Ø¬Ø±Ø§": 6751,
      "ĠØ§Ø¯Ø¹Ø§ÛĮ": 6752,
      "ĠØºÙĦØ·": 6753,
      "ph": 6754,
      "ÙĦÛĮÙĨ": 6755,
      "ĠØ¯Ø±Ø®Ø´": 6756,
      "ĠØ´ØªØ§Ø¨": 6757,
      "ĠÙħØ³Ø§Ø¬Ø¯": 6758,
      "Ø§ÙĦÛĮØ§ÛĮÛĮ": 6759,
      "ĠØ¯Ø§ÙĨØ´ÙħÙĨØ¯Ø§ÙĨ": 6760,
      "ĠØªØ¹Ø§ÙĪÙĨ": 6761,
      "Ø±Ø§Ø±ØªÛĮ": 6762,
      "ĠØ¯ÙĪÙĨØ§ÙĦØ¯": 6763,
      "Ø´Ú©Ø±": 6764,
      "ĠØ±Ø·ÙĪØ¨Øª": 6765,
      "ĠØ§ÛĮÙģØ§": 6766,
      "Ø®ÙĪØ´": 6767,
      "ØµØ¨": 6768,
      "ÙĪÙĦØ§ÛĮ": 6769,
      "ĠÙĨÛĮÙĪÛĮÙĪØ±Ú©": 6770,
      "Ø§Ø¦ÛĮÙĩ": 6771,
      "ĠØ¨ÙĪÛĮØ±": 6772,
      "ĠØ§Ø³ØªØ«": 6773,
      "Ú©ÙĨÙĨ": 6774,
      "ÙģØ±ÙĨÚ¯ÛĮ": 6775,
      "ÙħØ¯Ø§Ø±": 6776,
      "ĠØŃØ§Ø¬ÛĮ": 6777,
      "Ø±Ø§ÙĤ": 6778,
      "ĠÙĨØ¯Ø§Ø¯": 6779,
      "ĠØ¯Ø±Ø®Ø´Ø§ÙĨ": 6780,
      "Ø±ÙĩØ§ÛĮ": 6781,
      "ĠÚ©Ø§Ø¸": 6782,
      "ĠÙĩÚ©": 6783,
      "ĠØªÙģÚ©ÛĮÚ©": 6784,
      "Ù¾Ø±Ø¯Ø§Ø®Øª": 6785,
      "ĠØªØŃØµÛĮÙĦØ§Øª": 6786,
      "ĠØ§Ø®ØªÙĦØ§ÙĦØ§Øª": 6787,
      "ĠØ§Ø³ØªØ§ÙĨØ¯Ø§Ø±Ø¯ÙĩØ§ÛĮ": 6788,
      "ĠØªÙħØ§Ø´Ø§ÛĮ": 6789,
      "ĠÙĨÚ¯Ø§Ø±Ø´": 6790,
      "ĠÙ¾Ø±ÚĨÙħ": 6791,
      "ĠØ´ÙħØ§Ø³Øª": 6792,
      "ĠÙħØ³ØªÙĤØ±": 6793,
      "tern": 6794,
      "ĠØŃØ±Ú©Ø§Øª": 6795,
      "ĠØ¨Ú©Ø´": 6796,
      "ĠØ±Ø§Ø¬": 6797,
      "ĠØ³Ø§ÙĨØª": 6798,
      "ĠØ§Ø³Ø§ÙħÛĮ": 6799,
      "ĠØŃØ±Ø§Ø±ØªÛĮ": 6800,
      "ĠÚ©Ø§Ø±ÙħÙĨØ¯Ø§ÙĨ": 6801,
      "ÙħÛĮÙĨØ§Ø±": 6802,
      "ĠPC": 6803,
      "ĠTop": 6804,
      "Ú¯ÛĮÙĦÙĪÛĮÙĩ": 6805,
      "Ø®Ø¯ÙħØ§Øª": 6806,
      "Ġ<": 6807,
      "ĠØ¨Ø±Ø§Ø¯": 6808,
      "ĠÙĤÙĨ": 6809,
      "ĠØªÙħØ¯ÙĨ": 6810,
      "ĠÙĨÙĤØ§ÙĦÙĩ": 6811,
      "ĠØ³ÙĪÙ¾": 6812,
      "ach": 6813,
      "ï¿½ï¿½": 6814,
      "ĠÙħÙĤØ¯ÙħÙĩ": 6815,
      "ĠÙħØ£Ùħ": 6816,
      "ĠÙħÙĤÛĮ": 6817,
      "ĠØ³Ø§ØŃÙĦ": 6818,
      "ÙĪØ±ÙĩØ§ÛĮ": 6819,
      "ĠØ²ÛĮØª": 6820,
      "ĠÙħÙĪØ´Ú©": 6821,
      "Ø§ÙĤØª": 6822,
      "ĠÙ¾Ø±ÙĪÙģØ§ÛĮÙĦ": 6823,
      "ÙħØ¯ÛĮØ±ÛĮØª": 6824,
      "ÙħØ·ÙĦØ¨": 6825,
      "ĠÚĨØ´ÙħÙĩ": 6826,
      "ĠÙħØ¹ØªÙĤØ¯ÙĨØ¯": 6827,
      "ID": 6828,
      "ele": 6829,
      "ÙĨØ´Ø¯Ùĩ": 6830,
      "ĠÙĨØ§Øª": 6831,
      "Ø±Ø¯ÙĨ": 6832,
      "ĠÛ²Û²Û°": 6833,
      "ĠÙĪØ²Ø§Ø±ØªØ®Ø§ÙĨÙĩ": 6834,
      "ime": 6835,
      "ĠØ¨Ø´Ú©Ùĩ": 6836,
      "ĠØ§Ú©ØªØ¨Ø±": 6837,
      "Ú©Ùģ": 6838,
      "ĠØ¨Ø±Ø§Ø´": 6839,
      "ĠØ¹Ø§ÛĮÙĤ": 6840,
      "ĠØ§ÙĦÙĤ": 6841,
      "ĠØªÛĮÙħÛĮ": 6842,
      "ics": 6843,
      "ĠØ§Ú©Ø«": 6844,
      "Ø³Ø±Ø§ÛĮ": 6845,
      "ĠØ§ÛĮÙĨÚĨÛĮ": 6846,
      "ĠÚ©Ø§Ø±ÙĪØ§ÙĨ": 6847,
      "ĠØªØŃØ±ÛĮÚ©": 6848,
      "Ġvst": 6849,
      "ĠØ§Ø¶Ø·Ø±Ø§Ø¨": 6850,
      "ÙħØ§Ø´ÛĮÙĨ": 6851,
      "ÙģØ§ÙĨ": 6852,
      "¹Û¹Û": 6853,
      "Ø§ÙģØ§ØµÙĦÙĩ": 6854,
      "Û¶Û¸": 6855,
      "ĠØ§ÙĪÙĦÛĮ": 6856,
      "ade": 6857,
      "ĠÙħØºØ²ÛĮ": 6858,
      "ĠØ§ØªØŃØ§Ø¯": 6859,
      "ĠØ§Ø±ØªÙĤØ§": 6860,
      "ØªØ¬ÙĩÛĮØ²Ø§Øª": 6861,
      "SD": 6862,
      "ĠÙĨØ§ØµØ±": 6863,
      "Ø¢Ø´ÙĨ": 6864,
      "ĠÙĨØ´Ø±ÛĮÙĩ": 6865,
      "ĠÙħØ§ÙħÙĪØ±ÛĮØª": 6866,
      "Ġ\\": 6867,
      "ĠÙģØ±Ú©Ø§ÙĨØ³": 6868,
      "ĠØ¬ÙĪÙĨ": 6869,
      "ĠØ§ÛĮÙĨÚĨ": 6870,
      "ÙĨÚ¯Ø±ÛĮ": 6871,
      "ĠØ§ÙĦØ²Ø§Ùħ": 6872,
      "ĠÚ¯ÙģØªÙĨØ¯": 6873,
      "ĠÚ©ÙħØ±Ø¨": 6874,
      "ery": 6875,
      "ĠØ¢ÙħÙĪØ²Ø´Ú¯Ø§Ùĩ": 6876,
      "ÙĪÙĤØª": 6877,
      "ØªÙĦØ§Ùģ": 6878,
      "ition": 6879,
      "ĠØ³ÙģØ§Ø±Øª": 6880,
      "ĠÚ©Ø±Ø¨ÙĦØ§": 6881,
      "ÙħØ±Ùĩ": 6882,
      "Ú©Ø´Ø¯": 6883,
      "ĠØ±ÙĪØ¯Ùĩ": 6884,
      "ĠÙħÛĮØ®": 6885,
      "ĠØ¯ÛĮØ¬ÛĮ": 6886,
      "ĠÙģØ±ÙĪØ´Ú¯Ø§ÙĩÛĮ": 6887,
      "ĠÙĨØ³Ø¨ØªØ§": 6888,
      "ĠØ³ÙĦÛĮÙĤÙĩ": 6889,
      "ĠØªØ®ØµÛĮØµ": 6890,
      "ĠØ¨Ø±Ø¢ÙĪØ±Ø¯": 6891,
      "ĠØ²Ø§ÙĪÛĮÙĩ": 6892,
      "ĠÙħØªØ±ÙĪ": 6893,
      "ĠØ§Ø¯Ú©ÙĦÙĨ": 6894,
      "ĠØ§Ø¬ÙĦØ§Ø³": 6895,
      "ĠØ¶Ø±ÛĮØ¨": 6896,
      "ĠØ¸ÙĩÙĪØ±": 6897,
      "ĠÚĨÙĩØ§Ø±ÙħÛĮÙĨ": 6898,
      "ÙĨØ´ÛĮÙĨÛĮ": 6899,
      "Ø®ÙĦØ§ØµÙĩ": 6900,
      "ĠÙħÛĮØ§ÙĨÙĩ": 6901,
      "ĠØ²ÛĮØ§Ø±Øª": 6902,
      "ÙģØ±Ø´": 6903,
      "ĠØ°Ø±Ø§Øª": 6904,
      "Ø¨ÛĮÙĨÛĮØ¯": 6905,
      "Ø§ÛĮØ²": 6906,
      "ĠØ±ÛĮØ®Øª": 6907,
      "ĠØªÙĤØ¯ÛĮÙħ": 6908,
      "aw": 6909,
      "ĠØ¨Ø±ØªØ±ÛĮ": 6910,
      "ĠÚ¯ÛĮØª": 6911,
      "Ø±Ø³Ø§ÙĨØ¯": 6912,
      "ĠÛ´Û±": 6913,
      "ĠÚ¯Ø±Ø§ÙģÛĮÚ©ÛĮ": 6914,
      "ĠGalaxy": 6915,
      "ĠØªÙĪØ§ÙĨÙħÙĨØ¯ÛĮ": 6916,
      "ĠØ§ÙĪØ±Ø¬ÛĮÙĨØ§ÙĦ": 6917,
      "ĠØ¯Ø§ÙĪØ·ÙĦØ¨": 6918,
      "ØªØ¨ÛĮ": 6919,
      "ĠÙĪÚ©ØªÙĪØ±": 6920,
      "ĠØ¢ÛĮÙĨÙĩ": 6921,
      "ÛĮØ¯Ø±ÛĮ": 6922,
      "Ø§Ø¨ÙĪÙĨ": 6923,
      "ĠØ§Ø¹Ø¯Ø§Ùħ": 6924,
      "ĠÙĨÙħÛĮØ´Ùĩ": 6925,
      "ĠØ¯ÛĮØ¯Ú¯Ø§ÙĩÛĮ": 6926,
      "ĠÚ¯ÙĪØ¬Ùĩ": 6927,
      "ĠØ§Ø²Ø§ÛĮ": 6928,
      "ĠØ¹Ø§Ø¯ÙĦ": 6929,
      "ĠÙħÙĪØ¸": 6930,
      "Ø§Ú©Ø¨Ø±": 6931,
      "ÙħØŃÙħ": 6932,
      "ull": 6933,
      "ĠØ¨Ø±Ø²ÛĮÙĦ": 6934,
      "ĠØ§ÙħÛĮØ±ÛĮ": 6935,
      "ĠØ¢ÙĨØ±Ø§": 6936,
      "ĠØ±ÛĮØ®ØªÙĩ": 6937,
      "Ø¯Ø§Ø´ØªÙĨ": 6938,
      "ĠÙĤØ¯Ø±Ø¯": 6939,
      "ĠÙĩÙĪØ±ÙħÙĪÙĨ": 6940,
      "Ø±Ø§Ø²": 6941,
      "ĠØ±Ø§Ø¯": 6942,
      "ĠØ§Ø¹Ø·": 6943,
      "ĠÙħØ¨Ø§Ø¯": 6944,
      "ĠÙĨØ¯Ø§Ø±ÛĮØ¯": 6945,
      "ÙĪØªØ±ÛĮ": 6946,
      "ĠØ¯Ø§ÙĪØ±ÛĮ": 6947,
      "ĠØªÚ©Ùĩ": 6948,
      "ĠÚ©ÙĩÚ¯ÛĮÙĦÙĪÛĮÙĩ": 6949,
      "ĠØŃØ§Ú©ÛĮ": 6950,
      "ĠØ¹ÙĦÙĦ": 6951,
      "ĠØ³ÙĪØ§Ø¯": 6952,
      "ound": 6953,
      "ĠØ¨ÙĪØ¬ÙĪØ¯": 6954,
      "Ø§Ø±Ø³ØªØ§ÙĨ": 6955,
      "ĠØ§Ø®Ø±Ø§Ø¬": 6956,
      "ĠÙ¾ÙĦØªÙģ": 6957,
      "ĠÚ©Ø§ÙħÛĮÙĪÙĨ": 6958,
      "Ø¨Ø§Ùģ": 6959,
      "ĠÙĪØµÙĦ": 6960,
      "ĠØªØ²ÛĮ": 6961,
      "Ø¹ÛĮØ¯": 6962,
      "ĠØ§ÙĦØªÙĩ": 6963,
      "ĠØ²ÛĮØ§ÙĨ": 6964,
      "ĠÙĨÛĮØ±ÙĪÚ¯Ø§Ùĩ": 6965,
      "ĠØµØŃØª": 6966,
      "ĠÙħÙĨØ¸Ùħ": 6967,
      "ĠØ±Ø§ÙĩÚ©Ø§Ø±ÙĩØ§ÛĮ": 6968,
      "Ø·Ø¨ÙĤ": 6969,
      "Ø·ÙĨ": 6970,
      "ÙĪØ±ÛĮØªÙħ": 6971,
      "ĠØ§ÙĪØ¶Ø§Ø¹": 6972,
      "ĠØªÚ©ÙħÛĮÙĦÛĮ": 6973,
      "ĠØ¬Ø²Ø¡": 6974,
      "ĠØ±ÙĪØŃÛĮ": 6975,
      "ĠØ±ÙĪØ³ØªØ§ÙĩØ§ÛĮ": 6976,
      "ĠÙģØªÙĨÙĩ": 6977,
      "ĠÙģÙĪØªØ³Ø§ÙĦ": 6978,
      "ĠØ¨ÙĪÙĦ": 6979,
      "ĠÙĪÙĨ": 6980,
      "ĠÙ¾Ø§Ù¾": 6981,
      "ĠÙħØ¹ÛĮÙĨ": 6982,
      "ĠÙĪØ±Ø²Ø´Ú©Ø§Ø±Ø§ÙĨ": 6983,
      "ood": 6984,
      "ĠÙģØ§ÙĨØªØ²ÛĮ": 6985,
      "Ø¯Ø§Ø±Ø¯": 6986,
      "Ø¯Ø§Ø¯Ùĩ": 6987,
      "ĠØ¨Ø´ÙĨØ§Ø³": 6988,
      "Ø±ÛĮØ´": 6989,
      "ĠØŃØ±ÛĮÙħ": 6990,
      "Ø¢Ù¾": 6991,
      "ĠÚ¯Ø°Ø§Ø±Ø§ÙĨ": 6992,
      "ÙħØŃØµÙĪÙĦ": 6993,
      "osh": 6994,
      "Ø²ÙħÛĮÙĨÙĩ": 6995,
      "Ø§Ø·ÙĦØ§Ø¹Ø§Øª": 6996,
      "ĠØ®ÛĮØ±ÛĮÙĩ": 6997,
      "ĠØ³Ø§ØŃ": 6998,
      "ĠØ¹ÙĤÙĦ": 6999,
      "Ø§Ø³Ù¾": 7000,
      "ĠÛ¹Û±Û": 7001,
      "ĠØ¯ÙĩÙĨØ¯Ùĩ": 7002,
      "ĠØ±Ø¬": 7003,
      "ĠØ®ÙĪÙĨÙĩ": 7004,
      "ĠØ®Ø³ØªÚ¯ÛĮ": 7005,
      "ĠÚ¯ÙģØªÙĨ": 7006,
      "ĠÙħÙĦØ§ÙĤØ§Øª": 7007,
      "ĠØ·ÙĦØ§ÛĮ": 7008,
      "ĠØ¨Ø±Ú¯Ø²ÛĮØ¯Ùĩ": 7009,
      "Ø§ÙĪÙĦ": 7010,
      "ĠØ¨Ø§Ø³ØªØ§ÙĨ": 7011,
      "ĠØªØ§Ø±": 7012,
      "ĠÙ¾Ø´": 7013,
      "ĠØ¬ÙĨØ¬": 7014,
      "ĠÙĩÙħÚ¯ÛĮ": 7015,
      "Ø¦ÛĮÙĨÛĮ": 7016,
      "ÙģØ±ÙħØ§ÛĮ": 7017,
      "ĠÚ©ÙĦÙħ": 7018,
      "ĠØ¬ÙĪØ§ÙĨÛĮ": 7019,
      "ĠÙĪØ³Ø·": 7020,
      "ÙģØ¹Ø§ÙĦ": 7021,
      "ĠÙ¾Ø§Ø±ÙĦÙħØ§ÙĨ": 7022,
      "ÙĨØ§ÙĦ": 7023,
      "ĠØ¯Ø¨": 7024,
      "ØŃØ¯": 7025,
      "ĠØ§ÙħØ´Ø¨": 7026,
      "ĠØ®Ø±ÛĮØ¯Ø§Ø±Ø§ÙĨ": 7027,
      "Ø£Ø³": 7028,
      "Ù¾ÛĮØ§Ùħ": 7029,
      "ĠÙ¾ÚĺÙĪ": 7030,
      "ĠØ§Ø¹ØªØ¨Ø§Ø±Ø§Øª": 7031,
      "ĠØªØ¹Ø·ÛĮÙĦÛĮ": 7032,
      "ĠÙģÙĦØ²ÛĮØ§Ø¨": 7033,
      "Ø§ÙĦÙĪÚ¯": 7034,
      "na": 7035,
      "ĠØ±Ø¦Ø§ÙĦ": 7036,
      "ĠÙģÙĤÙĩ": 7037,
      "ØºÛĮ": 7038,
      "ĠØ®Ø§ØµÛĮØª": 7039,
      "ĠÙĦØŃØ¸": 7040,
      "ersian": 7041,
      "Ù¾ÛĮÙħØ§ÛĮÛĮ": 7042,
      "ĠØ¨ÙĨØ²": 7043,
      "Ù¾ÙĪØ´Ø§ÙĨ": 7044,
      "ĠÙģØ±ÙĩØ§Ø¯": 7045,
      "ĠÙĨØ§Ø´": 7046,
      "Ø¹ÙĦÛĮÙĩ": 7047,
      "ĠØ§ÙħÙĪØ²Ø´": 7048,
      "ĠÙĨÙħØ§": 7049,
      "ĠÙĨÙħÙĪØ¯ÙĨ": 7050,
      "Ù¾Ø±ÙĪÚĺÙĩ": 7051,
      "OR": 7052,
      "ĠØ³ÙĪÙĨ": 7053,
      "ĠØ¢ÛĮØ¯": 7054,
      "ĠÙħØ¯Ø¯": 7055,
      "ĠPr": 7056,
      "ĠDr": 7057,
      "ĠØ²Ø®ÙħÛĮ": 7058,
      "Ø¨ÛĮØ´ØªØ±": 7059,
      "ĠØ¬Ø±ÛĮÙħÙĩ": 7060,
      "ĠØ¨Ø§Ø®Øª": 7061,
      "ĠÚ©Ø§Ø¯": 7062,
      "ĠØªØ¯Ø§ÙĪÙħ": 7063,
      "ĠØ§ÙĦÙĩØ§Ùħ": 7064,
      "ĠÛµÛ²": 7065,
      "ÙĨØ¬Ø§ÙĨ": 7066,
      "Ġbe": 7067,
      "ĠÙħØŃÙĦÙĪÙĦ": 7068,
      "ÙĪØ§ÚĺÙĩ": 7069,
      "ĠØªØ±ÙħÛĮÙħ": 7070,
      "ĠØ¯Ø³Ø§ÙħØ¨Ø±": 7071,
      "ĠÙ¾ÙĦØ§Ú¯ÛĮÙĨ": 7072,
      "Ø¶Ø§Ø¡": 7073,
      "ĠÙħØ¹ÙĨØ§": 7074,
      "ĠAnd": 7075,
      "ĠApp": 7076,
      "ĠØ§ÙĨØ¯Ø±ÙĪ": 7077,
      "ĠØªÙĪØ§ÙĨÙħÙĨØ¯": 7078,
      "ĠÙħÙĤÛĮØ§Ø³": 7079,
      "ĠØ¢ÙĪØ±": 7080,
      "ĠØ¨Ø±Ø§ÛĮØªØ§ÙĨ": 7081,
      "ĠØ¨ÙĦØ§ÙģØ§ØµÙĦÙĩ": 7082,
      "ĠØ´ÛĮØ¹ÛĮ": 7083,
      "ĠØ§Ø¶Ø§ÙģÛĮ": 7084,
      "Ø´ÙĪÛĮÙħ": 7085,
      "ĠÙģØ¶Ø§ÙĩØ§ÛĮ": 7086,
      "AS": 7087,
      "oon": 7088,
      "ĠØ¨Ø±ÛĮØ²": 7089,
      "ĠÚ©Ø§Ø±Ø¢ÙħÙĪØ²ÛĮ": 7090,
      "ĠØ§ÙĤØ¯Ø§ÙħÛĮ": 7091,
      "ĠÙĨÙĤØ¶": 7092,
      "Ø¨Ø§Ø²Ø§Ø±": 7093,
      "ĠØ³Ø·ØŃÛĮ": 7094,
      "ĠÙĩØ§Øª": 7095,
      "ĠØ§Ø³ØªÙĪØ¯ÛĮ": 7096,
      "ĠØ§ÙĪÚ©": 7097,
      "ĠÛ³Û¹Û": 7098,
      "ĠMobile": 7099,
      "ĠØ§Ø¬ØªÙħØ§Ø¹": 7100,
      "ĠÙģÙĪØ§ÛĮØ¯": 7101,
      "ĠØ¯ÙģØ§ØªØ±": 7102,
      "ĠÛ±Û¹Û·": 7103,
      "Ġex": 7104,
      "ĠØ´ÙĦÙĪØ§Ø±": 7105,
      "ĠÙĨÚ¯Ø±": 7106,
      "ĠÙĦÚ©Ùĩ": 7107,
      "ĠÛµÛ´": 7108,
      "ĠØ«Ø±ÙĪØª": 7109,
      "ĠØ§ÙĨØªØ®Ø§Ø¨ÛĮ": 7110,
      "ĠÙħØ§Ø³Ø§Úĺ": 7111,
      "ĠÙħØ±Ø¨ÛĮØ§ÙĨ": 7112,
      "ĠØ±Ø¯ÛĮÙģ": 7113,
      "ET": 7114,
      "Ú©ÙĪØ³": 7115,
      "ĠØ¨Ø®ØµÙĪØµ": 7116,
      "ĠÙħÙħØª": 7117,
      "ĠØ±Ø§Ø³": 7118,
      "ĠØ§ÙģÚ©Øª": 7119,
      "Û¸Û¸": 7120,
      "ĠÚ¯Ø±ÙħØ§": 7121,
      "ĠÙħØ§Ø¯Ø±ÛĮØ¯": 7122,
      "ĠØ´ÙĪÛĮ": 7123,
      "ÚĨÙĨØ§ÙĨ": 7124,
      "ĠÙħØ³Ø§ØŃØª": 7125,
      "ĠØ¨Ø²Ø±Ú¯ØªØ±": 7126,
      "ØªÙĪØ¶ÛĮØŃ": 7127,
      "ĠÙĪØ§Ú¯Ø°Ø§Ø±": 7128,
      "ĠÚ©Ø§ÙħÙ¾ÛĮÙĪØªØ±ÛĮ": 7129,
      "ĠÙ¾ÙĦØªÙģØ±Ùħ": 7130,
      "oz": 7131,
      "ĸ«": 7132,
      "ĠØ¯ÙħØ§": 7133,
      "orm": 7134,
      "ĠÙĪØ§Ø±Ø¯Ø§ØªÛĮ": 7135,
      "ĠÙħØ¨ÙĦÙħØ§ÙĨ": 7136,
      "ĠÚ©ÛĮØ³Ùĩ": 7137,
      "ĠÙħØ§Ø´": 7138,
      "ĠØ¯Ø±ÙĪØ³": 7139,
      "ĠØ¢Øª": 7140,
      "Ø¢ÛĮØª": 7141,
      "int": 7142,
      "ĠÙĦØ¨Ø§Ø³Ø´ÙĪÛĮÛĮ": 7143,
      "ĠÙĩÙĪØ§Ù¾ÛĮÙħØ§ÛĮÛĮ": 7144,
      "ĠÙħÙĤØ¯ÙħØ§ØªÛĮ": 7145,
      "Ø¯ÙĪØ±Ùĩ": 7146,
      "ĠØ¨Ø¯ÙĩÙĨØ¯": 7147,
      "ĠØ³Ø§Ø±ÛĮ": 7148,
      "ĠØ§Ø±Ø²Ø´ÛĮ": 7149,
      "ĠÙĩØ³ØªÛĮ": 7150,
      "ĠØ¹ÙĨØ§ÙĪÛĮÙĨ": 7151,
      "ĠØªØ±Ø§Ø²": 7152,
      "ĠØ³Ø§Ø®ØªÙĨ": 7153,
      "roid": 7154,
      "ĠØªÛĮÙ¾": 7155,
      "ĠÙ¾ÛĮØ±Ø§ÙĩÙĨ": 7156,
      "ĠØ§Ø³ØªÙĤØ±Ø§Ø±": 7157,
      "ĠØ¯Ø§ÙħÙ¾Ø²Ø´Ú©ÛĮ": 7158,
      "ĠØ¨ÛĮØ±": 7159,
      "ĠÙģØ±ÛĮÙħ": 7160,
      "Ø§Ø¬Ø¹Ùĩ": 7161,
      "ĠØ§ÙĤÙĦØ§Ùħ": 7162,
      "ÙĪØªØ§": 7163,
      "led": 7164,
      "ĠÙģØ±Ø¯ÙĪØ³ÛĮ": 7165,
      "ĠØ±Ø§ÙĩØ¨Ø±Ø¯ÛĮ": 7166,
      "pl": 7167,
      "ĠØ¯Ø±Ú¯Ø§Ùĩ": 7168,
      "Ø§Ø¶Ø¹": 7169,
      "Ø±Ø§ÙĩÙĨÙħØ§ÛĮ": 7170,
      "ĠØ±Ú©ÙĪØ¯": 7171,
      "ĠØ¨ÙĤ": 7172,
      "ĠØªÙĤÙĦ": 7173,
      "ĠØ±Ú¯": 7174,
      "Ø§ØªÙĩ": 7175,
      "Ú¯Ø°Ø§Ø±Ø§ÙĨ": 7176,
      "Ø¨Ø²Ø±Ú¯": 7177,
      "Ø±Ø§ØªÛĮ": 7178,
      "ĠÙĨØªÙĪØ§ÙĨØ³Øª": 7179,
      "ĠØ§Ø±Ùħ": 7180,
      "ĠØ§ÙĪØªÛĮ": 7181,
      "ĠØ°ØºØ§ÙĦ": 7182,
      "ĠØ³Ù¾Ø§Ø³": 7183,
      "ĠÙ¾Ø±Ø³ÙĨÙĦ": 7184,
      "ĠÙģÛĮØ¨Ø±": 7185,
      "ode": 7186,
      "ĠØŃØ¯ÛĮØ«": 7187,
      "ĠØ¨Ø§Ùĩ": 7188,
      "ĠØ¯Ø±Ùĩ": 7189,
      "ĠØŃØ¨ÛĮ": 7190,
      "ĠÙĤØ§ÙĦÛĮ": 7191,
      "ĠØµØ§Ùģ": 7192,
      "ĠÙģØ±Ø¢ÙĪØ±Ø¯Ùĩ": 7193,
      "Ø§ÙĪÛĮØ±ÛĮ": 7194,
      "ĠÚ©Ø§Ø¨ÛĮÙĨÙĩ": 7195,
      "ĠØ¯Ø³ØªØ§ÙĪØ±Ø¯ÙĩØ§ÛĮ": 7196,
      "Ø¯ÙĪÙĨ": 7197,
      "Ø¯Ø§ÙĨÛĮ": 7198,
      "ĠÙĪØ¬": 7199,
      "ĠØ¯Ø±Ø§ÛĮÙĨ": 7200,
      "ĠØ¨ÙĩØ´Øª": 7201,
      "Ø§Ú©Ùħ": 7202,
      "ĠÚ©ÙħØ±": 7203,
      "ÙħØ¯ÛĮØ±Ùĩ": 7204,
      "ĠØ³ÙĪØ§Ø¨ÙĤ": 7205,
      "ĠØ¨Ø³ØªØ±ÛĮ": 7206,
      "ÙĨÚ©ØªÙĩ": 7207,
      "ĠØ¨ÙĩØ§ÛĮ": 7208,
      "ÙģØªÛĮ": 7209,
      "ÙĪØªÛĮÙĨ": 7210,
      "ĠÚĺØ§Ù¾ÙĨÛĮ": 7211,
      "âĨ": 7212,
      "ĠÙħÛĮØ¯Ùĩ": 7213,
      "ĠØªØ§Ø®ÛĮØ±": 7214,
      "ĠØ¯Ø±ÙħÙĪØ±Ø¯": 7215,
      "ĠØ±ÙĪÙħ": 7216,
      "ĠÙ¾ÙĩÙĨ": 7217,
      "ĠAn": 7218,
      "ence": 7219,
      "ĠÚ¯ÙĪØ§Ùĩ": 7220,
      "ĠØªØµÙħÛĮÙħØ§Øª": 7221,
      "ĠØ¢ÙĪØ±ÛĮÙĦ": 7222,
      "ĠØªØ¨ÛĮÛĮÙĨ": 7223,
      "ĠÙĩÙĨØ¯ÛĮ": 7224,
      "ĠÙģØ±Ø§Ø®ÙĪØ§ÙĨ": 7225,
      "ĠÙģØ±ÙĪØ´ÛĮ": 7226,
      "Ø¯Ø±ÛĮØ§ÙģØª": 7227,
      "ĠØµØ§ØŃØ¨Ø§ÙĨ": 7228,
      "ĠÙĨÙĪØ³Ø§Ø²ÛĮ": 7229,
      "ĠÙħÙĪØ¶Ø¹": 7230,
      "ĠÙħØŃØ§Ø³Ø¨Ø§Øª": 7231,
      "ĠØ¨Ø±ÛĮØªØ§ÙĨÛĮØ§": 7232,
      "za": 7233,
      "ĠØ¢Ø±Ùħ": 7234,
      "ĠÙ¾Ø°": 7235,
      "ĠØ¹Ø¬": 7236,
      "ĠØªÙĪÙĩ": 7237,
      "ict": 7238,
      "Ø²ÙĨÙĨØ¯": 7239,
      "ÙĨÚ¯Ø§Ø±": 7240,
      "ĠÙģØ±Ø§ØªØ±": 7241,
      "ĠÙģÙĤØ±": 7242,
      "ĠÛ²Û°Û°Û¸": 7243,
      "ĠØ®ÙĪØ±Ø§Ú©": 7244,
      "ĠØ¨Ø³Ø§Ø²": 7245,
      "ĠØ±ØµØ¯": 7246,
      "ĠÚ¯ÙĪØ§Ø±": 7247,
      "ĠÙħÙĪØ§ÙĤØ¹": 7248,
      "ĠÙĨÙħØ±Ùĩ": 7249,
      "ĠÛĮØ§Ø¯Ø¢ÙĪØ±ÛĮ": 7250,
      "ĠØ¢Ø±Ø²ÙĪÛĮ": 7251,
      "ĠØ±ÙĤØ§Ø¨ØªÛĮ": 7252,
      "ĠØªÛĮØ±ÙħØ§Ùĩ": 7253,
      "ÛĮØ§Øª": 7254,
      "ÙĨØŃ": 7255,
      "Ø³ØªÚ¯Ø§ÙĨ": 7256,
      "Ø§ØªØŃ": 7257,
      "Ø§Ø¨Ø§ÙĨÛĮ": 7258,
      "Û·Û¶": 7259,
      "ØªØ¹ÙħÛĮØ±": 7260,
      "ĠØ´ÙĩØ±ÙĪÙĨØ¯": 7261,
      "ĠØ¨Ø±Ø®ÙĦØ§Ùģ": 7262,
      "ĠÙģÛĮÙĨØ§ÙĦ": 7263,
      "ĠÙĤÙĪØª": 7264,
      "ÙħÙĨØ¸": 7265,
      "ĠØ²ÛĮØ¨Ø§ØªØ±ÛĮÙĨ": 7266,
      "ĠÛ±Û¹Û¶": 7267,
      "==": 7268,
      "Ø¯ÛĮØ¯Ú¯Ø§Ùĩ": 7269,
      "ĠØ¨Ø§ÙĦØ§Ø®Ø±Ùĩ": 7270,
      "ĠØ®ÛĮØ§ÙĦ": 7271,
      "ĠÚ©ÙĪØªØ§ÙĩÛĮ": 7272,
      "ĠØ§ÛĮØ³ØªØ§Ø¯Ùĩ": 7273,
      "ĠØ³ÙĪØ¦Ø¯": 7274,
      "ĠÙħØ¬Ø¯Ø¯Ø§": 7275,
      "Ø§ÙĪÙĨÛĮ": 7276,
      "ÙħÙĪØ³": 7277,
      "ĠØ³ÙĦÙĪ": 7278,
      "Ø§ÙħÛĮØ±": 7279,
      "ĠÙĪØŃØ´Øª": 7280,
      "ĠØ¬Ø³ÙħÛĮ": 7281,
      "ĠØ³ØŃØ±": 7282,
      "Ø³Ø§Ø±": 7283,
      "ĠÙ¾Ø±Ú©": 7284,
      "ĠØ¬ÙĨÛĮÙĨ": 7285,
      "ĠØ¬ÙĪØ¬Ùĩ": 7286,
      "ĠÛ²Û°Û°Û¹": 7287,
      "Ø®ÙĪØ§Ø³ØªÙħ": 7288,
      ".)": 7289,
      "ĠØ¢Ø¬": 7290,
      "Ø®Ø§ÙĨÛĮ": 7291,
      "ĠØ±ÙĪØ´ÙĩØ§ÛĮ": 7292,
      "ĠØ§Ø³ØªÙĨØ§Ø¯": 7293,
      "ĠÚ¯ÙĪØ³": 7294,
      "ĠØ¹ÛĮØ§Ø±": 7295,
      "ÛĮØ±Øª": 7296,
      "ĠÚ©Ø§Ø±ÙĨØ§ÙħÙĩ": 7297,
      "ĠØ¯Ø§Ø±ÙĪÛĮ": 7298,
      "ĠÙħÙĩØ§Ø±": 7299,
      "ĠØ§Ù¾Ø±Ø§ØªÙĪØ±": 7300,
      "ĠØ§Ø³ØªØ¹ÙĦØ§Ùħ": 7301,
      "ĠØ¯Ø§ÙĪØ±Ø§ÙĨ": 7302,
      "ĠØªØ´ÛĮ": 7303,
      "ĠØ¬Ø¹ÙģØ±ÛĮ": 7304,
      "ĠØŃØ§Ø¦": 7305,
      "Û·Û¸": 7306,
      "ĠØ¢Ø¨Ø§Ø¯Ø§ÙĨ": 7307,
      "ical": 7308,
      "ÙħØŃÛĮØ·ÛĮ": 7309,
      "ĠØ¯Ø±Ø§Ø²": 7310,
      "ĠØ±ÛĮÙħ": 7311,
      "ĠÙ¾ÛĮÙĪØ³ØªÙĩ": 7312,
      "ĠÙĨØ®Ø¨": 7313,
      "ĠÙħÙģØµÙĦ": 7314,
      "ĠUn": 7315,
      "ĠØ§ØŃØ³Ø§Ø³Ø§Øª": 7316,
      "ĠÙĩÙħØ³Ø§ÛĮÙĩ": 7317,
      "US": 7318,
      "ĠÚ¯Ø´": 7319,
      "ÚĨÛĮØ²": 7320,
      "ĠÙĦØ§Ø±ÛĮØ¬Ø§ÙĨÛĮ": 7321,
      "ĠÙħØ¹Ø§ØµØ±": 7322,
      "ĠØ¹ÙħØ¯": 7323,
      "ĠØ¢Ø³Ùģ": 7324,
      "ĠØ²ØŃÙħØª": 7325,
      "ĠØ¨ÙĦØ§Ú¯": 7326,
      "Ø¯ÙĪÙĦØª": 7327,
      "Ø³Ø±Ùħ": 7328,
      "ĠØ§Ø³ØªØŃ": 7329,
      "Ø°ÛĮ": 7330,
      "ĠÙ¾ÛĮØ´ÛĮÙĨÙĩ": 7331,
      "ĠØ§ÙĤØª": 7332,
      "ĠÙĨÛĮØ³ØªÙħ": 7333,
      "ÙģÛĮÙĤ": 7334,
      "ĠØ¯Ø®Ø§ÙĦØª": 7335,
      "ĠÙĪÛĮØ¯Ø¦": 7336,
      "ĠÙ¾Ø§Ø±Ø³ÛĮØ§ÙĨ": 7337,
      "ĠØ³Ø¤Ø§ÙĦ": 7338,
      "ual": 7339,
      "ĠÙĪÙĩ": 7340,
      "ĠØ±ÙĩÙĨ": 7341,
      "ĠÛĮÚ©Ùħ": 7342,
      "Û²Û°Û°": 7343,
      "ĠØ³Ø§ÙĦÚ¯Ø±Ø¯": 7344,
      "reat": 7345,
      "ĠØ§ÙĦÚ¯ÙĪØ±ÛĮØªÙħ": 7346,
      "ĠØ§ÙĨØ¯Ø±ÙĪÛĮØ¯ÛĮ": 7347,
      "ĠØ§ÙĪØªÛĮØ³Ùħ": 7348,
      "Ġro": 7349,
      "ĠØ¨ÙĪØª": 7350,
      "ĠÙĪØµ": 7351,
      "Ù¾Ø²Ø´": 7352,
      "ĠÙħÙĪØ§ÙģÙĤ": 7353,
      "Ú©Ø³ÙĪØª": 7354,
      "Ø³Ø§ÙĦÙĩ": 7355,
      "ĠØªØ²Ø¦ÛĮÙĨ": 7356,
      "Ù¾Ø°ÛĮØ±Ø¯": 7357,
      "ÙħØµØ±Ùģ": 7358,
      "Ø§ÙĤØªØµØ§Ø¯": 7359,
      "ĠØ´Ø±Ú©ØªÛĮ": 7360,
      "ĠÙħÙħØªØ§Ø²": 7361,
      "??": 7362,
      "oy": 7363,
      "Ø¯ÙĪØ³Øª": 7364,
      "ÙĦØ§ÙĦ": 7365,
      "Ø§ÙĦÙģ": 7366,
      "ĠÚ¯ÙĦÙĪ": 7367,
      "ĠØªØ§Ú©Ø³ÛĮ": 7368,
      "ĠØ§ÛĮØ±Ø§ÙĨØ³ÙĦ": 7369,
      "ĠØ¹ÙĦÙĨÛĮ": 7370,
      "ĠMot": 7371,
      "ĠØªÙĤÙĪÛĮÙħ": 7372,
      "ĠØ´Ø³ØªØ´ÙĪÛĮ": 7373,
      "ĠØ§ÙĨØ¹Ø·Ø§Ùģ": 7374,
      "ĠÙĨØ§Ø³": 7375,
      "ĠØ¢Ø±Ø¯": 7376,
      "ond": 7377,
      "ĠÙ¾ÙĪØ³ØªØ±": 7378,
      "indow": 7379,
      "ĠØ¢ÙĦÙĪÙħÛĮÙĨÛĮÙĪÙħ": 7380,
      "âĢį": 7381,
      "ĠÙģØ¹ÙĦØ§": 7382,
      "ĠØ¢Ø³ÛĮØ§ÛĮÛĮ": 7383,
      "ool": 7384,
      "ÙĪØ§Ùħ": 7385,
      "ĠØ³ÙħÛĮÙĨØ§Ø±": 7386,
      "Ø§Ø³Ø§Ø²ÛĮ": 7387,
      "ĠÛĮÚ©Ù¾Ø§Ø±ÚĨÙĩ": 7388,
      "Ø¢ÙĦ": 7389,
      "ĠØ¢ÙħÙĪ": 7390,
      "ata": 7391,
      "ĠØ¬Ø§ÙĨØ¨": 7392,
      "Ø§ÙĨØªØ´Ø§Ø±": 7393,
      "ĠÙģÙĪÙĦØ§Ø¯ÛĮ": 7394,
      "Ø¹ÙĪØ¯ÛĮ": 7395,
      "ĠØ¨ÙĩØ´ØªÛĮ": 7396,
      "ĠØ¢ÙĦÛĮ": 7397,
      "ĠÚ¯Ø²": 7398,
      "ĠÙħÙĪÙĩØ§": 7399,
      "ĠØªØ¬ÙĦÛĮÙĦ": 7400,
      "ĠØ®ÙĪØ¯Ø±ÙĪÙĩØ§": 7401,
      "ĠÚ©ÙħØ±Ø¨ÙĨØ¯": 7402,
      "mad": 7403,
      "ÙħÛĮÙħÛĮ": 7404,
      "Ú©Ø§ÙĩØ´": 7405,
      "ĠÙħØ§ÛĮÙĦ": 7406,
      "ĠØ§Ø³ÙĨ": 7407,
      "ĠÙģÙĪØ±ÛĮÙĩ": 7408,
      "ÛĮÙĨØ§ÙħÙĩ": 7409,
      "ĠØ§ÙĨØŃ": 7410,
      "Ø¨ÛĮØªÛĮ": 7411,
      "ĠÙħØ§ÙĩØ§ÙĨÙĩ": 7412,
      "ĠLED": 7413,
      "ĠØŃÚ©ÛĮÙħ": 7414,
      "ĠØ¹Ø§Ø´ÙĪØ±Ø§": 7415,
      "ĠÙħØ·ÙĦØ¹": 7416,
      "TM": 7417,
      "Ø³Ù¾": 7418,
      "ĠÙĪØ§Ø¬": 7419,
      "ĠØŃØ§ÙħÙĦ": 7420,
      "ĠØ§ÙħØ±ÛĮ": 7421,
      "Ø¦ÛĮØ¯": 7422,
      "ĠÚ¯Ø±Ú¯Ø§ÙĨ": 7423,
      "Ø¨Ø§Ø±Ø§ÙĨ": 7424,
      "ĠMB": 7425,
      "ĠÙĨÙĪÚ©ÛĮØ§": 7426,
      "ĠØ±ÙĩØ¨Ø±Ø§ÙĨ": 7427,
      "ĠÙĩÙĨØ±ÙĩØ§ÛĮ": 7428,
      "ĠØªØ±Ø³ÙĨØ§Ú©": 7429,
      "ĠÚ©Ø«": 7430,
      "Ø²Ø§Ø¨": 7431,
      "ĠØ¯Ø±Ø¨ÛĮ": 7432,
      "Ø±ÛĮØ±": 7433,
      "ØªØ±Ø²": 7434,
      "ÚĺØ§ÙĨØª": 7435,
      "ĠØ§ÙģØ´Ø§Ø±": 7436,
      "ĠØ±ÙĪØª": 7437,
      "ĠÙħØ±Ø¯ÛĮ": 7438,
      "ÙħÙĩÙĨØ¯": 7439,
      "ĠÛ±Û°Û¸Û°": 7440,
      "ØªØµÙĪÛĮØ±": 7441,
      "ĠSm": 7442,
      "ĠØ§ÙĨØ¯ÛĮØ´": 7443,
      "ĠÙĦÙĪÚ¯ÙĪ": 7444,
      "ĠØ¢Ø±Ø²ÙĪ": 7445,
      "ĠÙ¾ÚĺÙĪÙĩØ´Ú¯Ø±Ø§ÙĨ": 7446,
      "gh": 7447,
      "ĠÙĦÙĨØ²": 7448,
      "ĠØ±ÙĪØ³ÛĮ": 7449,
      "ĠØ§Ø¦ØªÙĦØ§Ùģ": 7450,
      "ĠØ¨Ø®ÙĪØ§ÙĩÛĮØ¯": 7451,
      "ĠØŃØ±Ø§Ø¬": 7452,
      "ĠØ§ÙħÙĪØ§ÙĦ": 7453,
      "Ø¹ÙĩØ¯Ùĩ": 7454,
      "Ø®ÙĪØ±Ø¯Ùĩ": 7455,
      "ÙĨØ´Ø§ÙĨÛĮ": 7456,
      "ĠØ¨Ø§Ø¯Ø§Ùħ": 7457,
      "ĠØ§ÙĨØ¨ÙĪÙĩ": 7458,
      "Ø¢Ø´ÙĨØ§ÛĮÛĮ": 7459,
      "cr": 7460,
      "ÙĦÚ©": 7461,
      "ĠÚ¯Ø±Ø§ÙĨÛĮ": 7462,
      "ÙĪÛĮÚĺÚ¯ÛĮ": 7463,
      "ĠØ®ÙĪØ¯Øª": 7464,
      "ĠØºØ±ÙģÙĩ": 7465,
      "ĠØ§ØŃÚ©Ø§Ùħ": 7466,
      "ĠØ¢Ø¨ÛĮØ§Ø±ÛĮ": 7467,
      "âĢ¦âĢ¦âĢ¦âĢ¦âĢ¦âĢ¦âĢ¦âĢ¦âĢ¦âĢ¦âĢ¦âĢ¦âĢ¦âĢ¦âĢ¦âĢ¦": 7468,
      "ĠØµØ§ÙĦØŃÛĮ": 7469,
      "ĠØ¨Ú¯Ø°Ø§Ø±Ø¯": 7470,
      "ĠØ®ÙħÛĮØ±": 7471,
      "ĠØŃØ¨Ø³": 7472,
      "ĠÙĤØ§Ø¦Ùħ": 7473,
      "ĠØ§ÙħØ¶Ø§ÛĮ": 7474,
      "ÙģØ±ÙħØ§ÙĨØ¯Ùĩ": 7475,
      "ĠÚ¯Ø±ÙģØªÙħ": 7476,
      "ÙĨØ³Ø®Ùĩ": 7477,
      "ĠÙħØ§ÙĦÚ©ÛĮØª": 7478,
      "ĠØ¨ÙĪÛĮØ±Ø§ØŃÙħØ¯": 7479,
      "ĠÚ©ÛĮÙħ": 7480,
      "ĠØ³ÙĪÙĦ": 7481,
      "Ø®ÙĪÙĨ": 7482,
      "ĠØ§ÙħÙĪ": 7483,
      "ĠÙħØŃØ¨Øª": 7484,
      "ĠÙħØŃÚ©Ùħ": 7485,
      "Ø²ÛĮÚ©": 7486,
      "Û¶Û°": 7487,
      "ĠØªØ¹ÙĦÙĤ": 7488,
      "ĠÙĨÙĤÙĦÛĮÙĩ": 7489,
      "ÙħØ´Ú©ÙĦ": 7490,
      "ĠØ¸Ø§ÙĩØ±Ø§": 7491,
      "ĠØ¨ÛĮØ¯Ø§Ø±": 7492,
      "ĠØ®Ø§ÙĦØµ": 7493,
      "Ø¯ÛĮØ±": 7494,
      "ĠÛĮÚ©Ø³Ø§ÙĨ": 7495,
      "Ø§Ø¹ÛĮÙĦ": 7496,
      "Ú¯Ø±Ø§": 7497,
      "ĠØ¢ÙħØ¯ÛĮØ¯": 7498,
      "ank": 7499,
      "ĠÙ¾ÙĨØ¬ÙħÛĮÙĨ": 7500,
      "ĠØ´Ú©Ø³ØªÙĩ": 7501,
      "ĠØªØ®ØªÙĩ": 7502,
      "ĠÙĤØ¶Ø§ÙĪØª": 7503,
      "Ø§ÙĨÚ¯Ø´ØªØ±": 7504,
      "Ġphp": 7505,
      "ĠØªÙĪÙĩÛĮÙĨ": 7506,
      "ĠÙħÛĮÙĩÙĨ": 7507,
      "ĠÙħØŃØµ": 7508,
      "ĠØºÙģ": 7509,
      "ĠØ§Ø®ØªØ±": 7510,
      "ĠØªÙĦÙĤÛĮ": 7511,
      "Ġfa": 7512,
      "ĠÙħÚ©Ø§ÙĦ": 7513,
      "ĠÙģØ±ÙħØ§ÙĨØ¯ÙĩÛĮ": 7514,
      "ember": 7515,
      "Ø¯ÙĩØ§ÛĮ": 7516,
      "âĢĶ": 7517,
      "ĠØ³ÙĪØ±Ùĩ": 7518,
      "ĠØ·ÙĦØ¨": 7519,
      "ĠÙħØ¹ÛĮØ´": 7520,
      "ĠØ²ÛĮØ³ØªÛĮ": 7521,
      "ĠØªØµØ§Ø¯ÙģÛĮ": 7522,
      "ĠÛ°Û¹Û±Û²": 7523,
      "ĠÙĨØ¹ÙħØª": 7524,
      "Ø£Ø³ÙģØ§ÙĨÙĩ": 7525,
      "ps": 7526,
      "ĠØ§Ø¯ÛĮ": 7527,
      "ÛĮØ§Ø¡": 7528,
      "ĠØ¢ÛĮÙĩ": 7529,
      "Ø§Ø³ØªØ±": 7530,
      "ĠÙĤØ¨Ø±": 7531,
      "ĠÙģØ±ÙĤ": 7532,
      "ĠØ§ÙĤØ³": 7533,
      "ĠSer": 7534,
      "ĠÙĨØ¯Ø§Ø¯Ùĩ": 7535,
      "ĠØ¬Ø±Ø§ØŃ": 7536,
      "ĠÙģØ±ØµØªÛĮ": 7537,
      "ĠØ¨Ø§Ø²Ú¯Ø´Ø§ÛĮÛĮ": 7538,
      "ÙĤØ§ÙĨÙĪÙĨÛĮ": 7539,
      "ĠÙħØ¨Ø¯": 7540,
      "Ø¹Ø§ÙĨ": 7541,
      "Ø¢ØºØ§Ø²": 7542,
      "ĠÙħØ³Ø¯ÙĪØ¯": 7543,
      "Û³Û¹Û": 7544,
      "ĠÙħØ®ØµÙĪØµØ§": 7545,
      "ĠØ§ÛĮØªØ§ÙĦÛĮØ§ÛĮÛĮ": 7546,
      "ĠÙĤÙĦÛĮ": 7547,
      "ĠÙĩØ³ØªÙĨ": 7548,
      "ĠØŃÙħØ§ÛĮØªÛĮ": 7549,
      "ĠÙħÙĪØ¸Ùģ": 7550,
      "AD": 7551,
      "Ãĺ": 7552,
      "ÛĮØ¹": 7553,
      "ĠÙĨØ§Ø´ÙĨ": 7554,
      "ĠÙ¾ÛĮØ¯": 7555,
      "ĠØ¹Ø²Ø§Ø¯": 7556,
      "ĠØ²Ø§Ø±": 7557,
      "ĠØ§ÙĤØ´Ø§Ø±": 7558,
      "ĠØ±ÙĤØµ": 7559,
      "ĠÛ±Û³Û¸Û·": 7560,
      "ĠÙħØ§ÙħÙĪØ±Ø§ÙĨ": 7561,
      "ĠØªØ¯Ø¨ÛĮØ±": 7562,
      "ru": 7563,
      "ĠØªÚ¯": 7564,
      "ĠØªØ¸Ø§Ùĩ": 7565,
      "ĠØ±ÙĤÛĮØ¨": 7566,
      "ĠØ®ÙĪÙĨÛĮ": 7567,
      "ĠØ®Ø´Ùħ": 7568,
      "Ø¬Ø³Øª": 7569,
      "ØµØ±Ùĩ": 7570,
      "ĠØµØ§Ø¨ÙĪÙĨ": 7571,
      "ĠÙĨÛĮØ§": 7572,
      "Ø§ÙĦÛĮØ³Øª": 7573,
      "ĠÙħØªÙĪØ³": 7574,
      "ĠÙĪÛĮÚ©ÛĮ": 7575,
      "ĠØ¨Ø§Ø±Ø¨Ø±ÛĮ": 7576,
      "ica": 7577,
      "www": 7578,
      "ĠØ¯Ø¨ÛĮØ±Ø®Ø§ÙĨÙĩ": 7579,
      "ĠÙĤØ¯Ø±Ø¯Ø§ÙĨÛĮ": 7580,
      "ĠÙĨØ®Ø¨Ú¯Ø§ÙĨ": 7581,
      "ox": 7582,
      "pr": 7583,
      "Ġac": 7584,
      "ĠÙĨØ®ÙĪØ§ÙĩÙĨØ¯": 7585,
      "ĠØ¨ÙĩØ±Ø§Ùħ": 7586,
      "ĠØ§ÙħØª": 7587,
      "ĠØ±ÙĪÚ©Ø´": 7588,
      "ĠØºØ¨Ø§Ø±": 7589,
      "ĠØ¨Ø§Ø²Ø¯ÛĮØ¯ÙĩØ§": 7590,
      "ĠØ±ÙģØªØ§Ø±ÛĮ": 7591,
      "ĠÙĨØ¬Ùģ": 7592,
      "ĠØ§ÙĪØ±ÚĺØ§ÙĨØ³": 7593,
      "Ø¯Ø§ÙĨØ´Ú¯Ø§Ùĩ": 7594,
      "ÙĨØŃÙĪÙĩ": 7595,
      "Ø¨Ø³Øª": 7596,
      "ĠØ´Ú©ÙĪ": 7597,
      "Ø¬ÙĦØ³": 7598,
      "ÙħÛĮØ§ÙĨ": 7599,
      "ĠØ§ÙħØ±ÙĪØ²ÛĮ": 7600,
      "ĠÙħØµÙĦØŃ": 7601,
      "Ú¯ÙĪØ³Øª": 7602,
      "ĠØ¹Ú©Ø³ÙĩØ§ÛĮ": 7603,
      "ØªÙĤØ§ÙĦ": 7604,
      "ĠÙĨÙĪÛĮØ³ÙĨØ¯Ú¯Ø§ÙĨ": 7605,
      "ĠÙħØ§ÙĨØ¯Ú¯Ø§Ø±": 7606,
      "ĠÙĤØ¶Ø§ÛĮÛĮÙĩ": 7607,
      "ĠÚ©Ø´ØªØ§Ø±": 7608,
      "ĠØ³Ø§ØŃÙĦÛĮ": 7609,
      "ÙħØ³ÙĦÙħÛĮÙĨ": 7610,
      "Ø§Ø±Ú¯Ø§ÙĨ": 7611,
      "ĠØ¢ÙĨØªÙĨ": 7612,
      "ØªÙĪØ§ÙĨÙħ": 7613,
      "ĠÙħØªÙħØ±Ú©Ø²": 7614,
      "ĠØªÙĩÙĪÛĮÙĩ": 7615,
      "ĠØ±Ø§ÙĩÙ¾ÛĮÙħØ§ÛĮÛĮ": 7616,
      "ĠØ¢Ø²ÙħØ§ÛĮØ´ÛĮ": 7617,
      "ĠØ§ÙĨØ¯Ú©ÛĮ": 7618,
      "ĠÙ¾Ø±ÛĮÙĨØª": 7619,
      "Ġorg": 7620,
      "Download": 7621,
      "hat": 7622,
      "ÙħØ®": 7623,
      "ĠÚ©Ø¨Ø¯": 7624,
      "ĠÙĨÚ¯": 7625,
      "ĠÛ³Û¹": 7626,
      "ĠÙħØ®ØªØµ": 7627,
      "ĠÙĤØ³ÙħØªÛĮ": 7628,
      "ĠØ´Ø¹ÙĦÙĩ": 7629,
      "ĠÙħØ´Ø§ÙĪØ±Ø§ÙĨ": 7630,
      "ĠØ¨ÙĦÙĪØªÙĪ": 7631,
      "ĠØªØ²ÛĮÛĮÙĨ": 7632,
      "Ø·ÙĪØ±ÛĮ": 7633,
      "ĠØ§Ø±Ø§Ø¯Ùĩ": 7634,
      "Ø±Ø³ÙĨØ¬ÛĮ": 7635,
      "ert": 7636,
      "wit": 7637,
      "ĠØ¨ÙĩØ´": 7638,
      "ĠØ¢Ø²Ø§Ø±": 7639,
      "ĠÙģØ±Ø¢ÙĪØ±ÛĮ": 7640,
      "ĠÙħØ´ÙħÙĪÙĦ": 7641,
      "enc": 7642,
      "ĠÙĨÙĪØ§ØŃÛĮ": 7643,
      "ĠDV": 7644,
      "ĠÙħÙĩØ§Ø¬Ùħ": 7645,
      "Ø¶Ø§ØŃ": 7646,
      "ĠÛ´Û¹": 7647,
      "ĠØªØ¬Ø§Ø±": 7648,
      "ĠÙĪØŃÛĮØ¯": 7649,
      "ĠØ¨Ø±Ø³Ø§ÙĨØ¯": 7650,
      "ĠØ¨ÙĨØ¯Ø±Ø¹Ø¨Ø§Ø³": 7651,
      "ĠÙ¾Ø§Øª": 7652,
      "ØªØ±Ø¬ÙħÙĩ": 7653,
      "ÙĨÙĩØ§Ø¯": 7654,
      "ĠØªØ§Ø±ÛĮØ®ÚĨÙĩ": 7655,
      "ĠØŃØ§Ú©ÙħÛĮØª": 7656,
      "ĠØ²ÙĪØ±": 7657,
      "ĠØ§Ø¹Ø¶Ø§": 7658,
      "ĠAS": 7659,
      "Û¹Û¹Û": 7660,
      "ĠØ®ÙĪØ¯Ø±ÙĪØ³Ø§Ø²ÛĮ": 7661,
      "ĠÚ©Ø±ÛĮØ³Øª": 7662,
      "ĠØ¢Ø³ÙģØ§ÙĦØª": 7663,
      "IP": 7664,
      "ÙĨØ®": 7665,
      "Ø³Ú©ÙĪ": 7666,
      "ĠØ¯Ø±Ø§Ùħ": 7667,
      "ĠÙĦØ§Ø³ØªÛĮÚ©": 7668,
      "ĠØªÙĨØ§Ø³Ø¨": 7669,
      "ĠØ³Ø§ÛĮØªÙĩØ§ÛĮ": 7670,
      "Ø§Ø·ÛĮØ³ÛĮ": 7671,
      "ĠØ³Ø§Ø¹ØªÙĩ": 7672,
      "ÛĮØ§Ø±ÛĮ": 7673,
      "ÛĮØ§Ø¨ÛĮ": 7674,
      "ĠØ®Ø²": 7675,
      "ØŃØ¯ÙĪØ¯": 7676,
      "ÛĮÙĦÙĨ": 7677,
      "ĠÙĨØ¸Ùħ": 7678,
      "Ú©Ø§ÙĨØ§ÙĦ": 7679,
      "ĠØªØ±Ø¨ÛĮØªÛĮ": 7680,
      "ĠØ¬Ø§ÙĨØ¨Ø§Ø²": 7681,
      "ØªØ§ÙĨØ³ÛĮÙĦ": 7682,
      "ĠÙĤØ¶Ø§Ø¦ÛĮÙĩ": 7683,
      "ĠØ¨Ø§Ø±Ø¯Ø§Ø±": 7684,
      "ĠØ¨ÙĪÛĮÚĺÙĩ": 7685,
      "ideo": 7686,
      "ĠØªØ§ÛĮÙĦÙĨØ¯": 7687,
      "ĠØ¨Ú¯ÙĪÛĮÙħ": 7688,
      "ĠÙģØ§Ø¬Ø¹Ùĩ": 7689,
      "Ø§Ø´ÙĪÛĮÛĮ": 7690,
      "Ø±Ø³ÛĮØ¯": 7691,
      "ÛĮØ³Ùħ": 7692,
      "Ø±ÙĪØ²ÙĨØ§ÙħÙĩ": 7693,
      "ĠÙ¾Ø±ÙĨØ¯Ú¯Ø§ÙĨ": 7694,
      "Ø´ÙħØ§Ø±": 7695,
      "ĠØ¢Ø±ÚĺØ§ÙĨØª": 7696,
      "Ġword": 7697,
      "ĠØ§Ø¹ØªØ±Ø§Ùģ": 7698,
      "ĠÙħØªØŃØ±Ú©": 7699,
      "ĠÙħØ±Ø§ØªØ¨": 7700,
      "cc": 7701,
      "tr": 7702,
      "ÙĪØ¬ÙĪØ¯": 7703,
      "ĠÚ©Ø¨": 7704,
      "ĠÙĨÚ©ÙĨÙĨØ¯": 7705,
      "ĠØ¬ÙģØª": 7706,
      "ÙģØ±ÙĤÙĩ": 7707,
      "ĠÙĨØ§ÙħØ´": 7708,
      "ĠÙĨØ´Ø³ØªÙĩ": 7709,
      "Ø¨ÛĮÙĨÛĮÙħ": 7710,
      "ĠÙģØ±ÙħÙĪÙĦ": 7711,
      "ÙĨÙħÙĪÙĨÙĩ": 7712,
      "ĠØ¬ØºØ±Ø§ÙģÛĮØ§ÛĮÛĮ": 7713,
      "Ø´Ø§Ù¾": 7714,
      "ĠØ§ÛĮÙĨÙĩ": 7715,
      "ĠÚĨØ§Ø¨": 7716,
      "Û·Û°": 7717,
      "ØµØ±Ø§Ùģ": 7718,
      "Ø³ÙĦØ·": 7719,
      "ĠØ®Ø±Ø¬": 7720,
      "Ø§Ø±ÙĨ": 7721,
      "Ø²Ø¯ÙĩÙħ": 7722,
      "ĠØ±Ø¬ÙĪÛĮ": 7723,
      "ĠØ§Ø³Ú©Ø§Ø±": 7724,
      "ĠÚ¯Ø±ÙĪ": 7725,
      "ĠØ¹Ø§Ø·": 7726,
      "ĠØ¢ÙĨØ§ÙĦÛĮØ²": 7727,
      "Ø§Ú©ÙĪ": 7728,
      "ĠØ±ÙĪÛĮÙĩ": 7729,
      "ĠØ¬ÙĨÚ¯ÛĮ": 7730,
      "ĠÚ©ÙĪÚĨÚ©ÛĮ": 7731,
      "Ø¢Ø¨Ø§Ø¯ÛĮ": 7732,
      "ĠÙħØ³Ø§ÙģØ±ØªÛĮ": 7733,
      "ĠØªØ¬Ø±Ø¨ÛĮØ§Øª": 7734,
      "Ø³Ø®ÙĨÚ¯ÙĪÛĮ": 7735,
      "ĠØ¨Ø°": 7736,
      "Ø§ÙĦØ¯ÙĪ": 7737,
      "Ú¯Ø±Ø¯ÙĨØ¯": 7738,
      "Ø³Ø§ÙĨØ³": 7739,
      "ĠÙħØºÙĨ": 7740,
      "ĠØ¢ÙģØªØ§Ø¨ÛĮ": 7741,
      "ĠØ¹Ø²Øª": 7742,
      "Â«": 7743,
      "ĠØ¨Ø²ÙĨØ¯": 7744,
      "ĠØ¢ÙĨØª": 7745,
      "ĠØ³Ø§ÙĦØ±ÙĪØ²": 7746,
      "ĠØ´ÙħØ³": 7747,
      "ĠÚ©ÙħØ¯ÛĮ": 7748,
      "ÙģØ±ÙħØ§ÙĨ": 7749,
      "ĠÛ¸Û±": 7750,
      "ĠØ§Ø¨Ø¯": 7751,
      "ĠØ´Ø§ÙĩÛĮÙĨ": 7752,
      "ĠØ¨ÙĦÙĪÚ©": 7753,
      "ĠØ¨Ø¯Ø§ÙĨÛĮÙħ": 7754,
      "ĠØ¨Ø§Ø²ÙĨØ´Ø³ØªÚ¯Ø§ÙĨ": 7755,
      "Ø§ÛĮØ³ÙĨØ§": 7756,
      "Ø°ÛĮØ¨": 7757,
      "ĠÙħÙĨÚĨ": 7758,
      "ĠÙĨÛĮØª": 7759,
      "ĠØªØ¹Ø§ÙĪÙĨÛĮ": 7760,
      "Û¹Û±": 7761,
      "ĠØªØ§Ø¨ÙĨØ§Ú©": 7762,
      "ĠØ¯Ø§ÙħÙĨ": 7763,
      "Ù¾Ø§Ø¯": 7764,
      "ĠÙħÙĨÙģ": 7765,
      "ĠØ®ÙĪØ¨Ùĩ": 7766,
      "ĠØ¨Ø§Ø´ÛĮ": 7767,
      "ĠØ¯Ø§Ø±ÙĨ": 7768,
      "ØªÙĨØ§Ø¨": 7769,
      "ĠÛ²Û°Û°Û³": 7770,
      "ĠÙĩÙģØªÚ¯ÛĮ": 7771,
      "ĠÙ¾Ø§Ø±Ú©ÛĮÙĨÚ¯": 7772,
      "ĠØ¨ÙĨÙĪÛĮØ³ÛĮØ¯": 7773,
      "Ø¨ÙĨÛĮ": 7774,
      "ĠÙ¾Ø§Ø±Ùĩ": 7775,
      "ĠÙ¾ÙĦÙĩ": 7776,
      "ĠÚ¯Ø±Ùĩ": 7777,
      "ĠÙĩÙħÙĪØ·": 7778,
      "ĠÙħØ³Ø§ÛĮÙĦ": 7779,
      "ĠÛ±Û¸Û°": 7780,
      "ĠØ§Ú©Ø¨Ø±": 7781,
      "Ú¯ÙģØªÙĨÛĮ": 7782,
      "ĠÙĨØ´Ø¯ÙĨ": 7783,
      "Ø§ÙĨØ´": 7784,
      "Ø¨Ø³ØªÚ¯ÛĮ": 7785,
      "ĠØ´Ú©Ø§Ø±": 7786,
      "ĠØ¢Øº": 7787,
      "ÙħÙĨØ³ØªØ§ÙĨ": 7788,
      "ĠÚ¯Ø°Ø±Ø§ÙĨ": 7789,
      "ĠØ«Ø±ÙĪ": 7790,
      "ĠØªÛĮÙħØ´": 7791,
      "ĠØ¨ÙĨØ±": 7792,
      "ĠØŃÚ©Ø§ÛĮØª": 7793,
      "ÙĪØ¯ÙĨ": 7794,
      "ÚĨÚ©": 7795,
      "ĠÚ©ÙĩÙĨ": 7796,
      "ĠØ§Ú©ÙĪ": 7797,
      "Ø¢Ø³ÛĮ": 7798,
      "ĠÙħØ¯Ø§Ø®": 7799,
      "ĠÛ±Û³Û´": 7800,
      "ani": 7801,
      "ĠØ§ØŃØ²Ø§Ø¨": 7802,
      "ĠÙģØ±ÙħØ§ÙĨØ¯Ø§Ø±ÛĮ": 7803,
      "eed": 7804,
      "ÙģØ§ÙĦ": 7805,
      "Ø§Ø¹Ø¯Ùĩ": 7806,
      "ĠØ§Ø¬Ø±": 7807,
      "ĠÙĨØ§ÙħÛĮØ¯Ùĩ": 7808,
      "ĠÙĨÙĪØ§Ø²": 7809,
      "ĠØºÛĮØ±ÙĤØ§ÙĨÙĪÙĨÛĮ": 7810,
      "Ø¢ÙħØ¯ÛĮ": 7811,
      "ĠØ¢ÙĦØ§Øª": 7812,
      "Ġnet": 7813,
      "ĠÙħÙĪØªÙĪØ±ÙĩØ§ÛĮ": 7814,
      "ĠØºØ±Ø¨Ø§ÙĦ": 7815,
      "ĠÙģÙĦØ²Ø§Øª": 7816,
      "ĠÙĨÙĪØ³Ø§ÙĨØ§Øª": 7817,
      "ĠØ´Ø§Ú¯Ø±Ø¯Ø§ÙĨ": 7818,
      "ĠØ±Ø§Ø¬Ø¹": 7819,
      "ĠØ·Ø§Ùĩ": 7820,
      "ĠØºØ§ÙģÙĦ": 7821,
      "ĠÙĨØ¸Ø±Ùħ": 7822,
      "ĠØ±ÙĪØ²ÙħØ±Ùĩ": 7823,
      "ĠØ¯Ø§Ø¯Ø³ØªØ§ÙĨ": 7824,
      "ĠØ¨Ø³ÛĮØ¬ÛĮ": 7825,
      "ĠÙĨØ§ÙħÙĨ": 7826,
      "ĠÚ©Ø§ÙĦØ±ÛĮ": 7827,
      "ĠÙ¾Ø§Ø³Ø®Ú¯ÙĪÛĮ": 7828,
      "Ø¬ÙĪØ§Ø¯": 7829,
      "ĠØ§ÙĨØµØ§Ø±ÛĮ": 7830,
      "ĠÛĮÙĪØ³Ùģ": 7831,
      "âĹ": 7832,
      "Ø¯ÙĪØ±": 7833,
      "ĠØ¨Ø®ÙĪ": 7834,
      "ĠÙĪØ§Ø¬Ø¯": 7835,
      "ĠØ³ÙĨÛĮÙĨ": 7836,
      "ĠØ¢ÙĨÙĤØ¯Ø±": 7837,
      "Ø°Ùĩ": 7838,
      "Ø§ØŃØ§ÙģØ¸": 7839,
      "ĠØªØ¹ÙĦÛĮ": 7840,
      "ĠØ§Ø´ØºØ§ÙĦ": 7841,
      "ĠÚ©ÙĦØ§": 7842,
      "ĠØ³ÙĪØ¦ÛĮ": 7843,
      "ĠØ³Ø§ÛĮØ¨Ø±ÛĮ": 7844,
      "ĠÙ¾Ø§Ø±Ø§Ùħ": 7845,
      "ĠÙĨØ¨ÙĪØ¯ÙĨ": 7846,
      "ĠÙħØªØ±Ùħ": 7847,
      "ĠØ¨Ø¯Ø§ÙĨÙĨØ¯": 7848,
      "¸ı": 7849,
      "ï¸ı": 7850,
      "Ø§ÙĪØ´": 7851,
      "Ù¾Úĺ": 7852,
      "ĠØ¢ÙĨØ¬Ø§ÛĮÛĮ": 7853,
      "ĠÙħÙĪØ±Ø¯ÛĮ": 7854,
      "ĠØ®Ø·Ø§": 7855,
      "ĠØ³Ù¾Ø±ÛĮ": 7856,
      "ĠØ¨Ø±Ø¯Ø§Ø±": 7857,
      "ĠIP": 7858,
      "ĠØ§ÙĨÚ¯Ø§Ø±": 7859,
      "aper": 7860,
      "ĠÙ¾Ø´ØªÛĮØ¨Ø§ÙĨ": 7861,
      "----------------": 7862,
      "ĠØ¬Ø²ÛĮ": 7863,
      "ÙĪÛĮÚĺÙĩ": 7864,
      "ĠÚĨØ§ÙĤÛĮ": 7865,
      "ØªÛĮÚ©ÛĮ": 7866,
      "ÙĪØ±ÛĮØ§ÙĨ": 7867,
      "ĠÙħØ¬Ø±Ø¨": 7868,
      "ĠCO": 7869,
      "ĠØ¨ØŃØ±ÛĮÙĨ": 7870,
      "ĠÙĪØ§ÙĦÙħØ³ÙĦÙħÛĮÙĨ": 7871,
      "ĠØ¯Ø²ÙģÙĪÙĦ": 7872,
      "ĠØ¯Ø³ØªÙħØ²Ø¯": 7873,
      "ĠØ§ÙĦØªÙĩØ§Ø¨": 7874,
      "IT": 7875,
      "ĠØ¨ÙĦÙĩ": 7876,
      "ÙģØ³ÛĮ": 7877,
      "Ø§Ø¦ÙĪÙħÛĮ": 7878,
      "ĠØ¹Ø±Ø§ÙĤÛĮ": 7879,
      "ĠÚ¯ÙĪØ§ÙĩÛĮÙĨØ§ÙħÙĩ": 7880,
      "EN": 7881,
      "ĠØ¨Ú¯Ùħ": 7882,
      "ĠØ¢Ø¨Ø±": 7883,
      "Ø¬ÙĨÚ¯": 7884,
      "ĠÙ¾Ø±ÙĨØ¯Ùĩ": 7885,
      "ĠÚ©Ø§ÙĦØ§ÙĩØ§": 7886,
      "ĠØ³ÛĮÙĨØ§": 7887,
      "ĠÙ¾Ø±ÙĪØªÚ©ÙĦ": 7888,
      "ØªÙĦÙģÙĨ": 7889,
      "DR": 7890,
      "ÙĤØ·": 7891,
      "ĠØ³Ø¬Ø§Ø¯": 7892,
      "Ù¾Ø¯": 7893,
      "ĠÚ¯ÙĦÛĮ": 7894,
      "ĠØ±ÙĪØ²Ú¯Ø§Ø±": 7895,
      "ĠÛµÛ³": 7896,
      "ĠØ§Ø¬ØªÙĨØ§Ø¨": 7897,
      "ĠÙĪØ²ÙĨÙĩ": 7898,
      "IC": 7899,
      "ĠÙ¾ØªØ§ÙĨØ³ÛĮÙĦ": 7900,
      "ĠÙħÙĪØ§Ø¶Ø¹": 7901,
      "ĠÙħÙĨØ§Ø¸": 7902,
      "ĠÚ©ÙĨÛĮÙĨ": 7903,
      "ĠÙħØ±Ø³": 7904,
      "ĠØ³Ø±Ø´Ø§Ø±": 7905,
      "ĠØ®Ø¨Ø±ÙĩØ§ÛĮ": 7906,
      "ĠØ±Ø³Ø§ÙĦØª": 7907,
      "ick": 7908,
      "ĠØ¢Ø±Ø´": 7909,
      "ĠØ´ÙĨØ§Ø³ÙĨØ§ÙħÙĩ": 7910,
      "Ġres": 7911,
      "ØªØºÛĮÛĮØ±": 7912,
      "Ø³Ø±ÙĪÛĮØ³": 7913,
      "indows": 7914,
      "Ġam": 7915,
      "ÙĪÙĩØ§ÛĮ": 7916,
      "Ø¨Ø±Ùĩ": 7917,
      "Ø¢Ú¯ÙĩÛĮ": 7918,
      "Û¸Û¶": 7919,
      "ĠÙħØ§ÙĩÛĮØª": 7920,
      "Ø±ÛĮÚ©Ø§ÛĮÛĮ": 7921,
      "ĠØ´Ú©ÙĪÙĩ": 7922,
      "ĠÙģÙĪØªØ¨": 7923,
      "ĠÙĪØŃØ´ÛĮ": 7924,
      "Ø³ÙĪØ§Ø±ÛĮ": 7925,
      "Ġyou": 7926,
      "ÙĪØ§Ø±Ø¯": 7927,
      "ĠØªØ¯Ø§Ø±": 7928,
      "ĠØ¢Ø¬Ø±": 7929,
      "ĠÚ©Ø§Ø±Ø¢ÙħØ¯": 7930,
      "ĠØ¨ÛĮÙĨØ¯": 7931,
      "ĠØ¬ÙĩØ§Ø¯ÛĮ": 7932,
      "ĠÙħÙĨØ¸Ø±": 7933,
      "ĠÙ¾ÙĨÛĮØ±": 7934,
      "ĠÚ©ÛĮØ³Øª": 7935,
      "ĠÙĪØ§Ø¨Ø³ØªÚ¯ÛĮ": 7936,
      "ĠØ¢ÙģØ±ÛĮÙĤØ§ÛĮ": 7937,
      "AC": 7938,
      "ÙĩÙĪØ´": 7939,
      "ĠØ´ÙĦ": 7940,
      "ĠÙħÙĨÙĪÛĮ": 7941,
      "arg": 7942,
      "ating": 7943,
      "Ø³Ø±Ù¾Ø±Ø³Øª": 7944,
      "ĠØ¯ÙģØ¹": 7945,
      "ĠÚ©Ø±ÙĪÙħ": 7946,
      "Ù¾Ø±Ø¯Ø§Ø²ÛĮÙħ": 7947,
      "ĠÙģØ±ÛĮØ¯ÙĪÙĨ": 7948,
      "ÙĤØ§ÙĦØ¨": 7949,
      "ĠÙģØ¯": 7950,
      "ĠÛ±Û³Û²": 7951,
      "ĠØ¯ÙĪØ§Ùħ": 7952,
      "ĠÙĨØ¸Ø±Ø³ÙĨØ¬ÛĮ": 7953,
      "ĠÙ¾ÛĮØ´Ø±ÙĪ": 7954,
      "ĠØ¨Ø²Ø±Ú¯Ø§ÙĨ": 7955,
      "ĠØ±ÙĪØ´ÛĮ": 7956,
      "ĠØ±ÙģØªÙĨØ¯": 7957,
      "ĠØ§Ú©Ø³ÛĮ": 7958,
      "Ù¾Ø±Ø¯Ø§Ø²ÛĮ": 7959,
      "ĠØŃÛĮØ§ØªÛĮ": 7960,
      "ĠÚĨØ±Ø®Ùĩ": 7961,
      "ĠØ¬Ø¹ÙģØ±": 7962,
      "ĠÙħØŃØ±ÙĪÙħÛĮØª": 7963,
      "Ø¯ÙĦÛĮÙĦ": 7964,
      "ĠØ§ÙĨØŃØµ": 7965,
      "ÙĪØ±ÛĮØ¯": 7966,
      "ĠÛµÛ±": 7967,
      "Ø±Ø§ÛĮÙħ": 7968,
      "Ø¨Ø±ÛĮÙħ": 7969,
      "ĠAut": 7970,
      "ĠØ´Ú©ÙĦØ§Øª": 7971,
      "Ø¨ÙĪØ±Ø¯": 7972,
      "ĠØªÙĨÛĮ": 7973,
      "Ù¾Ø§ÛĮÙĩ": 7974,
      "ĠØ§Ø¹ØµØ§Ø¨": 7975,
      "ĠÛµÛ¹": 7976,
      "Ø¯Ø§ÙĪÙĦ": 7977,
      "ĠØ®ÛĮØ§Ø¨Ø§ÙĨÛĮ": 7978,
      "ĠØ¨Ø¯ÙĨØ³Ø§Ø²ÛĮ": 7979,
      "ÙĪØªØ±Ø§Ù¾ÛĮ": 7980,
      "ĠÙĨØ§Ø±Ø§ØŃØª": 7981,
      "ĠÛ³Û¶Û°": 7982,
      "com": 7983,
      "ron": 7984,
      "ÛĮØ§Ø¨": 7985,
      "ØªØ±ÙĩØ§ÛĮ": 7986,
      "ĠØªØ§Ú©": 7987,
      "ĠØ±ÛĮÙĦÛĮ": 7988,
      "ens": 7989,
      "ĠØªØ§Ø«ÛĮØ±Ú¯Ø°Ø§Ø±": 7990,
      "ĠÙģØ±Ø§Ú¯ÛĮØ±": 7991,
      "ĠØªØ±Ø§Ú©ØªÙĪØ±Ø³Ø§Ø²ÛĮ": 7992,
      "rap": 7993,
      "ĠØ¯Ø´Øª": 7994,
      "ĠÙĪÚ©ÙĦ": 7995,
      "Ù¾ÙĪ": 7996,
      "ÛĮÙħÙĩ": 7997,
      "ĠØ´Ø¯Ú¯Ø§ÙĨ": 7998,
      "ĠÙħØ¹Ø§Ø±Ùģ": 7999,
      "Ø§Ø¬Ø§": 8000,
      "ĠGoogle": 8001,
      "ĠÚĺÙĦ": 8002,
      "ĠØ§Ú©ØªØ´": 8003,
      "ÙģØ±ÙĩÙĨÚ¯": 8004,
      "Ù¾ÙĪØ²Ø§ÙĦ": 8005,
      "ĠÙ¾Ø±ÙĩÛĮØ²": 8006,
      "ĠØ±Ø§Ø¨": 8007,
      "ÛĮØªØ§ÙĨ": 8008,
      "ĠØ§ØŃÛĮØ§ÛĮ": 8009,
      "ĠÙ¾Ø±Ø³ØªØ§Ø±ÛĮ": 8010,
      "Ġ@": 8011,
      "ÙħÙĪÙĨÛĮ": 8012,
      "Ø§Ø±Ø´ÛĮ": 8013,
      "Ù¾ÙĪØ±Øª": 8014,
      "ÙĪØ²Ø§Ø±Øª": 8015,
      "ĠÙħØªØ£Ø³ÙģØ§ÙĨÙĩ": 8016,
      "ĠØ¯Ø§ÙĨÙĦÙĪØ¯ÛĮ": 8017,
      "ØŁÂ»": 8018,
      "ĠÙĨØ¯Ø§Ø´ØªÙĨ": 8019,
      "AL": 8020,
      "ÙĪØ§Ø¨Ø·": 8021,
      "ĠØ¨Ø¨Ø±Ø¯": 8022,
      "ĠØªÙĪÛĮÛĮ": 8023,
      "ĠØ®Ø¨": 8024,
      "ĠÙģÙĪÙħ": 8025,
      "ØŃÙħ": 8026,
      "ĠØ§Ø¨ÙĨ": 8027,
      "ĠSy": 8028,
      "ĠÙĦÛĮØ²": 8029,
      "ĠÙĤØ·Ø±Ùĩ": 8030,
      "ĠØªØ±Ú©ÛĮØ¨Ø§Øª": 8031,
      "Ġthis": 8032,
      "ĠÙĪØ§Ú©Ø³ÙĨ": 8033,
      "ÙĨØ§Ùģ": 8034,
      "Ú¯Ø§Ø²": 8035,
      "ĠØ¨Ø±Ø¹ÙĩØ¯Ùĩ": 8036,
      "ÙĪÙĨÛĮÚ©": 8037,
      "ĠÙħØŃØ¯": 8038,
      "Ø«Ùĩ": 8039,
      "ĠÙħØ³Ú©ÙĪ": 8040,
      "ĠØ¯ÙĪØ§Ø²Ø¯ÙĩÙħ": 8041,
      "Û±Û³Û¹Û´": 8042,
      "ĠÙħØ¯Ø§Ø±Ø¨Ø³ØªÙĩ": 8043,
      "ialis": 8044,
      "ĠØ¯Ø±Ø§ÛĮÙĪØ±": 8045,
      "Â·": 8046,
      "ĠÚ©ÙĪÛĮ": 8047,
      "ĠÙĨØªÙĪØ§ÙĨ": 8048,
      "ĠÙģØ±ÙĨÚ¯ÛĮ": 8049,
      "ĠØªÙĨÙģØ³ÛĮ": 8050,
      "Ø§Ø«Ø±": 8051,
      "ĠÙħÙĩØ±Ùĩ": 8052,
      "ÙħØŃØ§ÙĦ": 8053,
      "ĠØ¬Ø°Ø§Ø¨ÛĮØª": 8054,
      "ĠÙĤÛĮØ§Ùħ": 8055,
      "ĠØ§ÙĦØ²Ø§ÙħÛĮ": 8056,
      "ĠØ§ÙħÙĪØ§Ø¬": 8057,
      "iew": 8058,
      "Ġhe": 8059,
      "ĠØ¨Ø±ÙĪØ¬": 8060,
      "Ø³ÙĦØ§ÙħØª": 8061,
      "ÙħØ¬Ø§Ø²": 8062,
      "ĠØ·Ø±Ø§ØŃØ§ÙĨ": 8063,
      "ĠÚ©Ø§Ø±Ø¯Ø§ÙĨÛĮ": 8064,
      "Ø¬Ø¯ÛĮØ¯ØªØ±ÛĮÙĨ": 8065,
      "ĠØ´ÛĮØ¹ÛĮØ§ÙĨ": 8066,
      "mp": 8067,
      "ĠÚ©Ø³": 8068,
      "ĠØ§Ø³ØªØ§Ø¯ÛĮ": 8069,
      "ĠÙħØ¹Ø§Ø¯": 8070,
      "ĠÙĨØ¸Ø§ÙģØª": 8071,
      "ĠÙ¾ÛĮØ´Ú©Ø³ÙĪØª": 8072,
      "ĠØ¨Ø§Ø²ÛĮØ§Ø¨ÛĮ": 8073,
      "ĠØ³Ø§Ø²Ú¯Ø§Ø±": 8074,
      "ĠØ´Ú©ÙĦÛĮ": 8075,
      "ĠØ¹Ø¯Ø¯ÛĮ": 8076,
      "ĠÚ©Ø´Ø§ÙĪØ±Ø²Ø§ÙĨ": 8077,
      "ĠØ¢Ù¾ÙĦÙĪØ¯": 8078,
      "ĠØ¯ÙĨØ¯Ø§ÙĨÙ¾Ø²Ø´Ú©ÛĮ": 8079,
      "ĠØ±ÙģØªØ§Ø±ÙĩØ§ÛĮ": 8080,
      "ĠØ¯Ø±Ø®ØªØ§ÙĨ": 8081,
      "ĠØ²ÛĮØªÙĪÙĨ": 8082,
      "ĠÙħÛĮÙĨ": 8083,
      "ĠÙħÛĮØ«": 8084,
      "ÙĪØ±Ø²Ø´": 8085,
      "ĠÙħØ·ÙĩØ±": 8086,
      "ÙĦÙĪØª": 8087,
      "ĠØªØ±Ø®ÛĮØµ": 8088,
      "ild": 8089,
      "ĠØ±ÙĪØ´ÙĨØ§ÛĮÛĮ": 8090,
      "ĠØ¨Ø±ÙĨØ¯ÙĩØ§ÛĮ": 8091,
      "ĠÙħØŃØ¨ÙĪØ¨ÛĮØª": 8092,
      "ĠÙħØ§ÙĨÛĮØªÙĪØ±": 8093,
      "ĠØ§ØŃØªÛĮØ§Ø¬": 8094,
      "amsung": 8095,
      "ĠØ¨Ø±ÛĮØ²ÛĮØ¯": 8096,
      "ĠÙĨÚ¯Ø±Ø´": 8097,
      "Ø§ÙĨØ¬Ø§Ùħ": 8098,
      "ĠÙ¾Ú©": 8099,
      "ØªÙĩÛĮ": 8100,
      "Ú¯Ø±Ø§Ùĩ": 8101,
      "ĠÙģØ±Ø§Ø²": 8102,
      "ĠØ´ÙħØ³ÛĮ": 8103,
      "ĠÙħØªØ¹ÙĩØ¯": 8104,
      "ĠCl": 8105,
      "ÙħÙĪÙħÛĮ": 8106,
      "Ú©Ø¯Ø®Ø¨Ø±": 8107,
      "ĠÙĨÚ©Ø§ØªÛĮ": 8108,
      "ĠØ³ÙĦØ·Ø§ÙĨ": 8109,
      "ĠØ¨Ø³ØªÙĨ": 8110,
      "ĠØ¨Ø§Ø¨Ú©": 8111,
      "ĠÙħØ³ÛĮØŃ": 8112,
      "ĠØ¬Ø§Ø¨Ø¬Ø§ÛĮÛĮ": 8113,
      "ÙħÙĨØ¸ÙĪØ±": 8114,
      "ĠÚ©Ø§Ùģ": 8115,
      "ĠÙĦØ§": 8116,
      "ĠÙģØ±Ø§Ú©": 8117,
      "ĠØºØ¯ÛĮØ±": 8118,
      "ĠÙĨÙħÙĪØ¯ÙĨØ¯": 8119,
      "ØŃØ§ÙĦØ§": 8120,
      "ĠÙĨØ§Ø±Ø§ØŃØªÛĮ": 8121,
      "aster": 8122,
      "Ø´Ø¨Ú©Ùĩ": 8123,
      "ÙĤØ§Ø¨ÙĦÛĮØª": 8124,
      "ĠØ¨Ø¯Ø±": 8125,
      "Ø¬Ø´ÙĨ": 8126,
      "Ø§Ø¬ØªÙħ": 8127,
      "ĠÛ¶Û²": 8128,
      "ĠAm": 8129,
      "Û±Û³Û¸": 8130,
      "ĠØ·Ø±ÙģØ¯Ø§Ø±": 8131,
      "ĠØ®ØµÙĪØµÛĮØ§Øª": 8132,
      "ĠØ¨Ø§Ø³ØªØ§ÙĨÛĮ": 8133,
      "ĠÚ¯ÙĪÛĮØ§": 8134,
      "ĠÛ·Û´": 8135,
      "ĠØªÙĩØ±Ø§ÙĨÛĮ": 8136,
      "Ø£ÙĦÙĩ": 8137,
      "ĠBy": 8138,
      "ĠÙĨØµÙģ": 8139,
      "ĠØ±ÙĪÙĨØ§ÙĦØ¯ÙĪ": 8140,
      "ĠØ´ÙģØ§ÙģÛĮØª": 8141,
      "ll": 8142,
      "ÙħØ³Øª": 8143,
      "Ø§ÛĮÙĪÙĨ": 8144,
      "Ø§Ø¯ÛĮØ±": 8145,
      "Ø¬ÙĪØ±ÛĮ": 8146,
      "Ø±ÙĪÚ©": 8147,
      "ØªÛĮØ´ÙĨ": 8148,
      "ĠÙĨÙĤØµ": 8149,
      "ĠPDF": 8150,
      "ĠFl": 8151,
      "ĠÛ±Û³Û°": 8152,
      "ĠØ§Ø³Ù¾ÛĮÚ©Ø±": 8153,
      "ĠÙħØ¬Ø§ÙĩØ¯ÛĮÙĨ": 8154,
      "ĠØ¨Ø¨Ø±ÙĨØ¯": 8155,
      "ÛĮØ¯ÙĨØ¯": 8156,
      "Ú©ÙĨØ§Ø±": 8157,
      "ĠØªÙĪØª": 8158,
      "ĠÙħØ´ÙĪØ±Øª": 8159,
      "ĠØ¨Ø§Ø²ÛĮØ§ÙģØª": 8160,
      "ĠØ¬Ø§ÙĨØ´ÛĮÙĨ": 8161,
      "ÙĨÙħØ§ÛĮÙĨØ¯": 8162,
      "ĠÙĤØ¨ÙĪÙĦÛĮ": 8163,
      "ĠØ±ÙĪØ³ØªØ§ÙĩØ§": 8164,
      "ĠØµÙĪØ±ØªÛĮÚ©Ùĩ": 8165,
      "udio": 8166,
      "ØŃØ¶ÙĪØ±": 8167,
      "ÙĦØ·ÙģØ§": 8168,
      "OL": 8169,
      "Ú©Ø§ØªÙĪØ±": 8170,
      "ĠØ±ÛĮÙĩ": 8171,
      "ĠØ¨Ø±ÙĨ": 8172,
      "ĠÙģØ³Øª": 8173,
      "ĠÙħØŃØ±": 8174,
      "ĠØ§ÙĦÚ©": 8175,
      "ĠÙħØ¬ØªØ¨ÛĮ": 8176,
      "ĠÙĩØ³ØªØ´": 8177,
      "ØªØ¨ÙĦÛĮØº": 8178,
      "Ø¬ÙħÙĦÙĩ": 8179,
      "ĠÙĨØŃÙĪÛĮ": 8180,
      "ĠØ¹Ø¨Ø§Ø³ÛĮ": 8181,
      "ĠØ±ÛĮØ´": 8182,
      "Ø§ÙĩØª": 8183,
      "ĠØ¹Ø§Ø±": 8184,
      "ĠØ§Ø¨ÙĪØ§ÙĦ": 8185,
      "ĠØªØ±ÙĪØ±": 8186,
      "ĠÙħÚ©ØªØ¨": 8187,
      "ĠÛ³ÛµÛ°": 8188,
      "ĠÙħØ·Ø¨ÙĪØ¹Ø§Øª": 8189,
      "AF": 8190,
      "ri": 8191,
      "ØªØ¯": 8192,
      "Ú©Ø§Ø³": 8193,
      "Ø§ÙĨÙĪØ³": 8194,
      "ĠØ¯ÙĦÛĮÙĦÛĮ": 8195,
      "ĠÙĦØ§ÙħÙ¾": 8196,
      "arm": 8197,
      "ĠÙĤØ¶ÛĮÙĩ": 8198,
      "SS": 8199,
      "ĠÙĨÚ¯Ø±ÙģØªÙĩ": 8200,
      "ĠØ³Ø§ÙĨØ¯": 8201,
      "Ø¬Ø§Ø±ÛĮ": 8202,
      "Ø§Ø¨Ø²Ø§Ø±": 8203,
      "ĠÙĩÙħÛĮØ´": 8204,
      "ĠÙħØªÙĪÙĦÛĮ": 8205,
      "ĠØ¹ÙħÙĦØ§": 8206,
      "ĠÙħØµØ§Ùģ": 8207,
      "ĠÙĦÛĮØªØ±ÛĮ": 8208,
      "Ġmp": 8209,
      "ĠØ³Ú©ÙĪÙĨØª": 8210,
      "ÙħØ±Ø¯Ùħ": 8211,
      "ĠÛĮØ¯Ú©ÛĮ": 8212,
      "du": 8213,
      "ĠØ¨ÙĪÙħ": 8214,
      "ĠÙħÙģØª": 8215,
      "ĠØ³ÙħÙ¾": 8216,
      "ĠÙĤØ´Ø±": 8217,
      "ÙĦÙģÙĦ": 8218,
      "ÛĮÙģØ§": 8219,
      "ĠÙ¾Ø±Ø§Ú©": 8220,
      "ÙħÙĪØ§Ø¯": 8221,
      "ĠØ´ÛĮØ§Ø¦ÙĪÙħÛĮ": 8222,
      "ĠÙħÙĩØ±ÙħØ§Ùĩ": 8223,
      "ĠÛ±Û¹Û´": 8224,
      "ĠØ³Ø¹Ø§Ø¯Øª": 8225,
      "Ø´Ø§ÛĮ": 8226,
      "ÙĤØ¨ÙĦ": 8227,
      "ĠÙ¾ÛĮØª": 8228,
      "Ø§Ø³Ø±": 8229,
      "ĠÙħÙĨØ§Ø²ÙĦ": 8230,
      "Ø§ÙĨÛĮØ§ÛĮÛĮ": 8231,
      "ĠÙĪÛĮØ²Ø§": 8232,
      "ana": 8233,
      "ĠØ±ÙģØªÙħ": 8234,
      "ĠHP": 8235,
      "ĠÙĪØ³ÛĮØ¹": 8236,
      "ĠÙ¾Ø¯Ø±Ø´": 8237,
      "ĠÙħÙħÙĨÙĪØ¹ÛĮØª": 8238,
      "Ph": 8239,
      "ÙĩØ¯Ùģ": 8240,
      "ĠØ¯Ø±Ø´Øª": 8241,
      "ĠØ¨Ø±Ú¯Ùĩ": 8242,
      "ÙħØ±Ø§Ø³Ùħ": 8243,
      "ĠØ±ÙĪØ§ÙĨÙĩ": 8244,
      "ĠØ§ØªØµØ§ÙĦØ§Øª": 8245,
      "ĠÚ©Ø§Ø¨ÛĮÙĨØª": 8246,
      "ĠØ¢ÙĨØ¯Ø±ÙĪÛĮØ¯": 8247,
      "ĠØ¬Ø§Ø³ÙĪØ³ÛĮ": 8248,
      "ĠÙħØºÙĨØ§Ø·ÛĮØ³ÛĮ": 8249,
      "ÙĨØªÛĮØ¬Ùĩ": 8250,
      "Ø³Ø§Ø¨ÙĤÙĩ": 8251,
      "ĠÚ©Ø§Ø´ÛĮ": 8252,
      "ĠØªØ§ÛĮÙħ": 8253,
      "ĠØ³ÙĦØ³": 8254,
      "ĠØ§ÛĮØ²ÙĪ": 8255,
      "ĠØ§Ø³ØªÚ©": 8256,
      "ĠØ²Ø§ÙĩØ¯": 8257,
      "ĠØºÙĦØª": 8258,
      "ĠØªØ¹Ø¬Ø¨": 8259,
      "eng": 8260,
      "ĠØŃÙģØ§Ø±ÛĮ": 8261,
      "ĠØ¨ÙĨÛĮØ§Ø¯ÛĮ": 8262,
      "ĠØ´Ø§ÛĮØ¹Ùĩ": 8263,
      "ĠÙĨØ§Ø¯ÛĮØ¯Ùĩ": 8264,
      "EL": 8265,
      "ĠØ¯Ø§ÛĮÛĮ": 8266,
      "ĠØ¢ÙĪØ§Ø²": 8267,
      "ĠÙģØ±ÛĮØ¨": 8268,
      "ĠØ¹Ø§Ùħ": 8269,
      "ĠÙĤØ±Ø§Ø¦": 8270,
      "ĠØ¶ÙĪØ§Ø¨Ø·": 8271,
      "ĠØ®ÙĪØ¯Ø±ÙĪØ³Ø§Ø²Ø§ÙĨ": 8272,
      "ĠØªØ¶ÙħÛĮÙĨÛĮ": 8273,
      "ĠØ¨Ú¯": 8274,
      "ĠØ¯Ø±ØŃØ§ÙĦ": 8275,
      "ĠØ¨Ø±Ø§Ø¨Ø±ÛĮ": 8276,
      "ĠØ¬ÙĪÙĦØ§ÛĮ": 8277,
      "ĠØŃÛĮØ¯Ø±ÛĮ": 8278,
      "ĠØ§ÙĤÛĮ": 8279,
      "Ø¸Øª": 8280,
      "ĠÙĦØ¨Ùĩ": 8281,
      "ĠØ®Ø±ÛĮØ¯Ø§Ø±": 8282,
      "Ø§Ø¶ØŃ": 8283,
      "ĠÙħÛĮÙĦÛĮÙĪÙĨÛĮ": 8284,
      "ener": 8285,
      "ĠØ®ØµÙĪØµØ§": 8286,
      "ĠÛ±Û³Û¸Û¶": 8287,
      "Ø±Ø§ÙĦ": 8288,
      "ØªÛĮÙĨ": 8289,
      "ĠØ³Ø§ÛĮØ¯": 8290,
      "Ø§ÙĨÛĮØ§ÙĨ": 8291,
      "Ø§ØŃØ¸Ùĩ": 8292,
      "ÙĩÙĨÚ¯Ø§Ùħ": 8293,
      "ÙģÙĤØ·": 8294,
      "ĠØ³ÙģØ±ÙĩØ§ÛĮ": 8295,
      "ÙĪØ§Ú©ÙĨØ´": 8296,
      "ĠÙĤØ±Ø§Ø±Ø¯Ø§Ø¯ÙĩØ§ÛĮ": 8297,
      "ĠØ§ÙģØªØªØ§ØŃÛĮÙĩ": 8298,
      "ĠØ³Ø±Ú©ÙĪØ¨": 8299,
      "ĠÙĩÙħØ¯ÙĦÛĮ": 8300,
      "RE": 8301,
      "ÙĨÙĪØ±": 8302,
      "ĠØ¯Ø§": 8303,
[...]
