{
  "version": "1.0",
  "truncation": null,
  "padding": null,
  "added_tokens": [
    {
      "id": 0,
      "content": "<cls>",
      "single_word": false,
      "lstrip": false,
      "rstrip": false,
      "normalized": false,
      "special": true
    },
    {
      "id": 1,
      "content": "<sep>",
      "single_word": false,
      "lstrip": false,
      "rstrip": false,
      "normalized": false,
      "special": true
    },
    {
      "id": 2,
      "content": "<unk>",
      "single_word": false,
      "lstrip": false,
      "rstrip": false,
      "normalized": false,
      "special": true
    },
    {
      "id": 3,
      "content": "<pad>",
      "single_word": false,
      "lstrip": false,
      "rstrip": false,
      "normalized": false,
      "special": true
    },
    {
      "id": 4,
      "content": "<mask>",
      "single_word": false,
      "lstrip": false,
      "rstrip": false,
      "normalized": false,
      "special": true
    },
    {
      "id": 5,
      "content": "<s>",
      "single_word": false,
      "lstrip": false,
      "rstrip": false,
      "normalized": false,
      "special": true
    },
    {
      "id": 6,
      "content": "</s>",
      "single_word": false,
      "lstrip": false,
      "rstrip": false,
      "normalized": false,
      "special": true
    }
  ],
  "normalizer": {
    "type": "Sequence",
    "normalizers": [
      {
        "type": "NFKD"
      },
      {
        "type": "StripAccents"
      }
    ]
  },
  "pre_tokenizer": {
    "type": "Metaspace",
    "replacement": "▁",
    "add_prefix_space": true,
    "prepend_scheme": "always"
  },
  "post_processor": null,
  "decoder": null,
  "model": {
    "type": "Unigram",
    "unk_id": 2,
    "vocab": [
      [
        "<cls>",
        0.0
      ],
      [
        "<sep>",
        0.0
      ],
      [
        "<unk>",
        0.0
      ],
      [
        "<pad>",
        0.0
      ],
      [
        "<mask>",
        0.0
      ],
      [
        "<s>",
        0.0
      ],
      [
        "</s>",
        0.0
      ],
      [
        "▁و",
        -3.4491719393620723
      ],
      [
        "\n",
        -3.7193338904841102
      ],
      [
        "▁در",
        -3.844628343290033
      ],
      [
        "▁به",
        -4.0687912608879735
      ],
      [
        "ی",
        -4.080265358038885
      ],
      [
        "▁از",
        -4.214621958253627
      ],
      [
        "،",
        -4.243483225585864
      ],
      [
        "▁",
        -4.347956829269345
      ],
      [
        "▁که",
        -4.645390514468307
      ],
      [
        "▁با",
        -4.666873075071942
      ],
      [
        "▁را",
        -4.734676561948023
      ],
      [
        "▁این",
        -4.778129578064355
      ],
      [
        "▁می",
        -5.148627069447301
      ],
      [
        "▁های",
        -5.23710797078113
      ],
      [
        "▁برای",
        -5.361143528552052
      ],
      [
        "▁است",
        -5.416773868560664
      ],
      [
        ".",
        -5.438055754314993
      ],
      [
        "▁-",
        -5.576759397622302
      ],
      [
        ",",
        -5.577673699980316
      ],
      [
        "ه",
        -5.578243870463773
      ],
      [
        "و",
        -5.721054539857777
      ],
      [
        "▁ان",
        -5.755818234275017
      ],
      [
        ":",
        -5.770108995001708
      ],
      [
        "ي",
        -5.820260412878149
      ],
      [
        ")",
        -5.85612945341161
      ],
      [
        "▁یک",
        -5.874468916994122
      ],
      [
        "‌",
        -5.880285382968246
      ],
      [
        "▁ها",
        -5.897617778392199
      ],
      [
        "▁شده",
        -5.901440449012814
      ],
      [
        "م",
        -5.937004096166673
      ],
      [
        "▁است.",
        -5.9798786560818815
      ],
      [
        "▁بر",
        -6.0430066638417745
      ],
      [
        "▁تا",
        -6.046383127647815
      ],
      [
        "▁خود",
        -6.104266263134111
      ],
      [
        "▁(",
        -6.107025396977981
      ],
      [
        "-",
        -6.165249525814481
      ],
      [
        "▁دانلود",
        -6.169274864199599
      ],
      [
        "▁هم",
        -6.204801086941252
      ],
      [
        "ش",
        -6.220712791993295
      ],
      [
        "ا",
        -6.259129339693082
      ],
      [
        "▁:",
        -6.278241107003856
      ],
      [
        "▁|",
        -6.330909999548613
      ],
      [
        "▁سال",
        -6.373710985242223
      ],
      [
        "▁ای",
        -6.37553303548245
      ],
      [
        "‌های",
        -6.391223715459832
      ],
      [
        "▁یا",
        -6.392934239957823
      ],
      [
        "▁ایران",
        -6.394598406776698
      ],
      [
        "د",
        -6.442279967915322
      ],
      [
        "ان",
        -6.442451149600414
      ],
      [
        "▁.",
        -6.476611286654434
      ],
      [
        "ن",
        -6.484060058930723
      ],
      [
        "▁شما",
        -6.490560818118087
      ],
      [
        "ت",
        -6.493568273233386
      ],
      [
        "▁ما",
        -6.501554467407139
      ],
      [
        "ر",
        -6.580874277697317
      ],
      [
        "...",
        -6.603927077626281
      ],
      [
        "های",
        -6.6040129847148545
      ],
      [
        "/",
        -6.604115568958834
      ],
      [
        "▁...",
        -6.608015673165662
      ],
      [
        "▁استفاده",
        -6.627184833142936
      ],
      [
        "▁کار",
        -6.662977318698655
      ],
      [
        "▁هر",
        -6.6982873708388695
      ],
      [
        "▁,",
        -6.700052759053953
      ],
      [
        "▁من",
        -6.7367523902910715
      ],
      [
        "▁دو",
        -6.73849371302579
      ],
      [
        "»",
        -6.756251706709913
      ],
      [
        "▁روز",
        -6.76001947921554
      ],
      [
        "▁باید",
        -6.7749366010636365
      ],
      [
        "‌ها",
        -6.7874356399063505
      ],
      [
        "▁نیز",
        -6.806255017649793
      ],
      [
        "▁مورد",
        -6.812576580084812
      ],
      [
        "ها",
        -6.816967682176585
      ],
      [
        "▁اما",
        -6.821975313581742
      ],
      [
        "▁قرار",
        -6.8242976721309585
      ],
      [
        "▁جدید",
        -6.852274994969921
      ],
      [
        "▁کشور",
        -6.864596932266087
      ],
      [
        "▁شد",
        -6.888187629749151
      ],
      [
        "▁«",
        -6.893105509878218
      ],
      [
        "▁شرکت",
        -6.911464116236525
      ],
      [
        "▁او",
        -6.918414803481534
      ],
      [
        "▁صورت",
        -6.919707721513996
      ],
      [
        "▁قیمت",
        -6.921073195585569
      ],
      [
        "ک",
        -6.928049524046035
      ],
      [
        "▁رو",
        -6.939493449311813
      ],
      [
        "▁فیلم",
        -6.946290812280031
      ],
      [
        "▁بود",
        -6.983175652237385
      ],
      [
        "▁سایت",
        -6.985083406278806
      ],
      [
        "▁بازی",
        -6.990040813309596
      ],
      [
        "s",
        -6.998012897879141
      ],
      [
        "▁اموزش",
        -6.99958879280641
      ],
      [
        "▁کرده",
        -7.0126168355568055
      ],
      [
        "▁اهنگ",
        -7.012618378495571
      ],
      [
        "ى",
        -7.023047787143582
      ],
      [
        "▁نام",
        -7.025019829456248
      ],
      [
        "▁خرید",
        -7.057927692374536
      ],
      [
        "▁نظر",
        -7.071751500628444
      ],
      [
        "▁شود",
        -7.095096555939106
      ],
      [
        "▁اگر",
        -7.0999891064453475
      ],
      [
        "▁دیگر",
        -7.112609829924754
      ],
      [
        "▁فروش",
        -7.114618277243952
      ],
      [
        "▁انجام",
        -7.119986532619466
      ],
      [
        "▁روی",
        -7.1379786842286865
      ],
      [
        "▁كه",
        -7.1384297745191
      ],
      [
        "▁–",
        -7.147724920353918
      ],
      [
        "▁گزارش",
        -7.154005300294296
      ],
      [
        "▁وجود",
        -7.155748025933892
      ],
      [
        "ز",
        -7.156227826971531
      ],
      [
        "▁اب",
        -7.165001314744327
      ],
      [
        "▁دست",
        -7.167676982274072
      ],
      [
        "▁پیش",
        -7.168803225195667
      ],
      [
        "▁پس",
        -7.182668458959489
      ],
      [
        "▁کرد",
        -7.188100608728218
      ],
      [
        "▁برنامه",
        -7.202664736250293
      ],
      [
        "▁انها",
        -7.203456005508674
      ],
      [
        "؛",
        -7.205680803941002
      ],
      [
        "▁عنوان",
        -7.215800566029756
      ],
      [
        "▁تهران",
        -7.232077812172644
      ],
      [
        "▁دارد",
        -7.23480045054195
      ],
      [
        "▁تولید",
        -7.236747926330077
      ],
      [
        "▁بین",
        -7.239266265927206
      ],
      [
        "▁مردم",
        -7.24962404088329
      ],
      [
        "▁داشته",
        -7.252257128224127
      ],
      [
        "▁باشد",
        -7.256199009405611
      ],
      [
        "▁گفت:",
        -7.276957211681964
      ],
      [
        "▁همه",
        -7.2778474064911265
      ],
      [
        "▁خواهد",
        -7.287894523825676
      ],
      [
        "▁اين",
        -7.2906851565025725
      ],
      [
        "▁یکی",
        -7.29372012673408
      ],
      [
        "▁کردن",
        -7.296771533991091
      ],
      [
        "▁توسط",
        -7.301396929944138
      ],
      [
        "▁شود.",
        -7.310719678119085
      ],
      [
        "ل",
        -7.314187909852276
      ],
      [
        "▁استان",
        -7.314223559886816
      ],
      [
        "▁ساعت",
        -7.316247499998905
      ],
      [
        "▁سنگ",
        -7.319902534047138
      ],
      [
        "▁چه",
        -7.336446638947983
      ],
      [
        "\t",
        -7.337209969276875
      ],
      [
        "▁بعد",
        -7.343121050072822
      ],
      [
        "▁ماه",
        -7.351302542832961
      ],
      [
        "▁توجه",
        -7.357187780635112
      ],
      [
        "ات",
        -7.35868544754576
      ],
      [
        "▁کتاب",
        -7.363007584594486
      ],
      [
        "▁زمان",
        -7.3659566142151025
      ],
      [
        "▁کنید",
        -7.37222867961027
      ],
      [
        "▁بخش",
        -7.380193084320702
      ],
      [
        "▁اینکه",
        -7.383983008127736
      ],
      [
        "▁بسیار",
        -7.386801256601993
      ],
      [
        "▁بیشتر",
        -7.389138391339943
      ],
      [
        "▁شد.",
        -7.389648609086645
      ],
      [
        "▁تاریخ",
        -7.393760370789282
      ],
      [
        "▁شهر",
        -7.406914697667263
      ],
      [
        "▁بی",
        -7.406945165383698
      ],
      [
        "ب",
        -7.422850102922059
      ],
      [
        "▁داده",
        -7.42399600299094
      ],
      [
        "▁2",
        -7.427393127806981
      ],
      [
        "▁حال",
        -7.433668478618106
      ],
      [
        "▁ادامه",
        -7.435311740508947
      ],
      [
        "▁راه",
        -7.443013092580124
      ],
      [
        "▁دانشگاه",
        -7.446756437708714
      ],
      [
        "▁\"",
        -7.449843873379455
      ],
      [
        "▁ال",
        -7.451034683207501
      ],
      [
        "ین",
        -7.454209126687065
      ],
      [
        "▁سه",
        -7.454585913726223
      ],
      [
        "(",
        -7.46038942104493
      ],
      [
        "▁افزایش",
        -7.469772596063253
      ],
      [
        "▁باشد.",
        -7.477701249334665
      ],
      [
        "\"",
        -7.482242901309533
      ],
      [
        "▁طرح",
        -7.48954520378904
      ],
      [
        "▁مدل",
        -7.491899931880816
      ],
      [
        "▁سازمان",
        -7.492732093782024
      ],
      [
        "▁/",
        -7.499489494950856
      ],
      [
        "▁چند",
        -7.507138487309543
      ],
      [
        "▁اول",
        -7.532235851628098
      ],
      [
        "▁دستگاه",
        -7.53235689018058
      ],
      [
        "▁جهت",
        -7.536340497573825
      ],
      [
        "▁اطلاعات",
        -7.5377178540399346
      ],
      [
        "▁بازار",
        -7.5411106071385134
      ],
      [
        "!",
        -7.541532916571107
      ],
      [
        "▁مي",
        -7.545380055453855
      ],
      [
        "▁دولت",
        -7.548802508415044
      ],
      [
        "▁نمی",
        -7.555328360910826
      ],
      [
        "▁شدن",
        -7.556000802600153
      ],
      [
        "▁کند",
        -7.556437123933023
      ],
      [
        "▁تو",
        -7.559758239027781
      ],
      [
        "▁همراه",
        -7.559835099951695
      ],
      [
        "▁1",
        -7.563622566246941
      ],
      [
        "▁اسلامی",
        -7.567733631813088
      ],
      [
        "▁کد",
        -7.568390489501686
      ],
      [
        "▁سر",
        -7.575230074275121
      ],
      [
        "▁بوده",
        -7.576602650002146
      ],
      [
        "_",
        -7.588655693877312
      ],
      [
        "▁بررسی",
        -7.590697122336092
      ],
      [
        "▁همچنین",
        -7.596023369564707
      ],
      [
        "▁عکس",
        -7.609251181267604
      ],
      [
        "▁حضور",
        -7.621320454710133
      ],
      [
        "▁خبر",
        -7.629269721482592
      ],
      [
        "▁انتخاب",
        -7.630311879479688
      ],
      [
        "؟",
        -7.634744981213643
      ],
      [
        "▁تمام",
        -7.635088475431678
      ],
      [
        "▁گروه",
        -7.639366989561365
      ],
      [
        "▁زیر",
        -7.639556464066571
      ],
      [
        "ند",
        -7.641351890522582
      ],
      [
        "▁قسمت",
        -7.644693699181797
      ],
      [
        "▁قبل",
        -7.646245737801607
      ],
      [
        "▁تیم",
        -7.653992271296573
      ],
      [
        "▁کننده",
        -7.656121758175301
      ],
      [
        "▁صفحه",
        -7.664601842167842
      ],
      [
        "▁خانه",
        -7.667041684507815
      ],
      [
        "▁نرم",
        -7.670381530376023
      ],
      [
        "▁بدون",
        -7.6725032391126895
      ],
      [
        "▁بار",
        -7.674759720676805
      ],
      [
        "▁کرد.",
        -7.674838275701793
      ],
      [
        "▁زندگی",
        -7.675443472028057
      ],
      [
        "س",
        -7.688908303559408
      ],
      [
        "▁است،",
        -7.694912496401576
      ],
      [
        "▁ایجاد",
        -7.696945896115542
      ],
      [
        "▁مختلف",
        -7.702826512794227
      ],
      [
        "▁3",
        -7.703077137478145
      ],
      [
        "▁اعلام",
        -7.705853433640318
      ],
      [
        "▁درباره",
        -7.705899640451387
      ],
      [
        "▁ثبت",
        -7.7062913971512454
      ],
      [
        "▁ملی",
        -7.707583360125502
      ],
      [
        "▁هزار",
        -7.710354317695856
      ],
      [
        "▁امریکا",
        -7.710596596924374
      ],
      [
        "▁دی",
        -7.714295510078548
      ],
      [
        "▁هستند",
        -7.719637818078873
      ],
      [
        "▁امروز",
        -7.722195271550099
      ],
      [
        "▁کند.",
        -7.723766224360231
      ],
      [
        "▁افزار",
        -7.72877421489059
      ],
      [
        "▁طراحی",
        -7.7291934533665145
      ],
      [
        "▁همین",
        -7.7380343261035875
      ],
      [
        "▁باز",
        -7.7407403770566034
      ],
      [
        "▁خدمات",
        -7.747384288488332
      ],
      [
        "▁امام",
        -7.754603330340743
      ],
      [
        "▁گرفته",
        -7.7640086576844745
      ],
      [
        "▁بود.",
        -7.768721781582359
      ],
      [
        "▁ارايه",
        -7.769148388973502
      ],
      [
        "▁دارد.",
        -7.772419220810718
      ],
      [
        "▁کنید.",
        -7.775518176824264
      ],
      [
        "▁بازدید",
        -7.776358497552824
      ],
      [
        "▁روش",
        -7.779741484256329
      ],
      [
        "▁نشان",
        -7.78256190375294
      ],
      [
        "▁خودرو",
        -7.783507567997617
      ],
      [
        "▁ب",
        -7.78789390238037
      ],
      [
        "▁افراد",
        -7.788015460992295
      ],
      [
        "‌ای",
        -7.788417564012255
      ],
      [
        "▁جهان",
        -7.790830458647532
      ],
      [
        "▁نه",
        -7.7950131242897385
      ],
      [
        "▁ولی",
        -7.797155774286535
      ],
      [
        "▁سیستم",
        -7.803696631222273
      ],
      [
        "▁تومان",
        -7.81095495093289
      ],
      [
        "▁کرد:",
        -7.814464242280961
      ],
      [
        "▁بهترین",
        -7.814652249823485
      ],
      [
        "▁انواع",
        -7.815503853363939
      ],
      [
        "▁+",
        -7.815837662312717
      ],
      [
        "▁اشاره",
        -7.817877553855604
      ],
      [
        "▁ازاد",
        -7.817976034368741
      ],
      [
        "▁اصلی",
        -7.818348409372485
      ],
      [
        "▁نیاز",
        -7.820650809203917
      ],
      [
        "▁ساخت",
        -7.826060031427845
      ],
      [
        "▁موضوع",
        -7.8367738913004725
      ],
      [
        "▁مدیریت",
        -7.840234177785623
      ],
      [
        "▁تنها",
        -7.840368558694424
      ],
      [
        "▁زبان",
        -7.841959473309956
      ],
      [
        "▁فارسی",
        -7.841959547506061
      ],
      [
        "▁5",
        -7.842570101085656
      ],
      [
        "▁نیست",
        -7.8428767185194825
      ],
      [
        "▁کاهش",
        -7.843538188965594
      ],
      [
        "▁برخی",
        -7.84866097207094
      ],
      [
        "▁رنگ",
        -7.853458662575266
      ],
      [
        "▁شرایط",
        -7.854816504721198
      ],
      [
        "▁اجتماعی",
        -7.85528632086017
      ],
      [
        "▁دارای",
        -7.855472002429304
      ],
      [
        "▁کل",
        -7.857322358185277
      ],
      [
        "در",
        -7.858656151619513
      ],
      [
        "▁درصد",
        -7.860605673021825
      ],
      [
        "▁پاسخ",
        -7.861614610340647
      ],
      [
        "▁قابل",
        -7.864368090135139
      ],
      [
        "▁10",
        -7.870047971867207
      ],
      [
        "▁پر",
        -7.8724990385188285
      ],
      [
        "ای",
        -7.876902871572144
      ],
      [
        "▁4",
        -7.877560223968322
      ],
      [
        "▁هیچ",
        -7.886092227240924
      ],
      [
        "▁بزرگ",
        -7.888746474684268
      ],
      [
        "▁تر",
        -7.8889995739162
      ],
      [
        "▁کامل",
        -7.889917926737255
      ],
      [
        "▁ريیس",
        -7.898951800715597
      ],
      [
        "▁#",
        -7.902277456557332
      ],
      [
        "▁دلیل",
        -7.903815289135981
      ],
      [
        "2",
        -7.904492630605292
      ],
      [
        "▁کیفیت",
        -7.904833635973446
      ],
      [
        "▁سریال",
        -7.905256676178961
      ],
      [
        "▁گذشته",
        -7.90543514367166
      ],
      [
        "▁کمک",
        -7.905745372940135
      ],
      [
        "▁نوع",
        -7.907382125503766
      ],
      [
        "▁علی",
        -7.915110295962229
      ],
      [
        "▁تعداد",
        -7.916505246416628
      ],
      [
        "▁بالا",
        -7.918403655823925
      ],
      [
        "▁مواد",
        -7.9231378242920645
      ],
      [
        "▁نمایش",
        -7.923698129996316
      ],
      [
        "▁دوم",
        -7.925703266500296
      ],
      [
        "▁پایان",
        -7.9280980783539725
      ],
      [
        "▁S",
        -7.9400139228828674
      ],
      [
        "▁نفر",
        -7.940053834961157
      ],
      [
        "▁اس",
        -7.941368766506734
      ],
      [
        "▁نسبت",
        -7.945126741009364
      ],
      [
        "▁»",
        -7.94680838537033
      ],
      [
        "▁کنند",
        -7.947514239375311
      ],
      [
        "▁خیلی",
        -7.947989383093072
      ],
      [
        "▁منطقه",
        -7.956854738856835
      ],
      [
        "▁دوره",
        -7.961014282404122
      ],
      [
        "▁مهم",
        -7.962966586815583
      ],
      [
        "▁شبکه",
        -7.970601496013067
      ],
      [
        "▁بیان",
        -7.9708637535550615
      ],
      [
        "▁لینک",
        -7.972559447449738
      ],
      [
        "▁مناسب",
        -7.976119375913152
      ],
      [
        "▁گوشی",
        -7.977048999941427
      ],
      [
        "▁رایگان",
        -7.977813115956048
      ],
      [
        "▁ترین",
        -7.978867207607607
      ],
      [
        "▁توسعه",
        -7.982488982675623
      ],
      [
        "▁محصولات",
        -7.994215182707361
      ],
      [
        "▁غیر",
        -7.998932847870348
      ],
      [
        "▁مجلس",
        -8.001989116320335
      ],
      [
        "▁سازی",
        -8.003970593599158
      ],
      [
        "▁A",
        -8.004070604385891
      ],
      [
        "▁وارد",
        -8.004607726325592
      ],
      [
        "▁محمد",
        -8.005201418375776
      ],
      [
        "تر",
        -8.022580367598428
      ],
      [
        "▁کم",
        -8.022814666737919
      ],
      [
        "▁باعث",
        -8.024644925598983
      ],
      [
        "▁اخبار",
        -8.024667050359865
      ],
      [
        "▁مصرف",
        -8.025320750256208
      ],
      [
        "▁بانک",
        -8.025734793810402
      ],
      [
        "”",
        -8.025825360361278
      ],
      [
        "▁فایل",
        -8.027880828222573
      ],
      [
        "▁هفته",
        -8.030708041269964
      ],
      [
        "▁گل",
        -8.037348460912856
      ],
      [
        "▁ماشین",
        -8.041717284260448
      ],
      [
        "▁ویژه",
        -8.044002334720808
      ],
      [
        "از",
        -8.048425942317577
      ],
      [
        "▁فقط",
        -8.049636456432586
      ],
      [
        "▁بیش",
        -8.05131959634218
      ],
      [
        "▁جامعه",
        -8.053490599181693
      ],
      [
        "ف",
        -8.053548431687615
      ],
      [
        "▁پی",
        -8.054957139757452
      ],
      [
        "▁زمینه",
        -8.057156935355078
      ],
      [
        ";",
        -8.057696482047197
      ],
      [
        "▁دریافت",
        -8.059460889529518
      ],
      [
        "▁درمان",
        -8.059898969460459
      ],
      [
        "▁عمومی",
        -8.065819456386757
      ],
      [
        "▁حوزه",
        -8.068282319253823
      ],
      [
        "▁می‌شود",
        -8.068653194478333
      ],
      [
        "▁ایرانی",
        -8.068855899894164
      ],
      [
        "▁نامه",
        -8.06948339124336
      ],
      [
        "▁لوازم",
        -8.071701686111599
      ],
      [
        "▁مشاهده",
        -8.076352773714216
      ],
      [
        "▁گفت",
        -8.076371193278133
      ],
      [
        "▁توان",
        -8.076389535561773
      ],
      [
        "▁مانند",
        -8.079935608532914
      ],
      [
        "▁اقتصادی",
        -8.082272649261796
      ],
      [
        "▁دارند",
        -8.084234287849046
      ],
      [
        "1",
        -8.084985052305882
      ],
      [
        "▁مهر",
        -8.08858955644193
      ],
      [
        "▁کنند.",
        -8.091510384182616
      ],
      [
        "▁شکن",
        -8.091853953914931
      ],
      [
        "▁داد",
        -8.092088755505687
      ],
      [
        "▁معرفی",
        -8.094861148298834
      ],
      [
        "▁حتی",
        -8.095815249331112
      ],
      [
        "▁ام",
        -8.09737467132708
      ],
      [
        "▁خوب",
        -8.101988031742652
      ],
      [
        "▁انقلاب",
        -8.102768266594934
      ],
      [
        "ە",
        -8.103722968648338
      ],
      [
        "▁هاي",
        -8.104025989367651
      ],
      [
        "▁ارسال",
        -8.106740719196798
      ],
      [
        "▁برگزار",
        -8.113421972713518
      ],
      [
        "ال",
        -8.120395654488753
      ],
      [
        "▁کالا",
        -8.125673003658957
      ],
      [
        "d",
        -8.125925486999448
      ],
      [
        "▁مرکز",
        -8.12873882155229
      ],
      [
        "▁شورای",
        -8.132858316723409
      ],
      [
        "▁کودک",
        -8.135961922496891
      ],
      [
        "▁فصل",
        -8.13831909592486
      ],
      [
        "▁زیادی",
        -8.143962023626543
      ],
      [
        "▁اند",
        -8.147932659995218
      ],
      [
        "▁موبایل",
        -8.148513085176464
      ],
      [
        "▁طور",
        -8.148735192447043
      ],
      [
        "شان",
        -8.149659964284474
      ],
      [
        "3",
        -8.149968392741943
      ],
      [
        "▁میان",
        -8.15125757400669
      ],
      [
        "▁میلیون",
        -8.152173416632003
      ],
      [
        "ك",
        -8.152976119247446
      ],
      [
        "▁انلاین",
        -8.156426870597747
      ],
      [
        "▁مقاله",
        -8.156998552626575
      ],
      [
        "▁شماره",
        -8.15714962282194
      ],
      [
        "▁of",
        -8.160482786901971
      ],
      [
        "▁نقل",
        -8.161877114725305
      ],
      [
        "▁تغییر",
        -8.162316662302393
      ],
      [
        "▁اغاز",
        -8.162902942847909
      ],
      [
        "▁دکتر",
        -8.163409238227874
      ],
      [
        "▁8",
        -8.16404405727606
      ],
      [
        "به",
        -8.164821493021007
      ],
      [
        "▁لازم",
        -8.167316125948501
      ],
      [
        "▁سطح",
        -8.170628015799155
      ],
      [
        "▁براي",
        -8.171839765628071
      ],
      [
        "e",
        -8.173831283220343
      ],
      [
        "▁چرا",
        -8.176696913501816
      ],
      [
        "▁نوشته",
        -8.17780046119832
      ],
      [
        "▁دانش",
        -8.17813642461252
      ],
      [
        "▁اساس",
        -8.179707593716682
      ],
      [
        "▁چون",
        -8.180202677815716
      ],
      [
        "▁البته",
        -8.180492031821377
      ],
      [
        "▁وزارت",
        -8.183055562500654
      ],
      [
        "▁سی",
        -8.184659538895449
      ],
      [
        "▁طریق",
        -8.187096516646466
      ],
      [
        "▁6",
        -8.187365964079502
      ],
      [
        "▁قانون",
        -8.18875560688632
      ],
      [
        "▁بودن",
        -8.189823908437868
      ],
      [
        "▁مجموعه",
        -8.190244671362684
      ],
      [
        "▁فعالیت",
        -8.19160131124458
      ],
      [
        "▁نقش",
        -8.192226463858205
      ],
      [
        "▁ممکن",
        -8.19288942679198
      ],
      [
        "▁متن",
        -8.197565722506921
      ],
      [
        "▁پیدا",
        -8.197914204322295
      ],
      [
        "▁میزان",
        -8.19990908994382
      ],
      [
        "▁رشته",
        -8.200365594933544
      ],
      [
        "▁شب",
        -8.20704371542596
      ],
      [
        "▁پروژه",
        -8.209224822739555
      ],
      [
        "تان",
        -8.210988245439546
      ],
      [
        "]",
        -8.211103539844798
      ],
      [
        "▁شهرستان",
        -8.212614695583197
      ],
      [
        "▁کسب",
        -8.213666453082954
      ],
      [
        "▁موجود",
        -8.21573593169784
      ],
      [
        "▁جهانی",
        -8.216280904106322
      ],
      [
        "▁مطلب",
        -8.222174971501737
      ],
      [
        "▁علوم",
        -8.222907533464346
      ],
      [
        "▁شنبه",
        -8.22910468654836
      ],
      [
        "▁اخرین",
        -8.231834163570108
      ],
      [
        "▁جمله",
        -8.240930236295995
      ],
      [
        "▁اولین",
        -8.241646299842763
      ],
      [
        "▁حقوق",
        -8.241922145034978
      ],
      [
        "▁امکان",
        -8.243502436249388
      ],
      [
        "▁پرداخت",
        -8.24866505734524
      ],
      [
        "ست",
        -8.252659520057248
      ],
      [
        "▁همان",
        -8.254225185362014
      ],
      [
        "▁۱۰",
        -8.25620129191851
      ],
      [
        "▁عمل",
        -8.256630006873554
      ],
      [
        "▁مو",
        -8.260693106371136
      ],
      [
        "▁12",
        -8.261299009554893
      ],
      [
        "▁تواند",
        -8.262120242824322
      ],
      [
        "▁هدف",
        -8.262327994042607
      ],
      [
        "▁بسیاری",
        -8.262820930262144
      ],
      [
        "▁می‌شود.",
        -8.264025693337016
      ],
      [
        "▁مدت",
        -8.264616206505986
      ],
      [
        "▁ازمون",
        -8.267909586326049
      ],
      [
        "▁گفته",
        -8.268050319855902
      ],
      [
        "▁الله",
        -8.26847269089187
      ],
      [
        "▁دار",
        -8.271289655406415
      ],
      [
        "▁هزینه",
        -8.271447482112375
      ],
      [
        "▁برابر",
        -8.272417822724893
      ],
      [
        "y",
        -8.272655511656897
      ],
      [
        "▁رشد",
        -8.273067265175227
      ],
      [
        "▁وزیر",
        -8.274876365016508
      ],
      [
        "▁اجرای",
        -8.275532581241675
      ],
      [
        "▁۲",
        -8.278650323940877
      ],
      [
        "5",
        -8.281851883799627
      ],
      [
        "▁[",
        -8.284260017653342
      ],
      [
        "▁دور",
        -8.285436058353769
      ],
      [
        "▁تلاش",
        -8.285904387935219
      ],
      [
        "▁خانواده",
        -8.288114054914004
      ],
      [
        "▁نور",
        -8.288525539033975
      ],
      [
        "▁یه",
        -8.289209584887027
      ],
      [
        "هاي",
        -8.289522162162477
      ],
      [
        "▁سیاسی",
        -8.28985212698703
      ],
      [
        "▁فرهنگی",
        -8.289959211258616
      ],
      [
        "▁اثر",
        -8.290030869773181
      ],
      [
        "▁نمونه",
        -8.29520214845288
      ],
      [
        "▁زمین",
        -8.29572432912135
      ],
      [
        "4",
        -8.299260845171153
      ],
      [
        "▁0",
        -8.300537183471947
      ],
      [
        "▁نصب",
        -8.30095027254768
      ],
      [
        "با",
        -8.307482292615449
      ],
      [
        "ع",
        -8.310691303629495
      ],
      [
        "▁بندی",
        -8.312430680468745
      ],
      [
        "▁پزشکی",
        -8.312435581708487
      ],
      [
        "▁وب",
        -8.31378054863523
      ],
      [
        "ق",
        -8.317740887418804
      ],
      [
        "▁سوی",
        -8.318239442831327
      ],
      [
        "▁امور",
        -8.319413792977267
      ],
      [
        "▁چشم",
        -8.320423194173443
      ],
      [
        "▁مشکل",
        -8.324087481920262
      ],
      [
        "▁حدود",
        -8.324914189080971
      ],
      [
        "▁کنار",
        -8.32533507854815
      ],
      [
        "▁خارجی",
        -8.32544183827808
      ],
      [
        "▁تهیه",
        -8.326149365563449
      ],
      [
        "▁علمی",
        -8.326459823841482
      ],
      [
        "▁افزود:",
        -8.32648936670205
      ],
      [
        "▁مشکلات",
        -8.326592826447587
      ],
      [
        "▁فوتبال",
        -8.330467302408453
      ],
      [
        "▁سایر",
        -8.33074938831964
      ],
      [
        "را",
        -8.331031435814676
      ],
      [
        "▁دوست",
        -8.33415506280279
      ],
      [
        "▁وقتی",
        -8.336816669247709
      ],
      [
        "▁C",
        -8.337905478575202
      ],
      [
        "▁the",
        -8.339165506260871
      ],
      [
        "▁زن",
        -8.342139246710854
      ],
      [
        "▁شکل",
        -8.342163249893494
      ],
      [
        "▁محل",
        -8.342271928754743
      ],
      [
        "▁خصوص",
        -8.342550070315713
      ],
      [
        "▁زیبا",
        -8.345418654603604
      ],
      [
        "i",
        -8.345626396514211
      ],
      [
        "▁لباس",
        -8.346510431618748
      ],
      [
        "▁داشت",
        -8.34676302895329
      ],
      [
        "▁بدن",
        -8.347315425721959
      ],
      [
        "▁فرهنگ",
        -8.351033062155503
      ],
      [
        "▁ارتباط",
        -8.35139500600334
      ],
      [
        "▁کنیم",
        -8.354053161533496
      ],
      [
        "▁اقدام",
        -8.355169810668896
      ],
      [
        "▁7",
        -8.355906280619644
      ],
      [
        "▁and",
        -8.356303324471456
      ],
      [
        "یان",
        -8.357180566117307
      ],
      [
        "▁محصول",
        -8.358724518272448
      ],
      [
        "▁اموزشی",
        -8.360639936266901
      ],
      [
        "▁اقتصاد",
        -8.366183713581355
      ],
      [
        "▁نظام",
        -8.368313134380102
      ],
      [
        "▁نفت",
        -8.370994915362298
      ],
      [
        "▁منابع",
        -8.372008780860302
      ],
      [
        "تون",
        -8.372202604026473
      ],
      [
        "▁تامین",
        -8.37248028358476
      ],
      [
        "‏",
        -8.3744508093097
      ],
      [
        "▁حاضر",
        -8.378292504187291
      ],
      [
        "▁ایا",
        -8.37833516249354
      ],
      [
        "▁فضای",
        -8.380015844853432
      ],
      [
        "▁منتشر",
        -8.380046963750818
      ],
      [
        "▁واقع",
        -8.381501695747101
      ],
      [
        "▁صنعت",
        -8.382184441719627
      ],
      [
        "er",
        -8.382658480314207
      ],
      [
        "مان",
        -8.382729958515274
      ],
      [
        "دانلود",
        -8.382854083801158
      ],
      [
        "▁اینترنتی",
        -8.384928247097282
      ],
      [
        "▁حل",
        -8.3871412829635
      ],
      [
        "▁سفر",
        -8.388502070503378
      ],
      [
        "▁داخلی",
        -8.388663762416359
      ],
      [
        "▁برچسب",
        -8.389974272845208
      ],
      [
        "▁سلامت",
        -8.391849666866314
      ],
      [
        "▁زمانی",
        -8.393054207827369
      ],
      [
        "▁دنبال",
        -8.39397301311521
      ],
      [
        "▁تجهیزات",
        -8.395121311278146
      ],
      [
        "▁شامل",
        -8.395856123023169
      ],
      [
        "پ",
        -8.397414325798684
      ],
      [
        "▁20",
        -8.398028548220728
      ],
      [
        "▁سلام",
        -8.39825464827662
      ],
      [
        "▁خبرگزاری",
        -8.399073840541554
      ],
      [
        "▁جمهوری",
        -8.399258106490992
      ],
      [
        "▁کنترل",
        -8.399438098944252
      ],
      [
        "▁تماس",
        -8.400035432136042
      ],
      [
        "▁13",
        -8.401511355544633
      ],
      [
        "▁“",
        -8.402080946857392
      ],
      [
        "▁فروشگاه",
        -8.402204333686061
      ],
      [
        "ام",
        -8.40375136321565
      ],
      [
        "▁۱۳",
        -8.406682871532578
      ],
      [
        "ار",
        -8.40684339520015
      ],
      [
        "▁نتیجه",
        -8.406927297924028
      ],
      [
        "▁اینده",
        -8.40856859348765
      ],
      [
        "▁بسته",
        -8.40860833587244
      ],
      [
        "▁یعنی",
        -8.408792053428064
      ],
      [
        "▁ساختمان",
        -8.4105471305861
      ],
      [
        "▁نسخه",
        -8.41084953864832
      ],
      [
        "▁تحت",
        -8.41185855387538
      ],
      [
        "▁عالی",
        -8.412347773122763
      ],
      [
        "▁مالی",
        -8.413568587534924
      ],
      [
        "▁خدا",
        -8.417263297044364
      ],
      [
        "▁مربوط",
        -8.41989365913226
      ],
      [
        "▁تاثیر",
        -8.420034489781449
      ],
      [
        "▁سرمایه",
        -8.420916256994524
      ],
      [
        "▁اظهار",
        -8.421614029051062
      ],
      [
        "▁تاکید",
        -8.423490912265725
      ],
      [
        "▁19",
        -8.426797999616443
      ],
      [
        "▁اندروید",
        -8.429600688225538
      ],
      [
        "▁هایی",
        -8.429871695365188
      ],
      [
        "▁خوبی",
        -8.430683747808844
      ],
      [
        "▁11",
        -8.431777392024385
      ],
      [
        "▁جنگ",
        -8.43179667509526
      ],
      [
        "▁15",
        -8.43371519529459
      ],
      [
        "▁صنعتی",
        -8.435329336808573
      ],
      [
        "▁يا",
        -8.439263180399083
      ],
      [
        "▁دنیا",
        -8.44200394085031
      ],
      [
        "▁جای",
        -8.44387239167495
      ],
      [
        "▁دهد",
        -8.446039411148103
      ],
      [
        "▁اقای",
        -8.446655459852362
      ],
      [
        "یک",
        -8.446922395770349
      ],
      [
        "▁توانید",
        -8.447971282738772
      ],
      [
        "▁هستند.",
        -8.44806373576053
      ],
      [
        "▁بهتر",
        -8.449108985371385
      ],
      [
        "▁مستقیم",
        -8.451365894750895
      ],
      [
        "▁شروع",
        -8.452025181288287
      ],
      [
        "بر",
        -8.454442360078545
      ],
      [
        "▁مثل",
        -8.455584996076617
      ],
      [
        "▁محیط",
        -8.456194753994259
      ],
      [
        "ند.",
        -8.460348431383274
      ],
      [
        "▁وضعیت",
        -8.460665375639897
      ],
      [
        "▁زنان",
        -8.460857118461659
      ],
      [
        "▁حمایت",
        -8.461955446447897
      ],
      [
        "▁ورود",
        -8.463245949491535
      ],
      [
        "▁واحد",
        -8.467591413806064
      ],
      [
        "▁خبری",
        -8.471319192536875
      ],
      [
        "ين",
        -8.473297526070091
      ],
      [
        "▁۳",
        -8.473643431495415
      ],
      [
        "n",
        -8.475639078530001
      ],
      [
        "▁طول",
        -8.478270425197252
      ],
      [
        "................",
        -8.479052162489065
      ],
      [
        "نا",
        -8.4793283475121
      ],
      [
        "▁•",
        -8.480620708082235
      ],
      [
        "▁بیماری",
        -8.482594085600121
      ],
      [
        "+",
        -8.482950279262552
      ],
      [
        "▁خط",
        -8.482973439993048
      ],
      [
        "▁وقت",
        -8.483426351614712
      ],
      [
        "▁انسان",
        -8.489775695870726
      ],
      [
        "▁کارت",
        -8.490512945250513
      ],
      [
        "▁P",
        -8.491149158728259
      ],
      [
        "ed",
        -8.492284661909283
      ],
      [
        "▁کودکان",
        -8.493439484674651
      ],
      [
        "▁سوال",
        -8.493788194639263
      ],
      [
        "▁طی",
        -8.494645549714273
      ],
      [
        "▁ورزش",
        -8.494749148067694
      ],
      [
        "ing",
        -8.495377895456638
      ],
      [
        "▁M",
        -8.497010021911372
      ],
      [
        "ج",
        -8.4981550262131
      ],
      [
        "▁تن",
        -8.498751096129656
      ],
      [
        "▁قدرت",
        -8.499220526297616
      ],
      [
        "▁خبر:",
        -8.502432742656994
      ],
      [
        "▁هست",
        -8.503024572564051
      ],
      [
        "▁دلار",
        -8.503437883457375
      ],
      [
        "▁اندازه",
        -8.506177078602974
      ],
      [
        "a",
        -8.506298847447887
      ],
      [
        "▁فکر",
        -8.506463343716739
      ],
      [
        "▁فنی",
        -8.508673697382449
      ],
      [
        "▁دسته",
        -8.510236175983348
      ],
      [
        "▁تصاویر",
        -8.51120150240554
      ],
      [
        "▁چنین",
        -8.511496790314293
      ],
      [
        "▁پایه",
        -8.51155935615305
      ],
      [
        "▁حضرت",
        -8.512139436353637
      ],
      [
        "▁رضا",
        -8.512510462725078
      ],
      [
        "ایی",
        -8.512769128474622
      ],
      [
        "▁اضافه",
        -8.51336562422339
      ],
      [
        "▁مطالعه",
        -8.51635690030495
      ],
      [
        "▁چگونه",
        -8.519306177318585
      ],
      [
        "اب",
        -8.520494086001941
      ],
      [
        "▁چهار",
        -8.521158323634435
      ],
      [
        "▁سوم",
        -8.523367627114485
      ],
      [
        "▁کاری",
        -8.525889606508409
      ],
      [
        "▁۱۳۹۵",
        -8.525924110854726
      ],
      [
        "▁اماده",
        -8.527689288496664
      ],
      [
        "▁هتل",
        -8.528752490481228
      ],
      [
        "▁مدیر",
        -8.529600848204835
      ],
      [
        "7",
        -8.529718043281669
      ],
      [
        "▁انتخابات",
        -8.530516297834629
      ],
      [
        "▁انتشار",
        -8.531402052179459
      ],
      [
        "▁ضد",
        -8.53395035264057
      ],
      [
        "▁سرعت",
        -8.534539322522903
      ],
      [
        "▁فرد",
        -8.534749732697332
      ],
      [
        "▁دل",
        -8.538256672090485
      ],
      [
        "▁پایگاه",
        -8.53895946923347
      ],
      [
        "▁داخل",
        -8.53922379025343
      ],
      [
        "▁اذر",
        -8.541206568682217
      ],
      [
        "8",
        -8.541330297394405
      ],
      [
        "▁حق",
        -8.541427353170596
      ],
      [
        "▁۵",
        -8.543614160576727
      ],
      [
        "▁خواب",
        -8.544161006868924
      ],
      [
        "▁دوربین",
        -8.544975624667021
      ],
      [
        "▁پوست",
        -8.54545215370398
      ],
      [
        "▁جلسه",
        -8.546312528865531
      ],
      [
        "▁فعال",
        -8.547910599781193
      ],
      [
        "t",
        -8.550760116340204
      ],
      [
        "ح",
        -8.55207564801343
      ],
      [
        "▁باشید",
        -8.552486604161086
      ],
      [
        "▁کاربران",
        -8.553165749458005
      ],
      [
        "▁خاص",
        -8.553506998311173
      ],
      [
        "▁دادن",
        -8.554292551386865
      ],
      [
        "▁طرف",
        -8.555064008365388
      ],
      [
        "▁تصویر",
        -8.55518109842558
      ],
      [
        "▁قالب",
        -8.55872053676994
      ],
      [
        "▁دقیقه",
        -8.560152692077793
      ],
      [
        "p",
        -8.561944786570354
      ],
      [
        "▁خارج",
        -8.564761057006304
      ],
      [
        "▁B",
        -8.564802559512051
      ],
      [
        "▁مشخص",
        -8.564954200191677
      ],
      [
        "▁مطالب",
        -8.565013550729375
      ],
      [
        "تا",
        -8.565583445635808
      ],
      [
        "▁دیگری",
        -8.566174132541741
      ],
      [
        "▁همکاری",
        -8.566588311355629
      ],
      [
        "▁منظور",
        -8.567213557729275
      ],
      [
        "▁جوان",
        -8.569746801320871
      ],
      [
        "▁E",
        -8.573690401121581
      ],
      [
        "▁ارزش",
        -8.574239661992832
      ],
      [
        "▁عملکرد",
        -8.574442170613858
      ],
      [
        "▁نا",
        -8.575634576661825
      ],
      [
        "al",
        -8.57615725457979
      ],
      [
        "▁تبدیل",
        -8.580790717302666
      ],
      [
        "▁روابط",
        -8.581120083253353
      ],
      [
        "▁درخواست",
        -8.582693324457656
      ],
      [
        "▁اطلاع",
        -8.584676285476545
      ],
      [
        "▁گیری",
        -8.586243665998753
      ],
      [
        "انه",
        -8.587527965545492
      ],
      [
        "▁۴",
        -8.58852554560838
      ],
      [
        "▁G",
        -8.590259662320594
      ],
      [
        "▁۱",
        -8.590365725887567
      ],
      [
        "▁بهره",
        -8.591977862278512
      ],
      [
        "6",
        -8.59241445808497
      ],
      [
        "▁موارد",
        -8.593298516077898
      ],
      [
        "▁رابطه",
        -8.593980487716257
      ],
      [
        "▁کسی",
        -8.59434297682045
      ],
      [
        "A",
        -8.595012659316591
      ],
      [
        "▁فوق",
        -8.595399124217874
      ],
      [
        "▁شهید",
        -8.595400220120812
      ],
      [
        "▁جمع",
        -8.595922416850975
      ],
      [
        "▁F",
        -8.596274419444551
      ],
      [
        "▁عضو",
        -8.598714657436645
      ],
      [
        "▁عدم",
        -8.599826670144466
      ],
      [
        "▁14",
        -8.599921215693186
      ],
      [
        "▁هنوز",
        -8.60160768620752
      ],
      [
        "▁سرویس",
        -8.60224323773965
      ],
      [
        "▁دیدگاه",
        -8.603124407088512
      ],
      [
        "▁ارشد",
        -8.603546906256675
      ],
      [
        "▁مرحله",
        -8.603963899759924
      ],
      [
        "▁بهمن",
        -8.604495888171702
      ],
      [
        "▁تمامی",
        -8.604616810764485
      ],
      [
        "▁داستان",
        -8.605073309325649
      ],
      [
        "▁جا",
        -8.606335747603412
      ],
      [
        "▁برق",
        -8.606600370332076
      ],
      [
        "b",
        -8.607209343870784
      ],
      [
        "▁پخش",
        -8.608065688469093
      ],
      [
        "▁نگاه",
        -8.608370655088773
      ],
      [
        "▁پیام",
        -8.609967702264635
      ],
      [
        "▁۱۲",
        -8.611644290707531
      ],
      [
        "▁بن",
        -8.612537956068056
      ],
      [
        "▁مراسم",
        -8.612661013664939
      ],
      [
        "▁تجربه",
        -8.613180418382251
      ],
      [
        "▁پول",
        -8.613491988768773
      ],
      [
        "▁بیمه",
        -8.614507563844555
      ],
      [
        "▁چین",
        -8.614963782366754
      ],
      [
        "▁کن",
        -8.61588981800309
      ],
      [
        "▁مشهد",
        -8.616126045712386
      ],
      [
        "▁کامپیوتر",
        -8.616530268421169
      ],
      [
        "|",
        -8.616703741974323
      ],
      [
        "▁پست",
        -8.618715229022078
      ],
      [
        "▁مقابل",
        -8.620236167985954
      ],
      [
        "▁تلفن",
        -8.620472746110973
      ],
      [
        "دار",
        -8.621493180011958
      ],
      [
        "▁16",
        -8.623247190078905
      ],
      [
        "▁in",
        -8.623894632919699
      ],
      [
        "▁حساب",
        -8.624832294075135
      ],
      [
        "▁ورزشی",
        -8.625602092140568
      ],
      [
        "▁خرداد",
        -8.625615980291629
      ],
      [
        "▁گرم",
        -8.626985162261596
      ],
      [
        "▁The",
        -8.629013771680722
      ],
      [
        "▁عرضه",
        -8.631482675950881
      ],
      [
        "▁گارانتی",
        -8.631817961306858
      ],
      [
        "▁علیه",
        -8.632663858952563
      ],
      [
        "▁D",
        -8.636366866035276
      ],
      [
        "▁عامل",
        -8.636595016118239
      ],
      [
        "▁حسین",
        -8.637546737633887
      ],
      [
        "▁اجرا",
        -8.637604435333772
      ],
      [
        "▁پرورش",
        -8.639264192513146
      ],
      [
        "▁خون",
        -8.64203018955346
      ],
      [
        "▁درست",
        -8.643800014614111
      ],
      [
        "▁متر",
        -8.644507220590555
      ],
      [
        "▁می‌",
        -8.646844526477631
      ],
      [
        "▁پشت",
        -8.649378791717306
      ],
      [
        "▁ابان",
        -8.650101573654968
      ],
      [
        "▁یاد",
        -8.651634356199947
      ],
      [
        "▁امر",
        -8.653553780118827
      ],
      [
        "▁فناوری",
        -8.653607880365987
      ],
      [
        "▁T",
        -8.654283960169145
      ],
      [
        "▁شوند",
        -8.657339472275993
      ],
      [
        "▁جمعه",
        -8.657711185146152
      ],
      [
        "▁ابزار",
        -8.658508547315938
      ],
      [
        "▁جان",
        -8.65878743551823
      ],
      [
        "د.",
        -8.660088140369993
      ],
      [
        "▁*",
        -8.66016816356259
      ],
      [
        "▁تحقیق",
        -8.660567374458584
      ],
      [
        "▁حالت",
        -8.660977772521587
      ],
      [
        "▁تخصصی",
        -8.662706225791766
      ],
      [
        "▁استقلال",
        -8.668407833261844
      ],
      [
        "▁انتقال",
        -8.668700796339671
      ],
      [
        "▁تاپ",
        -8.668735272233729
      ],
      [
        "▁مشخصات",
        -8.672055210277643
      ],
      [
        "▁۱۹",
        -8.672290343479236
      ],
      [
        "▁دیدار",
        -8.673027719739633
      ],
      [
        "▁ساز",
        -8.673927012518957
      ],
      [
        "▁طبیعی",
        -8.674678299653102
      ],
      [
        "ة",
        -8.674954549698583
      ],
      [
        "▁هنر",
        -8.67503851028991
      ],
      [
        "▁کنم",
        -8.677556593769852
      ],
      [
        "▁حجم",
        -8.677717247665552
      ],
      [
        "▁فشار",
        -8.677969417637414
      ],
      [
        "▁باشگاه",
        -8.678622907236408
      ],
      [
        "▁کوتاه",
        -8.679398954159836
      ],
      [
        "▁استخدام",
        -8.67983568919214
      ],
      [
        "ص",
        -8.680465526534602
      ],
      [
        "▁می‌تواند",
        -8.680667940888489
      ],
      [
        "▁18",
        -8.681884456289936
      ],
      [
        "▁تیر",
        -8.68247335468427
      ],
      [
        ").",
        -8.683386832247702
      ],
      [
        "▁اداره",
        -8.68347537450836
      ],
      [
        "▁زیاد",
        -8.68397486654771
      ],
      [
        "▁اتاق",
        -8.6848400212004
      ],
      [
        "گی",
        -8.685011205016524
      ],
      [
        "▁هنگام",
        -8.686651251703534
      ],
      [
        "▁چاپ",
        -8.686751649677907
      ],
      [
        "▁سمت",
        -8.687368267119858
      ],
      [
        "▁نشده",
        -8.687828376097416
      ],
      [
        "▁اگهی",
        -8.687961982928755
      ],
      [
        "▁سوالات",
        -8.68886637354402
      ],
      [
        "▁مراجعه",
        -8.690800935599437
      ],
      [
        "▁ان‌ها",
        -8.692536924961617
      ],
      [
        "▁نرخ",
        -8.69301205290977
      ],
      [
        "o",
        -8.693244788288114
      ],
      [
        "▁نشست",
        -8.6934366049192
      ],
      [
        "f",
        -8.69443921861094
      ],
      [
        "▁پنج",
        -8.69558771280805
      ],
      [
        "▁خاطر",
        -8.696009678072322
      ],
      [
        "▁رسانه",
        -8.696586979604435
      ],
      [
        "خ",
        -8.697590565917123
      ],
      [
        "▁بحث",
        -8.698203246189859
      ],
      [
        "▁میلیارد",
        -8.698362000949023
      ],
      [
        "▁مطرح",
        -8.6996259385849
      ],
      [
        "▁م",
        -8.700428311524167
      ],
      [
        "کار",
        -8.700961774886823
      ],
      [
        "▁امده",
        -8.701238117504639
      ],
      [
        "▁کردند",
        -8.701929898103987
      ],
      [
        "▁ک",
        -8.702434864388444
      ],
      [
        "▁9",
        -8.703477944275441
      ],
      [
        "▁اش",
        -8.703679795319314
      ],
      [
        "▁ص",
        -8.704146493269043
      ],
      [
        "▁معاون",
        -8.704960932541423
      ],
      [
        "▁شاید",
        -8.706534585588827
      ],
      [
        "m",
        -8.707053810137506
      ],
      [
        "▁استاد",
        -8.710103665649779
      ],
      [
        "▁مسیر",
        -8.710925053657833
      ],
      [
        "▁ساده",
        -8.71095282764564
      ],
      [
        "▁برگزاری",
        -8.711497100626856
      ],
      [
        "▁موسیقی",
        -8.712150015730531
      ],
      [
        "▁17",
        -8.712419366560473
      ],
      [
        "▁کنکور",
        -8.71608240642954
      ],
      [
        "▁جشنواره",
        -8.716607544840768
      ],
      [
        "l",
        -8.716853263134976
      ],
      [
        "▁يك",
        -8.716984957278715
      ],
      [
        "▁چیزی",
        -8.717812660139655
      ],
      [
        "▁مرکزی",
        -8.71815799922814
      ],
      [
        "▁باشند",
        -8.719775822372608
      ],
      [
        "▁نزدیک",
        -8.722211792055237
      ],
      [
        "▁۱۱",
        -8.723103987983851
      ],
      [
        "▁علاوه",
        -8.723335301305491
      ],
      [
        "▁حرفه",
        -8.72469348605653
      ],
      [
        "▁انرژی",
        -8.72553538175171
      ],
      [
        "▁معدن",
        -8.725847502051876
      ],
      [
        "▁جریان",
        -8.72594348773573
      ],
      [
        "▁تبلیغات",
        -8.72632089423414
      ],
      [
        "c",
        -8.726369185858331
      ],
      [
        "▁زنانه",
        -8.728169954279815
      ],
      [
        "▁نو",
        -8.728724384901035
      ],
      [
        "▁۱۳۹۸",
        -8.729155301668776
      ],
      [
        "▁بند",
        -8.729334657978466
      ],
      [
        "▁رسمی",
        -8.733123845653834
      ],
      [
        "▁ساخته",
        -8.733812616553138
      ],
      [
        "▁گونه",
        -8.73582698349111
      ],
      [
        "▁روند",
        -8.736657983821098
      ],
      [
        "▁تشکیل",
        -8.737645364857485
      ],
      [
        "▁تی",
        -8.738036798582286
      ],
      [
        "من",
        -8.738810296553353
      ],
      [
        "▁اصفهان",
        -8.739190975139545
      ],
      [
        "دی",
        -8.73946395305195
      ],
      [
        "r",
        -8.740433618151185
      ],
      [
        "▁ظرفیت",
        -8.740657292121396
      ],
      [
        "▁مهدی",
        -8.742248110326916
      ],
      [
        "▁اینجا",
        -8.743769640191246
      ],
      [
        "▁کشورهای",
        -8.743918090631919
      ],
      [
        "▁اسلام",
        -8.744184149493035
      ],
      [
        "▁سپس",
        -8.74480316268104
      ],
      [
        "▁بهداشت",
        -8.745293527895454
      ],
      [
        "ه‌",
        -8.74567640584446
      ],
      [
        "ـ",
        -8.746420623765335
      ],
      [
        "▁دهد.",
        -8.746896112787963
      ],
      [
        "▁می‌کند",
        -8.747290837348766
      ],
      [
        "▁مرداد",
        -8.748517426608853
      ],
      [
        "▁اون",
        -8.748602956504639
      ],
      [
        "ما",
        -8.74878506317588
      ],
      [
        "▁ندارد",
        -8.750144583840951
      ],
      [
        "▁۶",
        -8.75060828418717
      ],
      [
        "▁2017",
        -8.750714901645026
      ],
      [
        "▁پا",
        -8.752435931458928
      ],
      [
        "▁حد",
        -8.75278915608223
      ],
      [
        "S",
        -8.75308219196251
      ],
      [
        "▁R",
        -8.753994202418076
      ],
      [
        "▁تک",
        -8.75727938780494
      ],
      [
        "▁داد.",
        -8.75778794028971
      ],
      [
        "▁۲۰",
        -8.758740395109587
      ],
      [
        "▁خانم",
        -8.759683426335199
      ],
      [
        "▁حرکت",
        -8.760024026332458
      ],
      [
        "▁قران",
        -8.760143812967893
      ],
      [
        "گ",
        -8.760472845809137
      ],
      [
        "▁پایین",
        -8.760662537713335
      ],
      [
        "▁مناطق",
        -8.761578359994527
      ],
      [
        "▁اسفند",
        -8.76199013238172
      ],
      [
        "دا",
        -8.762421010521345
      ],
      [
        "9",
        -8.762832113223133
      ],
      [
        "▁کوچک",
        -8.762876552596303
      ],
      [
        "▁دوران",
        -8.76711578341119
      ],
      [
        "▁ج",
        -8.767599072996484
      ],
      [
        "▁علت",
        -8.76857566658048
      ],
      [
        "▁جی",
        -8.768732396220484
      ],
      [
        "▁تعیین",
        -8.7690213290099
      ],
      [
        "▁خوش",
        -8.769091682898114
      ],
      [
        "▁رسانی",
        -8.76930902657832
      ],
      [
        "▁۱۳۹۶",
        -8.770327521689406
      ],
      [
        "چ",
        -8.77036630188695
      ],
      [
        "▁به‌",
        -8.770672299964898
      ],
      [
        "▁۱۳۹۷",
        -8.771068480484493
      ],
      [
        "▁تصمیم",
        -8.774586202446379
      ],
      [
        "▁گذاری",
        -8.776062712372058
      ],
      [
        "▁قابلیت",
        -8.777204429447176
      ],
      [
        "گر",
        -8.778826832887779
      ],
      [
        "▁ماده",
        -8.779613597473299
      ],
      [
        "▁موفق",
        -8.779976485149096
      ],
      [
        "▁تور",
        -8.780665848217305
      ],
      [
        "اس",
        -8.780675623800459
      ],
      [
        "▁طلا",
        -8.782653901726228
      ],
      [
        "این",
        -8.784615722095479
      ],
      [
        "▁حفظ",
        -8.78529709588824
      ],
      [
        "▁۱۵",
        -8.78556445244171
      ],
      [
        "۱",
        -8.787792871933245
      ],
      [
        "▁غذایی",
        -8.788005141663799
      ],
      [
        "h",
        -8.789131319789684
      ],
      [
        "▁اردیبهشت",
        -8.78914885213926
      ],
      [
        "▁اثار",
        -8.789799324026172
      ],
      [
        "▁دقت",
        -8.793256856224202
      ],
      [
        "▁مرد",
        -8.793345276004045
      ],
      [
        "▁انجمن",
        -8.794041221421475
      ],
      [
        "‌هاي",
        -8.79446018104531
      ],
      [
        "X",
        -8.79458467289755
      ],
      [
        "▁اخیر",
        -8.794723555953295
      ],
      [
        "▁سخت",
        -8.795367715872375
      ],
      [
        "▁امنیت",
        -8.796840874462598
      ],
      [
        "ض",
        -8.800176623301143
      ],
      [
        "▁گاز",
        -8.801434154359637
      ],
      [
        "▁a",
        -8.802369737184389
      ],
      [
        "▁اهمیت",
        -8.80430236788119
      ],
      [
        "۳",
        -8.80510731599431
      ],
      [
        "▁اختیار",
        -8.805570832093526
      ],
      [
        "▁شهریور",
        -8.80606924532233
      ],
      [
        "▁انتشار:",
        -8.806492304610492
      ],
      [
        "▁کاملا",
        -8.807318773793613
      ],
      [
        "▁حسن",
        -8.807555107130204
      ],
      [
        "▁لیگ",
        -8.808035939450725
      ],
      [
        "▁۸",
        -8.809781817999442
      ],
      [
        "▁همیشه",
        -8.809978902589993
      ],
      [
        "▁نیوز",
        -8.810120683719386
      ],
      [
        "▁مهندسی",
        -8.810538781270392
      ],
      [
        "▁سید",
        -8.810559214807828
      ],
      [
        "▁کمتر",
        -8.811382816711065
      ],
      [
        "▁کلی",
        -8.8125418150528
      ],
      [
        "۵",
        -8.812961671627406
      ],
      [
        "▁دختر",
        -8.815770313120348
      ],
      [
        "▁30",
        -8.815817504557954
      ],
      [
        "▁بلکه",
        -8.81722352463298
      ],
      [
        "▁جانبی",
        -8.817396056074644
      ],
      [
        "▁داشتن",
        -8.818026139838443
      ],
      [
        "▁زیست",
        -8.819246341473477
      ],
      [
        "▁هوا",
        -8.820109364361715
      ],
      [
        "▁برتر",
        -8.820423522649
      ],
      [
        "▁اروپا",
        -8.822389551721423
      ],
      [
        "▁نتایج",
        -8.823655122155813
      ],
      [
        "▁حرف",
        -8.82419952670607
      ],
      [
        "۲",
        -8.82488825846563
      ],
      [
        "▁نماینده",
        -8.825173344575832
      ],
      [
        "▁نیست.",
        -8.826877569202079
      ],
      [
        "▁لپ",
        -8.829022985317998
      ],
      [
        "▁بعدی",
        -8.829622948998413
      ],
      [
        "▁ارز",
        -8.829828529989278
      ],
      [
        "یا",
        -8.831740515845823
      ],
      [
        "▁ترکیه",
        -8.834286121583956
      ],
      [
        "▁باشد،",
        -8.835111712744547
      ],
      [
        "▁صنایع",
        -8.838185310016245
      ],
      [
        "▁درامد",
        -8.84028405154482
      ],
      [
        "▁سبک",
        -8.840428715924926
      ],
      [
        "k",
        -8.842567227721519
      ],
      [
        "▁پرسپولیس",
        -8.842643628643865
      ],
      [
        "▁اصلاح",
        -8.843268991180627
      ],
      [
        "▁ضمن",
        -8.84375713642715
      ],
      [
        "▁اي",
        -8.844800392524482
      ],
      [
        "يد",
        -8.844861778311687
      ],
      [
        "▁فراهم",
        -8.845470105520361
      ],
      [
        "▁حذف",
        -8.84634574414068
      ],
      [
        "0",
        -8.847724570433417
      ],
      [
        "ترین",
        -8.84801317574221
      ],
      [
        "▁مقام",
        -8.848095830851582
      ],
      [
        "▁نحوه",
        -8.851674764275058
      ],
      [
        "▁خواهند",
        -8.852032938104228
      ],
      [
        "▁ساله",
        -8.85221844817356
      ],
      [
        "▁وزن",
        -8.856765938522111
      ],
      [
        "▁انگلیسی",
        -8.857447588389126
      ],
      [
        "▁دوستان",
        -8.860977389964216
      ],
      [
        "▁بد",
        -8.863464126789964
      ],
      [
        "▁بودند",
        -8.864190424437165
      ],
      [
        "▁گرفت",
        -8.865253548886793
      ],
      [
        "▁متفاوت",
        -8.86641268601463
      ],
      [
        "▁ملت",
        -8.869447529448884
      ],
      [
        "G",
        -8.870564747296115
      ],
      [
        "▁تلگرام",
        -8.870916326357776
      ],
      [
        "▁لیست",
        -8.871381433457772
      ],
      [
        "▁گرفتن",
        -8.87148886627063
      ],
      [
        "▁۷",
        -8.871750496567158
      ],
      [
        "▁تازه",
        -8.872721038532232
      ],
      [
        "▁مشاوره",
        -8.872995617528126
      ],
      [
        "▁می‌کند.",
        -8.873072532001764
      ],
      [
        "▁بینی",
        -8.873499368273794
      ],
      [
        "▁شهرداری",
        -8.874256966718296
      ],
      [
        "▁K",
        -8.874878184857208
      ],
      [
        "▁خدمت",
        -8.876309882523454
      ],
      [
        "▁شیر",
        -8.876994761491034
      ],
      [
        "▁عشق",
        -8.879372952314357
      ],
      [
        "▁نمایشگاه",
        -8.880044552185057
      ],
      [
        "رو",
        -8.88063733838465
      ],
      [
        "▁موجب",
        -8.880725277309297
      ],
      [
        "▁تحلیل",
        -8.88214360914523
      ],
      [
        "▁اخر",
        -8.88231355171729
      ],
      [
        "▁دوبله",
        -8.882859815616953
      ],
      [
        "▁المللی",
        -8.88328593500357
      ],
      [
        "▁سود",
        -8.88369999499282
      ],
      [
        "x",
        -8.884046699759285
      ],
      [
        "▁اینترنت",
        -8.885047008363282
      ],
      [
        "▁شوند.",
        -8.885466033633062
      ],
      [
        "يم",
        -8.885665278149238
      ],
      [
        "▁انان",
        -8.886571213218238
      ],
      [
        "▁دارند.",
        -8.886794897516936
      ],
      [
        "▁۱۴",
        -8.88696379757616
      ],
      [
        "می",
        -8.887345493514896
      ],
      [
        "▁مسايل",
        -8.88848522226312
      ],
      [
        "▁کلیک",
        -8.891041343594452
      ],
      [
        "▁دانشنامه",
        -8.891667920502872
      ],
      [
        "‌هایی",
        -8.892317082748605
      ],
      [
        "▁کردم",
        -8.893570875098007
      ],
      [
        "▁حالا",
        -8.895101639292267
      ],
      [
        "▁چهارشنبه",
        -8.895421181276664
      ],
      [
        "▁بود،",
        -8.899448514188489
      ],
      [
        "▁روشن",
        -8.899945661583672
      ],
      [
        "▁سیاست",
        -8.900239380865889
      ],
      [
        "▁اند.",
        -8.900458625122614
      ],
      [
        "▁عوامل",
        -8.90046970443131
      ],
      [
        "قیمت",
        -8.90047289873388
      ],
      [
        "▁زیبایی",
        -8.900736744421566
      ],
      [
        "▁مرتبط",
        -8.902049397245753
      ],
      [
        "▁to",
        -8.90329052654644
      ],
      [
        "‌تر",
        -8.903799414941641
      ],
      [
        "g",
        -8.90547715265914
      ],
      [
        "▁دفتر",
        -8.905824197939035
      ],
      [
        "▁دارم",
        -8.907719184352832
      ],
      [
        "▁جالب",
        -8.908013101364062
      ],
      [
        "▁پیشنهاد",
        -8.908654249756607
      ],
      [
        "▁یافته",
        -8.91086236590429
      ],
      [
        "▁شود،",
        -8.910971935641808
      ],
      [
        "▁انتظار",
        -8.911129430784413
      ],
      [
        "10",
        -8.911283405143909
      ],
      [
        "▁؟",
        -8.911948384201036
      ],
      [
        "▁دفاع",
        -8.912718273963296
      ],
      [
        "▁مسکن",
        -8.913008196334205
      ],
      [
        "▁حالی",
        -8.91322707124758
      ],
      [
        "▁دیده",
        -8.913401292496372
      ],
      [
        "▁تجارت",
        -8.913591932086325
      ],
      [
        "▁اهن",
        -8.915245173435697
      ],
      [
        "▁علم",
        -8.916533003107181
      ],
      [
        "▁عراق",
        -8.917475758664606
      ],
      [
        "▁خیابان",
        -8.918135327990983
      ],
      [
        "▁کمی",
        -8.918494604875011
      ],
      [
        "▁بنابراین",
        -8.918496565238494
      ],
      [
        "▁موزیک",
        -8.918981288628663
      ],
      [
        "▁ايران",
        -8.920057623484356
      ],
      [
        "▁احساس",
        -8.920164813927537
      ],
      [
        "▁اعضای",
        -8.921028136445477
      ],
      [
        "▁فارس",
        -8.921191558403725
      ],
      [
        "▁كار",
        -8.922050246845156
      ],
      [
        "▁دستور",
        -8.922807911946586
      ],
      [
        "▁درس",
        -8.924699323159208
      ],
      [
        "▁باشند.",
        -8.92599805342074
      ],
      [
        "▁سن",
        -8.926887778651228
      ],
      [
        "▁امید",
        -8.927849773229756
      ],
      [
        "ط",
        -8.929018531406337
      ],
      [
        "▁بیشتری",
        -8.930179460482098
      ],
      [
        "B",
        -8.930574698504914
      ],
      [
        "▁ارزان",
        -8.930585670499593
      ],
      [
        "▁کارشناسی",
        -8.930654462095902
      ],
      [
        "▁نظرات",
        -8.930698037616851
      ],
      [
        "▁اکنون",
        -8.93277327195378
      ],
      [
        "▁مادر",
        -8.934154885923316
      ],
      [
        "ول",
        -8.934493286646973
      ],
      [
        "▁جام",
        -8.934912842349572
      ],
      [
        "▁ویکی‌پدیا",
        -8.93493182980229
      ],
      [
        "▁پژوهش",
        -8.934949031199682
      ],
      [
        "▁انسانی",
        -8.93495809256198
      ],
      [
        "▁ایشان",
        -8.937426033219698
      ],
      [
        "▁داشت.",
        -8.937692062515342
      ],
      [
        "▁خصوصی",
        -8.938501442716868
      ],
      [
        "▁اصل",
        -8.940818857092667
      ],
      [
        "▁داریم",
        -8.941104825187479
      ],
      [
        "▁بودجه",
        -8.943872955450765
      ],
      [
        "کی",
        -8.944545967513617
      ],
      [
        "▁صدا",
        -8.94465426367682
      ],
      [
        "▁مجازی",
        -8.948143080993386
      ],
      [
        "▁بهبود",
        -8.94922839347538
      ],
      [
        "▁حمل",
        -8.949392014220393
      ],
      [
        "▁امار",
        -8.949844387114336
      ],
      [
        "▁سامسونگ",
        -8.950158592127728
      ],
      [
        ")،",
        -8.9503950766595
      ],
      [
        "▁سفید",
        -8.95061370649784
      ],
      [
        "▁H",
        -8.95063700527711
      ],
      [
        "▁ابتدا",
        -8.950920722059383
      ],
      [
        "▁بلند",
        -8.951110429193905
      ],
      [
        "▁رژیم",
        -8.951799290861436
      ],
      [
        "لی",
        -8.953539634085963
      ],
      [
        "▁شاهد",
        -8.95377540601485
      ],
      [
        "▁بچه",
        -8.954822698514768
      ],
      [
        "▁کلیه",
        -8.95605194122942
      ],
      [
        "ده",
        -8.956196470103134
      ],
      [
        "▁22",
        -8.956486952478878
      ],
      [
        "▁ازدواج",
        -8.957644987799094
      ],
      [
        "▁مردانه",
        -8.958627803050883
      ],
      [
        "­",
        -8.960285450883248
      ],
      [
        "▁گوگل",
        -8.961694705701028
      ],
      [
        "نی",
        -8.961958140137309
      ],
      [
        "▁زاده",
        -8.962766265271933
      ],
      [
        "▁درجه",
        -8.96389003266819
      ],
      [
        "م.",
        -8.9658679957824
      ],
      [
        "▁هیات",
        -8.967707959361583
      ],
      [
        "▁عدد",
        -8.967721483495588
      ],
      [
        "▁روزانه",
        -8.967946492225723
      ],
      [
        "'",
        -8.96836697432603
      ],
      [
        "▁۱۳۹۴",
        -8.969694170982963
      ],
      [
        "▁د",
        -8.969935872235046
      ],
      [
        "▁لوله",
        -8.970152753181942
      ],
      [
        "▁میشه",
        -8.97030631821197
      ],
      [
        "▁کافی",
        -8.971115787921947
      ],
      [
        "مون",
        -8.971528332963528
      ],
      [
        "F",
        -8.975024032242045
      ],
      [
        "▁عصر",
        -8.975782187743116
      ],
      [
        "▁حداقل",
        -8.975964353318432
      ],
      [
        "▁24",
        -8.97603855468179
      ],
      [
        "▁2016",
        -8.97649065430517
      ],
      [
        "▁حتما",
        -8.978092955354928
      ],
      [
        "▁غرب",
        -8.978364348291654
      ],
      [
        "▁روسیه",
        -8.98078605030616
      ],
      [
        "▁خودش",
        -8.981173179726374
      ],
      [
        "▁صدای",
        -8.982374382099044
      ],
      [
        "▁رمان",
        -8.98494901640679
      ],
      [
        "▁رفع",
        -8.98565404696983
      ],
      [
        "ه‌ی",
        -8.985802577712622
      ],
      [
        "D",
        -8.986680780746134
      ],
      [
        "▁W",
        -8.986825522867422
      ],
      [
        "▁حاصل",
        -8.987728937002533
      ],
      [
        "▁زیرا",
        -8.987982247052946
      ],
      [
        "▁کارخانه",
        -8.987990281971186
      ],
      [
        "▁رفت",
        -8.98874607898418
      ],
      [
        "▁نکته",
        -8.988930826423418
      ],
      [
        "▁معمولا",
        -8.989280983288433
      ],
      [
        "▁موفقیت",
        -8.989411984596758
      ],
      [
        "▁ویژگی",
        -8.989746515887232
      ],
      [
        "نگ",
        -8.990026023674842
      ],
      [
        "▁رییس",
        -8.990206286278317
      ],
      [
        "▁خانگی",
        -8.992391523728744
      ],
      [
        "▁گردشگری",
        -8.992595232217447
      ],
      [
        "▁ف",
        -8.993299538290728
      ],
      [
        "▁موتور",
        -8.993816186266168
      ],
      [
        "▁V",
        -8.994930469896085
      ],
      [
        "▁داد:",
        -8.995484197841364
      ],
      [
        "▁فر",
        -8.996352921125936
      ],
      [
        "▁خبرنگار",
        -8.996421136377316
      ],
      [
        "▁فروردین",
        -8.996495647116234
      ],
      [
        "▁هوشمند",
        -8.996800790012808
      ],
      [
        "▁نویسنده",
        -8.997020411203229
      ],
      [
        "▁برند",
        -8.99710429773836
      ],
      [
        "▁کشاورزی",
        -8.997909667180236
      ],
      [
        "▁شخصی",
        -9.000961195233879
      ],
      [
        "▁مدیران",
        -9.001656922775544
      ],
      [
        "▁مقایسه",
        -9.001976770114949
      ],
      [
        "▁امسال",
        -9.00205180987977
      ],
      [
        "▁on",
        -9.00248317377307
      ],
      [
        "▁عملیات",
        -9.002701663627906
      ],
      [
        "▁طبق",
        -9.0035088547639
      ],
      [
        "▁می‌توان",
        -9.003676750513543
      ],
      [
        "▁کی",
        -9.00500461927658
      ],
      [
        "▁سبز",
        -9.005720321195358
      ],
      [
        "▁گزینه",
        -9.00591676087998
      ],
      [
        "۴",
        -9.006529925074654
      ],
      [
        "▁نیروی",
        -9.006677965129095
      ],
      [
        "▁جذب",
        -9.008204417101162
      ],
      [
        "▁ویدیو",
        -9.00922436852531
      ],
      [
        "▁تجاری",
        -9.009919940155733
      ],
      [
        "M",
        -9.010642508965681
      ],
      [
        "▁2018",
        -9.011740858280142
      ],
      [
        "▁سری",
        -9.011747392787377
      ],
      [
        "▁دولتی",
        -9.012511526417349
      ],
      [
        "▁روزنامه",
        -9.012618930264852
      ],
      [
        "▁امیر",
        -9.014004484336498
      ],
      [
        "▁۱۶",
        -9.014716399158567
      ],
      [
        "▁مرگ",
        -9.015167545179278
      ],
      [
        "▁'",
        -9.01519885409857
      ],
      [
        "▁موثر",
        -9.01594601946101
      ],
      [
        "▁اتش",
        -9.017895095673003
      ],
      [
        "▁بعضی",
        -9.019400674116783
      ],
      [
        "▁اسیب",
        -9.019408001191104
      ],
      [
        "▁مسابقات",
        -9.019678648687202
      ],
      [
        "▁اتفاق",
        -9.01993409825349
      ],
      [
        "▁جمهور",
        -9.022647588503364
      ],
      [
        "▁نیروهای",
        -9.023817807295613
      ],
      [
        "▁مراکز",
        -9.024993439384746
      ],
      [
        "▁I",
        -9.0258898172589
      ],
      [
        "K",
        -9.026024530037006
      ],
      [
        "▁پور",
        -9.026673270128276
      ],
      [
        "▁سامانه",
        -9.02676069955112
      ],
      [
        "on",
        -9.027385958348804
      ],
      [
        "▁نقد",
        -9.027429882685455
      ],
      [
        "▁جلوگیری",
        -9.027619640313198
      ],
      [
        "P",
        -9.028075144573041
      ],
      [
        "▁۳۰",
        -9.028741581204656
      ],
      [
        "▁غذا",
        -9.029097784506037
      ],
      [
        "▁۱۸",
        -9.02921033239361
      ],
      [
        "▁اولیه",
        -9.029766218807262
      ],
      [
        "▁کنیم.",
        -9.029922263499108
      ],
      [
        "▁21",
        -9.030160728869275
      ],
      [
        "▁واقعی",
        -9.03037101508548
      ],
      [
        "▁صحبت",
        -9.030827948545697
      ],
      [
        "لا",
        -9.032160376678751
      ],
      [
        "▁تلویزیون",
        -9.033662159808253
      ],
      [
        "▁صبح",
        -9.033742800485044
      ],
      [
        "تو",
        -9.03593580192469
      ],
      [
        "که",
        -9.036115873922613
      ],
      [
        "*",
        -9.036236729232105
      ],
      [
        "▁تشخیص",
        -9.037256107336194
      ],
      [
        "▁معماری",
        -9.03750961976512
      ],
      [
        "▁انچه",
        -9.037739681367748
      ],
      [
        "گان",
        -9.039421061262006
      ],
      [
        "بی",
        -9.03997960697588
      ],
      [
        "▁ع",
        -9.040766115664823
      ],
      [
        "▁صد",
        -9.04133736324629
      ],
      [
        "▁تنظیم",
        -9.041513951426719
      ],
      [
        "▁چی",
        -9.041705257741715
      ],
      [
        "▁::",
        -9.041861575026607
      ],
      [
        "▁جوانان",
        -9.042340051702219
      ],
      [
        "▁محسن",
        -9.047561410588848
      ],
      [
        "سی",
        -9.04775724563789
      ],
      [
        "▁اجرایی",
        -9.047776476858413
      ],
      [
        "▁سوریه",
        -9.04970967224579
      ],
      [
        "▁ترجمه",
        -9.050372226355313
      ],
      [
        "▁بیمارستان",
        -9.051360536491828
      ],
      [
        "▁کانال",
        -9.052210053018579
      ],
      [
        "▁دانشجویان",
        -9.052481681871964
      ],
      [
        "▁البوم",
        -9.05282944792312
      ],
      [
        "▁لطفا",
        -9.053322903477149
      ],
      [
        "▁1396",
        -9.05373160649416
      ],
      [
        "يت",
        -9.053825225357924
      ],
      [
        "▁سینما",
        -9.053869188509289
      ],
      [
        "▁المان",
        -9.054026514212445
      ],
      [
        "▁چیز",
        -9.054591604669028
      ],
      [
        "▁جامع",
        -9.056230558915729
      ],
      [
        "▁اقدامات",
        -9.057918538556367
      ],
      [
        ".ir",
        -9.058305529032303
      ],
      [
        "▁ده",
        -9.058491995597937
      ],
      [
        "▁واکنش",
        -9.059057700848248
      ],
      [
        "▁کرونا",
        -9.059926059523042
      ],
      [
        "فر",
        -9.060763495013061
      ],
      [
        "▁دچار",
        -9.06108225543064
      ],
      [
        "▁تصویری",
        -9.061684365826427
      ],
      [
        "▁نموده",
        -9.062139464834186
      ],
      [
        "▁1397",
        -9.062600928025065
      ],
      [
        "▁N",
        -9.062781321920818
      ],
      [
        "▁ها:",
        -9.062937677563642
      ],
      [
        "▁زیرنویس",
        -9.063213574869
      ],
      [
        "▁شهری",
        -9.063314728107022
      ],
      [
        "انی",
        -9.06365246040012
      ],
      [
        "▁25",
        -9.063737290192007
      ],
      [
        "▁امکانات",
        -9.064766760340675
      ],
      [
        "▁عزیز",
        -9.065610941583977
      ],
      [
        "▁اعتماد",
        -9.066015127258632
      ],
      [
        "بار",
        -9.068615810907263
      ],
      [
        "▁مقدار",
        -9.070668352899446
      ],
      [
        "▁بخشی",
        -9.072504140865897
      ],
      [
        "▁روغن",
        -9.072819776380163
      ],
      [
        "▁منبع",
        -9.07350950768952
      ],
      [
        "غ",
        -9.074412094503714
      ],
      [
        "▁فرایند",
        -9.074544697430936
      ],
      [
        "▁زنده",
        -9.0759276746597
      ],
      [
        "▁امتیاز",
        -9.075961959266145
      ],
      [
        "▁ثابت",
        -9.076760095308748
      ],
      [
        "▁رفته",
        -9.077140137793677
      ],
      [
        "▁رهبری",
        -9.077592529046806
      ],
      [
        "▁۹",
        -9.079058868418802
      ],
      [
        "▁حمله",
        -9.079298417821578
      ],
      [
        "▁فرصت",
        -9.080210445503859
      ],
      [
        "▁کلاس",
        -9.080337599371358
      ],
      [
        "▁23",
        -9.08218996806363
      ],
      [
        "▁ترامپ",
        -9.083654648071315
      ],
      [
        "اف",
        -9.083773547050733
      ],
      [
        "▁شد،",
        -9.083840526340598
      ],
      [
        "▁احتمال",
        -9.084266632746965
      ],
      [
        "شون",
        -9.085064813443225
      ],
      [
        "▁شدند",
        -9.086856142788857
      ],
      [
        "▁دوشنبه",
        -9.087415285446752
      ],
      [
        "z",
        -9.088094532687334
      ],
      [
        "H",
        -9.088436977899777
      ],
      [
        "▁!",
        -9.08849924586821
      ],
      [
        "▁رفتار",
        -9.089262038291768
      ],
      [
        "▁شناسی",
        -9.089858032327788
      ],
      [
        "▁الات",
        -9.090936067146895
      ],
      [
        "▁ذکر",
        -9.092048248163955
      ],
      [
        "▁تست",
        -9.092359435548508
      ],
      [
        "C",
        -9.093275005956327
      ],
      [
        "▁پلیس",
        -9.094872563688519
      ],
      [
        "▁۱۷",
        -9.095220242303695
      ],
      [
        "▁بلیط",
        -9.09574416381424
      ],
      [
        "گاه",
        -9.096911438964067
      ],
      [
        "▁مقاومت",
        -9.097078671951323
      ],
      [
        "▁گام",
        -9.097527912626596
      ],
      [
        "▁مبارزه",
        -9.099048335629794
      ],
      [
        "▁ق",
        -9.099468914013768
      ],
      [
        "▁شعر",
        -9.099905227262239
      ],
      [
        "▁قرارداد",
        -9.10013067653548
      ],
      [
        "▁توانند",
        -9.100618989798548
      ],
      [
        "▁نباید",
        -9.101420507493662
      ],
      [
        "▁سریع",
        -9.101645435256877
      ],
      [
        "▁پدر",
        -9.101878102826781
      ],
      [
        "▁نهایی",
        -9.102460499018726
      ],
      [
        "▁بروز",
        -9.102464740594918
      ],
      [
        "▁میدان",
        -9.102467426752005
      ],
      [
        "نه",
        -9.10322653113861
      ],
      [
        "▁الان",
        -9.103848891730085
      ],
      [
        "▁خاک",
        -9.103968519245996
      ],
      [
        "▁اداری",
        -9.104035083908794
      ],
      [
        "▁برد",
        -9.105277106043173
      ],
      [
        "▁جدی",
        -9.106976163699555
      ],
      [
        "▁دارد،",
        -9.10865687042533
      ],
      [
        "▁جواب",
        -9.110963603398712
      ],
      [
        "▁مجله",
        -9.111193390977414
      ],
      [
        "▁بورس",
        -9.111981172747825
      ],
      [
        "in",
        -9.11358091697956
      ],
      [
        "▁تفاوت",
        -9.114009540932422
      ],
      [
        "▁پاورپوینت",
        -9.115039458488463
      ],
      [
        "▁نخست",
        -9.11622259596509
      ],
      [
        "نده",
        -9.11649196953992
      ],
      [
        "▁پوشش",
        -9.117885686565648
      ],
      [
        "ینگ",
        -9.11953367792797
      ],
      [
        "▁معروف",
        -9.119890034261134
      ],
      [
        "▁روحانی",
        -9.12077058860685
      ],
      [
        "▁منزل",
        -9.121711227495764
      ],
      [
        "▁کفش",
        -9.121941720432456
      ],
      [
        "▁شاخص",
        -9.12202239923721
      ],
      [
        "▁نوزاد",
        -9.122688271289794
      ],
      [
        "▁ویروس",
        -9.123456501177255
      ],
      [
        "▁سعی",
        -9.123801304466822
      ],
      [
        "▁اهداف",
        -9.123873912252963
      ],
      [
        "▁می‌کنند",
        -9.125454853137535
      ],
      [
        "▁برخورد",
        -9.125478546849564
      ],
      [
        "▁دیگه",
        -9.125851744582217
      ],
      [
        "▁دهید",
        -9.128101079640006
      ],
      [
        "▁دنیای",
        -9.128450322338713
      ],
      [
        "▁تقویت",
        -9.128622357986718
      ],
      [
        "▁موسسه",
        -9.128753550230321
      ],
      [
        "▁اجازه",
        -9.129068521189547
      ],
      [
        "▁ویندوز",
        -9.129157571248856
      ],
      [
        "L",
        -9.12943855546835
      ],
      [
        "▁قبلی",
        -9.13036320065524
      ],
      [
        "▁http://",
        -9.131480092748147
      ],
      [
        "▁شکست",
        -9.132432257299769
      ],
      [
        "▁قصد",
        -9.133345846968641
      ],
      [
        "▁دوباره",
        -9.133528254265892
      ],
      [
        "▁میز",
        -9.1349065028232
      ],
      [
        "▁است؟",
        -9.13594419666128
      ],
      [
        "▁کره",
        -9.136738833876946
      ],
      [
        "▁ابی",
        -9.136876605513411
      ],
      [
        "▁پرواز",
        -9.138011233085408
      ],
      [
        "V",
        -9.13830082776133
      ],
      [
        "▁>",
        -9.139111983893633
      ],
      [
        "j",
        -9.14008601460142
      ],
      [
        "▁تایید",
        -9.140313700846672
      ],
      [
        "▁فاصله",
        -9.140459440006643
      ],
      [
        "ستان",
        -9.140727226658138
      ],
      [
        "W",
        -9.141438743823425
      ],
      [
        "▁خراسان",
        -9.14206445917981
      ],
      [
        "▁داشت:",
        -9.143520722417504
      ],
      [
        "▁تبریز",
        -9.143948136098032
      ],
      [
        "▁خ",
        -9.145246537531829
      ],
      [
        "▁مشتریان",
        -9.14559782479021
      ],
      [
        "▁شمال",
        -9.146159128616254
      ],
      [
        "تی",
        -9.147555134682868
      ],
      [
        "▁می‌دهد",
        -9.151785144497909
      ],
      [
        "▁کدام",
        -9.154077662581999
      ],
      [
        "u",
        -9.154117265788258
      ],
      [
        "▁بی‌",
        -9.154246810316629
      ],
      [
        "▁جاری",
        -9.155332407169894
      ],
      [
        "▁۲۲",
        -9.155368773831466
      ],
      [
        "▁1398",
        -9.158263105508402
      ],
      [
        "▁اف",
        -9.158683614266966
      ],
      [
        "▁مشترک",
        -9.160407722174511
      ],
      [
        "▁پاک",
        -9.161642382843095
      ],
      [
        "▁رقابت",
        -9.161929450019958
      ],
      [
        "ث",
        -9.162296262176723
      ],
      [
        "▁افغانستان",
        -9.162450103547824
      ],
      [
        "▁کردند.",
        -9.163296493572604
      ],
      [
        "▁درون",
        -9.163430657795635
      ],
      [
        "▁دهه",
        -9.163492536384435
      ],
      [
        "▁اقا",
        -9.163637380531211
      ],
      [
        "▁شناسایی",
        -9.163833573822371
      ],
      [
        "▁اشنا",
        -9.16389213871373
      ],
      [
        "▁کسانی",
        -9.164333544339355
      ],
      [
        "‌ترین",
        -9.166615489983297
      ],
      [
        "▁علاقه",
        -9.166737598535931
      ],
      [
        "E",
        -9.166827900518951
      ],
      [
        "▁پای",
        -9.16722342394429
      ],
      [
        "▁داره",
        -9.169183401637062
      ],
      [
        "▁مدرسه",
        -9.170365271376197
      ],
      [
        "▁شاد",
        -9.170833423362952
      ],
      [
        "▁مرغ",
        -9.173369419077478
      ],
      [
        "▁ـ",
        -9.174606104533817
      ],
      [
        "▁اید",
        -9.175316682877147
      ],
      [
        "▁تحقیقات",
        -9.175562261838419
      ],
      [
        "▁قم",
        -9.175989655953055
      ],
      [
        "۶",
        -9.179127661361226
      ],
      [
        "id",
        -9.180387526045031
      ],
      [
        "▁مسيله",
        -9.180632945381678
      ],
      [
        "▁وبلاگ",
        -9.182218140336236
      ],
      [
        "▁نقشه",
        -9.18233345888631
      ],
      [
        "th",
        -9.183493276587855
      ],
      [
        "▁نظارت",
        -9.186045300924766
      ],
      [
        "▁مخصوص",
        -9.186621377024723
      ],
      [
        "سر",
        -9.188222562460158
      ],
      [
        "▁احمد",
        -9.18899424467905
      ],
      [
        "▁بالای",
        -9.189873976647098
      ],
      [
        "▁رتبه",
        -9.189944023311211
      ],
      [
        "▁برقی",
        -9.189946490598414
      ],
      [
        "▁ستاره",
        -9.190356021233532
      ],
      [
        "▁استاندارد",
        -9.191075754545585
      ],
      [
        "▁فرا",
        -9.19177240691806
      ],
      [
        "▁ترک",
        -9.194958012740646
      ],
      [
        "▁چهارم",
        -9.195510957749567
      ],
      [
        "▁ندارد.",
        -9.195592799323835
      ],
      [
        "▁رسیده",
        -9.196230627856051
      ],
      [
        "▁جز",
        -9.197191327064743
      ],
      [
        "▁نداشته",
        -9.197287348093479
      ],
      [
        "▁مثال",
        -9.197537348869616
      ],
      [
        "▁هنری",
        -9.197867147543013
      ],
      [
        "▁تاریخی",
        -9.198535434514367
      ],
      [
        "▁مسيولان",
        -9.199002976366554
      ],
      [
        "▁97",
        -9.200870753760658
      ],
      [
        "▁پرونده",
        -9.201621055294304
      ],
      [
        "▁ست",
        -9.201895401909258
      ],
      [
        "#",
        -9.202501345164618
      ],
      [
        "▁دهنده",
        -9.202956358199598
      ],
      [
        "▁دسترسی",
        -9.203408033289403
      ],
      [
        "▁·",
        -9.205036794106597
      ],
      [
        "▁کاربردی",
        -9.205269288041666
      ],
      [
        "▁خطر",
        -9.205443274804772
      ],
      [
        "▁مى",
        -9.206389746538676
      ],
      [
        "▁خرد",
        -9.20777100984209
      ],
      [
        "▁لە",
        -9.209412068782427
      ],
      [
        "▁اعتبار",
        -9.209426722464348
      ],
      [
        "w",
        -9.209821507084746
      ],
      [
        "30",
        -9.210892820352317
      ],
      [
        "هم",
        -9.210956417619261
      ],
      [
        "▁ریال",
        -9.211257676211803
      ],
      [
        "▁اسیاب",
        -9.211620667086402
      ],
      [
        "▁روان",
        -9.21245109707355
      ],
      [
        "▁رفتن",
        -9.213798230878995
      ],
      [
        "▁پیشرفت",
        -9.214017714895073
      ],
      [
        "R",
        -9.21436289171014
      ],
      [
        "▁صادرات",
        -9.214809972567402
      ],
      [
        "24",
        -9.215032653920947
      ],
      [
        "▁=",
        -9.215360773714792
      ],
      [
        "▁دین",
        -9.216003127068351
      ],
      [
        "▁تعریف",
        -9.216678356600783
      ],
      [
        "▁جنوبی",
        -9.217843322636787
      ],
      [
        "▁امنیتی",
        -9.217949928044215
      ],
      [
        "▁قدیمی",
        -9.218548398992109
      ],
      [
        "▁بحران",
        -9.2188632686065
      ],
      [
        "▁96",
        -9.219983007443549
      ],
      [
        "es",
        -9.220385770159229
      ],
      [
        "▁عمر",
        -9.220711295292565
      ],
      [
        "▁شاه",
        -9.221393212371822
      ],
      [
        "▁ریزی",
        -9.222042070071097
      ],
      [
        "▁کاربر",
        -9.222175558707193
      ],
      [
        "▁سیم",
        -9.222395933793155
      ],
      [
        "▁تغییرات",
        -9.222869096213065
      ],
      [
        "or",
        -9.2230008798933
      ],
      [
        "▁نبود",
        -9.2230252962655
      ],
      [
        "▁انیمیشن",
        -9.223135844272331
      ],
      [
        "▁نیمه",
        -9.223909460141979
      ],
      [
        "▁ب.ظ",
        -9.224044470549577
      ],
      [
        "▁1395",
        -9.224361517268047
      ],
      [
        "=",
        -9.225454167393933
      ],
      [
        "▁مد",
        -9.225845382933663
      ],
      [
        "▁کمیسیون",
        -9.225919679143683
      ],
      [
        "▁نیم",
        -9.226767277937439
      ],
      [
        "▁دیجیتال",
        -9.227091518389324
      ],
      [
        "▁کنندگان",
        -9.227393652384228
      ],
      [
        "▁هفت",
        -9.22831726434837
      ],
      [
        "‎",
        -9.229323265799925
      ],
      [
        "00",
        -9.22947637729531
      ],
      [
        "▁L",
        -9.230819851193088
      ],
      [
        "▁X",
        -9.23130960337991
      ],
      [
        "▁پشتیبانی",
        -9.23208616464789
      ],
      [
        "چه",
        -9.232657525297244
      ],
      [
        "▁يک",
        -9.234687228350033
      ],
      [
        "▁نخستین",
        -9.234801680412271
      ],
      [
        "▁نماز",
        -9.23588791516135
      ],
      [
        "▁مفید",
        -9.235902565175811
      ],
      [
        "▁نمایندگی",
        -9.236172887925775
      ],
      [
        "▁نخواهد",
        -9.23647381208345
      ],
      [
        "۷",
        -9.237052635435209
      ],
      [
        "▁جایگاه",
        -9.237454222179275
      ],
      [
        "▁دندان",
        -9.239323978091582
      ],
      [
        "▁شیراز",
        -9.23939034239882
      ],
      [
        "»،",
        -9.240598208206103
      ],
      [
        "▁کرم",
        -9.240940231210914
      ],
      [
        "▁توصیه",
        -9.241380809537548
      ],
      [
        "اری",
        -9.24243325226016
      ],
      [
        "▁تصریح",
        -9.243266470115557
      ],
      [
        "U",
        -9.24393653054002
      ],
      [
        "▁ارزیابی",
        -9.244078115882871
      ],
      [
        "▁طبقه",
        -9.244255954676083
      ],
      [
        "ar",
        -9.244347576543355
      ],
      [
        "▁‏",
        -9.244727736720904
      ],
      [
        "▁شن",
        -9.244761013920236
      ],
      [
        "▁فرم",
        -9.244937441740962
      ],
      [
        "▁هند",
        -9.245041992305072
      ],
      [
        "▁شوید",
        -9.245516321377153
      ],
      [
        "▁ادم",
        -9.245629533409103
      ],
      [
        "▁گو",
        -9.245832617763474
      ],
      [
        "▁دارید",
        -9.246338938753953
      ],
      [
        "▁اسم",
        -9.247051158473447
      ],
      [
        "▁لا",
        -9.247617332139473
      ],
      [
        "▁امد",
        -9.248070348589966
      ],
      [
        "▁ادرس",
        -9.248646865398793
      ],
      [
        "▁درمانی",
        -9.24865258842498
      ],
      [
        "▁متاسفانه",
        -9.248785358696566
      ],
      [
        "▁ایمیل",
        -9.249734365298062
      ],
      [
        "▁نقطه",
        -9.252409726228382
      ],
      [
        "▁اگه",
        -9.252425968421564
      ],
      [
        "▁قطعات",
        -9.253148840033337
      ],
      [
        "▁مدارس",
        -9.253336257198752
      ],
      [
        "▁واقعا",
        -9.253372547206263
      ],
      [
        "▁تبلت",
        -9.254865612010745
      ],
      [
        "▁مکان",
        -9.254941894339298
      ],
      [
        "▁سیاه",
        -9.255250324309731
      ],
      [
        "▁دهم",
        -9.255535270110158
      ],
      [
        "سازی",
        -9.258525066762234
      ],
      [
        "▁شدید",
        -9.259611933213753
      ],
      [
        "است",
        -9.260735925644967
      ],
      [
        "▁رهبر",
        -9.261981825778781
      ],
      [
        "▁ح",
        -9.262903978989051
      ],
      [
        "▁گسترش",
        -9.263284501582753
      ],
      [
        "▁دهند",
        -9.264951689136723
      ],
      [
        "▁اشتراک",
        -9.265225811455723
      ],
      [
        "۸",
        -9.265544851100849
      ],
      [
        "▁خلاصه",
        -9.267117485232587
      ],
      [
        "▁95",
        -9.268741210586398
      ],
      [
        "▁بافت",
        -9.268938215929504
      ],
      [
        "▁برخوردار",
        -9.269023284958868
      ],
      [
        "▁دید",
        -9.269465950599962
      ],
      [
        "▁عربستان",
        -9.270057924672921
      ],
      [
        "▁۲۱",
        -9.272137298111332
      ],
      [
        "▁نظامی",
        -9.272139891476106
      ],
      [
        "▁۱۳۹۳",
        -9.272899635986567
      ],
      [
        "▁مشابه",
        -9.273673118924728
      ],
      [
        "T",
        -9.27375584038743
      ],
      [
        "▁زدن",
        -9.274087465164191
      ],
      [
        "▁سراسر",
        -9.274385638425123
      ],
      [
        "▁نيز",
        -9.274460032537892
      ],
      [
        "▁خواهید",
        -9.2746816674673
      ],
      [
        "▁افرادی",
        -9.27508701743234
      ],
      [
        "▁قانونی",
        -9.275537199853112
      ],
      [
        "▁خواهیم",
        -9.275975329711732
      ],
      [
        "▁نهایت",
        -9.277137054047817
      ],
      [
        "▁رخ",
        -9.278498560860188
      ],
      [
        "▁پلی",
        -9.2787273166039
      ],
      [
        "▁روزهای",
        -9.279673076516415
      ],
      [
        "at",
        -9.280003643547635
      ],
      [
        "N",
        -9.28241542170514
      ],
      [
        "▁امریکایی",
        -9.282792589906288
      ],
      [
        "▁لو",
        -9.28542419812284
      ],
      [
        "▁رسیدن",
        -9.285632710757385
      ],
      [
        "▁زده",
        -9.285676046763705
      ],
      [
        "▁میباشد.",
        -9.285937909840646
      ],
      [
        "▁قوانین",
        -9.285975761425444
      ],
      [
        "▁همچنان",
        -9.28706935596066
      ],
      [
        "▁فرش",
        -9.287174745515584
      ],
      [
        "▁اهل",
        -9.287841288513325
      ],
      [
        "▁مشتری",
        -9.287907255910048
      ],
      [
        "▁کمیته",
        -9.288412313610428
      ],
      [
        "▁چیست؟",
        -9.289307790483273
      ],
      [
        "▁ار",
        -9.289686520999602
      ],
      [
        "▁جدول",
        -9.290314829485684
      ],
      [
        "▁اساسی",
        -9.290364398017633
      ],
      [
        "▁پل",
        -9.29134424821082
      ],
      [
        "▁اباد",
        -9.293079530655277
      ],
      [
        "▁کارشناسان",
        -9.293240719618725
      ],
      [
        "▁اعمال",
        -9.293319133195414
      ],
      [
        "▁پسر",
        -9.293818317557282
      ],
      [
        "▁توضیحات",
        -9.294549875221296
      ],
      [
        "▁شمار",
        -9.294990974127122
      ],
      [
        "▁توضیح",
        -9.295965019693295
      ],
      [
        "▁لحظه",
        -9.296268530925037
      ],
      [
        "an",
        -9.29668188716801
      ],
      [
        "▁مقالات",
        -9.298165150818429
      ],
      [
        "▁اندازی",
        -9.299470178740934
      ],
      [
        "▁شخصیت",
        -9.299911789032327
      ],
      [
        "▁گوش",
        -9.299968581080384
      ],
      [
        "▁بنا",
        -9.300064830480661
      ],
      [
        "▁قلب",
        -9.300803743000984
      ],
      [
        "▁سنتی",
        -9.300876410773228
      ],
      [
        "v",
        -9.301735717920254
      ],
      [
        "▁مثلا",
        -9.301835578654192
      ],
      [
        "▁العاده",
        -9.3018875015774
      ],
      [
        "▁ازادی",
        -9.302786198377403
      ],
      [
        "▁سبب",
        -9.303638970550342
      ],
      [
        "شهر",
        -9.303778252883824
      ],
      [
        "▁خنده",
        -9.304222013756348
      ],
      [
        "▁کلیپ",
        -9.30435096575131
      ],
      [
        "▁100",
        -9.306409341307758
      ],
      [
        "▁جو",
        -9.306953119902676
      ],
      [
        "▁2019",
        -9.307331027974731
      ],
      [
        "▁{",
        -9.307634741934445
      ],
      [
        "▁است:",
        -9.309087033954887
      ],
      [
        "▁سو",
        -9.30943405315375
      ],
      [
        "▁سهام",
        -9.310528695985848
      ],
      [
        "▁ریاست",
        -9.311737142960846
      ],
      [
        "▁دقیق",
        -9.311853996872912
      ],
      [
        "▁محسوب",
        -9.312312291646997
      ],
      [
        "▁راحتی",
        -9.31270105396302
      ],
      [
        "▁نمایندگان",
        -9.313648583137484
      ],
      [
        "▁گرفت.",
        -9.315631054181333
      ],
      [
        "▁خشک",
        -9.315713839467024
      ],
      [
        "▁حکومت",
        -9.316091584168715
      ],
      [
        "سال",
        -9.317224837173494
      ],
      [
        "▁رعایت",
        -9.317728043825827
      ],
      [
        "▁اپارتمان",
        -9.31811964306642
      ],
      [
        "▁قرمز",
        -9.318378403694739
      ],
      [
        "▁باشه",
        -9.319416312149562
      ],
      [
        "▁بايد",
        -9.320622578084764
      ],
      [
        "هایی",
        -9.320709578167483
      ],
      [
        "▁جدا",
        -9.322468808612902
      ],
      [
        "▁جمعیت",
        -9.322980614958018
      ],
      [
        "20",
        -9.324270299862121
      ],
      [
        "▁است؛",
        -9.325711665921599
      ],
      [
        "▁نسل",
        -9.326492078392754
      ],
      [
        "▁انجا",
        -9.326492716908218
      ],
      [
        "▁متخصص",
        -9.32938892483117
      ],
      [
        "▁مراحل",
        -9.330386780101879
      ],
      [
        "▁مثبت",
        -9.331006612191096
      ],
      [
        "▁عمده",
        -9.331602643872497
      ],
      [
        "▁2015",
        -9.333708279251715
      ],
      [
        "▁یکشنبه",
        -9.334433303417274
      ],
      [
        "▁رسید",
        -9.334486008627366
      ],
      [
        "▁رد",
        -9.33502578009386
      ],
      [
        "▁لایه",
        -9.335462484701413
      ],
      [
        "▁اینستاگرام",
        -9.335911356829815
      ],
      [
        "کن",
        -9.337248331384274
      ],
      [
        "▁صندوق",
        -9.338200263856931
      ],
      [
        "▁اجاره",
        -9.338301422016064
      ],
      [
        "▁مواجه",
        -9.338716619082035
      ],
      [
        "▁ستاد",
        -9.339483943251832
      ],
      [
        "▁مرجع",
        -9.341393969675487
      ],
      [
        "▁ایده",
        -9.341918147728515
      ],
      [
        "▁تهران،",
        -9.342291879466371
      ],
      [
        "▁شیشه",
        -9.343968775217201
      ],
      [
        "پر",
        -9.344054936859365
      ],
      [
        "▁هواپیما",
        -9.344654722040003
      ],
      [
        "▁برداری",
        -9.345288378982545
      ],
      [
        "▁لذا",
        -9.345810137789583
      ],
      [
        "▁توزیع",
        -9.346908148487474
      ],
      [
        "▁دکتری",
        -9.347856196357851
      ],
      [
        "▁جراحی",
        -9.348040805199078
      ],
      [
        "▁عبور",
        -9.348240077362233
      ],
      [
        "▁دعوت",
        -9.34828951937496
      ],
      [
        "▁تحصیلی",
        -9.348542518045688
      ],
      [
        "▁خوزستان",
        -9.348692127369523
      ],
      [
        "▁تشکر",
        -9.349100415561187
      ],
      [
        "▁بهداشتی",
        -9.349411274289817
      ],
      [
        "▁حزب",
        -9.350337527649268
      ],
      [
        "▁۲۳",
        -9.350524410848735
      ],
      [
        "▁معتبر",
        -9.351408453245806
      ],
      [
        "▁تحریم",
        -9.352551219348909
      ],
      [
        "▁حافظه",
        -9.355054860150974
      ],
      [
        "en",
        -9.357468809978506
      ],
      [
        "▁بازگشت",
        -9.358037439316636
      ],
      [
        "▁بیرون",
        -9.35830533855215
      ],
      [
        "▁زیبای",
        -9.358500940784333
      ],
      [
        "▁سینمایی",
        -9.359745549123602
      ],
      [
        "▁ترتیب",
        -9.361010550568665
      ],
      [
        "▁هیيت",
        -9.36114332779583
      ],
      [
        "▁تکنولوژی",
        -9.361686579649577
      ],
      [
        "▁مشارکت",
        -9.362174632775835
      ],
      [
        "▁50",
        -9.36225219041386
      ],
      [
        "▁ایت",
        -9.362992307585179
      ],
      [
        "▁مقدس",
        -9.363176495757232
      ],
      [
        "▁ریاضی",
        -9.36326846323477
      ],
      [
        "▁هستیم",
        -9.363300166046582
      ],
      [
        "▁عباس",
        -9.364892984147628
      ],
      [
        "am",
        -9.3651188710482
      ],
      [
        "▁کند،",
        -9.365263513502224
      ],
      [
        "▁نگهداری",
        -9.365546746910098
      ],
      [
        "▁وردپرس",
        -9.36617286394072
      ],
      [
        "▁قادر",
        -9.366329420274306
      ],
      [
        "▁براساس",
        -9.366375100166042
      ],
      [
        "▁مستر",
        -9.36685235604412
      ],
      [
        "▁جنوب",
        -9.367299677390855
      ],
      [
        "▁دهند.",
        -9.368134061506293
      ],
      [
        "▁محدود",
        -9.368353806424826
      ],
      [
        "▁کانون",
        -9.369700912448788
      ],
      [
        "▁اصلا",
        -9.370842854092487
      ],
      [
        "▁جدیدترین",
        -9.37143111907481
      ],
      [
        "▁بصورت",
        -9.37155967948436
      ],
      [
        "▁جذاب",
        -9.37245950070279
      ],
      [
        "▁توافق",
        -9.373277819999641
      ],
      [
        "▁اسیا",
        -9.373444266385944
      ],
      [
        "▁صحنه",
        -9.37369470049589
      ],
      [
        "جی",
        -9.373835959742772
      ],
      [
        "▁اصول",
        -9.373922344021672
      ],
      [
        "يي",
        -9.37397865602227
      ],
      [
        "▁س",
        -9.374092489928408
      ],
      [
        "le",
        -9.375438510940702
      ],
      [
        "▁مسابقه",
        -9.375931123915631
      ],
      [
        "▁ایفون",
        -9.376036013440487
      ],
      [
        "▁زندان",
        -9.376506012376366
      ],
      [
        "▁مهارت",
        -9.376521694827119
      ],
      [
        "▁سهم",
        -9.377488328731197
      ],
      [
        "▁ناشی",
        -9.377979815983338
      ],
      [
        "▁منجر",
        -9.378483709676583
      ],
      [
        "▁صوتی",
        -9.378826178344728
      ],
      [
        "ران",
        -9.379185500142702
      ],
      [
        "▁نقاط",
        -9.37967724890989
      ],
      [
        "▁تمرین",
        -9.37975174755702
      ],
      [
        "▁عرصه",
        -9.380002396168791
      ],
      [
        "▁ارتباطات",
        -9.380596501905679
      ],
      [
        "▁کاربرد",
        -9.381335528318207
      ],
      [
        "▁ساختار",
        -9.383193693709998
      ],
      [
        "▁چهره",
        -9.383671837253818
      ],
      [
        "▁....",
        -9.384896062374434
      ],
      [
        "▁کام",
        -9.384986102731721
      ],
      [
        "▁تکمیل",
        -9.385127136246755
      ],
      [
        "▁دیگران",
        -9.386366700785151
      ],
      [
        "▁سرطان",
        -9.38667913485445
      ],
      [
        "▁کلید",
        -9.38769674052881
      ],
      [
        "▁شرح",
        -9.3877462063997
      ],
      [
        "▁فرانسه",
        -9.38786571836918
      ],
      [
        "▁عید",
        -9.388108441900535
      ],
      [
        "▁شدند.",
        -9.388247226329947
      ],
      [
        "▁خاصی",
        -9.389597812558995
      ],
      [
        "گل",
        -9.389953910233942
      ],
      [
        "50",
        -9.390555272423988
      ],
      [
        "▁تعمیر",
        -9.39091064667846
      ],
      [
        "▁نکات",
        -9.391259279383895
      ],
      [
        "▁تولد",
        -9.39159718242876
      ],
      [
        "▁for",
        -9.391653797769248
      ],
      [
        "▁لحاظ",
        -9.393022686666573
      ],
      [
        "▁میشود",
        -9.393381806022994
      ],
      [
        "▁مساله",
        -9.393824349427515
      ],
      [
        "▁پزشک",
        -9.394042189942958
      ],
      [
        "▁پذیرش",
        -9.394068016225507
      ],
      [
        "نت",
        -9.39452741337318
      ],
      [
        "12",
        -9.395626449258256
      ],
      [
        "▁۲۵",
        -9.39644650618575
      ],
      [
        "▁راهنمای",
        -9.396978067552052
      ],
      [
        "▁نفس",
        -9.397082285827539
      ],
      [
        "▁خبرنگاران",
        -9.398864344411717
      ],
      [
        "▁فردی",
        -9.400329526684004
      ],
      [
        "▁شدت",
        -9.400793579901627
      ],
      [
        "▁تحویل",
        -9.400960943505396
      ],
      [
        "▁تاکنون",
        -9.403043538962168
      ],
      [
        "▁کف",
        -9.403479452790293
      ],
      [
        "▁شهادت",
        -9.403632416313588
      ],
      [
        "▁ذهن",
        -9.404076609920157
      ],
      [
        "▁جنس",
        -9.404210909710898
      ],
      [
        "▁سپاه",
        -9.405218889677823
      ],
      [
        "▁سند",
        -9.405538905063182
      ],
      [
        "▁تغذیه",
        -9.40705842267067
      ],
      [
        "▁اذربایجان",
        -9.407395537950979
      ],
      [
        "▁حکم",
        -9.407619073933349
      ],
      [
        "▁قلم",
        -9.409058966315548
      ],
      [
        "▁حقوقی",
        -9.409854795224547
      ],
      [
        "▁اشتباه",
        -9.4101474585886
      ],
      [
        "▁اپلیکیشن",
        -9.41101692605123
      ],
      [
        "▁ایمنی",
        -9.411210874312776
      ],
      [
        "▁جستجو",
        -9.41127112455586
      ],
      [
        "اق",
        -9.411844385511646
      ],
      [
        "▁دستی",
        -9.411905861968307
      ],
      [
        "▁اشنایی",
        -9.41211104104766
      ],
      [
        "▁خودم",
        -9.412732033662813
      ],
      [
        "▁صحیح",
        -9.412928775395478
      ],
      [
        "▁نژاد",
        -9.413222396189028
      ],
      [
        "▁اپ",
        -9.413310959279173
      ],
      [
        "▁ديگر",
        -9.414130185456077
      ],
      [
        "سا",
        -9.414167748047982
      ],
      [
        "▁چرخ",
        -9.414225980283799
      ],
      [
        "▁مس",
        -9.41538933677765
      ],
      [
        "▁پارک",
        -9.416869889623088
      ],
      [
        "▁نظیر",
        -9.417239894000108
      ],
      [
        "▁قبول",
        -9.417319756504263
      ],
      [
        "▁وسایل",
        -9.417527487767382
      ],
      [
        "re",
        -9.417826157788678
      ],
      [
        "سون",
        -9.418151281062876
      ],
      [
        "▁همایش",
        -9.41906461037544
      ],
      [
        "▁بە",
        -9.419267516345839
      ],
      [
        "▁ابعاد",
        -9.419690302865746
      ],
      [
        "▁فولاد",
        -9.42013650042297
      ],
      [
        "▁معنی",
        -9.421791472162825
      ],
      [
        "▁کشف",
        -9.421878657661967
      ],
      [
        "ro",
        -9.42201020068583
      ],
      [
        "▁سالم",
        -9.422902504983686
      ],
      [
        "▁حادثه",
        -9.423833364324224
      ],
      [
        "▁عهده",
        -9.423902712820336
      ],
      [
        "▁زنی",
        -9.424538182349691
      ],
      [
        "▁نهاد",
        -9.425175827497672
      ],
      [
        ",000",
        -9.42629880964166
      ],
      [
        "us",
        -9.427673075044638
      ],
      [
        "▁گاهی",
        -9.428857017176849
      ],
      [
        "▁میوه",
        -9.429737262996046
      ],
      [
        "▁ارتش",
        -9.430631659908526
      ],
      [
        "▁گردد.",
        -9.430981327554885
      ],
      [
        "‌اش",
        -9.433413345671871
      ],
      [
        "▁بیت",
        -9.433457588155601
      ],
      [
        "▁(ع)",
        -9.433467340973596
      ],
      [
        "▁صورتی",
        -9.433503086396364
      ],
      [
        "▁سالن",
        -9.43502373686305
      ],
      [
        "▁جایی",
        -9.435266359787219
      ],
      [
        "▁همواره",
        -9.435318165522203
      ],
      [
        "▁مصاحبه",
        -9.435391539569359
      ],
      [
        "▁همچون",
        -9.435653482756575
      ],
      [
        "▁27",
        -9.43787593207846
      ],
      [
        "▁سرد",
        -9.437947098206838
      ],
      [
        "ژ",
        -9.438311309638145
      ],
      [
        ".com",
        -9.438351039859944
      ],
      [
        "▁ترکیب",
        -9.43883538558833
      ],
      [
        "▁سفارش",
        -9.440123361725584
      ],
      [
        "▁J",
        -9.441043338325732
      ],
      [
        "▁ها،",
        -9.44120590610051
      ],
      [
        "▁اختصاص",
        -9.442373118427412
      ],
      [
        "چی",
        -9.443345864198385
      ],
      [
        "▁کرمان",
        -9.443364533956345
      ],
      [
        "▁مطالعات",
        -9.444343177036558
      ],
      [
        "▁همزمان",
        -9.445754909964178
      ],
      [
        "▁پنجشنبه",
        -9.445835377169757
      ],
      [
        "▁تبلیغاتی",
        -9.44591918907297
      ],
      [
        "▁ارام",
        -9.446051636268823
      ],
      [
        "O",
        -9.446472909460597
      ],
      [
        "▁مسيول",
        -9.447452439110549
      ],
      [
        "▁پارس",
        -9.447607397708065
      ],
      [
        "▁یافت",
        -9.447836994300143
      ],
      [
        "▁مقابله",
        -9.450016700561317
      ],
      [
        "▁مازندران",
        -9.450421241492482
      ],
      [
        "▁نی",
        -9.45058233928853
      ],
      [
        "▁شبیه",
        -9.450766257479916
      ],
      [
        "▁شخص",
        -9.45124213948535
      ],
      [
        "▁09",
        -9.452398678631743
      ],
      [
        "▁Pro",
        -9.452564718991272
      ],
      [
        "▁جلو",
        -9.452650749418039
      ],
      [
        "▁کارهای",
        -9.453357147846921
      ],
      [
        "▁خارجه",
        -9.453871093608239
      ],
      [
        "▁ظاهر",
        -9.454271348111924
      ],
      [
        "▁باغ",
        -9.455521596220818
      ],
      [
        "▁بازیکنان",
        -9.455713832197768
      ],
      [
        "▁رود",
        -9.456177067640834
      ],
      [
        "▁شش",
        -9.45620872682904
      ],
      [
        "▁پیروزی",
        -9.45690147183654
      ],
      [
        "▁مت",
        -9.457132228312545
      ],
      [
        "▁همسر",
        -9.457254174717871
      ],
      [
        "▁ذخیره",
        -9.45766335427755
      ],
      [
        "▁28",
        -9.458842348167714
      ],
      [
        "▁کابل",
        -9.459715475075507
      ],
      [
        "▁بي",
        -9.460032307041537
      ],
      [
        "16",
        -9.46298807096177
      ],
      [
        "▁سخن",
        -9.46305977664771
      ],
      [
        "▁اسان",
        -9.464045203933772
      ],
      [
        "▁ویرایش",
        -9.464265990877013
      ],
      [
        "[",
        -9.465067136862205
      ],
      [
        "▁اوری",
        -9.465563992953598
      ],
      [
        "▁تحصیل",
        -9.465984580213917
      ],
      [
        "▁صفر",
        -9.466065329424564
      ],
      [
        "ir",
        -9.466132978080854
      ],
      [
        "▁چقدر",
        -9.466350142961002
      ],
      [
        "▁جشن",
        -9.467162070396695
      ],
      [
        "▁گسترده",
        -9.467976587388446
      ],
      [
        "▁بازیکن",
        -9.469384446469629
      ],
      [
        "▁سوخت",
        -9.469634451531007
      ],
      [
        "▁می‌توانید",
        -9.469647109894321
      ],
      [
        "▁الکترونیک",
        -9.470286181538842
      ],
      [
        "▁مسيولیت",
        -9.470577869706261
      ],
      [
        "▁دارو",
        -9.471549981696985
      ],
      [
        "▁نوروز",
        -9.47220626845343
      ],
      [
        "▁اشپزخانه",
        -9.473163939836637
      ],
      [
        "▁چیست",
        -9.473610951469642
      ],
      [
        "▁فرزند",
        -9.473755513562734
      ],
      [
        "06",
        -9.475093577712464
      ],
      [
        "▁40",
        -9.475156356955694
      ],
      [
        "▁داعش",
        -9.475634071079982
      ],
      [
        "▁۲۴",
        -9.475876371163508
      ],
      [
        "▁باور",
        -9.47612322447743
      ],
      [
        "▁Z",
        -9.476935409521712
      ],
      [
        "▁خداوند",
        -9.477311594557051
      ],
      [
        "▁كرد",
        -9.47737793172077
      ],
      [
        "▁اپل",
        -9.478178926986246
      ],
      [
        "▁حیوانات",
        -9.478655564157098
      ],
      [
        "▁شمالی",
        -9.478762202073616
      ],
      [
        "▁ادبیات",
        -9.479799506246955
      ],
      [
        "▁f",
        -9.480205614610234
      ],
      [
        "▁اسناد",
        -9.480432115783891
      ],
      [
        "▁وسیله",
        -9.481940709563624
      ],
      [
        "▁مردان",
        -9.482773028420832
      ],
      [
        "▁کیف",
        -9.483738721262522
      ],
      [
        "▁باقی",
        -9.483915259529049
      ],
      [
        "▁توی",
        -9.484543666069838
      ],
      [
        "▁حاشیه",
        -9.485309827869369
      ],
      [
        "ء",
        -9.485787086251637
      ],
      [
        "▁می‌کنند.",
        -9.485934802767293
      ],
      [
        "el",
        -9.487071466378342
      ],
      [
        "▁فی",
        -9.487076692049516
      ],
      [
        "۹",
        -9.48833626703594
      ],
      [
        "▁اورده",
        -9.488707823108863
      ],
      [
        "▁مدرن",
        -9.489578625556279
      ],
      [
        ".ir/",
        -9.490064977463277
      ],
      [
        "07",
        -9.490869560544155
      ],
      [
        "▁متوجه",
        -9.491024461017851
      ],
      [
        "علی",
        -9.491956640501456
      ],
      [
        "Y",
        -9.492686230911362
      ],
      [
        "▁شرق",
        -9.492706338902433
      ],
      [
        "▁1394",
        -9.493792575066397
      ],
      [
        "▁موقعیت",
        -9.49451789604849
      ],
      [
        "▁پودر",
        -9.495050305359554
      ],
      [
        "▁دیدن",
        -9.495156790243097
      ],
      [
        "▁98",
        -9.496255289116405
      ],
      [
        "بل",
        -9.496342290176337
      ],
      [
        "▁عبارت",
        -9.496540379575375
      ],
      [
        "▁سابق",
        -9.496722241160489
      ],
      [
        "▁توانایی",
        -9.49680110565069
      ],
      [
        "▁مرز",
        -9.496907549684693
      ],
      [
        "▁نمایید.",
        -9.497818941053659
      ],
      [
        "▁جاده",
        -9.497926492156182
      ],
      [
        "فروش",
        -9.498127580871913
      ],
      [
        "▁کاربری",
        -9.498499255194432
      ],
      [
        "▁و...",
        -9.498711300871829
      ],
      [
        "▁پنجم",
        -9.499771523537209
      ],
      [
        "▁دیوار",
        -9.499820085608295
      ],
      [
        "ly",
        -9.500135490976893
      ],
      [
        "پی",
        -9.500344902208823
      ],
      [
        "▁﻿",
        -9.500682005523185
      ],
      [
        "▁الی",
        -9.501273240200742
      ],
      [
        "▁میتوانید",
        -9.501526846096766
      ],
      [
        "اموزش",
        -9.501899420378049
      ],
      [
        "▁گیرد",
        -9.502607706860317
      ],
      [
        "▁گوشت",
        -9.503554680775284
      ],
      [
        "▁کشتی",
        -9.503574448561707
      ],
      [
        "▁گفتگو",
        -9.504427836029251
      ],
      [
        "▁محور",
        -9.505456904939946
      ],
      [
        "▁قول",
        -9.50660902652563
      ],
      [
        "▁۰",
        -9.50687697999741
      ],
      [
        "▁فهرست",
        -9.506907272226282
      ],
      [
        "▁گیرد.",
        -9.507358385813252
      ],
      [
        "Laptop",
        -9.50765619477326
      ],
      [
        "▁مهمترین",
        -9.507823156643276
      ],
      [
        "▁۹۵",
        -9.50803268368665
      ],
      [
        "▁معظم",
        -9.508615387093231
      ],
      [
        "▁اموزان",
        -9.5086934299515
      ],
      [
        "▁غربی",
        -9.50912324304074
      ],
      [
        "▁می‌توانند",
        -9.510322377680197
      ],
      [
        "▁درب",
        -9.511904138762462
      ],
      [
        "▁بازیگر",
        -9.512359626481285
      ],
      [
        "▁قطع",
        -9.513121765033379
      ],
      [
        "‌سازی",
        -9.514794808710343
      ],
      [
        "▁صادر",
        -9.51501239602931
      ],
      [
        "▁راحت",
        -9.515060004946665
      ],
      [
        "▁شان",
        -9.515094105384973
      ],
      [
        "ation",
        -9.5169360438369
      ],
      [
        "▁حس",
        -9.51765303146641
      ],
      [
        "11",
        -9.517753102307221
      ],
      [
        "▁معلم",
        -9.518084191929859
      ],
      [
        "▁اغلب",
        -9.518331105842073
      ],
      [
        "▁كشور",
        -9.518535899826364
      ],
      [
        "▁26",
        -9.518545441118363
      ],
      [
        "▁کشی",
        -9.518959981470047
      ],
      [
        ".com/",
        -9.519275886783
      ],
      [
        "فا",
        -9.519435509434498
      ],
      [
        "▁اتحادیه",
        -9.519859243110687
      ],
      [
        "▁واردات",
        -9.52032345119446
      ],
      [
        "▁تقریبا",
        -9.520879428889506
      ],
      [
        "وری",
        -9.520934238556583
      ],
      [
        "▁هوایی",
        -9.521358292090207
      ],
      [
        "▁سعید",
        -9.5215258587102
      ],
      [
        "▁شناخته",
        -9.521800258530888
      ],
      [
        "▁[...]",
        -9.521848792287123
      ],
      [
        "▁حمید",
        -9.52211151653642
      ],
      [
        "▁USB",
        -9.52230678438697
      ],
      [
        "▁ششم",
        -9.52337121213862
      ],
      [
        "▁60",
        -9.523882751477979
      ],
      [
        "▁سابقه",
        -9.523971226305434
      ],
      [
        "▁خوردن",
        -9.525463985189287
      ],
      [
        "▁بانکی",
        -9.526527370114323
      ],
      [
        "▁مسجد",
        -9.526790479002134
      ],
      [
        "▁لذت",
        -9.526953577552622
      ],
      [
        "تور",
        -9.52760330754662
      ],
      [
        "▁تربیت",
        -9.527698895683518
      ],
      [
        "▁شیوه",
        -9.528305805325303
      ],
      [
        "▁بیست",
        -9.528495897141417
      ],
      [
        "▁ایران،",
        -9.529357661484337
      ],
      [
        "فی",
        -9.530530550751056
      ],
      [
        "▁فن",
        -9.530556530145809
      ],
      [
        "▁باشید.",
        -9.530619156030966
      ],
      [
        "بد",
        -9.531615228143824
      ],
      [
        "▁افتاب",
        -9.531994840105797
      ],
      [
        "▁دشمن",
        -9.532144412707353
      ],
      [
        "▁۱۳۹۲",
        -9.532423361935912
      ],
      [
        "▁سرور",
        -9.533026741813693
      ],
      [
        "يل",
        -9.533186360031818
      ],
      [
        "▁U",
        -9.533540314382897
      ],
      [
        "گو",
        -9.53434886806644
      ],
      [
        "Z",
        -9.53485212828605
      ],
      [
        "▁پیگیری",
        -9.53521936597086
      ],
      [
        "▁هاشمی",
        -9.535239396962108
      ],
      [
        "اش",
        -9.535988421904168
      ],
      [
        "▁گذشت",
        -9.538626097746853
      ],
      [
        "▁واقعیت",
        -9.538675883034571
      ],
      [
        "▁قهوه",
        -9.539789341153107
      ],
      [
        "▁جزيیات",
        -9.540041310135988
      ],
      [
        "دان",
        -9.540666288083198
      ],
      [
        "▁گیلان",
        -9.542034786717434
      ],
      [
        "22",
        -9.542477661429249
      ],
      [
        "▁عاشقانه",
        -9.544649112809587
      ],
      [
        "▁میباشد",
        -9.54554172150739
      ],
      [
        "19",
        -9.54574292616033
      ],
      [
        "‌ها،",
        -9.546485244872102
      ],
      [
        "نامه",
        -9.546740107629486
      ],
      [
        "▁اشتغال",
        -9.546876209180933
      ],
      [
        "▁کردیم",
        -9.547324769278356
      ],
      [
        "▁بالاتر",
        -9.547347194346624
      ],
      [
        "▁دینی",
        -9.549429745823735
      ],
      [
        "▁نمی‌",
        -9.550470974170445
      ],
      [
        "▁شناخت",
        -9.550822394435423
      ],
      [
        "▁هسته",
        -9.551223398450809
      ],
      [
        "▁کارشناس",
        -9.551483408502321
      ],
      [
        "▁مبلغ",
        -9.551749851669857
      ],
      [
        "▁توپ",
        -9.55209335999933
      ],
      [
        "13",
        -9.55267511093945
      ],
      [
        "▁گذاشته",
        -9.553458234659534
      ],
      [
        "▁بشر",
        -9.554176059951244
      ],
      [
        "29",
        -9.55449692499106
      ],
      [
        "et",
        -9.554516366000847
      ],
      [
        "▁بزرگترین",
        -9.555738576449048
      ],
      [
        "ad",
        -9.555753495928695
      ],
      [
        "ۆ",
        -9.5563452377043
      ],
      [
        "▁چندین",
        -9.556938549105917
      ],
      [
        "▁له‌",
        -9.557028178619994
      ],
      [
        "▁مجوز",
        -9.557041364359083
      ],
      [
        "▁فردا",
        -9.557100117682781
      ],
      [
        "▁عجیب",
        -9.55710626065335
      ],
      [
        "▁پرس",
        -9.558065249564972
      ],
      [
        "▁هستید",
        -9.55993346311779
      ],
      [
        "▁حسینی",
        -9.560015842209705
      ],
      [
        "▁هوای",
        -9.560351276705184
      ],
      [
        "▁کارکنان",
        -9.561408487580287
      ],
      [
        "▁مغز",
        -9.561686145890253
      ],
      [
        "▁نگه",
        -9.563190513199459
      ],
      [
        "te",
        -9.564121986952257
      ],
      [
        "▁طولانی",
        -9.56469456400636
      ],
      [
        "▁برجام",
        -9.565131212839368
      ],
      [
        "it",
        -9.566669031086985
      ],
      [
        "ێ",
        -9.566802575162614
      ],
      [
        "▁صرف",
        -9.567238433210555
      ],
      [
        "▁کرج",
        -9.567782453435212
      ],
      [
        "▁هفتم",
        -9.570056291029932
      ],
      [
        "▁ساختمانی",
        -9.570216944604342
      ],
      [
        "▁بازاریابی",
        -9.570948213130336
      ],
      [
        "۱۰",
        -9.571874020816338
      ],
      [
        "▁گران",
        -9.5722302026395
      ],
      [
        "▁هستم",
        -9.57303136628044
      ],
      [
        "▁یزد",
        -9.573223423940014
      ],
      [
        "يان",
        -9.573402161569845
      ],
      [
        "کس",
        -9.575920842609172
      ],
      [
        "▁مدیرعامل",
        -9.577264682319012
      ],
      [
        "▁مانده",
        -9.577368368995572
      ],
      [
        "27",
        -9.577583217670922
      ],
      [
        "▁جوش",
        -9.577966043243778
      ],
      [
        "▁صندلی",
        -9.578287898039942
      ],
      [
        "ur",
        -9.578665869225931
      ],
      [
        "▁ویديو",
        -9.579005122097861
      ],
      [
        "ra",
        -9.58034503559267
      ],
      [
        "▁نقاشی",
        -9.580434182761252
      ],
      [
        "▁بين",
        -9.580659982942656
      ],
      [
        "ta",
        -9.580817434535653
      ],
      [
        "▁صدور",
        -9.581255312367002
      ],
      [
        "▁متوسط",
        -9.581399946762854
      ],
      [
        "▁قوی",
        -9.58255498082286
      ],
      [
        "اء",
        -9.583108545405915
      ],
      [
        "▁گردد",
        -9.58335436832888
      ],
      [
        "▁عوارض",
        -9.583754178524819
      ],
      [
        "▁حاج",
        -9.583797282300765
      ],
      [
        "▁متعدد",
        -9.584521509960892
      ],
      [
        "▁ورودی",
        -9.58474111591389
      ],
      [
        "▁ماسه",
        -9.585563139213638
      ],
      [
        "▁بنام",
        -9.585830553053423
      ],
      [
        "▁چالش",
        -9.585891792926253
      ],
      [
        "%",
        -9.58650251476914
      ],
      [
        "▁بیمار",
        -9.586650814051279
      ],
      [
        "▁الکترونیکی",
        -9.587209584738806
      ],
      [
        "▁گر",
        -9.58779843822583
      ],
      [
        "▁عروس",
        -9.588138323847826
      ],
      [
        "▁وظیفه",
        -9.588184874396397
      ],
      [
        "▁اور",
        -9.588813809220026
      ],
      [
        "خانه",
        -9.589293966233392
      ],
      [
        "000",
        -9.590065966942273
      ],
      [
        "▁دهید.",
        -9.590280488555756
      ],
      [
        "▁صاحب",
        -9.59035940876712
      ],
      [
        "▁کلمات",
        -9.590665492055523
      ],
      [
        "▁مشاور",
        -9.590714062330832
      ],
      [
        "ذ",
        -9.591075397541044
      ],
      [
        "▁یکدیگر",
        -9.591297266378497
      ],
      [
        "▁بازیگران",
        -9.592172787271217
      ],
      [
        "▁راستای",
        -9.59234424080703
      ],
      [
        "▁دزدگیر",
        -9.59246005606706
      ],
      [
        "▁مهندس",
        -9.592644251541236
      ],
      [
        "▁عرض",
        -9.592811247013444
      ],
      [
        "له",
        -9.593786972460613
      ],
      [
        "▁لب",
        -9.594178335260745
      ],
      [
        "▁عدالت",
        -9.594605336475574
      ],
      [
        "▁بو",
        -9.59498148621548
      ],
      [
        "▁بین‌المللی",
        -9.59533821484343
      ],
      [
        "ظ",
        -9.59561273904622
      ],
      [
        "▁عسل",
        -9.596359679648115
      ],
      [
        "J",
        -9.597812482310985
      ],
      [
        "▁تصویب",
        -9.597931363078127
      ],
      [
        "▁سرخ",
        -9.598536348559648
      ],
      [
        "▁‬",
        -9.598739843051558
      ],
      [
        "▁عقب",
        -9.598779422931639
      ],
      [
        "▁دلایل",
        -9.599115412687913
      ],
      [
        "▁بودم",
        -9.599181472268427
      ],
      [
        "▁1392",
        -9.59990437073241
      ],
      [
        "▁خواست",
        -9.600330049831673
      ],
      [
        "▁امروزه",
        -9.601038447670708
      ],
      [
        "▁حجت",
        -9.601156998328259
      ],
      [
        "▁]",
        -9.602111680875332
      ],
      [
        "▁1393",
        -9.602682534113267
      ],
      [
        "▁اخذ",
        -9.60302832311153
      ],
      [
        "▁مطمين",
        -9.60343138898331
      ],
      [
        "▁ضروری",
        -9.60389879465464
      ],
      [
        "ter",
        -9.604383691949561
      ],
      [
        "▁عربی",
        -9.60449368931992
      ],
      [
        "▁راست",
        -9.60456425282079
      ],
      [
        "▁محترم",
        -9.60471891208719
      ],
      [
        "▁بیماران",
        -9.605151426342115
      ],
      [
        "▁عضویت",
        -9.60526850490173
      ],
      [
        "▁انتقاد",
        -9.605448730747735
      ],
      [
        "▁رقم",
        -9.605958287982244
      ],
      [
        "▁دومین",
        -9.606137426894595
      ],
      [
        "▁برگ",
        -9.606148290132413
      ],
      [
        "▁گیر",
        -9.60850433575538
      ],
      [
        "▁دادگاه",
        -9.608775401978363
      ],
      [
        "▁2014",
        -9.610031649036387
      ],
      [
        "▁ضربه",
        -9.610582139530845
      ],
      [
        "‌شده",
        -9.61059775845538
      ],
      [
        "▁زد",
        -9.611921179171663
      ],
      [
        "▁باشیم",
        -9.613072258015297
      ],
      [
        "▁علیرضا",
        -9.614287056448756
      ],
      [
        "▁کارگاه",
        -9.614451057641752
      ],
      [
        "15",
        -9.616434705681051
      ],
      [
        "جا",
        -9.617101284169262
      ],
      [
        "۰",
        -9.617370132009235
      ],
      [
        "گران",
        -9.617639271128681
      ],
      [
        "▁1,",
        -9.619461514152022
      ],
      [
        "▁لی",
        -9.62000525243833
      ],
      [
        "▁امتحان",
        -9.622042420649796
      ],
      [
        "▁p",
        -9.622562651119182
      ],
      [
        "▁اطراف",
        -9.623314349128494
      ],
      [
        "«",
        -9.623534650771596
      ],
      [
        "داری",
        -9.623543074097395
      ],
      [
        "ايی",
        -9.624644859618517
      ],
      [
        "▁بۆ",
        -9.62472501262615
      ],
      [
        "▁کاغذ",
        -9.624806910240066
      ],
      [
        "▁2013",
        -9.625132902873151
      ],
      [
        "man",
        -9.625259639915125
      ],
      [
        "▁شارژ",
        -9.62542138123505
      ],
      [
        "▁29",
        -9.625587258361495
      ],
      [
        "▁سنت",
        -9.626840359143204
      ],
      [
        "▁خواندن",
        -9.627095947634237
      ],
      [
        "▁اورد",
        -9.627301236059422
      ],
      [
        "▁نشانه",
        -9.627303142701138
      ],
      [
        "قی",
        -9.627522319205246
      ],
      [
        "▁موضوعات",
        -9.62760838225898
      ],
      [
        "▁هستند،",
        -9.628725241081314
      ],
      [
        "09",
        -9.630077604802121
      ],
      [
        "▁خودروهای",
        -9.630350300252438
      ],
      [
        "ic",
        -9.630889025269722
      ],
      [
        "▁چراغ",
        -9.63114839273896
      ],
      [
        "▁فراموش",
        -9.63134110115519
      ],
      [
        "▁محمود",
        -9.63146915230427
      ],
      [
        "▁مستند",
        -9.631486858519608
      ],
      [
        "٫",
        -9.632866713711486
      ],
      [
        "▁دانست",
        -9.634631836385147
      ],
      [
        "▁}",
        -9.634710298846368
      ],
      [
        "▁ق.ظ",
        -9.634734051408977
      ],
      [
        "▁گیاه",
        -9.634922399564136
      ],
      [
        "▁منفی",
        -9.635081155201394
      ],
      [
        "▁فضا",
        -9.635361171032788
      ],
      [
        "▁پرسش",
        -9.636289406542723
      ],
      [
        "روز",
        -9.638110005334136
      ],
      [
        "▁مختلفی",
        -9.638180027924523
      ],
      [
        "▁پ",
        -9.638544220293163
      ],
      [
        "17",
        -9.638734011469293
      ],
      [
        "▁مراقبت",
        -9.639185464452892
      ],
      [
        "▁شهروندان",
        -9.639507874784147
      ],
      [
        "▁O",
        -9.640124352749012
      ],
      [
        "▁چربی",
        -9.64093022385532
      ],
      [
        "▁بیشترین",
        -9.641047883741017
      ],
      [
        "▁بهار",
        -9.641545495866293
      ],
      [
        "▁باتری",
        -9.64158424762177
      ],
      [
        "▁--",
        -9.642655195048421
      ],
      [
        "▁سنگین",
        -9.642832320540101
      ],
      [
        "۱۲",
        -9.642905299078842
      ],
      [
        "▁حج",
        -9.643436877333176
      ],
      [
        "کت",
        -9.644028693178516
      ],
      [
        "▁سگ",
        -9.64611681450851
      ],
      [
        "st",
        -9.646378897361531
      ],
      [
        "▁ارایش",
        -9.646822037144466
      ],
      [
        "▁فدراسیون",
        -9.64732413209616
      ],
      [
        "▁فاز",
        -9.648427336348036
      ],
      [
        "▁کجا",
        -9.649387140820217
      ],
      [
        "▁مجمع",
        -9.649608730238906
      ],
      [
        "▁انگیز",
        -9.649798039788756
      ],
      [
        "یم.",
        -9.650233017948953
      ],
      [
        "▁نمایید",
        -9.650634624721533
      ],
      [
        "▁قطعه",
        -9.651098615158137
      ],
      [
        "▁مناسبت",
        -9.651985957211384
      ],
      [
        "سه",
        -9.652289540730951
      ],
      [
        "▁تابستان",
        -9.652607762243019
      ],
      [
        "▁شرقی",
        -9.652687536175915
      ],
      [
        "▁سازه",
        -9.653193138225237
      ],
      [
        "▁مجموع",
        -9.65338576916586
      ],
      [
        "▁معنای",
        -9.653661407818118
      ],
      [
        "▁c",
        -9.653826074851981
      ],
      [
        "▁ماهی",
        -9.653844873269954
      ],
      [
        "q",
        -9.654396679853438
      ],
      [
        "▁هدایت",
        -9.654464973294878
      ],
      [
        "▁نویسی",
        -9.654665701277299
      ],
      [
        "▁ك",
        -9.65473212696283
      ],
      [
        "▁خروج",
        -9.654759211989443
      ],
      [
        "▁انکه",
        -9.654782026331535
      ],
      [
        "▁تياتر",
        -9.654903734486354
      ],
      [
        "▁نمود",
        -9.65542366986421
      ],
      [
        "me",
        -9.655570289936215
      ],
      [
        "▁1.",
        -9.655580365246413
      ],
      [
        "▁داری",
        -9.65607560169188
      ],
      [
        "▁منتظر",
        -9.656545173953196
      ],
      [
        "▁قزوین",
        -9.65706218663462
      ],
      [
        "▁شیمیایی",
        -9.657739346462169
      ],
      [
        "▁بازرگانی",
        -9.65791447019243
      ],
      [
        "▁رضایت",
        -9.658609959061174
      ],
      [
        "▁اختلاف",
        -9.658983025042023
      ],
      [
        "▁حقیقت",
        -9.659638672386752
      ],
      [
        "▁طب",
        -9.660157273667544
      ],
      [
        "▁اعتراض",
        -9.660476108870357
      ],
      [
        "▁میکنم",
        -9.662394502187793
      ],
      [
        "مین",
        -9.662797364341927
      ],
      [
        "پور",
        -9.663095509785528
      ],
      [
        "▁بارداری",
        -9.663099600502708
      ],
      [
        "▁بانوان",
        -9.663398521937976
      ],
      [
        "داد",
        -9.663422902632899
      ],
      [
        "▁ثانیه",
        -9.663580082201047
      ],
      [
        "▁سخنان",
        -9.664517097308352
      ],
      [
        "▁شیرین",
        -9.664706981614358
      ],
      [
        "▁بالایی",
        -9.664823274084508
      ],
      [
        "▁روح",
        -9.6649051750744
      ],
      [
        "01",
        -9.664923500697324
      ],
      [
        "▁بدین",
        -9.665368276233192
      ],
      [
        "▁جایزه",
        -9.665483898808994
      ],
      [
        "▁تقسیم",
        -9.66616409758496
      ],
      [
        "▁کارتون",
        -9.667486707878979
      ],
      [
        "دل",
        -9.668473876389545
      ],
      [
        "▁رمضان",
        -9.6688632574588
      ],
      [
        "▁مک",
        -9.669084659879816
      ],
      [
        "▁محلی",
        -9.6691137888917
      ],
      [
        "▁اگاهی",
        -9.66942578215042
      ],
      [
        "▁90",
        -9.669434120093795
      ],
      [
        "▁ازمایش",
        -9.669642387334303
      ],
      [
        "▁سکه",
        -9.669874830954143
      ],
      [
        "▁سخنرانی",
        -9.671529081276631
      ],
      [
        "▁شغل",
        -9.672164036352552
      ],
      [
        "▁چای",
        -9.672873492591961
      ],
      [
        "is",
        -9.673247347925846
      ],
      [
        "▁جهاد",
        -9.67330845278127
      ],
      [
        "▁معاونت",
        -9.674197922930714
      ],
      [
        "▁رستوران",
        -9.674359579387424
      ],
      [
        "▁مبتلا",
        -9.67449480421127
      ],
      [
        "بند",
        -9.674908348296395
      ],
      [
        "▁کوه",
        -9.674987844368133
      ],
      [
        "▁قوه",
        -9.675321797010707
      ],
      [
        "▁تب",
        -9.67571097535653
      ],
      [
        "ند،",
        -9.675884641098097
      ],
      [
        "▁نمايید.",
        -9.676633616696577
      ],
      [
        "▁Laptop",
        -9.677296513971967
      ],
      [
        "▁مدار",
        -9.677635965775575
      ],
      [
        "▁بلک",
        -9.67815445716434
      ],
      [
        "▁نکرده",
        -9.678504687368436
      ],
      [
        "▁پنجره",
        -9.67853086177232
      ],
      [
        "▁رادیو",
        -9.678792399760525
      ],
      [
        "▁عاشق",
        -9.678961245165002
      ],
      [
        "▁اکثر",
        -9.67950033451471
      ],
      [
        "▁In",
        -9.679821316644153
      ],
      [
        "▁استقبال",
        -9.680284779080257
      ],
      [
        "▁بتواند",
        -9.680894472466846
      ],
      [
        "▁گیگابایت",
        -9.681030641604849
      ],
      [
        "▁کیش",
        -9.681108851608032
      ],
      [
        "▁روزه",
        -9.681620873827768
      ],
      [
        "▁پیشگیری",
        -9.681933015524713
      ],
      [
        "▁جم",
        -9.682063243908004
      ],
      [
        "▁لغو",
        -9.682832991986427
      ],
      [
        "14",
        -9.683042875265501
      ],
      [
        "▁كرده",
        -9.683197098595654
      ],
      [
        "▁همدان",
        -9.683468091371218
      ],
      [
        "▁پيش",
        -9.684716298744707
      ],
      [
        "▁قدم",
        -9.685784829555583
      ],
      [
        "یون",
        -9.686035513719798
      ],
      [
        "▁السلام",
        -9.686766531180124
      ],
      [
        "▁موج",
        -9.687339274629334
      ],
      [
        "il",
        -9.6873483903358
      ],
      [
        "▁گرد",
        -9.687489811865936
      ],
      [
        "برای",
        -9.689262826362732
      ],
      [
        "▁کلیدی",
        -9.691013706204291
      ],
      [
        "as",
        -9.691029040614213
      ],
      [
        "▁طرز",
        -9.691130573280311
      ],
      [
        "▁نیازمند",
        -9.6913928783162
      ],
      [
        "▁پرو",
        -9.691490748064988
      ],
      [
        "▁برداشت",
        -9.69207162006081
      ],
      [
        "▁تخت",
        -9.693383256173217
      ],
      [
        "▁چک",
        -9.69364157239879
      ],
      [
        "▁کلمه",
        -9.693849036537245
      ],
      [
        "▁ارامش",
        -9.694276979790672
      ],
      [
        "▁تهدید",
        -9.69476638584366
      ],
      [
        "▁ایم",
        -9.696487835109405
      ],
      [
        "▁عطر",
        -9.697256184233622
      ],
      [
        "تن",
        -9.69774399671019
      ],
      [
        "▁کتابخانه",
        -9.697808030986856
      ],
      [
        "▁تخم",
        -9.698443279728991
      ],
      [
        "▁استاندار",
        -9.699199621376088
      ],
      [
        "▁رضوی",
        -9.699284575932106
      ],
      [
        "▁فیلتر",
        -9.699825171754178
      ],
      [
        "بین",
        -9.700410370707615
      ],
      [
        "بان",
        -9.702016578110548
      ],
      [
        "▁اچ",
        -9.70260981653492
      ],
      [
        "▁ابتدایی",
        -9.703097218975087
      ],
      [
        "▁موقع",
        -9.70376524508973
      ],
      [
        "▁اختصاصی",
        -9.704119319991236
      ],
      [
        "▁t",
        -9.704447582354977
      ],
      [
        "▁معامله",
        -9.704914326160395
      ],
      [
        "▁پیشرفته",
        -9.705458673187175
      ],
      [
        "/0",
        -9.705728490187742
      ],
      [
        "I",
        -9.70623491786486
      ],
      [
        ",دانلود",
        -9.70646692390426
      ],
      [
        "▁ولایت",
        -9.706763723425322
      ],
      [
        "▁ریز",
        -9.707063886869141
      ],
      [
        "▁کنفرانس",
        -9.707308434462567
      ],
      [
        "▁نما",
        -9.708115665847203
      ],
      [
        "▁اخلاق",
        -9.709042496775044
      ],
      [
        "۲۰",
        -9.70965446349698
      ],
      [
        "▁فرزندان",
        -9.709807177735431
      ],
      [
        "▁تصور",
        -9.710613570013999
      ],
      [
        "▁جرم",
        -9.711646598512164
      ],
      [
        "▁گیاهان",
        -9.712072289910862
      ],
      [
        "▁قرن",
        -9.712322697794047
      ],
      [
        "▁مي‌",
        -9.712742024188177
      ],
      [
        "▁خلق",
        -9.713389398269435
      ],
      [
        "▁کرمانشاه",
        -9.71350881918184
      ],
      [
        "▁چطور",
        -9.713791665198482
      ],
      [
        "▁استخراج",
        -9.714396178214319
      ],
      [
        "▁ندارند",
        -9.71440838728956
      ],
      [
        "▁رسد",
        -9.71529944451201
      ],
      [
        "40",
        -9.715847066683402
      ],
      [
        "▁هنرمندان",
        -9.715875066906674
      ],
      [
        "▁دم",
        -9.716203241582203
      ],
      [
        "▁روایت",
        -9.716881050371923
      ],
      [
        "▁جدیدی",
        -9.717301549353202
      ],
      [
        "اي",
        -9.718047498737409
      ],
      [
        "21",
        -9.718582894522571
      ],
      [
        "▁حمام",
        -9.718654511032703
      ],
      [
        "▁افتتاح",
        -9.719516689341704
      ],
      [
        "▁الم",
        -9.719624159787294
      ],
      [
        "▁علايم",
        -9.72063561961802
      ],
      [
        "▁مه",
        -9.720710552574921
      ],
      [
        "نرم",
        -9.720855945402171
      ],
      [
        "▁شک",
        -9.721893082018697
      ],
      [
        "▁می‌شوند",
        -9.721929135756305
      ],
      [
        "▁نوین",
        -9.72205400951977
      ],
      [
        "▁دکوراسیون",
        -9.722394023295676
      ],
      [
        "▁Re",
        -9.722504784471543
      ],
      [
        "▁سردار",
        -9.722556935582706
      ],
      [
        "▁ضرورت",
        -9.723443472023295
      ],
      [
        "▁خواص",
        -9.723924873839444
      ],
      [
        "▁1-",
        -9.724217625463876
      ],
      [
        "ri",
        -9.724434533959815
      ],
      [
        "▁اتصال",
        -9.724869828711942
      ],
      [
        "▁کارگران",
        -9.725055218548352
      ],
      [
        "▁فرمت",
        -9.72511873691203
      ],
      [
        "▁www.",
        -9.725453147944492
      ],
      [
        "▁نماید.",
        -9.725667208150428
      ],
      [
        "▁جواد",
        -9.72655033110138
      ],
      [
        "▁محبوب",
        -9.726644246282284
      ],
      [
        "▁روي",
        -9.727426981341527
      ],
      [
        "na",
        -9.728067283532683
      ],
      [
        "متر",
        -9.728355039617004
      ],
      [
        "▁مجاز",
        -9.728558641791125
      ],
      [
        "▁دانشجو",
        -9.728590775664571
      ],
      [
        "▁مسعود",
        -9.729531792602495
      ],
      [
        "▁سونی",
        -9.729676888536208
      ],
      [
        "▁هشت",
        -9.729777500384834
      ],
      [
        "▁اولویت",
        -9.73009401061416
      ],
      [
        "يا",
        -9.730145196791064
      ],
      [
        "..",
        -9.730985309452834
      ],
      [
        "▁پیاده",
        -9.731643370989898
      ],
      [
        "▁خالی",
        -9.73273931535319
      ],
      [
        "▁محتوای",
        -9.732964134701689
      ],
      [
        "▁۱۳۹۹",
        -9.733072373910453
      ],
      [
        "▁گفت‌وگو",
        -9.733548656837879
      ],
      [
        "▁اهواز",
        -9.734242108954327
      ],
      [
        "▁وجه",
        -9.734534670525473
      ],
      [
        "▁هماهنگی",
        -9.735497864347199
      ],
      [
        "▁مذهبی",
        -9.73568380275248
      ],
      [
        "▁می‌شود،",
        -9.736333314607165
      ],
      [
        "▁بوشهر",
        -9.73755926259314
      ],
      [
        "▁ابتدای",
        -9.737633760229178
      ],
      [
        "18",
        -9.737722292790727
      ],
      [
        "▁پمپ",
        -9.737743206609714
      ],
      [
        "▁شه",
        -9.73799832711077
      ],
      [
        "▁نوعی",
        -9.73835329653695
      ],
      [
        "▁الاسلام",
        -9.738410765342774
      ],
      [
        "ــ",
        -9.738716798080155
      ],
      [
        "▁رسید.",
        -9.73901989634406
      ],
      [
        "▁ناخن",
        -9.73937738550704
      ],
      [
        "▁یادگیری",
        -9.739553674643965
      ],
      [
        "▁واژه",
        -9.740154528361085
      ],
      [
        "۱۳",
        -9.740230557876604
      ],
      [
        "▁محاسبه",
        -9.74033799117669
      ],
      [
        "▁تسهیلات",
        -9.741438572082775
      ],
      [
        "▁مشغول",
        -9.741813187876044
      ],
      [
        "کل",
        -9.7420322009968
      ],
      [
        "▁بسیج",
        -9.742534979862633
      ],
      [
        "▁بهینه",
        -9.74286084223719
      ],
      [
        "▁ممنون",
        -9.744062642019635
      ],
      [
        "▁باره",
        -9.745280425344564
      ],
      [
        "ی‌",
        -9.7453397693408
      ],
      [
        "▁بگیرید",
        -9.745791051048872
      ],
      [
        "▁شهرهای",
        -9.746928752791675
      ],
      [
        "▁مناسبی",
        -9.74850695604141
      ],
      [
        "بازی",
        -9.748944163020017
      ],
      [
        "▁عین",
        -9.749216556910174
      ],
      [
        "▁حفاظت",
        -9.749514219752683
      ],
      [
        "▁داشتند",
        -9.750025869333687
      ],
      [
        "▁معاملات",
        -9.750643908054673
      ],
      [
        "یدن",
        -9.750666042178931
      ],
      [
        "▁فرمانده",
        -9.750811659622649
      ],
      [
        "گیری",
        -9.751080821094765
      ],
      [
        "▁تری",
        -9.751482558050757
      ],
      [
        "▁گفتم",
        -9.752071749534139
      ],
      [
        "▁بودند.",
        -9.752663639619374
      ],
      [
        "▁اسمان",
        -9.752899659346856
      ],
      [
        "▁بردن",
        -9.753152619780696
      ],
      [
        "▁قتل",
        -9.753203624607881
      ],
      [
        "ید.",
        -9.753231311793765
      ],
      [
        "▁تحلیلی",
        -9.753580481655366
      ],
      [
        "▁چوب",
        -9.754507310940802
      ],
      [
        "02",
        -9.755280956702407
      ],
      [
        "▁نهم",
        -9.756419658763502
      ],
      [
        "▁پارچه",
        -9.756836939282934
      ],
      [
        "▁تاريخ",
        -9.757381583136151
      ],
      [
        "▁صلح",
        -9.757559141047139
      ],
      [
        "▁تخفیف",
        -9.75790951480979
      ],
      [
        "▁سازنده",
        -9.758123658264637
      ],
      [
        "زن",
        -9.758214991805485
      ],
      [
        "رنگ",
        -9.758267976769016
      ],
      [
        "جو",
        -9.759176823360448
      ],
      [
        "▁هشدار",
        -9.759251815336711
      ],
      [
        "▁محدوده",
        -9.759523974952629
      ],
      [
        "▁نجات",
        -9.759555053157806
      ],
      [
        "▁ابراهیم",
        -9.760368818327095
      ],
      [
        "▁۲۷",
        -9.76075313397075
      ],
      [
        "▁۲۶",
        -9.760896283212356
      ],
      [
        "▁مدیرکل",
        -9.760982244760296
      ],
      [
        "▁هوش",
        -9.761936436853365
      ],
      [
        "▁سقف",
        -9.761966468902711
      ],
      [
        "▁محمدرضا",
        -9.76257145164536
      ],
      [
        "93",
        -9.762822479311005
      ],
      [
        "▁قطر",
        -9.762965128371135
      ],
      [
        "▁سیر",
        -9.76397925681233
      ],
      [
        "▁کشته",
        -9.764688061423431
      ],
      [
        "▁چینی",
        -9.76529965263866
      ],
      [
        "▁کنند،",
        -9.76576301615355
      ],
      [
        "▁×",
        -9.768340695745012
      ],
      [
        "▁الهی",
        -9.768448154893795
      ],
      [
        "▁فرودگاه",
        -9.769583297684166
      ],
      [
        "▁بدانید",
        -9.769978929995535
      ],
      [
        "▁مفهوم",
        -9.770294515053825
      ],
      [
        "▁حسابداری",
        -9.77086047886622
      ],
      [
        "▁فول",
        -9.772086002899034
      ],
      [
        "▁شرط",
        -9.772324649108612
      ],
      [
        "▁محرم",
        -9.772911843404387
      ],
      [
        "▁مع",
        -9.772956804641005
      ],
      [
        "▁94",
        -9.773349943380905
      ],
      [
        "▁احتمالا",
        -9.774145810619276
      ],
      [
        "▁عینک",
        -9.774288381428093
      ],
      [
        "▁سيو",
        -9.774978825774323
      ],
      [
        "▁سراسری",
        -9.775457899848654
      ],
      [
        "▁الودگی",
        -9.775592241984484
      ],
      [
        ">",
        -9.775689020416442
      ],
      [
        "▁کرد،",
        -9.775848429737373
      ],
      [
        "▁بزرگی",
        -9.775919019741327
      ],
      [
        "▁رونمایی",
        -9.776406485654242
      ],
      [
        "▁شركت",
        -9.777104542514252
      ],
      [
        "▁HD",
        -9.777507508439777
      ],
      [
        "▁طبیعت",
        -9.777537454960928
      ],
      [
        "▁خیر",
        -9.777858888442037
      ],
      [
        "▁کردستان",
        -9.778003334357457
      ],
      [
        "▁فعلی",
        -9.778902369000381
      ],
      [
        "▁افت",
        -9.779465783648826
      ],
      [
        "▁امین",
        -9.779710927105043
      ],
      [
        "▁مهمی",
        -9.779786627006883
      ],
      [
        "▁حوادث",
        -9.780535067501168
      ],
      [
        "▁امادگی",
        -9.780700419070486
      ],
      [
        "پا",
        -9.780843757325197
      ],
      [
        "08",
        -9.780899325143894
      ],
      [
        "‌ال",
        -9.781426160000574
      ],
      [
        "کاری",
        -9.78159938094565
      ],
      [
        "▁شور",
        -9.782433977552929
      ],
      [
        "».",
        -9.782552818641918
      ],
      [
        "▁تحقق",
        -9.78266548155025
      ],
      [
        "▁مرا",
        -9.783055347469261
      ],
      [
        "▁تکرار",
        -9.783469619099527
      ],
      [
        "▁مناقصه",
        -9.783683015931194
      ],
      [
        "▁ری",
        -9.78449154592991
      ],
      [
        "▁مال",
        -9.784705416705853
      ],
      [
        "▁شیخ",
        -9.784849846868838
      ],
      [
        "▁نیرو",
        -9.785086276779683
      ],
      [
        "▁رویکرد",
        -9.785137919447795
      ],
      [
        "▁ظرف",
        -9.787041806557973
      ],
      [
        "▁خمینی",
        -9.78778262236078
      ],
      [
        "im",
        -9.787998937412063
      ],
      [
        "▁قهرمانی",
        -9.788531331166467
      ],
      [
        "۱۱",
        -9.78896864638692
      ],
      [
        "▁متحده",
        -9.78904809620402
      ],
      [
        "▁ملک",
        -9.789330819526477
      ],
      [
        "▁برگشت",
        -9.789651685883769
      ],
      [
        "▁الا",
        -9.791135997319515
      ],
      [
        "▁۲۸",
        -9.7915313907213
      ],
      [
        "▁راهنمایی",
        -9.791631517705678
      ],
      [
        "▁دادند",
        -9.79217753024837
      ],
      [
        "▁کیلومتر",
        -9.792235203361694
      ],
      [
        "▁32",
        -9.792392348952845
      ],
      [
        "▁مبنی",
        -9.792439928270644
      ],
      [
        "25",
        -9.793246870976018
      ],
      [
        "▁نفوذ",
        -9.794031696131276
      ],
      [
        "▁شدم",
        -9.794405098348868
      ],
      [
        "▁ظهر",
        -9.794870540303734
      ],
      [
        "▁توليد",
        -9.794947066772654
      ],
      [
        "96",
        -9.795006678909697
      ],
      [
        "um",
        -9.795589190723051
      ],
      [
        "▁سایز",
        -9.79841066217109
      ],
      [
        "▁مبارک",
        -9.799343314231198
      ],
      [
        "(ع)",
        -9.799765204199264
      ],
      [
        "da",
        -9.800301405763413
      ],
      [
        "▁2-",
        -9.80066678148436
      ],
      [
        "▁تدریس",
        -9.801102199502818
      ],
      [
        "▁درصدی",
        -9.801745196666648
      ],
      [
        "▁می‌دهد.",
        -9.80189498540236
      ],
      [
        "▁رده",
        -9.80192635150663
      ],
      [
        "▁بنده",
        -9.802407554504521
      ],
      [
        "گری",
        -9.802656200021001
      ],
      [
        "▁ط",
        -9.802684066401884
      ],
      [
        "زاده",
        -9.803952528339247
      ],
      [
        "▁ریشه",
        -9.805449602056573
      ],
      [
        "▁x",
        -9.805858706543312
      ],
      [
        "▁حداکثر",
        -9.806142737356717
      ],
      [
        "▁https://",
        -9.806809678955101
      ],
      [
        "▁جناب",
        -9.807288329573833
      ],
      [
        "▁کنی",
        -9.8073523264029
      ],
      [
        "▁تبریک",
        -9.807441032638385
      ],
      [
        "▁عمران",
        -9.808115463489134
      ],
      [
        "▁سرگرمی",
        -9.808226082878058
      ],
      [
        "▁تمایل",
        -9.808442319574223
      ],
      [
        "di",
        -9.808539960188774
      ],
      [
        "▁رم",
        -9.808570765215627
      ],
      [
        "ne",
        -9.808726055829752
      ],
      [
        "▁منتقل",
        -9.808943297414409
      ],
      [
        "رون",
        -9.809702017873146
      ],
      [
        "▁پذیر",
        -9.81046066074677
      ],
      [
        "▁ایسنا",
        -9.810666465944937
      ],
      [
        "95",
        -9.810780090988606
      ],
      [
        "▁اروپایی",
        -9.810964614753225
      ],
      [
        "▁ملل",
        -9.811248453097496
      ],
      [
        "▁شناسه",
        -9.811392598702223
      ],
      [
        "▁۰۹",
        -9.811670715183542
      ],
      [
        "▁داغ",
        -9.811812219804924
      ],
      [
        "▁ایستگاه",
        -9.811880312520234
      ],
      [
        "Q",
        -9.812101452843939
      ],
      [
        "▁دام",
        -9.812365030212716
      ],
      [
        "s,",
        -9.812620419356616
      ],
      [
        "ساز",
        -9.812964967088403
      ],
      [
        "رم",
        -9.813743495171849
      ],
      [
        "▁وبسایت",
        -9.813794106419024
      ],
      [
        "▁گلستان",
        -9.813842157767048
      ],
      [
        "▁تاسیس",
        -9.814449254498921
      ],
      [
        "▁رسول",
        -9.814800971496213
      ],
      [
        "▁شو",
        -9.814879331886635
      ],
      [
        "▁پایتخت",
        -9.815067260658044
      ],
      [
        "يك",
        -9.815166194535703
      ],
      [
        "–",
        -9.81543342551436
      ],
      [
        "▁دبیر",
        -9.815736798517676
      ],
      [
        "▁تعدادی",
        -9.81645562505772
      ],
      [
        "دم",
        -9.817270281353098
      ],
      [
        "▁استراتژی",
        -9.81746488420387
      ],
      [
        "▁انگلیس",
        -9.817509817250826
      ],
      [
        "▁عادی",
        -9.817557011229674
      ],
      [
        "▁فيلم",
        -9.817879969331429
      ],
      [
        "▁ویتامین",
        -9.818460569670329
      ],
      [
        "▁متنوع",
        -9.818470034420319
      ],
      [
        "▁تعمیرات",
        -9.818759640273097
      ],
      [
        "▁کپی",
        -9.819238359382783
      ],
      [
        "▁فاطمه",
        -9.81959018939925
      ],
      [
        "▁داوطلبان",
        -9.819680872908016
      ],
      [
        "▁Mobile",
        -9.819854356186738
      ],
      [
        "▁مانع",
        -9.819861083039836
      ],
      [
        "▁دانشگاهی",
        -9.82018244740965
      ],
      [
        "▁دارند،",
        -9.820873113495107
      ],
      [
        "نام",
        -9.821124815557138
      ],
      [
        "اند",
        -9.821230302480359
      ],
      [
        "▁کنه",
        -9.821873298899696
      ],
      [
        "▁استخوان",
        -9.821922305575807
      ],
      [
        "▁سرپرست",
        -9.822048751221661
      ],
      [
        "▁اطمینان",
        -9.82352999522617
      ],
      [
        "▁الملل",
        -9.82407496828528
      ],
      [
        "▁خودشان",
        -9.824215378663943
      ],
      [
        "▁طنز",
        -9.825175008612579
      ],
      [
        "▁بتن",
        -9.82570279917809
      ],
      [
        "▁۲۹",
        -9.826479474704797
      ],
      [
        "▁PM",
        -9.827215281318402
      ],
      [
        "▁مقطع",
        -9.827420998728783
      ],
      [
        "▁صادق",
        -9.827775801727855
      ],
      [
        "▁ترس",
        -9.82800240580736
      ],
      [
        "▁شیک",
        -9.828244976536737
      ],
      [
        "▁دانشکده",
        -9.828319858216418
      ],
      [
        "▁نگرانی",
        -9.828407033981104
      ],
      [
        "▁اقامت",
        -9.828533497918665
      ],
      [
        "▁برج",
        -9.82861087447753
      ],
      [
        "▁معدنی",
        -9.828849378914914
      ],
      [
        "▁بنیاد",
        -9.828903788737271
      ],
      [
        "▁دانشجویی",
        -9.82891579327627
      ],
      [
        "گي",
        -9.828971172003868
      ],
      [
        "▁رسیدگی",
        -9.829270472326897
      ],
      [
        "▁زلزله",
        -9.829366883812966
      ],
      [
        "▁خاطرنشان",
        -9.830099781046444
      ],
      [
        "▁برنامه‌های",
        -9.830103406814036
      ],
      [
        "هر",
        -9.830559896342084
      ],
      [
        "▁روستای",
        -9.830749581140978
      ],
      [
        "▁سنجش",
        -9.831684882639117
      ],
      [
        "▁۵۰",
        -9.831775073700863
      ],
      [
        "▁کمبود",
        -9.831853039704118
      ],
      [
        "▁فلش",
        -9.832178104071184
      ],
      [
        "۰۰۰",
        -9.832740634046893
      ],
      [
        "▁پدیده",
        -9.832918184279144
      ],
      [
        "26",
        -9.83305732206161
      ],
      [
        "▁روانی",
        -9.833101607543
      ],
      [
        "▁v",
        -9.834142140594897
      ],
      [
        "60",
        -9.834370713918085
      ],
      [
        "▁تم",
        -9.834389049550488
      ],
      [
        "▁چ",
        -9.835553148789941
      ],
      [
        "▁مربوطه",
        -9.836232332508253
      ],
      [
        "▁خواسته",
        -9.836238517502034
      ],
      [
        "▁تمرکز",
        -9.836472803768178
      ],
      [
        "▁بدست",
        -9.837492086650172
      ],
      [
        "▁مانتو",
        -9.837613813805648
      ],
      [
        "▁اژانس",
        -9.837900731902334
      ],
      [
        "دست",
        -9.838030640284401
      ],
      [
        "▁رنگی",
        -9.83821392262536
      ],
      [
        "▁http://www.",
        -9.838260407362057
      ],
      [
        "▁کش",
        -9.838371183927709
      ],
      [
        "▁&",
        -9.838970116551002
      ],
      [
        "▁جديد",
        -9.83904520612472
      ],
      [
        "▁نظریه",
        -9.839637619333878
      ],
      [
        "ونی",
        -9.840860427155175
      ],
      [
        "▁پرده",
        -9.840936297997214
      ],
      [
        "گیر",
        -9.841062122979064
      ],
      [
        "▁بشه",
        -9.842593317405246
      ],
      [
        "▁شرکت‌های",
        -9.842606960657928
      ],
      [
        "▁کشورها",
        -9.842631159271225
      ],
      [
        "▁مجدد",
        -9.843007223422369
      ],
      [
        "▁مذاکره",
        -9.843345820445586
      ],
      [
        "▁باران",
        -9.844008509871728
      ],
      [
        "▁بازديد",
        -9.844120737063388
      ],
      [
        "Flash",
        -9.844289601604517
      ],
      [
        "▁k",
        -9.844904056682381
      ],
      [
        "▁اندیشه",
        -9.845151827210904
      ],
      [
        "▁خودکار",
        -9.846010924490198
      ],
      [
        "▁نمک",
        -9.847275581337733
      ],
      [
        "▁تولیدی",
        -9.847575426782207
      ],
      [
        "▁فیزیک",
        -9.847651416822714
      ],
      [
        "▁نظری",
        -9.84827682930902
      ],
      [
        "▁میلادی",
        -9.848994797823416
      ],
      [
        "▁اطلاعاتی",
        -9.849499673383457
      ],
      [
        "▁نان",
        -9.849815912371389
      ],
      [
        "▁صفحات",
        -9.849830973412576
      ],
      [
        "▁خان",
        -9.850128530434569
      ],
      [
        "▁نگران",
        -9.850318059338912
      ],
      [
        "▁جعبه",
        -9.850921785194647
      ],
      [
        "▁For",
        -9.851745224384713
      ],
      [
        "▁نمايید",
        -9.852132220046279
      ],
      [
        "▁ترانه",
        -9.852180383483123
      ],
      [
        "▁هشتم",
        -9.853482907265331
      ],
      [
        "▁ایین",
        -9.853558404683984
      ],
      [
        "▁کنید،",
        -9.85365563005412
      ],
      [
        "▁یك",
        -9.854086331979973
      ],
      [
        "▁نبوده",
        -9.854132113563342
      ],
      [
        "▁برنج",
        -9.854971364921148
      ],
      [
        "?",
        -9.855673925510448
      ],
      [
        "▁سرمربی",
        -9.856010597065293
      ],
      [
        "▁میلی",
        -9.856458741694814
      ],
      [
        "▁دخترانه",
        -9.857367205690085
      ],
      [
        "▁میلاد",
        -9.858878016344477
      ],
      [
        "▁گرامی",
        -9.859670161669985
      ],
      [
        "▁روزها",
        -9.859781375050936
      ],
      [
        "▁i",
        -9.85991727412266
      ],
      [
        "28",
        -9.860014916727366
      ],
      [
        "▁خودتان",
        -9.860896294408182
      ],
      [
        "▁انتظامی",
        -9.860904639062555
      ],
      [
        "▁by",
        -9.861172397222662
      ],
      [
        "▁حرم",
        -9.861924100323169
      ],
      [
        "04",
        -9.862143505969744
      ],
      [
        "▁نماید",
        -9.862178074483808
      ],
      [
        "▁گوناگون",
        -9.86236309499509
      ],
      [
        "li",
        -9.862835805830287
      ],
      [
        "▁برادر",
        -9.863479385804887
      ],
      [
        "▁خواننده",
        -9.863755951836822
      ],
      [
        "▁موزه",
        -9.863847566220471
      ],
      [
        "▁درج",
        -9.86467388372186
      ],
      [
        "▁ابرو",
        -9.865539577057325
      ],
      [
        "▁نشر",
        -9.866948899587948
      ],
      [
        "▁دهیم",
        -9.866980799191655
      ],
      [
        "▁یازدهم",
        -9.867882246817015
      ],
      [
        "▁مدارک",
        -9.867960730886981
      ],
      [
        "▁كردن",
        -9.868315715562991
      ],
      [
        "▁شکر",
        -9.868324365308055
      ],
      [
        "▁گاه",
        -9.868714595522269
      ],
      [
        "▁re",
        -9.868873510943477
      ],
      [
        "مت",
        -9.86962148267174
      ],
      [
        "▁with",
        -9.869996192076732
      ],
      [
        "▁وعده",
        -9.870698664389561
      ],
      [
        "▁مجبور",
        -9.870877950136613
      ],
      [
        "▁کالای",
        -9.870891200047737
      ],
      [
        "▁پیوند",
        -9.871159850250784
      ],
      [
        "no",
        -9.872056714662076
      ],
      [
        "▁قطعا",
        -9.872401409809669
      ],
      [
        "31",
        -9.872737102684312
      ],
      [
        "‌شان",
        -9.872932287487917
      ],
      [
        "▁رمز",
        -9.873062417269216
      ],
      [
        "▁زرد",
        -9.873461442948939
      ],
      [
        "▁سرزمین",
        -9.874915608265805
      ],
      [
        "▁دانه",
        -9.874973329036997
      ],
      [
        "▁محدودیت",
        -9.875443304115864
      ],
      [
        "وند",
        -9.875490502541778
      ],
      [
        "▁غير",
        -9.875681453544297
      ],
      [
        "32",
        -9.876043639629073
      ],
      [
        "▁مستقل",
        -9.876469658983943
      ],
      [
        "▁پوشاک",
        -9.876767945632707
      ],
      [
        "▁افزونه",
        -9.877144552314526
      ],
      [
        "▁قدرتمند",
        -9.877485800929744
      ],
      [
        "▁میراث",
        -9.877548618327882
      ],
      [
        "▁قهرمان",
        -9.878088144650608
      ],
      [
        "▁طلایی",
        -9.878304607385086
      ],
      [
        "▁گالری",
        -9.878442811660062
      ],
      [
        "▁اردبیل",
        -9.878676666411224
      ],
      [
        "▁هدیه",
        -9.878677101789172
      ],
      [
        "▁سیل",
        -9.879253974580738
      ],
      [
        "mo",
        -9.879883232191311
      ],
      [
        "▁31",
        -9.87995899907813
      ],
      [
        "یست",
        -9.880001716629058
      ],
      [
        "▁استرس",
        -9.880702297115175
      ],
      [
        "▁چت",
        -9.881011052579474
      ],
      [
        "▁دا",
        -9.88114605801556
      ],
      [
        "▁خورد",
        -9.881212586232163
      ],
      [
        "زد",
        -9.881840782665417
      ],
      [
        "▁ضعف",
        -9.882277469755863
      ],
      [
        "▁همکاران",
        -9.882758525429708
      ],
      [
        "▁بندر",
        -9.883602055917152
      ],
      [
        "▁مجتمع",
        -9.883802686601548
      ],
      [
        "▁هویت",
        -9.884858802901132
      ],
      [
        "▁قضایی",
        -9.884971086750545
      ],
      [
        "راه",
        -9.88588705006228
      ],
      [
        "▁فجر",
        -9.88606457196169
      ],
      [
        "▁دریا",
        -9.886674647096104
      ],
      [
        "▁مصر",
        -9.886965083155733
      ],
      [
        "‭",
        -9.887094123779962
      ],
      [
        "▁پیشواز",
        -9.888320653416809
      ],
      [
        "فت",
        -9.888647055553978
      ],
      [
        "▁هرگز",
        -9.88871948141367
      ],
      [
        "▁ایکس",
        -9.888767576061003
      ],
      [
        "▁دارویی",
        -9.888848647009814
      ],
      [
        "▁ماهه",
        -9.889693888877964
      ],
      [
        "▁خطوط",
        -9.889857333971328
      ],
      [
        "▁زنگ",
        -9.89008170189237
      ],
      [
        "‌اي",
        -9.890435425049095
      ],
      [
        "▁ایرانیان",
        -9.89100887573298
      ],
      [
        "▁is",
        -9.89117158171743
      ],
      [
        "▁شهدا",
        -9.891258667546863
      ],
      [
        "▁خروجی",
        -9.89156392225581
      ],
      [
        "▁دریایی",
        -9.891587415401947
      ],
      [
        "▁2012",
        -9.892251990639782
      ],
      [
        "▁كند",
        -9.892695561959398
      ],
      [
        "▁نکن",
        -9.893124929470307
      ],
      [
        "▁گیاهی",
        -9.893437711770094
      ],
      [
        "▁مذاکرات",
        -9.89363926949348
      ],
      [
        "▁قرص",
        -9.89397100714607
      ],
      [
        "▁..",
        -9.894033188866882
      ],
      [
        "▁برده",
        -9.894141505083855
      ],
      [
        "▁درخت",
        -9.894833033835972
      ],
      [
        "▁چسب",
        -9.894971331949318
      ],
      [
        "▁تصفیه",
        -9.89502854776041
      ],
      [
        "▁انتی",
        -9.895222116559832
      ],
      [
        "▁وابسته",
        -9.896181841632313
      ],
      [
        "▁تورم",
        -9.897078137292603
      ],
      [
        "▁حاوی",
        -9.89732150618485
      ],
      [
        "▁برترین",
        -9.8973820122488
      ],
      [
        "▁نشد",
        -9.897488181404729
      ],
      [
        "▁تدوین",
        -9.897877430213297
      ],
      [
        "▁m",
        -9.897885420919117
      ],
      [
        "▁دیروز",
        -9.898397505435312
      ],
      [
        "▁زمینی",
        -9.899616277266997
      ],
      [
        "ها،",
        -9.899766104106387
      ],
      [
        "▁سلول",
        -9.899944726663584
      ],
      [
        "▁قدر",
        -9.900441856343225
      ],
      [
        "▁وام",
        -9.902354357261869
      ],
      [
        "▁فا",
        -9.90296397636872
      ],
      [
        "▁نمي",
        -9.903506559398473
      ],
      [
        "▁2.",
        -9.903604498503443
      ],
      [
        "۳۰",
        -9.90375010352065
      ],
      [
        "▁واحدهای",
        -9.90461015339826
      ],
      [
        "▁گرافیک",
        -9.90498875831976
      ],
      [
        "▁ناحیه",
        -9.905723949815233
      ],
      [
        "▁سختی",
        -9.905847390538721
      ],
      [
        "▁پیشنهادی",
        -9.905854418251886
      ],
      [
        "▁نانو",
        -9.906268180379083
      ],
      [
        "▁مطابق",
        -9.906544438139427
      ],
      [
        "خرید",
        -9.906668100740797
      ],
      [
        "ساعت",
        -9.907484929615272
      ],
      [
        "▁می‌کنیم",
        -9.907595869150132
      ],
      [
        "روی",
        -9.90785174569482
      ],
      [
        "▁شعار",
        -9.908796305882044
      ],
      [
        "اژ",
        -9.909194682105946
      ],
      [
        "▁مهاجرت",
        -9.909230685650197
      ],
      [
        "▁ترکی",
        -9.910009822876589
      ],
      [
        "▁سقوط",
        -9.912049668435682
      ],
      [
        "▁مخاطب",
        -9.912304222673207
      ],
      [
        "▁محیطی",
        -9.912430223729473
      ],
      [
        "97",
        -9.912818815256955
      ],
      [
        "▁تحول",
        -9.913533697884812
      ],
      [
        "▁همانطور",
        -9.913853611072135
      ],
      [
        "▁پلاس",
        -9.914378236534336
      ],
      [
        "▁زا",
        -9.91490770240544
      ],
      [
        "▁مقررات",
        -9.915545114222112
      ],
      [
        "▁بتوانند",
        -9.916727462622777
      ],
      [
        "▁فرض",
        -9.91691025167172
      ],
      [
        "05",
        -9.917587858955429
      ],
      [
        "▁گ",
        -9.918206234307892
      ],
      [
        "▁ابراز",
        -9.918380117548985
      ],
      [
        "عکس",
        -9.918558018210248
      ],
      [
        "▁احترام",
        -9.9188181498686
      ],
      [
        "▁غذای",
        -9.91884572778282
      ],
      [
        "▁مشهور",
        -9.918938766369978
      ],
      [
        "▁تزریق",
        -9.919216187092573
      ],
      [
        "▁کالاهای",
        -9.919337344279832
      ],
      [
        "▁بازداشت",
        -9.919632823205076
      ],
      [
        "▁وحدت",
        -9.919818901891436
      ],
      [
        "نوع",
        -9.920486676924282
      ],
      [
        "▁كل",
        -9.920825351324979
      ],
      [
        "ي،",
        -9.922160214614006
      ],
      [
        "▁زنجان",
        -9.922553162825515
      ],
      [
        "▁کشورمان",
        -9.92256693705859
      ],
      [
        "▁کانادا",
        -9.9230175247001
      ],
      [
        "▁نوجوانان",
        -9.923699960518844
      ],
      [
        "▁روستایی",
        -9.923979090346645
      ],
      [
        "▁باند",
        -9.924506631866944
      ],
      [
        "▁نوبت",
        -9.925569265867967
      ],
      [
        "ia",
        -9.926359417318293
      ],
      [
        "▁Download",
        -9.926889265830281
      ],
      [
        "▁80",
        -9.927389706899522
      ],
      [
        "▁احمدی",
        -9.927454288902855
      ],
      [
        "▁کمپانی",
        -9.927476297147823
      ],
      [
        "▁دهان",
        -9.927524623494001
      ],
      [
        "▁توانست",
        -9.927572553786217
      ],
      [
        "▁مسکونی",
        -9.928065301342333
      ],
      [
        "▁شهردار",
        -9.928127458417645
      ],
      [
        "عی",
        -9.928205462950164
      ],
      [
        "▁احداث",
        -9.928435638436993
      ],
      [
        "شت",
        -9.9287847939257
      ],
      [
        "▁200",
        -9.928882395469131
      ],
      [
        "▁لیزر",
        -9.92925626623267
      ],
      [
        "▁می‌شوند.",
        -9.929307793195957
      ],
      [
        "▁۱۰۰",
        -9.929853404524263
      ],
      [
        "▁مقامات",
        -9.929956186106043
      ],
      [
        "▁پاش",
        -9.9302148645673
      ],
      [
        "▁جلب",
        -9.930257779391733
      ],
      [
        "▁مدیره",
        -9.930317364941935
      ],
      [
        "▁روزی",
        -9.932437596738552
      ],
      [
        "یده",
        -9.932908794557918
      ],
      [
        "▁جبهه",
        -9.932957413908966
      ],
      [
        "▁ابر",
        -9.933175215791053
      ],
      [
        "▁بده",
        -9.933415287601019
      ],
      [
        "▁تکنیک",
        -9.93377066249433
      ],
      [
        "▁گروهی",
        -9.934259102470534
      ],
      [
        "▁شکم",
        -9.935256660724757
      ],
      [
        "▁راهی",
        -9.935503780110793
      ],
      [
        "▁جایگزین",
        -9.936082782916753
      ],
      [
        "▁میل",
        -9.936519445215492
      ],
      [
        "▁زهرا",
        -9.936564306098088
      ],
      [
        "▁سالانه",
        -9.936720621402305
      ],
      [
        "▁سینمای",
        -9.936723434153034
      ],
      [
        "▁محمدی",
        -9.936915381525658
      ],
      [
        "كار",
        -9.937043893228736
      ],
      [
        "▁مجید",
        -9.93761348138084
      ],
      [
        "▁البرز",
        -9.938849106740921
      ],
      [
        "▁شده،",
        -9.939686549190622
      ],
      [
        "▁عکاسی",
        -9.94028696966782
      ],
      [
        "▁92",
        -9.940622756042842
      ],
      [
        "&",
        -9.940666954143012
      ],
      [
        "▁یورو",
        -9.941088553119812
      ],
      [
        "▁مش",
        -9.941170177037343
      ],
      [
        "▁گردیده",
        -9.942320243473116
      ],
      [
        "▁کاشت",
        -9.94234132875437
      ],
      [
        "▁ایتالیا",
        -9.942497936187504
      ],
      [
        "▁نوار",
        -9.942602097435174
      ],
      [
        "▁معادن",
        -9.94313942731017
      ],
      [
        "▁شغلی",
        -9.94327174022441
      ],
      [
        "▁قاچاق",
        -9.943397961208689
      ],
      [
        "▁می‌رسد",
        -9.943723783701564
      ],
      [
        "کش",
        -9.94400541432454
      ],
      [
        "se",
        -9.944217138116954
      ],
      [
        "▁g",
        -9.944576265450989
      ],
      [
        "نس",
        -9.944717949862362
      ],
      [
        "▁جنبش",
        -9.945187052450889
      ],
      [
        "▁دامنه",
        -9.945881740516743
      ],
      [
        "▁پژوهشی",
        -9.94668697427308
      ],
      [
        "▁بطور",
        -9.947020222194691
      ],
      [
        "▁املاک",
        -9.94711561605379
      ],
      [
        "▁3-",
        -9.947662639006563
      ],
      [
        "70",
        -9.947892609354522
      ],
      [
        "▁مشکلی",
        -9.949306119738392
      ],
      [
        "▁ارشاد",
        -9.949462763820407
      ],
      [
        "▁فضایی",
        -9.94986701673461
      ],
      [
        "▁چپ",
        -9.949897676664795
      ],
      [
        "▁طوری",
        -9.95026026807066
      ],
      [
        "▁ارتفاع",
        -9.950987843215557
      ],
      [
        "▁پیامبر",
        -9.951028688135192
      ],
      [
        "▁سخنگوی",
        -9.951925827189392
      ],
      [
        "▁براى",
        -9.951951118251513
      ],
      [
        "▁خریداری",
        -9.952064663971392
      ],
      [
        "▁انداز",
        -9.95233322273328
      ],
      [
        "‌‌",
        -9.953542313986254
      ],
      [
        "▁خسته",
        -9.953598938492082
      ],
      [
        "ايي",
        -9.954158222038096
      ],
      [
        "▁سا",
        -9.954324672090568
      ],
      [
        "▁نیست،",
        -9.955050787376045
      ],
      [
        "▁منافع",
        -9.955423885144825
      ],
      [
        "اور",
        -9.955479694234956
      ],
      [
        "▁حاکم",
        -9.95584325548254
      ],
      [
        "▁تمیز",
        -9.956123770994715
      ],
      [
        "▁غذاهای",
        -9.956461182826732
      ],
      [
        "▁گشت",
        -9.956684085907764
      ],
      [
        "▁محتوا",
        -9.956886424495348
      ],
      [
        "▁برجسته",
        -9.957269124611539
      ],
      [
        "▁باب",
        -9.957868114831047
      ],
      [
        "▁فرمان",
        -9.957923926335361
      ],
      [
        "▁لزوم",
        -9.958160771376331
      ],
      [
        "▁شهرک",
        -9.959040407482554
      ],
      [
        "▁عملی",
        -9.959549496852992
      ],
      [
        "▁اوردن",
        -9.959705217836937
      ],
      [
        "▁روانشناسی",
        -9.95990506403791
      ],
      [
        "▁یادداشت",
        -9.959947284718158
      ],
      [
        "▁کیک",
        -9.960185121430742
      ],
      [
        "▁نت",
        -9.960416634786098
      ],
      [
        "ه‌ای",
        -9.96070113251157
      ],
      [
        "▁ابلاغ",
        -9.961260116216469
      ],
      [
        "▁قدس",
        -9.961813805953438
      ],
      [
        "▁صرفا",
        -9.961892095111931
      ],
      [
        "▁بدنه",
        -9.96212895727498
      ],
      [
        "اتی",
        -9.962419033782698
      ],
      [
        "▁استخدامی",
        -9.963063254662025
      ],
      [
        "86",
        -9.963520375991074
      ],
      [
        "▁ژاپن",
        -9.96367649485203
      ],
      [
        "سان",
        -9.96383213274698
      ],
      [
        "▁کارگردان",
        -9.963948824156011
      ],
      [
        "▁جمعی",
        -9.96419578867626
      ],
      [
        "▁ایام",
        -9.964289776603636
      ],
      [
        "؟!",
        -9.964306819491224
      ],
      [
        "ab",
        -9.964687325342421
      ],
      [
        "▁یمن",
        -9.964723239866338
      ],
      [
        "ی»",
        -9.964734575800607
      ],
      [
        "▁قيمت",
        -9.965140790940264
      ],
      [
        "▁وکیل",
        -9.965153816570046
      ],
      [
        "▁فرو",
        -9.965929355199663
      ],
      [
        "▁شی",
        -9.966605707410473
      ],
      [
        "▁ارشیو",
        -9.967040981264812
      ],
      [
        "▁93",
        -9.9672094602884
      ],
      [
        "هزار",
        -9.967421946926873
      ],
      [
        "▁فکری",
        -9.968703551043397
      ],
      [
        "▁گلکسی",
        -9.969617380026241
      ],
      [
        "▁اپارات",
        -9.970055446241158
      ],
      [
        "▁زود",
        -9.970184879336063
      ],
      [
        "▁نمود.",
        -9.970441694932168
      ],
      [
        "ss",
        -9.970548203906258
      ],
      [
        "▁المپیک",
        -9.970661412132655
      ],
      [
        "▁تنوع",
        -9.970673360952162
      ],
      [
        "▁فساد",
        -9.971351784037973
      ],
      [
        "▁بقیه",
        -9.97145267865972
      ],
      [
        "▁حساس",
        -9.97225159025048
      ],
      [
        "▁مبانی",
        -9.973574315344468
      ],
      [
        "▁سبد",
        -9.973662921556418
      ],
      [
        "▁دلم",
        -9.974097317863642
      ],
      [
        "▁مست",
        -9.974198180365867
      ],
      [
        "ـــ",
        -9.974623767757247
      ],
      [
        "‌ام",
        -9.975041291852843
      ],
      [
        "▁چاه",
        -9.975674672569085
      ],
      [
        ".html",
        -9.976074805704535
      ],
      [
        "▁۹۸",
        -9.976160144707812
      ],
      [
        "▁كتاب",
        -9.976843162372322
      ],
      [
        "کم",
        -9.976898141380666
      ],
      [
        "شن",
        -9.977035065023767
      ],
      [
        "▁بستر",
        -9.977174781415666
      ],
      [
        "▁ایالات",
        -9.97724069294252
      ],
      [
        "▁مدرک",
        -9.977429701730177
      ],
      [
        "▁Memory",
        -9.978448507803304
      ],
      [
        "▁داشتم",
        -9.978818587127268
      ],
      [
        "▁b",
        -9.979076860579992
      ],
      [
        "▁رها",
        -9.979306693724874
      ],
      [
        "35",
        -9.98008563445903
      ],
      [
        "▁وقوع",
        -9.980270153211757
      ],
      [
        "▁صدر",
        -9.980986334182608
      ],
      [
        "▁مجهز",
        -9.98113759642703
      ],
      [
        "▁نفتی",
        -9.98131786000534
      ],
      [
        "بن",
        -9.981763033998764
      ],
      [
        "▁اگاه",
        -9.98178042880653
      ],
      [
        "▁اتوماتیک",
        -9.981810489917496
      ],
      [
        "▁روستا",
        -9.982548548173893
      ],
      [
        "▁موی",
        -9.982598970779518
      ],
      [
        "▁پیامک",
        -9.982954844551067
      ],
      [
        "▁بازسازی",
        -9.983295253631416
      ],
      [
        "▁مالیات",
        -9.98364376881128
      ],
      [
        "▁بل",
        -9.983731400943164
      ],
      [
        "▁کشت",
        -9.98408275550447
      ],
      [
        "سم",
        -9.985769133116953
      ],
      [
        "▁ASUS",
        -9.986108702319244
      ],
      [
        "▁اوقات",
        -9.986113623894393
      ],
      [
        "ma",
        -9.986201135980007
      ],
      [
        "▁هارد",
        -9.986382388288233
      ],
      [
        "ماه",
        -9.986601410394636
      ],
      [
        "▁تعویض",
        -9.986732032911533
      ],
      [
        "▁متعلق",
        -9.986733371315104
      ],
      [
        "▁جنسی",
        -9.987026918309386
      ],
      [
        "▁سي",
        -9.987847789598527
      ],
      [
        "▁وضع",
        -9.988584026950956
      ],
      [
        "▁پنهان",
        -9.988612357465323
      ],
      [
        "وار",
        -9.98879263146052
      ],
      [
        "كن",
        -9.98902824759039
      ],
      [
        "▁_",
        -9.990003179954053
      ],
      [
        "٬",
        -9.990463655181973
      ],
      [
        "▁سیمان",
        -9.990465494913344
      ],
      [
        "▁cialis",
        -9.990753955314165
      ],
      [
        "▁نمایند.",
        -9.991202272012517
      ],
      [
        "▁همانند",
        -9.992253103407139
      ],
      [
        "▁میکند",
        -9.992791714570975
      ],
      [
        "کد",
        -9.993132523291138
      ],
      [
        "▁فال",
        -9.993180561495818
      ],
      [
        "▁پنل",
        -9.994176360370751
      ],
      [
        "‌کننده",
        -9.994674588597892
      ],
      [
        "▁متهم",
        -9.996078439574015
      ],
      [
        "▁سیما",
        -9.9966563676714
      ],
      [
        "▁بله",
        -9.996889808848799
      ],
      [
        "▁مخدر",
        -9.997534515342844
      ],
      [
        "▁کا",
        -9.99805386113346
      ],
      [
        "▁تبلیغ",
        -9.998373190145706
      ],
      [
        "▁دعا",
        -9.998618595119767
      ],
      [
        "▁ضعیف",
        -9.998651895659869
      ],
      [
        "la",
        -9.999720482634
      ],
      [
        "▁برنده",
        -9.999900116098615
      ],
      [
        "▁گردن",
        -10.000014420165602
      ],
      [
        "▁فعالیت‌های",
        -10.000095442234704
      ],
      [
        "▁دیدنی",
        -10.000312209711911
      ],
      [
        "▁دکمه",
        -10.000557971029604
      ],
      [
        "▁سعودی",
        -10.000640757349622
      ],
      [
        "دون",
        -10.000919529709991
      ],
      [
        "▁مخلوط",
        -10.001179513236686
      ],
      [
        "رود",
        -10.001475092470816
      ],
      [
        "▁مهمان",
        -10.002335264311334
      ],
      [
        "▁عوض",
        -10.002450125043179
      ],
      [
        "▁پد",
        -10.003276439250616
      ],
      [
        "▁سال‌های",
        -10.003484775483164
      ],
      [
        "▁فراوان",
        -10.003495720850356
      ],
      [
        "▁تجربی",
        -10.003553421513825
      ],
      [
        "▁70",
        -10.004140296226922
      ],
      [
        "▁مصنوعی",
        -10.00498334182446
      ],
      [
        "▁سیب",
        -10.005520106367348
      ],
      [
        "▁شیمی",
        -10.005960901959515
      ],
      [
        "▁دمای",
        -10.00671077360874
      ],
      [
        "▁بسيار",
        -10.007054099603973
      ],
      [
        "▁2020",
        -10.00722828125367
      ],
      [
        "▁ربات",
        -10.008364688018037
      ],
      [
        "▁استانبول",
        -10.008406095004057
      ],
      [
        "▁گذار",
        -10.00861370265766
      ],
      [
        "▁سايت",
        -10.008702799498472
      ],
      [
        "▁اختلال",
        -10.010052050508097
      ],
      [
        "▁نگاهی",
        -10.010308984329807
      ],
      [
        "▁نوشتن",
        -10.010392246238922
      ],
      [
        "▁ایمان",
        -10.010689342186124
      ],
      [
        "قا",
        -10.01130229450554
      ],
      [
        "▁پیرامون",
        -10.011363357163301
      ],
      [
        "▁میشود.",
        -10.01144458493364
      ],
      [
        "▁بک",
        -10.011453612857206
      ],
      [
        "▁قند",
        -10.01146161531834
      ],
      [
        "▁سازمانی",
        -10.011552578623554
      ],
      [
        "▁ویلا",
        -10.011847481275716
      ],
      [
        "▁پردازش",
        -10.011937331721581
      ],
      [
        "23",
        -10.012270614277217
      ],
      [
        "ان،",
        -10.012771735504181
      ],
      [
        "یار",
        -10.012815139644175
      ],
      [
        "▁پاور",
        -10.012818774478362
      ],
      [
        "▁دسترس",
        -10.012933452707525
      ],
      [
        "▁نزد",
        -10.013192137926241
      ],
      [
        "▁4.",
        -10.013603351622116
      ],
      [
        "اپ",
        -10.013721691566595
      ],
      [
        "▁خویش",
        -10.013969359214425
      ],
      [
        "▁رشت",
        -10.014187565485175
      ],
      [
        "▁مطلوب",
        -10.014198958095724
      ],
      [
        "▁فرنگی",
        -10.014627563068409
      ],
      [
        "▁جنگل",
        -10.014649301021667
      ],
      [
        "▁پروانه",
        -10.015379299010007
      ],
      [
        "▁جلسات",
        -10.01583885605783
      ],
      [
        "▁دبی",
        -10.015911639157402
      ],
      [
        "▁جلوی",
        -10.01605569717303
      ],
      [
        "۱۸",
        -10.016253154243469
      ],
      [
        "▁خاطرات",
        -10.016556092404791
      ],
      [
        "▁سینه",
        -10.016763122079327
      ],
      [
        "▁کریم",
        -10.017013810119941
      ],
      [
        "▁دیواری",
        -10.017129801707686
      ],
      [
        "▁خودروی",
        -10.017585985294058
      ],
      [
        "▁هرگونه",
        -10.01835526299664
      ],
      [
        "۱۷",
        -10.018600075708903
      ],
      [
        "▁نگهبان",
        -10.018698199742676
      ],
      [
        "٤",
        -10.018738080141713
      ],
      [
        "▁مواردی",
        -10.018926912435813
      ],
      [
        "▁مخالف",
        -10.01911344101471
      ],
      [
        "ut",
        -10.019705594873269
      ],
      [
        "▁هسته‌ای",
        -10.019939483470582
      ],
      [
        "▁مریم",
        -10.02064411471634
      ],
      [
        "خوان",
        -10.021166218573288
      ],
      [
        "▁اسرايیل",
        -10.021387684614124
      ],
      [
        "▁بومی",
        -10.021432827113735
      ],
      [
        "▁کنم.",
        -10.021631971077724
      ],
      [
        "▁پیچ",
        -10.02275287346059
      ],
      [
        "▁ابتلا",
        -10.022950697274442
      ],
      [
        "▁تابلو",
        -10.023424142619277
      ],
      [
        "▁حرارت",
        -10.023758127500423
      ],
      [
        "▁مار",
        -10.023981138981192
      ],
      [
        "▁برقرار",
        -10.024256181805477
      ],
      [
        "▁مالیاتی",
        -10.024495943352758
      ],
      [
        "▁۴۰",
        -10.02546416870201
      ],
      [
        "رس",
        -10.026179511702148
      ],
      [
        "03",
        -10.02631345212556
      ],
      [
        "▁کریمی",
        -10.026733684758057
      ],
      [
        "▁اوج",
        -10.026764576702188
      ],
      [
        "▁خام",
        -10.02726916887858
      ],
      [
        "▁بيشتر",
        -10.02749259912654
      ],
      [
        "▁����",
        -10.028337732506857
      ],
      [
        "▁والدین",
        -10.028411568752674
      ],
      [
        "▁سایه",
        -10.028754772424506
      ],
      [
        "‌اند",
        -10.028968800033947
      ],
      [
        "▁رانندگی",
        -10.029421269228578
      ],
      [
        "▁بوک",
        -10.029561423431003
      ],
      [
        "▁برش",
        -10.029732180843771
      ],
      [
        "▁افتاده",
        -10.030354066276072
      ],
      [
        "▁خسارت",
        -10.030721301166427
      ],
      [
        "94",
        -10.031118918639178
      ],
      [
        "▁نمودار",
        -10.031178845157658
      ],
      [
        "حی",
        -10.03171027423767
      ],
      [
        "▁ریسک",
        -10.032320011304039
      ],
      [
        "▁نوری",
        -10.032680133572786
      ],
      [
        "پس",
        -10.033253652167343
      ],
      [
        "▁پرداخته",
        -10.033780036109242
      ],
      [
        "200",
        -10.033787271024378
      ],
      [
        "باز",
        -10.03417953958748
      ],
      [
        "▁views",
        -10.034828120172442
      ],
      [
        "▁شر",
        -10.035219166019633
      ],
      [
        "▁راستا",
        -10.035667573467927
      ],
      [
        "▁کنونی",
        -10.035716823245595
      ],
      [
        "▁فلزی",
        -10.036561621651671
      ],
      [
        "▁فروشنده",
        -10.036759438020479
      ],
      [
        "▁عزیزان",
        -10.03688127910512
      ],
      [
        "▁موقت",
        -10.037173361242125
      ],
      [
        "۱۹",
        -10.03780532991241
      ],
      [
        "▁فارکس",
        -10.0379291196003
      ],
      [
        "▁افزايش",
        -10.03856945204433
      ],
      [
        "▁کارگردانی",
        -10.038946774117925
      ],
      [
        "▁روبرو",
        -10.039053617205454
      ],
      [
        "▁۹۷",
        -10.039507841447953
      ],
      [
        "سل",
        -10.039534655997954
      ],
      [
        "▁تنش",
        -10.039700669762848
      ],
      [
        "الی",
        -10.03986801503731
      ],
      [
        "90",
        -10.039954697242433
      ],
      [
        "▁یخچال",
        -10.040552982667064
      ],
      [
        "▁موهای",
        -10.040829101875262
      ],
      [
        "كر",
        -10.041201098165423
      ],
      [
        "▁۹۶",
        -10.04206746575661
      ],
      [
        "▁اپدیت",
        -10.042543840420947
      ],
      [
        "▁فرار",
        -10.043200418699229
      ],
      [
        "▁مباحث",
        -10.043560174071423
      ],
      [
        "▁ارایه",
        -10.044123843980895
      ],
      [
        "▁شرایطی",
        -10.044374440844454
      ],
      [
        "91",
        -10.045003501126754
      ],
      [
        "▁de",
        -10.04538891686759
      ],
      [
        "▁ایرنا",
        -10.045438227497645
      ],
      [
        "▁()",
        -10.046158120328332
      ],
      [
        "▁جزیره",
        -10.046543451089628
      ],
      [
        "▁نیازهای",
        -10.046761524255881
      ],
      [
        "▁شهدای",
        -10.04678183263816
      ],
      [
        "۰۶",
        -10.048487251904614
      ],
      [
        "▁فوری",
        -10.048683746575563
      ],
      [
        "یسم",
        -10.04910155323197
      ],
      [
        "▁قبلا",
        -10.050131718623518
      ],
      [
        "▁انفجار",
        -10.050460604929835
      ],
      [
        "▁امداد",
        -10.05055447204582
      ],
      [
        "▁at",
        -10.051363405781728
      ],
      [
        "‍",
        -10.051788725107361
      ],
      [
        "▁تخریب",
        -10.051792098811369
      ],
      [
        "▁02",
        -10.052217259626609
      ],
      [
        "▁سلامتی",
        -10.05225945054762
      ],
      [
        "▁سطوح",
        -10.052456158645697
      ],
      [
        "▁1391",
        -10.05274588286041
      ],
      [
        "▁مبتنی",
        -10.05353310468914
      ],
      [
        "▁محافظ",
        -10.054059738827352
      ],
      [
        "▁چگونگی",
        -10.054387805814308
      ],
      [
        "▁سالگی",
        -10.054494293223815
      ],
      [
        "ce",
        -10.055642173720024
      ],
      [
        "▁صابون",
        -10.055791917596018
      ],
      [
        "▁ترافیک",
        -10.056390638193509
      ],
      [
        "to",
        -10.05715874419355
      ],
      [
        "▁قطعی",
        -10.057678771467405
      ],
      [
        "▁مذکور",
        -10.057801274987987
      ],
      [
        "▁پخت",
        -10.057939239126199
      ],
      [
        "▁معتقد",
        -10.058079106464469
      ],
      [
        "▁لطف",
        -10.059863966645736
      ],
      [
        "▁Galaxy",
        -10.060399903043022
      ],
      [
        "▁امدن",
        -10.060447318776038
      ],
      [
        "ch",
        -10.060543572490115
      ],
      [
        "▁می‌باشد.",
        -10.061272404582468
      ],
      [
        "▁تفکر",
        -10.06173746376682
      ],
      [
        "▁مگر",
        -10.061912056462344
      ],
      [
        "▁خوراکی",
        -10.062203928020104
      ],
      [
        "▁sa",
        -10.062376839825884
      ],
      [
        "▁شهرها",
[...]
