{
  "version": "1.0",
  "truncation": null,
  "padding": null,
  "added_tokens": [
    {
      "id": 0,
      "content": "[UNK]",
      "single_word": false,
      "lstrip": false,
      "rstrip": false,
      "normalized": false,
      "special": true
    },
    {
      "id": 1,
      "content": "[PAD]",
      "single_word": false,
      "lstrip": false,
      "rstrip": false,
      "normalized": false,
      "special": true
    },
    {
      "id": 2,
      "content": "[CLS]",
      "single_word": false,
      "lstrip": false,
      "rstrip": false,
      "normalized": false,
      "special": true
    },
    {
      "id": 3,
      "content": "[SEP]",
      "single_word": false,
      "lstrip": false,
      "rstrip": false,
      "normalized": false,
      "special": true
    },
    {
      "id": 4,
      "content": "[MASK]",
      "single_word": false,
      "lstrip": false,
      "rstrip": false,
      "normalized": false,
      "special": true
    }
  ],
  "normalizer": {
    "type": "Sequence",
    "normalizers": [
      {
        "type": "NFD"
      },
      {
        "type": "StripAccents"
      }
    ]
  },
  "pre_tokenizer": {
    "type": "Sequence",
    "pretokenizers": [
      {
        "type": "WhitespaceSplit"
      },
      {
        "type": "Punctuation",
        "behavior": "Isolated"
      }
    ]
  },
  "post_processor": null,
  "decoder": null,
  "model": {
    "type": "WordPiece",
    "unk_token": "[UNK]",
    "continuing_subword_prefix": "##",
    "max_input_chars_per_word": 100,
    "vocab": {
      "[UNK]": 0,
      "[PAD]": 1,
      "[CLS]": 2,
      "[SEP]": 3,
      "[MASK]": 4,
      "\u0000": 5,
      "\u0001": 6,
      "\b": 7,
      "\u0010": 8,
      "\u0018": 9,
      "\u0019": 10,
      "\u001b": 11,
      "\u001e": 12,
      "\u001f": 13,
      "!": 14,
      "\"": 15,
      "#": 16,
      "$": 17,
      "&": 18,
      "'": 19,
      "(": 20,
      ")": 21,
      "*": 22,
      "+": 23,
      ",": 24,
      "-": 25,
      ".": 26,
      "/": 27,
      ":": 28,
      ";": 29,
      "<": 30,
      "=": 31,
      ">": 32,
      "?": 33,
      "@": 34,
      "A": 35,
      "B": 36,
      "C": 37,
      "D": 38,
      "E": 39,
      "F": 40,
      "G": 41,
      "H": 42,
      "I": 43,
      "J": 44,
      "K": 45,
      "L": 46,
      "M": 47,
      "N": 48,
      "O": 49,
      "P": 50,
      "Q": 51,
      "R": 52,
      "S": 53,
      "T": 54,
      "U": 55,
      "V": 56,
      "W": 57,
      "X": 58,
      "Y": 59,
      "Z": 60,
      "[": 61,
      "\\": 62,
      "]": 63,
      "^": 64,
      "_": 65,
      "`": 66,
      "a": 67,
      "b": 68,
      "c": 69,
      "d": 70,
      "e": 71,
      "f": 72,
      "g": 73,
      "h": 74,
      "i": 75,
      "j": 76,
      "k": 77,
      "l": 78,
      "m": 79,
      "n": 80,
      "o": 81,
      "p": 82,
      "q": 83,
      "r": 84,
      "s": 85,
      "t": 86,
      "u": 87,
      "v": 88,
      "w": 89,
      "x": 90,
      "y": 91,
      "z": 92,
      "{": 93,
      "|": 94,
      "}": 95,
      "~": 96,
      "": 97,
      "": 98,
      "": 99,
      "": 100,
      "": 101,
      "": 102,
      "": 103,
      "": 104,
      "": 105,
      "": 106,
      "": 107,
      "": 108,
      "": 109,
      "": 110,
      "": 111,
      "": 112,
      "": 113,
      "¡": 114,
      "¢": 115,
      "£": 116,
      "¤": 117,
      "¦": 118,
      "§": 119,
      "¨": 120,
      "©": 121,
      "ª": 122,
      "«": 123,
      "¬": 124,
      "­": 125,
      "®": 126,
      "¯": 127,
      "°": 128,
      "±": 129,
      "²": 130,
      "³": 131,
      "´": 132,
      "µ": 133,
      "¶": 134,
      "·": 135,
      "¸": 136,
      "¹": 137,
      "º": 138,
      "»": 139,
      "¼": 140,
      "½": 141,
      "¾": 142,
      "¿": 143,
      "Æ": 144,
      "Ð": 145,
      "×": 146,
      "Ø": 147,
      "ß": 148,
      "æ": 149,
      "ð": 150,
      "÷": 151,
      "ø": 152,
      "đ": 153,
      "ı": 154,
      "Ł": 155,
      "Œ": 156,
      "œ": 157,
      "Ŧ": 158,
      "ƒ": 159,
      "Ɣ": 160,
      "Ɩ": 161,
      "ƛ": 162,
      "Ɵ": 163,
      "Ƨ": 164,
      "ƹ": 165,
      "ə": 166,
      "ɛ": 167,
      "ɡ": 168,
      "ɢ": 169,
      "ɪ": 170,
      "ɴ": 171,
      "ɿ": 172,
      "ʃ": 173,
      "ʌ": 174,
      "ʍ": 175,
      "ʏ": 176,
      "ʒ": 177,
      "ʙ": 178,
      "ʻ": 179,
      "˂": 180,
      "ˆ": 181,
      "ˈ": 182,
      "˙": 183,
      "˚": 184,
      "˜": 185,
      "˝": 186,
      "ˮ": 187,
      "ͺ": 188,
      "΄": 189,
      "Α": 190,
      "Δ": 191,
      "Ε": 192,
      "Ι": 193,
      "Κ": 194,
      "Ξ": 195,
      "Π": 196,
      "Τ": 197,
      "Φ": 198,
      "Ω": 199,
      "α": 200,
      "β": 201,
      "γ": 202,
      "ε": 203,
      "η": 204,
      "θ": 205,
      "ι": 206,
      "κ": 207,
      "λ": 208,
      "μ": 209,
      "ν": 210,
      "ο": 211,
      "π": 212,
      "ρ": 213,
      "ς": 214,
      "σ": 215,
      "τ": 216,
      "ω": 217,
      "ϕ": 218,
      "ϙ": 219,
      "Є": 220,
      "І": 221,
      "Њ": 222,
      "А": 223,
      "Б": 224,
      "В": 225,
      "Д": 226,
      "Ж": 227,
      "З": 228,
      "И": 229,
      "К": 230,
      "М": 231,
      "П": 232,
      "Р": 233,
      "С": 234,
      "Т": 235,
      "У": 236,
      "Ф": 237,
      "Х": 238,
      "Ц": 239,
      "Ч": 240,
      "Ш": 241,
      "Щ": 242,
      "Ы": 243,
      "Я": 244,
      "а": 245,
      "б": 246,
      "в": 247,
      "г": 248,
      "д": 249,
      "е": 250,
      "ж": 251,
      "з": 252,
      "и": 253,
      "к": 254,
      "л": 255,
      "м": 256,
      "н": 257,
      "о": 258,
      "п": 259,
      "р": 260,
      "с": 261,
      "т": 262,
      "у": 263,
      "ф": 264,
      "х": 265,
      "ц": 266,
      "ч": 267,
      "ш": 268,
      "щ": 269,
      "ъ": 270,
      "ы": 271,
      "ь": 272,
      "э": 273,
      "ю": 274,
      "я": 275,
      "є": 276,
      "ѕ": 277,
      "і": 278,
      "Ѻ": 279,
      "ғ": 280,
      "Қ": 281,
      "қ": 282,
      "ҡ": 283,
      "ҷ": 284,
      "ә": 285,
      "Թ": 286,
      "Հ": 287,
      "Ռ": 288,
      "Վ": 289,
      "ա": 290,
      "բ": 291,
      "դ": 292,
      "ե": 293,
      "ժ": 294,
      "խ": 295,
      "յ": 296,
      "ն": 297,
      "ո": 298,
      "ր": 299,
      "ւ": 300,
      "א": 301,
      "ב": 302,
      "ד": 303,
      "ו": 304,
      "י": 305,
      "כ": 306,
      "מ": 307,
      "ס": 308,
      "ע": 309,
      "ף": 310,
      "ר": 311,
      "ש": 312,
      "ת": 313,
      "״": 314,
      "؁": 315,
      "،": 316,
      "؍": 317,
      "؏": 318,
      "؛": 319,
      "؜": 320,
      "؟": 321,
      "ء": 322,
      "ا": 323,
      "ب": 324,
      "ة": 325,
      "ت": 326,
      "ث": 327,
      "ج": 328,
      "ح": 329,
      "خ": 330,
      "د": 331,
      "ذ": 332,
      "ر": 333,
      "ز": 334,
      "س": 335,
      "ش": 336,
      "ص": 337,
      "ض": 338,
      "ط": 339,
      "ظ": 340,
      "ع": 341,
      "غ": 342,
      "ف": 343,
      "ق": 344,
      "ل": 345,
      "م": 346,
      "ن": 347,
      "ه": 348,
      "و": 349,
      "ي": 350,
      "٪": 351,
      "٫": 352,
      "٬": 353,
      "٭": 354,
      "ٱ": 355,
      "ٲ": 356,
      "ٴ": 357,
      "پ": 358,
      "چ": 359,
      "ژ": 360,
      "ک": 361,
      "گ": 362,
      "ی": 363,
      "ە": 364,
      "۰": 365,
      "۱": 366,
      "۲": 367,
      "۳": 368,
      "۴": 369,
      "۵": 370,
      "۶": 371,
      "۷": 372,
      "۸": 373,
      "۹": 374,
      "ܐ": 375,
      "ܓ": 376,
      "ܕ": 377,
      "ܘ": 378,
      "ܝ": 379,
      "ܡ": 380,
      "ܢ": 381,
      "ܨ": 382,
      "ܩ": 383,
      "ܪ": 384,
      "उ": 385,
      "क": 386,
      "ड": 387,
      "द": 388,
      "न": 389,
      "प": 390,
      "फ": 391,
      "र": 392,
      "ल": 393,
      "ष": 394,
      "स": 395,
      "ह": 396,
      "ব": 397,
      "ল": 398,
      "ਜ": 399,
      "ਪ": 400,
      "ਬ": 401,
      "ஜ": 402,
      "த": 403,
      "ம": 404,
      "ழ": 405,
      "గ": 406,
      "త": 407,
      "ల": 408,
      "ಕ": 409,
      "ಡ": 410,
      "ನ": 411,
      "മ": 412,
      "യ": 413,
      "ല": 414,
      "ള": 415,
      "ก": 416,
      "ค": 417,
      "ท": 418,
      "ม": 419,
      "ย": 420,
      "ร": 421,
      "ล": 422,
      "ส": 423,
      "า": 424,
      "ไ": 425,
      "๐": 426,
      "๑": 427,
      "န": 428,
      "ဘ": 429,
      "မ": 430,
      "သ": 431,
      "ა": 432,
      "გ": 433,
      "თ": 434,
      "ი": 435,
      "ლ": 436,
      "მ": 437,
      "რ": 438,
      "უ": 439,
      "ქ": 440,
      "ღ": 441,
      "ᄀ": 442,
      "ᄁ": 443,
      "ᄂ": 444,
      "ᄃ": 445,
      "ᄄ": 446,
      "ᄅ": 447,
      "ᄆ": 448,
      "ᄇ": 449,
      "ᄉ": 450,
      "ᄋ": 451,
      "ᄌ": 452,
      "ᄎ": 453,
      "ᄐ": 454,
      "ᄒ": 455,
      "ᅡ": 456,
      "ᅢ": 457,
      "ᅥ": 458,
      "ᅦ": 459,
      "ᅧ": 460,
      "ᅩ": 461,
      "ᅪ": 462,
      "ᅬ": 463,
      "ᅭ": 464,
      "ᅮ": 465,
      "ᅱ": 466,
      "ᅲ": 467,
      "ᅳ": 468,
      "ᅵ": 469,
      "ᆨ": 470,
      "ᆫ": 471,
      "ᆭ": 472,
      "ᆯ": 473,
      "ᆷ": 474,
      "ᆸ": 475,
      "ᆹ": 476,
      "ᆻ": 477,
      "ᆼ": 478,
      "ᇂ": 479,
      "ማ": 480,
      "ር": 481,
      "ስ": 482,
      "ኛ": 483,
      "አ": 484,
      "ዲ": 485,
      "ᗩ": 486,
      "ᴄ": 487,
      "ᴇ": 488,
      "ᴏ": 489,
      "ᴜ": 490,
      "ᵶ": 491,
      "ᶏ": 492,
      "​": 493,
      "‌": 494,
      "‍": 495,
      "‎": 496,
      "‏": 497,
      "‐": 498,
      "‑": 499,
      "‒": 500,
      "–": 501,
      "—": 502,
      "―": 503,
      "‘": 504,
      "’": 505,
      "‚": 506,
      "„": 507,
      "†": 508,
      "‡": 509,
      "•": 510,
      "…": 511,
      "‪": 512,
      "‫": 513,
      "‬": 514,
      "‭": 515,
      "‮": 516,
      "′": 517,
      "″": 518,
      "‹": 519,
      "›": 520,
      "‼": 521,
      "‿": 522,
      "⁄": 523,
      "⁉": 524,
      "⁠": 525,
      "⁡": 526,
      "⁣": 527,
      "⁦": 528,
      "⁧": 529,
      "⁨": 530,
      "⁩": 531,
      "⁮": 532,
      "⁯": 533,
      "⁰": 534,
      "⁺": 535,
      "₂": 536,
      "₪": 537,
      "€": 538,
      "₺": 539,
      "℃": 540,
      "ℐ": 541,
      "ℒ": 542,
      "™": 543,
      "ℳ": 544,
      "⅛": 545,
      "Ⅰ": 546,
      "ⅼ": 547,
      "←": 548,
      "↑": 549,
      "→": 550,
      "↓": 551,
      "↔": 552,
      "↕": 553,
      "↗": 554,
      "↙": 555,
      "↝": 556,
      "↠": 557,
      "↩": 558,
      "↪": 559,
      "↫": 560,
      "↳": 561,
      "↵": 562,
      "⇐": 563,
      "⇦": 564,
      "⇨": 565,
      "∅": 566,
      "∎": 567,
      "−": 568,
      "∕": 569,
      "∗": 570,
      "√": 571,
      "∧": 572,
      "∨": 573,
      "≈": 574,
      "≡": 575,
      "≤": 576,
      "≥": 577,
      "≦": 578,
      "⊕": 579,
      "⊗": 580,
      "⋅": 581,
      "⋆": 582,
      "⋐": 583,
      "⌬": 584,
      "⏎": 585,
      "⏪": 586,
      "⏰": 587,
      "⏲": 588,
      "⏳": 589,
      "③": 590,
      "④": 591,
      "⑤": 592,
      "⓿": 593,
      "─": 594,
      "│": 595,
      "├": 596,
      "┤": 597,
      "═": 598,
      "║": 599,
      "█": 600,
      "▌": 601,
      "▐": 602,
      "░": 603,
      "▒": 604,
      "▓": 605,
      "■": 606,
      "□": 607,
      "▪": 608,
      "▫": 609,
      "▬": 610,
      "▲": 611,
      "▶": 612,
      "►": 613,
      "▻": 614,
      "▼": 615,
      "◀": 616,
      "◄": 617,
      "◇": 618,
      "◊": 619,
      "○": 620,
      "●": 621,
      "◠": 622,
      "◦": 623,
      "◻": 624,
      "◽": 625,
      "◾": 626,
      "☀": 627,
      "☂": 628,
      "★": 629,
      "☆": 630,
      "☎": 631,
      "☑": 632,
      "☔": 633,
      "☕": 634,
      "☘": 635,
      "☝": 636,
      "☟": 637,
      "☩": 638,
      "☫": 639,
      "☭": 640,
      "☹": 641,
      "☺": 642,
      "☻": 643,
      "☼": 644,
      "☽": 645,
      "♀": 646,
      "♋": 647,
      "♏": 648,
      "♕": 649,
      "♛": 650,
      "♠": 651,
      "♡": 652,
      "♣": 653,
      "♥": 654,
      "♦": 655,
      "♧": 656,
      "♨": 657,
      "♩": 658,
      "♪": 659,
      "♫": 660,
      "♬": 661,
      "♭": 662,
      "♯": 663,
      "♻": 664,
      "⚑": 665,
      "⚕": 666,
      "⚘": 667,
      "⚙": 668,
      "⚜": 669,
      "⚠": 670,
      "⚡": 671,
      "⚫": 672,
      "⚽": 673,
      "⛄": 674,
      "⛔": 675,
      "✅": 676,
      "✈": 677,
      "✊": 678,
      "✋": 679,
      "✌": 680,
      "✍": 681,
      "✓": 682,
      "✔": 683,
      "✕": 684,
      "✖": 685,
      "✗": 686,
      "✤": 687,
      "✦": 688,
      "✨": 689,
      "✳": 690,
      "✿": 691,
      "❀": 692,
      "❄": 693,
      "❇": 694,
      "❌": 695,
      "❎": 696,
      "❓": 697,
      "❔": 698,
      "❖": 699,
      "❗": 700,
      "❣": 701,
      "❤": 702,
      "❶": 703,
      "❹": 704,
      "❺": 705,
      "➕": 706,
      "➖": 707,
      "➡": 708,
      "⠀": 709,
      "⦁": 710,
      "⬅": 711,
      "⬇": 712,
      "⭐": 713,
      "⭕": 714,
      "⮘": 715,
      "。": 716,
      "《": 717,
      "》": 718,
      "【": 719,
      "】": 720,
      "〢": 721,
      "〣": 722,
      "〰": 723,
      "ア": 724,
      "ソ": 725,
      "ツ": 726,
      "ニ": 727,
      "マ": 728,
      "メ": 729,
      "ロ": 730,
      "ー": 731,
      "㋡": 732,
      "䡆": 733,
      "一": 734,
      "上": 735,
      "下": 736,
      "世": 737,
      "业": 738,
      "东": 739,
      "中": 740,
      "丰": 741,
      "乐": 742,
      "习": 743,
      "二": 744,
      "份": 745,
      "伊": 746,
      "会": 747,
      "传": 748,
      "体": 749,
      "來": 750,
      "侍": 751,
      "克": 752,
      "免": 753,
      "全": 754,
      "公": 755,
      "兴": 756,
      "冊": 757,
      "册": 758,
      "凸": 759,
      "制": 760,
      "前": 761,
      "力": 762,
      "动": 763,
      "升": 764,
      "原": 765,
      "友": 766,
      "司": 767,
      "吉": 768,
      "呌": 769,
      "商": 770,
      "善": 771,
      "嘉": 772,
      "团": 773,
      "围": 774,
      "国": 775,
      "圳": 776,
      "域": 777,
      "基": 778,
      "大": 779,
      "天": 780,
      "奔": 781,
      "妻": 782,
      "娜": 783,
      "子": 784,
      "学": 785,
      "客": 786,
      "家": 787,
      "小": 788,
      "就": 789,
      "山": 790,
      "川": 791,
      "巨": 792,
      "市": 793,
      "年": 794,
      "庆": 795,
      "度": 796,
      "式": 797,
      "彦": 798,
      "息": 799,
      "惠": 800,
      "成": 801,
      "手": 802,
      "技": 803,
      "改": 804,
      "文": 805,
      "新": 806,
      "旅": 807,
      "无": 808,
      "日": 809,
      "普": 810,
      "智": 811,
      "最": 812,
      "有": 813,
      "期": 814,
      "本": 815,
      "机": 816,
      "林": 817,
      "查": 818,
      "栏": 819,
      "株": 820,
      "械": 821,
      "武": 822,
      "求": 823,
      "汉": 824,
      "江": 825,
      "注": 826,
      "泰": 827,
      "津": 828,
      "浙": 829,
      "浪": 830,
      "消": 831,
      "深": 832,
      "港": 833,
      "湖": 834,
      "漫": 835,
      "热": 836,
      "牛": 837,
      "物": 838,
      "特": 839,
      "王": 840,
      "电": 841,
      "白": 842,
      "的": 843,
      "益": 844,
      "看": 845,
      "知": 846,
      "础": 847,
      "礫": 848,
      "社": 849,
      "祥": 850,
      "科": 851,
      "空": 852,
      "第": 853,
      "简": 854,
      "篇": 855,
      "粵": 856,
      "網": 857,
      "繁": 858,
      "绍": 859,
      "统": 860,
      "美": 861,
      "聚": 862,
      "聞": 863,
      "股": 864,
      "肮": 865,
      "育": 866,
      "胡": 867,
      "自": 868,
      "色": 869,
      "芜": 870,
      "花": 871,
      "英": 872,
      "茉": 873,
      "莉": 874,
      "莱": 875,
      "蓝": 876,
      "藤": 877,
      "行": 878,
      "褐": 879,
      "言": 880,
      "註": 881,
      "語": 882,
      "讀": 883,
      "识": 884,
      "话": 885,
      "语": 886,
      "请": 887,
      "课": 888,
      "豹": 889,
      "購": 890,
      "贛": 891,
      "贝": 892,
      "费": 893,
      "超": 894,
      "跳": 895,
      "車": 896,
      "轉": 897,
      "车": 898,
      "轮": 899,
      "载": 900,
      "达": 901,
      "过": 902,
      "近": 903,
      "送": 904,
      "通": 905,
      "造": 906,
      "重": 907,
      "野": 908,
      "金": 909,
      "鑫": 910,
      "锡": 911,
      "閱": 912,
      "限": 913,
      "集": 914,
      "雷": 915,
      "音": 916,
      "顺": 917,
      "频": 918,
      "體": 919,
      "鸟": 920,
      "鹅": 921,
      "鹰": 922,
      "": 923,
      "": 924,
      "": 925,
      "": 926,
      "": 927,
      "": 928,
      "": 929,
      "": 930,
      "": 931,
      "": 932,
      "": 933,
      "": 934,
      "": 935,
      "": 936,
      "": 937,
      "": 938,
      "": 939,
      "": 940,
      "": 941,
      "": 942,
      "": 943,
      "": 944,
      "": 945,
      "": 946,
      "": 947,
      "": 948,
      "": 949,
      "": 950,
      "": 951,
      "": 952,
      "": 953,
      "": 954,
      "": 955,
      "": 956,
      "": 957,
      "": 958,
      "": 959,
      "": 960,
      "": 961,
      "": 962,
      "": 963,
      "": 964,
      "": 965,
      "": 966,
      "": 967,
      "": 968,
      "": 969,
      "": 970,
      "ﬁ": 971,
      "ﯚ": 972,
      "ﯼ": 973,
      "ﯽ": 974,
      "ﯾ": 975,
      "ﯿ": 976,
      "ﺓ": 977,
      "ﺔ": 978,
      "﻿": 979,
      "（": 980,
      "）": 981,
      "，": 982,
      "１": 983,
      "２": 984,
      "３": 985,
      "４": 986,
      "：": 987,
      "･": 988,
      "￼": 989,
      "�": 990,
      "🅱": 991,
      "🅾": 992,
      "🆔": 993,
      "🇦": 994,
      "🇨": 995,
      "🇩": 996,
      "🇪": 997,
      "🇫": 998,
      "🇬": 999,
      "🇮": 1000,
      "🇳": 1001,
      "🇵": 1002,
      "🇷": 1003,
      "🇹": 1004,
      "🌈": 1005,
      "🌎": 1006,
      "🌐": 1007,
      "🌔": 1008,
      "🌙": 1009,
      "🌟": 1010,
      "🌪": 1011,
      "🌱": 1012,
      "🌷": 1013,
      "🌸": 1014,
      "🌹": 1015,
      "🌺": 1016,
      "🌻": 1017,
      "🌼": 1018,
      "🌿": 1019,
      "🍀": 1020,
      "🍁": 1021,
      "🍂": 1022,
      "🍃": 1023,
      "🍉": 1024,
      "🍓": 1025,
      "🍕": 1026,
      "🍚": 1027,
      "🍦": 1028,
      "🍨": 1029,
      "🍩": 1030,
      "🍰": 1031,
      "🍹": 1032,
      "🍽": 1033,
      "🎁": 1034,
      "🎂": 1035,
      "🎃": 1036,
      "🎉": 1037,
      "🎊": 1038,
      "🎓": 1039,
      "🎞": 1040,
      "🎭": 1041,
      "🎹": 1042,
      "🏒": 1043,
      "🏨": 1044,
      "🏴": 1045,
      "🏻": 1046,
      "🏼": 1047,
      "🏾": 1048,
      "🏿": 1049,
      "🐓": 1050,
      "🐩": 1051,
      "👀": 1052,
      "👁": 1053,
      "👂": 1054,
      "👆": 1055,
      "👇": 1056,
      "👈": 1057,
      "👉": 1058,
      "👊": 1059,
      "👋": 1060,
      "👌": 1061,
      "👍": 1062,
      "👎": 1063,
      "👏": 1064,
      "👐": 1065,
      "👑": 1066,
      "👕": 1067,
      "👗": 1068,
      "👚": 1069,
      "👣": 1070,
      "👤": 1071,
      "👦": 1072,
      "👧": 1073,
      "👨": 1074,
      "👩": 1075,
      "👫": 1076,
      "👻": 1077,
      "💄": 1078,
      "💊": 1079,
      "💋": 1080,
      "💍": 1081,
      "💎": 1082,
      "💐": 1083,
      "💑": 1084,
      "💓": 1085,
      "💔": 1086,
      "💕": 1087,
      "💖": 1088,
      "💗": 1089,
      "💘": 1090,
      "💙": 1091,
      "💚": 1092,
      "💛": 1093,
      "💜": 1094,
      "💝": 1095,
      "💞": 1096,
      "💟": 1097,
      "💠": 1098,
      "💡": 1099,
      "💢": 1100,
      "💥": 1101,
      "💪": 1102,
      "💫": 1103,
      "💬": 1104,
      "💯": 1105,
      "💰": 1106,
      "💸": 1107,
      "💻": 1108,
      "💼": 1109,
      "📅": 1110,
      "📈": 1111,
      "📋": 1112,
      "📌": 1113,
      "📍": 1114,
      "📒": 1115,
      "📖": 1116,
      "📚": 1117,
      "📛": 1118,
      "📜": 1119,
      "📝": 1120,
      "📞": 1121,
      "📢": 1122,
      "📣": 1123,
      "📤": 1124,
      "📧": 1125,
      "📰": 1126,
      "📿": 1127,
      "🔁": 1128,
      "🔃": 1129,
      "🔄": 1130,
      "🔅": 1131,
      "🔆": 1132,
      "🔍": 1133,
      "🔔": 1134,
      "🔖": 1135,
      "🔗": 1136,
      "🔥": 1137,
      "🔧": 1138,
      "🔩": 1139,
      "🔯": 1140,
      "🔰": 1141,
      "🔴": 1142,
      "🔵": 1143,
      "🔶": 1144,
      "🔷": 1145,
      "🔸": 1146,
      "🔹": 1147,
      "🔺": 1148,
      "🔻": 1149,
      "🕐": 1150,
      "🕪": 1151,
      "🕶": 1152,
      "🕷": 1153,
      "🖋": 1154,
      "🖍": 1155,
      "🖕": 1156,
      "🖤": 1157,
      "😀": 1158,
      "😁": 1159,
      "😂": 1160,
      "😃": 1161,
      "😄": 1162,
      "😅": 1163,
      "😆": 1164,
      "😇": 1165,
      "😉": 1166,
      "😊": 1167,
      "😋": 1168,
      "😌": 1169,
      "😍": 1170,
      "😎": 1171,
      "😏": 1172,
      "😐": 1173,
      "😑": 1174,
      "😒": 1175,
      "😓": 1176,
      "😔": 1177,
      "😕": 1178,
      "😖": 1179,
      "😘": 1180,
      "😙": 1181,
      "😚": 1182,
      "😛": 1183,
      "😜": 1184,
      "😝": 1185,
      "😞": 1186,
      "😟": 1187,
      "😡": 1188,
      "😢": 1189,
      "😣": 1190,
      "😤": 1191,
      "😥": 1192,
      "😦": 1193,
      "😨": 1194,
      "😩": 1195,
      "😪": 1196,
      "😬": 1197,
      "😭": 1198,
      "😯": 1199,
      "😱": 1200,
      "😲": 1201,
      "😳": 1202,
      "😴": 1203,
      "😶": 1204,
      "😷": 1205,
      "😹": 1206,
      "😻": 1207,
      "🙁": 1208,
      "🙂": 1209,
      "🙃": 1210,
      "🙄": 1211,
      "🙇": 1212,
      "🙈": 1213,
      "🙉": 1214,
      "🙊": 1215,
      "🙏": 1216,
      "🚗": 1217,
      "🚦": 1218,
      "🚨": 1219,
      "🚩": 1220,
      "🛑": 1221,
      "🛠": 1222,
      "🛡": 1223,
      "🛫": 1224,
      "🤓": 1225,
      "🤔": 1226,
      "🤗": 1227,
      "🤠": 1228,
      "🤣": 1229,
      "🤦": 1230,
      "🤨": 1231,
      "🤬": 1232,
      "🤭": 1233,
      "🤲": 1234,
      "🤼": 1235,
      "🥰": 1236,
      "🥺": 1237,
      "🦀": 1238,
      "🦂": 1239,
      "🦅": 1240,
      "🦉": 1241,
      "🦸": 1242,
      "🧐": 1243,
      "🧙": 1244,
      "🧡": 1245,
      "##ش": 1246,
      "##ت": 1247,
      "##ر": 1248,
      "##ن": 1249,
      "##م": 1250,
      "##ا": 1251,
      "##س": 1252,
      "##ف": 1253,
      "##د": 1254,
      "##ه": 1255,
      "##خ": 1256,
      "##ک": 1257,
      "##‌": 1258,
      "##و": 1259,
      "##ز": 1260,
      "##ی": 1261,
      "##ل": 1262,
      "##ژ": 1263,
      "##ج": 1264,
      "##۶": 1265,
      "##۸": 1266,
      "##۷": 1267,
      "##۲": 1268,
      "##گ": 1269,
      "##ح": 1270,
      "##ث": 1271,
      "##غ": 1272,
      "##A": 1273,
      "##B": 1274,
      "##‎": 1275,
      "##ط": 1276,
      "##ب": 1277,
      "##ع": 1278,
      "##ة": 1279,
      "##r": 1280,
      "##y": 1281,
      "##s": 1282,
      "##t": 1283,
      "##a": 1284,
      "##l": 1285,
      "##i": 1286,
      "##e": 1287,
      "##p": 1288,
      "##u": 1289,
      "##E": 1290,
      "##c": 1291,
      "##b": 1292,
      "##ض": 1293,
      "##ص": 1294,
      "##T": 1295,
      "##X": 1296,
      "##S": 1297,
      "##P": 1298,
      "##ذ": 1299,
      "##­": 1300,
      "##چ": 1301,
      "##h": 1302,
      "##ي": 1303,
      "##ق": 1304,
      "##o": 1305,
      "##D": 1306,
      "##m": 1307,
      "##×": 1308,
      "##۹": 1309,
      "##۴": 1310,
      "##۳": 1311,
      "##پ": 1312,
      "##n": 1313,
      "##g": 1314,
      "##‍": 1315,
      "##۵": 1316,
      "##۰": 1317,
      "##f": 1318,
      "##v": 1319,
      "##d": 1320,
      "##R": 1321,
      "##C": 1322,
      "##K": 1323,
      "##ە": 1324,
      "##k": 1325,
      "##z": 1326,
      "##۱": 1327,
      "##H": 1328,
      "##ء": 1329,
      "##w": 1330,
      "##Y": 1331,
      "##‏": 1332,
      "##q": 1333,
      "##M": 1334,
      "##O": 1335,
      "##L": 1336,
      "##I": 1337,
      "##j": 1338,
      "##Б": 1339,
      "##е": 1340,
      "##л": 1341,
      "##а": 1342,
      "##р": 1343,
      "##у": 1344,
      "##с": 1345,
      "##к": 1346,
      "##я": 1347,
      "##U": 1348,
      "##ﯽ": 1349,
      "##ᅵ": 1350,
      "##ᄅ": 1351,
      "##ᅥ": 1352,
      "##ᇂ": 1353,
      "##ᄀ": 1354,
      "##ᅦ": 1355,
      "##V": 1356,
      "##ظ": 1357,
      "##ﯿ": 1358,
      "##N": 1359,
      "##Z": 1360,
      "##F": 1361,
      "##ð": 1362,
      "##ﯾ": 1363,
      "##�": 1364,
      "##н": 1365,
      "##т": 1366,
      "##г": 1367,
      "##м": 1368,
      "##x": 1369,
      "##😚": 1370,
      "##‬": 1371,
      "##\u001e": 1372,
      "##¬": 1373,
      "##G": 1374,
      "##W": 1375,
      "##®": 1376,
      "##⏰": 1377,
      "##﻿": 1378,
      "##♥": 1379,
      "##🌹": 1380,
      "##😘": 1381,
      "##Q": 1382,
      "##J": 1383,
      "##自": 1384,
      "##": 1385,
      "##莉": 1386,
      "##花": 1387,
      "##😓": 1388,
      "##🏻": 1389,
      "##ᅮ": 1390,
      "##ᄋ": 1391,
      "##ᆫ": 1392,
      "##˝": 1393,
      "##±": 1394,
      "##ƒ": 1395,
      "##œ": 1396,
      "##¯": 1397,
      "##Ø": 1398,
      "##​": 1399,
      "##→": 1400,
      "##": 1401,
      "##😻": 1402,
      "##😹": 1403,
      "##☺": 1404,
      "##➖": 1405,
      "##😏": 1406,
      "##体": 1407,
      "##⁯": 1408,
      "##˚": 1409,
      "##😍": 1410,
      "##👇": 1411,
      "##⁩": 1412,
      "##ˆ": 1413,
      "##о": 1414,
      "##д": 1415,
      "##😂": 1416,
      "##ﯼ": 1417,
      "##‭": 1418,
      "##ˮ": 1419,
      "##│": 1420,
      "##★": 1421,
      "##ф": 1422,
      "##и": 1423,
      "##³": 1424,
      "##": 1425,
      "##👏": 1426,
      "##ᆯ": 1427,
      "##ᄒ": 1428,
      "##ᅡ": 1429,
      "##ᄂ": 1430,
      "##ᅳ": 1431,
      "##⁄": 1432,
      "##😊": 1433,
      "##🤠": 1434,
      "##λ": 1435,
      "##η": 1436,
      "##ν": 1437,
      "##ι": 1438,
      "##κ": 1439,
      "##α": 1440,
      "##💐": 1441,
      "##🌸": 1442,
      "##€": 1443,
      "##º": 1444,
      "##Թ": 1445,
      "##ʍ": 1446,
      "##ɿ": 1447,
      "##Ռ": 1448,
      "##х": 1449,
      "##з": 1450,
      "##ы": 1451,
      "##✤": 1452,
      "##ª": 1453,
      "##Œ": 1454,
      "##™": 1455,
      "##⇐": 1456,
      "##©": 1457,
      "##❤": 1458,
      "##😄": 1459,
      "##\u001b": 1460,
      "##": 1461,
      "##😣": 1462,
      "##ˈ": 1463,
      "##ღ": 1464,
      "##ᄌ": 1465,
      "##ᆼ": 1466,
      "##": 1467,
      "##‪": 1468,
      "##✊": 1469,
      "##ə": 1470,
      "##˜": 1471,
      "##✅": 1472,
      "##ı": 1473,
      "##‫": 1474,
      "##¨": 1475,
      "##≤": 1476,
      "##ﺔ": 1477,
      "##´": 1478,
      "##ь": 1479,
      "##ҷ": 1480,
      "##ਪ": 1481,
      "##ਜ": 1482,
      "##ਬ": 1483,
      "##Р": 1484,
      "##б": 1485,
      "##▪": 1486,
      "##●": 1487,
      "##²": 1488,
      "##❗": 1489,
      "##育": 1490,
      "##注": 1491,
      "##册": 1492,
      "##就": 1493,
      "##送": 1494,
      "##💓": 1495,
      "##💖": 1496,
      "##п": 1497,
      "##щ": 1498,
      "##Қ": 1499,
      "##қ": 1500,
      "##ш": 1501,
      "##М": 1502,
      "##♬": 1503,
      "##😕": 1504,
      "##⚽": 1505,
      "##🙏": 1506,
      "##💕": 1507,
      "##\u0018": 1508,
      "##国": 1509,
      "##语": 1510,
      "##言": 1511,
      "##❔": 1512,
      "##°": 1513,
      "##🍦": 1514,
      "##ᆷ": 1515,
      "##\u0019": 1516,
      "##£": 1517,
      "##🔩": 1518,
      "##💝": 1519,
      "##😝": 1520,
      "##讀": 1521,
      "##全": 1522,
      "##文": 1523,
      "##": 1524,
      "##": 1525,
      "##😀": 1526,
      "##¹": 1527,
      "##ٱ": 1528,
      "##中": 1529,
      "##ܡ": 1530,
      "##ܝ": 1531,
      "##ܕ": 1532,
      "##◇": 1533,
      "##Ι": 1534,
      "##כ": 1535,
      "##😇": 1536,
      "##¢": 1537,
      "##☻": 1538,
      "##❣": 1539,
      "##µ": 1540,
      "##": 1541,
      "##С": 1542,
      "##😭": 1543,
      "##←": 1544,
      "##💪": 1545,
      "##♪": 1546,
      "##♡": 1547,
      "##ɛ": 1548,
      "##ʃ": 1549,
      "##🛑": 1550,
      "##💗": 1551,
      "##ɡ": 1552,
      "##ʌ": 1553,
      "##⁦": 1554,
      "##☹": 1555,
      "##": 1556,
      "##😐": 1557,
      "##❓": 1558,
      "##🔖": 1559,
      "##😑": 1560,
      "##ᅱ": 1561,
      "##ᄃ": 1562,
      "##ᅢ": 1563,
      "##👍": 1564,
      "##🤨": 1565,
      "##ø": 1566,
      "##У": 1567,
      "##і": 1568,
      "##👎": 1569,
      "##传": 1570,
      "##统": 1571,
      "##二": 1572,
      "##胡": 1573,
      "##音": 1574,
      "##乐": 1575,
      "##😒": 1576,
      "##₂": 1577,
      "##😙": 1578,
      "##⁨": 1579,
      "##👊": 1580,
      "##👑": 1581,
      "##🏨": 1582,
      "##😔": 1583,
      "##📝": 1584,
      "##😎": 1585,
      "##⭐": 1586,
      "##ニ": 1587,
      "##ー": 1588,
      "##株": 1589,
      "##式": 1590,
      "##会": 1591,
      "##社": 1592,
      "##ᆻ": 1593,
      "##👌": 1594,
      "##👆": 1595,
      "##ᅧ": 1596,
      "##ᅩ": 1597,
      "##😁": 1598,
      "##粵": 1599,
      "##語": 1600,
      "##🤦": 1601,
      "##♀": 1602,
      "##↳": 1603,
      "##下": 1604,
      "##一": 1605,
      "##篇": 1606,
      "##؁": 1607,
      "##⚕": 1608,
      "##ٲ": 1609,
      "##🍃": 1610,
      "##原": 1611,
      "##∅": 1612,
      "##⠀": 1613,
      "##行": 1614,
      "##车": 1615,
      "##有": 1616,
      "##限": 1617,
      "##公": 1618,
      "##司": 1619,
      "##🤣": 1620,
      "##🔥": 1621,
      "##江": 1622,
      "##绍": 1623,
      "##兴": 1624,
      "##白": 1625,
      "##天": 1626,
      "##鹅": 1627,
      "##电": 1628,
      "##动": 1629,
      "##ನ": 1630,
      "##ಡ": 1631,
      "##贛": 1632,
      "##ע": 1633,
      "##ב": 1634,
      "##ר": 1635,
      "##י": 1636,
      "##ת": 1637,
      "##Հ": 1638,
      "##ա": 1639,
      "##յ": 1640,
      "##ե": 1641,
      "##ր": 1642,
      "##ն": 1643,
      "##⁧": 1644,
      "##🥺": 1645,
      "##⁣": 1646,
      "##💻": 1647,
      "##☝": 1648,
      "##🌻": 1649,
      "##😱": 1650,
      "##♫": 1651,
      "##❺": 1652,
      "##❹": 1653,
      "##❶": 1654,
      "##频": 1655,
      "##उ": 1656,
      "##न": 1657,
      "##ल": 1658,
      "##ड": 1659,
      "##♦": 1660,
      "##Щ": 1661,
      "##ѕ": 1662,
      "##Ш": 1663,
      "##த": 1664,
      "##ம": 1665,
      "##ழ": 1666,
      "##త": 1667,
      "##ల": 1668,
      "##గ": 1669,
      "##ไ": 1670,
      "##ท": 1671,
      "##ย": 1672,
      "##Т": 1673,
      "##ч": 1674,
      "##σ": 1675,
      "##😉": 1676,
      "##☆": 1677,
      "##ᆨ": 1678,
      "##ა": 1679,
      "##რ": 1680,
      "##თ": 1681,
      "##უ": 1682,
      "##ლ": 1683,
      "##ი": 1684,
      "##🤔": 1685,
      "##÷": 1686,
      "##¦": 1687,
      "##🏾": 1688,
      "##㋡": 1689,
      "##👈": 1690,
      "##彦": 1691,
      "##🔴": 1692,
      "##😢": 1693,
      "##⚡": 1694,
      "##🤗": 1695,
      "##स": 1696,
      "##🙂": 1697,
      "##🙊": 1698,
      "##🙈": 1699,
      "##ъ": 1700,
      "##в": 1701,
      "##¾": 1702,
      "##🌺": 1703,
      "##Ѻ": 1704,
      "##\u0010": 1705,
      "##日": 1706,
      "##本": 1707,
      "##💞": 1708,
      "##💋": 1709,
      "##😷": 1710,
      "##🧐": 1711,
      "##☼": 1712,
      "##✿": 1713,
      "##║": 1714,
      "##💙": 1715,
      "##ዲ": 1716,
      "##ስ": 1717,
      "##\u001f": 1718,
      "##☽": 1719,
      "##ٴ": 1720,
      "##😅": 1721,
      "##😆": 1722,
      "##ஜ": 1723,
      "##❀": 1724,
      "##": 1725,
      "##█": 1726,
      "##¤": 1727,
      "##✦": 1728,
      "##🤭": 1729,
      "##😛": 1730,
      "##牛": 1731,
      "##跳": 1732,
      "##升": 1733,
      "##超": 1734,
      "##过": 1735,
      "##色": 1736,
      "##围": 1737,
      "##栏": 1738,
      "##藤": 1739,
      "##✌": 1740,
      "##♣": 1741,
      "##👋": 1742,
      "##►": 1743,
      "##▒": 1744,
      "##▓": 1745,
      "##ж": 1746,
      "##☭": 1747,
      "##♛": 1748,
      "##📣": 1749,
      "##ᆹ": 1750,
      "##ᵶ": 1751,
      "##ᶏ": 1752,
      "##🌙": 1753,
      "##Ł": 1754,
      "##♠": 1755,
      "##─": 1756,
      "##😩": 1757,
      "##🍚": 1758,
      "##æ": 1759,
      "##\u0001": 1760,
      "##": 1761,
      "##😋": 1762,
      "##😶": 1763,
      "##І": 1764,
      "##🔧": 1765,
      "##锡": 1766,
      "##市": 1767,
      "##嘉": 1768,
      "##特": 1769,
      "##½": 1770,
      "##😦": 1771,
      "##🏼": 1772,
      "##▼": 1773,
      "##ß": 1774,
      "##‮": 1775,
      "##😖": 1776,
      "##🤼": 1777,
      "##✋": 1778,
      "##🍉": 1779,
      "##🍓": 1780,
      "##🍕": 1781,
      "##🎂": 1782,
      "##🍩": 1783,
      "##🍨": 1784,
      "##☕": 1785,
      "##🍹": 1786,
      "##😳": 1787,
      "##\u0000": 1788,
      "##ц": 1789,
      "##đ": 1790,
      "##र": 1791,
      "##ष": 1792,
      "##क": 1793,
      "##ο": 1794,
      "##林": 1795,
      "##娜": 1796,
      "##😴": 1797,
      "##⌬": 1798,
      "##▬": 1799,
      "##◄": 1800,
      "##🥰": 1801,
      "##Ε": 1802,
      "##聞": 1803,
      "##ქ": 1804,
      "##മ": 1805,
      "##ല": 1806,
      "##യ": 1807,
      "##ള": 1808,
      "##✔": 1809,
      "##მ": 1810,
      "##გ": 1811,
      "##ד": 1812,
      "##ש": 1813,
      "##🐓": 1814,
      "##": 1815,
      "##ᴜ": 1816,
      "##ᴇ": 1817,
      "##ɴ": 1818,
      "##📿": 1819,
      "##❄": 1820,
      "##ᄉ": 1821,
      "##ᅭ": 1822,
      "##津": 1823,
      "##巨": 1824,
      "##大": 1825,
      "##😜": 1826,
      "##🌷": 1827,
      "##Ξ": 1828,
      "##😞": 1829,
      "##前": 1830,
      "##ܘ": 1831,
      "##ܢ": 1832,
      "##ܓ": 1833,
      "##期": 1834,
      "##肮": 1835,
      "##😬": 1836,
      "##⬇": 1837,
      "##↪": 1838,
      "##🏒": 1839,
      "##聚": 1840,
      "##友": 1841,
      "##▌": 1842,
      "##ᄆ": 1843,
      "##♭": 1844,
      "##⬅": 1845,
      "##金": 1846,
      "##轮": 1847,
      "##集": 1848,
      "##团": 1849,
      "##မ": 1850,
      "##န": 1851,
      "##ဘ": 1852,
      "##သ": 1853,
      "##👦": 1854,
      "##є": 1855,
      "##▲": 1856,
      "##⇨": 1857,
      "##😲": 1858,
      "##手": 1859,
      "##ʒ": 1860,
      "##💚": 1861,
      "##ܨ": 1862,
      "##💜": 1863,
      "##🧡": 1864,
      "##💛": 1865,
      "##γ": 1866,
      "##ς": 1867,
      "##🖤": 1868,
      "##王": 1869,
      "##力": 1870,
      "##า": 1871,
      "##ม": 1872,
      "##东": 1873,
      "##英": 1874,
      "##克": 1875,
      "##莱": 1876,
      "##ह": 1877,
      "##द": 1878,
      "##": 1879,
      "##🚨": 1880,
      "##☑": 1881,
      "##😥": 1882,
      "##💎": 1883,
      "##🌟": 1884,
      "##ᴏ": 1885,
      "##ɢ": 1886,
      "##ʙ": 1887,
      "##ʏ": 1888,
      "##ก": 1889,
      "##ร": 1890,
      "##Є": 1891,
      "##🌔": 1892,
      "##🇫": 1893,
      "##🖕": 1894,
      "##א": 1895,
      "##⛄": 1896,
      "##☔": 1897,
      "##ᆭ": 1898,
      "##🌱": 1899,
      "##ᅪ": 1900,
      "##奔": 1901,
      "##豹": 1902,
      "##科": 1903,
      "##技": 1904,
      "##股": 1905,
      "##份": 1906,
      "##简": 1907,
      "##🌼": 1908,
      "##ಕ": 1909,
      "##⁮": 1910,
      "##؏": 1911,
      "##⛔": 1912,
      "##🙇": 1913,
      "##👉": 1914,
      "##": 1915,
      "##": 1916,
      "##🙃": 1917,
      "##マ": 1918,
      "##ล": 1919,
      "##Њ": 1920,
      "##子": 1921,
      "##的": 1922,
      "##浪": 1923,
      "##漫": 1924,
      "##旅": 1925,
      "##😡": 1926,
      "##新": 1927,
      "##消": 1928,
      "##息": 1929,
      "##🇷": 1930,
      "##🇬": 1931,
      "##🇪": 1932,
      "##ω": 1933,
      "##τ": 1934,
      "##通": 1935,
      "##话": 1936,
      "##Ɵ": 1937,
      "##¼": 1938,
      "##庆": 1939,
      "##港": 1940,
      "##鑫": 1941,
      "##机": 1942,
      "##械": 1943,
      "##制": 1944,
      "##造": 1945,
      "##П": 1946,
      "##": 1947,
      "##泰": 1948,
      "##丰": 1949,
      "##小": 1950,
      "##鸟": 1951,
      "##业": 1952,
      "##😟": 1953,
      "##խ": 1954,
      "##բ": 1955,
      "##դ": 1956,
      "##😨": 1957,
      "##ю": 1958,
      "##Ω": 1959,
      "##♯": 1960,
      "##": 1961,
      "##🇹": 1962,
      "##🇵": 1963,
      "##🌈": 1964,
      "##Α": 1965,
      "##🔅": 1966,
      "##Ɩ": 1967,
      "##Ƨ": 1968,
      "##ƛ": 1969,
      "##🇨": 1970,
      "##🇳": 1971,
      "##🔹": 1972,
      "##🎹": 1973,
      "##👐": 1974,
      "##ᄄ": 1975,
      "##ᄁ": 1976,
      "##": 1977,
      "##": 1978,
      "##ʻ": 1979,
      "##❌": 1980,
      "##费": 1981,
      "##载": 1982,
      "##🙄": 1983,
      "##ᗩ": 1984,
      "##〢": 1985,
      "##〣": 1986,
      "##◽": 1987,
      "##": 1988,
      "##✳": 1989,
      "##💥": 1990,
      "##ᅬ": 1991,
      "##湖": 1992,
      "##吉": 1993,
      "##祥": 1994,
      "##🌎": 1995,
      "##冊": 1996,
      "##網": 1997,
      "##域": 1998,
      "##✓": 1999,
      "##ᆸ": 2000,
      "##↓": 2001,
      "##↵": 2002,
      "##👗": 2003,
      "##👚": 2004,
      "##": 2005,
      "##": 2006,
      "##≡": 2007,
      "##΄": 2008,
      "##ᅲ": 2009,
      "##📛": 2010,
      "##山": 2011,
      "##惠": 2012,
      "##ո": 2013,
      "##ւ": 2014,
      "##ժ": 2015,
      "##➕": 2016,
      "##客": 2017,
      "##家": 2018,
      "##🛫": 2019,
      "##🇮": 2020,
      "##♻": 2021,
      "##Æ": 2022,
      "##🐩": 2023,
      "##蓝": 2024,
      "##贝": 2025,
      "##◠": 2026,
      "##😃": 2027,
      "##善": 2028,
      "##汉": 2029,
      "##益": 2030,
      "##商": 2031,
      "##體": 2032,
      "##▶": 2033,
      "##░": 2034,
      "##┤": 2035,
      "##ρ": 2036,
      "##近": 2037,
      "##请": 2038,
      "##求": 2039,
      "##ͺ": 2040,
      "##₪": 2041,
      "##↑": 2042,
      "##ﺓ": 2043,
      "##⚘": 2044,
      "##ﯚ": 2045,
      "##ғ": 2046,
      "##ә": 2047,
      "##习": 2048,
      "##第": 2049,
      "##ᄎ": 2050,
      "##👨": 2051,
      "##💼": 2052,
      "##═": 2053,
      "##础": 2054,
      "##知": 2055,
      "##识": 2056,
      "##看": 2057,
      "##購": 2058,
      "##物": 2059,
      "##車": 2060,
      "##💫": 2061,
      "##ℐ": 2062,
      "##ℒ": 2063,
      "##Ð": 2064,
      "##◾": 2065,
      "##◻": 2066,
      "##▐": 2067,
      "##🎊": 2068,
      "##世": 2069,
      "##达": 2070,
      "##♧": 2071,
      "##圳": 2072,
      "##成": 2073,
      "##አ": 2074,
      "##ማ": 2075,
      "##ር": 2076,
      "##ኛ": 2077,
      "##ܐ": 2078,
      "##ܪ": 2079,
      "##ҡ": 2080,
      "##⁰": 2081,
      "##💘": 2082,
      "##🏿": 2083,
      "##ᴄ": 2084,
      "##ו": 2085,
      "##ס": 2086,
      "##ף": 2087,
      "##ツ": 2088,
      "##⭕": 2089,
      "##🆔": 2090,
      "##ল": 2091,
      "##顺": 2092,
      "##度": 2093,
      "##Δ": 2094,
      "##¸": 2095,
      "##野": 2096,
      "##鹰": 2097,
      "##メ": 2098,
      "##ان": 2099,
      "##ای": 2100,
      "##ار": 2101,
      "##ست": 2102,
      "##ین": 2103,
      "در": 2104,
      "به": 2105,
      "##ند": 2106,
      "##ام": 2107,
      "با": 2108,
      "##ور": 2109,
      "##ود": 2110,
      "از": 2111,
      "##ال": 2112,
      "##ید": 2113,
      "##اد": 2114,
      "##ی‌": 2115,
      "بر": 2116,
      "##های": 2117,
      "##یر": 2118,
      "است": 2119,
      "##اه": 2120,
      "##رد": 2121,
      "این": 2122,
      "##ات": 2123,
      "می‌": 2124,
      "##ه‌": 2125,
      "که": 2126,
      "ان": 2127,
      "##یم": 2128,
      "را": 2129,
      "##لی": 2130,
      "##اب": 2131,
      "##ون": 2132,
      "##ری": 2133,
      "ام": 2134,
      "##ها": 2135,
      "##شت": 2136,
      "##از": 2137,
      "##رو": 2138,
      "##فت": 2139,
      "##ول": 2140,
      "##اس": 2141,
      "##ده": 2142,
      "هم": 2143,
      "##اری": 2144,
      "##‌های": 2145,
      "رو": 2146,
      "##یت": 2147,
      "##تر": 2148,
      "##انی": 2149,
      "برای": 2150,
      "##سی": 2151,
      "##وان": 2152,
      "##را": 2153,
      "##نگ": 2154,
      "کرد": 2155,
      "##لا": 2156,
      "##وی": 2157,
      "##مان": 2158,
      "یک": 2159,
      "مو": 2160,
      "##تی": 2161,
      "من": 2162,
      "##کن": 2163,
      "##زی": 2164,
      "##زار": 2165,
      "##یل": 2166,
      "کن": 2167,
      "##گاه": 2168,
      "تو": 2169,
      "کار": 2170,
      "دان": 2171,
      "##گر": 2172,
      "##خت": 2173,
      "دار": 2174,
      "مح": 2175,
      "##هر": 2176,
      "##وز": 2177,
      "خود": 2178,
      "##وم": 2179,
      "##یش": 2180,
      "##بر": 2181,
      "##ایی": 2182,
      "##رک": 2183,
      "نم": 2184,
      "تا": 2185,
      "##یز": 2186,
      "شد": 2187,
      "اس": 2188,
      "##اده": 2189,
      "۱۳": 2190,
      "مد": 2191,
      "فر": 2192,
      "مع": 2193,
      "ار": 2194,
      "##‌ها": 2195,
      "##اش": 2196,
      "بود": 2197,
      "##انه": 2198,
      "##اشت": 2199,
      "خو": 2200,
      "ال": 2201,
      "##ما": 2202,
      "##بی": 2203,
      "##ه‌های": 2204,
      "ایر": 2205,
      "اف": 2206,
      "##نی": 2207,
      "سال": 2208,
      "##رم": 2209,
      "##اف": 2210,
      "##ورد": 2211,
      "##دید": 2212,
      "مش": 2213,
      "دست": 2214,
      "##یک": 2215,
      "می‌ش": 2216,
      "##اره": 2217,
      "##اید": 2218,
      "##لام": 2219,
      "۱۳۹": 2220,
      "##شن": 2221,
      "##یست": 2222,
      "##لود": 2223,
      "##بت": 2224,
      "##رف": 2225,
      "کش": 2226,
      "##ه‌ای": 2227,
      "##ایت": 2228,
      "دی": 2229,
      "مس": 2230,
      "##به": 2231,
      "##ایش": 2232,
      "##قی": 2233,
      "بی": 2234,
      "دو": 2235,
      "سا": 2236,
      "##جه": 2237,
      "مت": 2238,
      "##می": 2239,
      "##له": 2240,
      "باش": 2241,
      "دانلود": 2242,
      "##گی": 2243,
      "##امه": 2244,
      "##اند": 2245,
      "##توان": 2246,
      "۲۰": 2247,
      "مر": 2248,
      "##ارد": 2249,
      "مق": 2250,
      "ایران": 2251,
      "##ستان": 2252,
      "یا": 2253,
      "انت": 2254,
      "باز": 2255,
      "##یا": 2256,
      "##ادی": 2257,
      "مج": 2258,
      "گفت": 2259,
      "##وش": 2260,
      "##که": 2261,
      "##رس": 2262,
      "##عت": 2263,
      "##عی": 2264,
      "##وری": 2265,
      "##عه": 2266,
      "سر": 2267,
      "اد": 2268,
      "می‌شود": 2269,
      "می": 2270,
      "قر": 2271,
      "##نده": 2272,
      "##گیر": 2273,
      "اق": 2274,
      "اب": 2275,
      "نظ": 2276,
      "##شده": 2277,
      "##عد": 2278,
      "##یس": 2279,
      "##وا": 2280,
      "پیش": 2281,
      "وی": 2282,
      "داشت": 2283,
      "کشور": 2284,
      "روز": 2285,
      "##ترین": 2286,
      "##اق": 2287,
      "##اک": 2288,
      "##۰۰": 2289,
      "عم": 2290,
      "اخ": 2291,
      "##الی": 2292,
      "هست": 2293,
      "تح": 2294,
      "شما": 2295,
      "خبر": 2296,
      "نو": 2297,
      "اج": 2298,
      "کم": 2299,
      "تم": 2300,
      "##ازی": 2301,
      "می‌توان": 2302,
      "##رکت": 2303,
      "##وت": 2304,
      "##اط": 2305,
      "گر": 2306,
      "ما": 2307,
      "جه": 2308,
      "دانش": 2309,
      "بد": 2310,
      "استف": 2311,
      "##خص": 2312,
      "داد": 2313,
      "مه": 2314,
      "هر": 2315,
      "##ورت": 2316,
      "شده": 2317,
      "##گان": 2318,
      "او": 2319,
      "مرد": 2320,
      "##مین": 2321,
      "اه": 2322,
      "دارد": 2323,
      "ای": 2324,
      "استفاده": 2325,
      "مط": 2326,
      "##شی": 2327,
      "نق": 2328,
      "##شک": 2329,
      "##فر": 2330,
      "اص": 2331,
      "##دی": 2332,
      "نیز": 2333,
      "جدید": 2334,
      "تص": 2335,
      "بازی": 2336,
      "شرکت": 2337,
      "باید": 2338,
      "بخ": 2339,
      "شهر": 2340,
      "##امل": 2341,
      "##کس": 2342,
      "رس": 2343,
      "##روش": 2344,
      "##er": 2345,
      "اموز": 2346,
      "##بار": 2347,
      "افز": 2348,
      "ات": 2349,
      "پای": 2350,
      "##کل": 2351,
      "خر": 2352,
      "کنید": 2353,
      "شه": 2354,
      "جم": 2355,
      "##اسی": 2356,
      "##من": 2357,
      "##یه": 2358,
      "خواه": 2359,
      "##وه": 2360,
      "اع": 2361,
      "چه": 2362,
      "کل": 2363,
      "##نا": 2364,
      "می‌ک": 2365,
      "قرار": 2366,
      "نش": 2367,
      "مورد": 2368,
      "##فته": 2369,
      "فیل": 2370,
      "انج": 2371,
      "زی": 2372,
      "عل": 2373,
      "##دم": 2374,
      "پی": 2375,
      "##رای": 2376,
      "راه": 2377,
      "اما": 2378,
      "توس": 2379,
      "می‌ب": 2380,
      "##ی‌های": 2381,
      "##قه": 2382,
      "می‌کن": 2383,
      "تول": 2384,
      "بسی": 2385,
      "##جود": 2386,
      "مدیر": 2387,
      "ساز": 2388,
      "##ایل": 2389,
      "۲۰۱": 2390,
      "سنگ": 2391,
      "##نج": 2392,
      "##عات": 2393,
      "گزار": 2394,
      "فروش": 2395,
      "اط": 2396,
      "##در": 2397,
      "دا": 2398,
      "##یمت": 2399,
      "##رب": 2400,
      "ده": 2401,
      "##حی": 2402,
      "گزارش": 2403,
      "ساخت": 2404,
      "نی": 2405,
      "۱۰": 2406,
      "تولید": 2407,
      "##دار": 2408,
      "پر": 2409,
      "##نامه": 2410,
      "فیلم": 2411,
      "صورت": 2412,
      "##‌ال": 2413,
      "تاری": 2414,
      "##لف": 2415,
      "خرید": 2416,
      "تن": 2417,
      "پس": 2418,
      "##دا": 2419,
      "بین": 2420,
      "حال": 2421,
      "##اص": 2422,
      "گذ": 2423,
      "##in": 2424,
      "دیگر": 2425,
      "قیمت": 2426,
      "##کت": 2427,
      "تاریخ": 2428,
      "##وب": 2429,
      "ور": 2430,
      "اح": 2431,
      "##رح": 2432,
      "دور": 2433,
      "##اح": 2434,
      "##ه‌ها": 2435,
      "##ریک": 2436,
      "نظر": 2437,
      "استان": 2438,
      "##شته": 2439,
      "##نین": 2440,
      "##امی": 2441,
      "حس": 2442,
      "##an": 2443,
      "##فا": 2444,
      "##وع": 2445,
      "تب": 2446,
      "##وند": 2447,
      "بیشت": 2448,
      "نام": 2449,
      "##کان": 2450,
      "مص": 2451,
      "##on": 2452,
      "##اتی": 2453,
      "می‌کند": 2454,
      "##لس": 2455,
      "ماه": 2456,
      "روی": 2457,
      "##اشد": 2458,
      "باشد": 2459,
      "دید": 2460,
      "##ه‌ی": 2461,
      "##ar": 2462,
      "پرو": 2463,
      "##اور": 2464,
      "##وس": 2465,
      "اش": 2466,
      "##یف": 2467,
      "##نوان": 2468,
      "اموزش": 2469,
      "اطلا": 2470,
      "##رین": 2471,
      "تع": 2472,
      "اول": 2473,
      "سایت": 2474,
      "کرده": 2475,
      "اند": 2476,
      "شود": 2477,
      "انجام": 2478,
      "اگر": 2479,
      "##مت": 2480,
      "یکی": 2481,
      "هی": 2482,
      "##هران": 2483,
      "کد": 2484,
      "تر": 2485,
      "بز": 2486,
      "نس": 2487,
      "نمی‌": 2488,
      "##نام": 2489,
      "##بان": 2490,
      "##ابل": 2491,
      "##شار": 2492,
      "برگ": 2493,
      "سو": 2494,
      "زیر": 2495,
      "##کر": 2496,
      "خان": 2497,
      "##سب": 2498,
      "##بال": 2499,
      "##تاب": 2500,
      "همچ": 2501,
      "##ونه": 2502,
      "می‌باشد": 2503,
      "تهران": 2504,
      "بعد": 2505,
      "##مند": 2506,
      "##ارت": 2507,
      "سی": 2508,
      "صن": 2509,
      "هستند": 2510,
      "##روز": 2511,
      "##خاب": 2512,
      "عنوان": 2513,
      "اسلام": 2514,
      "بیم": 2515,
      "##اپ": 2516,
      "##کی": 2517,
      "##داشت": 2518,
      "۱۲": 2519,
      "حم": 2520,
      "##گیری": 2521,
      "##قل": 2522,
      "قب": 2523,
      "##ه‌اند": 2524,
      "وجود": 2525,
      "ساعت": 2526,
      "##ینی": 2527,
      "##ادر": 2528,
      "بار": 2529,
      "حض": 2530,
      "کند": 2531,
      "##مانی": 2532,
      "اینکه": 2533,
      "مردم": 2534,
      "خواهد": 2535,
      "کردن": 2536,
      "نیست": 2537,
      "فع": 2538,
      "##رسی": 2539,
      "شم": 2540,
      "تج": 2541,
      "##ره": 2542,
      "##مه": 2543,
      "##or": 2544,
      "##‌شده": 2545,
      "برخ": 2546,
      "انها": 2547,
      "##رگ": 2548,
      "انتخاب": 2549,
      "نمای": 2550,
      "توسط": 2551,
      "##لو": 2552,
      "##مد": 2553,
      "##شنبه": 2554,
      "امریک": 2555,
      "سه": 2556,
      "##لب": 2557,
      "کتاب": 2558,
      "##گذ": 2559,
      "##ونی": 2560,
      "##خو": 2561,
      "چند": 2562,
      "##ضا": 2563,
      "ادامه": 2564,
      "##سال": 2565,
      "ارت": 2566,
      "دانشگاه": 2567,
      "بخش": 2568,
      "##سته": 2569,
      "##ویر": 2570,
      "شب": 2571,
      "۱۱": 2572,
      "کنند": 2573,
      "##کار": 2574,
      "دول": 2575,
      "##وق": 2576,
      "##جی": 2577,
      "##ی‌ها": 2578,
      "داشته": 2579,
      "می‌ده": 2580,
      "##گو": 2581,
      "##صد": 2582,
      "##ضی": 2583,
      "تیم": 2584,
      "بسیار": 2585,
      "##ژه": 2586,
      "بیشتر": 2587,
      "زمین": 2588,
      "##گه": 2589,
      "##at": 2590,
      "شن": 2591,
      "##دام": 2592,
      "##تص": 2593,
      "گرد": 2594,
      "افزایش": 2595,
      "##صول": 2596,
      "اهنگ": 2597,
      "سازمان": 2598,
      "##سازی": 2599,
      "##راه": 2600,
      "##ندگی": 2601,
      "دل": 2602,
      "##الب": 2603,
      "##زین": 2604,
      "صف": 2605,
      "طرح": 2606,
      "##لیل": 2607,
      "حد": 2608,
      "عکس": 2609,
      "##هنگ": 2610,
      "##وص": 2611,
      "اسلامی": 2612,
      "##فی": 2613,
      "##نه": 2614,
      "توجه": 2615,
      "فعال": 2616,
      "##شد": 2617,
      "مدل": 2618,
      "گل": 2619,
      "اقتص": 2620,
      "دستگاه": 2621,
      "##al": 2622,
      "رای": 2623,
      "##بری": 2624,
      "##ولی": 2625,
      "هزار": 2626,
      "##en": 2627,
      "##ازم": 2628,
      "محصول": 2629,
      "بان": 2630,
      "خدم": 2631,
      "گرو": 2632,
      "##es": 2633,
      "ارز": 2634,
      "هن": 2635,
      "سری": 2636,
      "اطلاعات": 2637,
      "جن": 2638,
      "##باره": 2639,
      "##است": 2640,
      "کر": 2641,
      "##لای": 2642,
      "نیاز": 2643,
      "میلی": 2644,
      "مخت": 2645,
      "بازار": 2646,
      "زمان": 2647,
      "همچنین": 2648,
      "گرفت": 2649,
      "##دن": 2650,
      "##یده": 2651,
      "##ابی": 2652,
      "##ه‌شده": 2653,
      "مست": 2654,
      "##چه": 2655,
      "همه": 2656,
      "مرا": 2657,
      "نمایش": 2658,
      "##اران": 2659,
      "بازدید": 2660,
      "##برد": 2661,
      "همراه": 2662,
      "فرهنگ": 2663,
      "۱۵": 2664,
      "##ویی": 2665,
      "امروز": 2666,
      "ري": 2667,
      "زن": 2668,
      "پرد": 2669,
      "مشکل": 2670,
      "طرا": 2671,
      "##زاری": 2672,
      "##قیق": 2673,
      "##حه": 2674,
      "##تما": 2675,
      "خار": 2676,
      "خط": 2677,
      "موض": 2678,
      "علی": 2679,
      "جام": 2680,
      "##گری": 2681,
      "##راي": 2682,
      "##ثر": 2683,
      "امریکا": 2684,
      "بزرگ": 2685,
      "خی": 2686,
      "مرک": 2687,
      "فار": 2688,
      "کلی": 2689,
      "سلام": 2690,
      "##om": 2691,
      "##ومی": 2692,
      "##ندی": 2693,
      "##جاد": 2694,
      "##شم": 2695,
      "##وط": 2696,
      "افر": 2697,
      "##ران": 2698,
      "بن": 2699,
      "##عیت": 2700,
      "مختلف": 2701,
      "غیر": 2702,
      "##مل": 2703,
      "مان": 2704,
      "حضور": 2705,
      "دولت": 2706,
      "##با": 2707,
      "سیست": 2708,
      "##زشک": 2709,
      "تغ": 2710,
      "نرم": 2711,
      "##دان": 2712,
      "##‌ش": 2713,
      "۱۹": 2714,
      "وز": 2715,
      "چهار": 2716,
      "##کتر": 2717,
      "ريیس": 2718,
      "پاس": 2719,
      "نه": 2720,
      "خودرو": 2721,
      "کود": 2722,
      "می‌کنند": 2723,
      "شدن": 2724,
      "##اي": 2725,
      "##ظه": 2726,
      "ایجاد": 2727,
      "ملی": 2728,
      "اعلام": 2729,
      "منت": 2730,
      "دارند": 2731,
      "مث": 2732,
      "##گرد": 2733,
      "مخ": 2734,
      "سب": 2735,
      "##اخت": 2736,
      "##اله": 2737,
      "##کرد": 2738,
      "##زد": 2739,
      "وق": 2740,
      "کیف": 2741,
      "کو": 2742,
      "بوده": 2743,
      "##سه": 2744,
      "تق": 2745,
      "شور": 2746,
      "جهت": 2747,
      "ری": 2748,
      "انتشار": 2749,
      "##وار": 2750,
      "بررسی": 2751,
      "سپ": 2752,
      "حق": 2753,
      "##رات": 2754,
      "تومان": 2755,
      "قط": 2756,
      "##ic": 2757,
      "کام": 2758,
      "میز": 2759,
      "واق": 2760,
      "گروه": 2761,
      "##ضای": 2762,
      "##ینک": 2763,
      "وب": 2764,
      "ثبت": 2765,
      "مناس": 2766,
      "نب": 2767,
      "دریا": 2768,
      "کاه": 2769,
      "رنگ": 2770,
      "همین": 2771,
      "##خواه": 2772,
      "مهم": 2773,
      "بدون": 2774,
      "##شان": 2775,
      "اپ": 2776,
      "بل": 2777,
      "سیستم": 2778,
      "برنامه": 2779,
      "۱۴": 2780,
      "جای": 2781,
      "##یمی": 2782,
      "درباره": 2783,
      "روش": 2784,
      "سای": 2785,
      "وارد": 2786,
      "##رت": 2787,
      "تمام": 2788,
      "مدیریت": 2789,
      "می‌تواند": 2790,
      "پار": 2791,
      "##ندان": 2792,
      "کاهش": 2793,
      "منط": 2794,
      "اشاره": 2795,
      "##ad": 2796,
      "ورز": 2797,
      "##‌اف": 2798,
      "صفحه": 2799,
      "نشان": 2800,
      "گوش": 2801,
      "ترک": 2802,
      "تعد": 2803,
      "##یشه": 2804,
      "##لت": 2805,
      "مسي": 2806,
      "طراحی": 2807,
      "مب": 2808,
      "##رایط": 2809,
      "اراي": 2810,
      "لو": 2811,
      "عمل": 2812,
      "ته": 2813,
      "##هایی": 2814,
      "بیان": 2815,
      "رفت": 2816,
      "شرایط": 2817,
      "۱۶": 2818,
      "افزود": 2819,
      "سرم": 2820,
      "عر": 2821,
      "مجم": 2822,
      "اجتما": 2823,
      "می‌دهد": 2824,
      "##it": 2825,
      "دارای": 2826,
      "داخ": 2827,
      "##اض": 2828,
      "درصد": 2829,
      "غذ": 2830,
      "اسی": 2831,
      "هیچ": 2832,
      "جهان": 2833,
      "ایرانی": 2834,
      "گذشته": 2835,
      "خص": 2836,
      "##ییر": 2837,
      "##ریق": 2838,
      "موضوع": 2839,
      "پنج": 2840,
      "##فه": 2841,
      "##ودی": 2842,
      "برخی": 2843,
      "افت": 2844,
      "دوم": 2845,
      "نفر": 2846,
      "امکان": 2847,
      "تغییر": 2848,
      "##ایه": 2849,
      "خدمات": 2850,
      "##st": 2851,
      "تک": 2852,
      "هد": 2853,
      "پاسخ": 2854,
      "##رفی": 2855,
      "##‌شکن": 2856,
      "خانه": 2857,
      "پایان": 2858,
      "خصوص": 2859,
      "زندگی": 2860,
      "امام": 2861,
      "##امین": 2862,
      "##سان": 2863,
      "یاد": 2864,
      "پرس": 2865,
      "##le": 2866,
      "قبل": 2867,
      "۱۸": 2868,
      "اصلی": 2869,
      "افراد": 2870,
      "##وست": 2871,
      "۳۰": 2872,
      "بهترین": 2873,
      "اجتماعی": 2874,
      "کال": 2875,
      "کمک": 2876,
      "##باط": 2877,
      "##‌ترین": 2878,
      "سنگ‌شکن": 2879,
      "##بط": 2880,
      "انگ": 2881,
      "##‌ب": 2882,
      "علا": 2883,
      "##ازه": 2884,
      "داده": 2885,
      "ازم": 2886,
      "بی‌": 2887,
      "شک": 2888,
      "قابل": 2889,
      "ست": 2890,
      "پزشک": 2891,
      "##ویس": 2892,
      "##الات": 2893,
      "لینک": 2894,
      "نیر": 2895,
      "ند": 2896,
      "##واع": 2897,
      "۱۳۹۸": 2898,
      "##چسب": 2899,
      "می‌توانید": 2900,
      "##یدی": 2901,
      "##ژی": 2902,
      "اینتر": 2903,
      "##am": 2904,
      "مهر": 2905,
      "##یب": 2906,
      "ولی": 2907,
      "نرم‌اف": 2908,
      "اغ": 2909,
      "اقدام": 2910,
      "بانک": 2911,
      "بیش": 2912,
      "برنام": 2913,
      "انواع": 2914,
      "مواد": 2915,
      "فایل": 2916,
      "##خانه": 2917,
      "دلیل": 2918,
      "دریافت": 2919,
      "ارد": 2920,
      "##پی": 2921,
      "به‌": 2922,
      "##نم": 2923,
      "فرد": 2924,
      "گو": 2925,
      "کیفیت": 2926,
      "##انس": 2927,
      "##جا": 2928,
      "فعالیت": 2929,
      "##صل": 2930,
      "۱۷": 2931,
      "##نت": 2932,
      "##شر": 2933,
      "بالا": 2934,
      "وا": 2935,
      "##he": 2936,
      "اخبار": 2937,
      "##ذیر": 2938,
      "فق": 2939,
      "قان": 2940,
      "##نتی": 2941,
      "رسید": 2942,
      "حوز": 2943,
      "مشت": 2944,
      "##ندگان": 2945,
      "##زه": 2946,
      "نسبت": 2947,
      "برچسب": 2948,
      "ارايه": 2949,
      "تل": 2950,
      "چرا": 2951,
      "##بین": 2952,
      "اقتصادی": 2953,
      "نقش": 2954,
      "حج": 2955,
      "شورای": 2956,
      "##ستی": 2957,
      "۲۲": 2958,
      "سط": 2959,
      "کامل": 2960,
      "میان": 2961,
      "اذ": 2962,
      "اظه": 2963,
      "##re": 2964,
      "اک": 2965,
      "لب": 2966,
      "مجلس": 2967,
      "توان": 2968,
      "شیر": 2969,
      "تعداد": 2970,
      "نرم‌افزار": 2971,
      "##گونه": 2972,
      "برگزار": 2973,
      "##داری": 2974,
      "استخ": 2975,
      "##رخ": 2976,
      "مشخص": 2977,
      "کان": 2978,
      "۲۵": 2979,
      "ره": 2980,
      "پرداخت": 2981,
      "۱۳۹۵": 2982,
      "##ویت": 2983,
      "عض": 2984,
      "۱۳۹۷": 2985,
      "سین": 2986,
      "##ریان": 2987,
      "بال": 2988,
      "##تم": 2989,
      "##لاح": 2990,
      "ارتباط": 2991,
      "قس": 2992,
      "جو": 2993,
      "جز": 2994,
      "نخ": 2995,
      "ماش": 2996,
      "جان": 2997,
      "##tt": 2998,
      "##اون": 2999,
      "اظهار": 3000,
      "##‌س": 3001,
      "سف": 3002,
      "اعت": 3003,
      "شهری": 3004,
      "##عث": 3005,
      "##زارت": 3006,
      "عمومی": 3007,
      "مصرف": 3008,
      "ارسال": 3009,
      "##گران": 3010,
      "##فق": 3011,
      "##خصص": 3012,
      "فوت": 3013,
      "مناسب": 3014,
      "وزارت": 3015,
      "امن": 3016,
      "متن": 3017,
      "همان": 3018,
      "کنیم": 3019,
      "شهرستان": 3020,
      "##کاری": 3021,
      "##ed": 3022,
      "##‌هایی": 3023,
      "منطقه": 3024,
      "صد": 3025,
      "##‌تر": 3026,
      "معم": 3027,
      "اخت": 3028,
      "##ابر": 3029,
      "تنها": 3030,
      "ایم": 3031,
      "مرکز": 3032,
      "خرد": 3033,
      "کاربر": 3034,
      "محمد": 3035,
      "۲۱": 3036,
      "نوع": 3037,
      "۲۴": 3038,
      "دنی": 3039,
      "باعث": 3040,
      "شی": 3041,
      "##لاین": 3042,
      "نور": 3043,
      "##وین": 3044,
      "تشک": 3045,
      "##یاست": 3046,
      "گرفته": 3047,
      "##ثیر": 3048,
      "رایگان": 3049,
      "نقل": 3050,
      "ماشین": 3051,
      "خانو": 3052,
      "انقل": 3053,
      "فرهنگی": 3054,
      "##ou": 3055,
      "محصولات": 3056,
      "توسعه": 3057,
      "۱۳۹۶": 3058,
      "نا": 3059,
      "ابت": 3060,
      "۰۹": 3061,
      "سام": 3062,
      "میلیون": 3063,
      "جوان": 3064,
      "مم": 3065,
      "سخ": 3066,
      "لی": 3067,
      "عب": 3068,
      "زیادی": 3069,
      "تاک": 3070,
      "اشت": 3071,
      "مالی": 3072,
      "##ابق": 3073,
      "##جمه": 3074,
      "ویژه": 3075,
      "##نان": 3076,
      "حرف": 3077,
      "هفته": 3078,
      "نص": 3079,
      "نفت": 3080,
      "هزین": 3081,
      "##راف": 3082,
      "خیلی": 3083,
      "می‌شوند": 3084,
      "مرب": 3085,
      "مشاه": 3086,
      "تجه": 3087,
      "طب": 3088,
      "خاط": 3089,
      "تصویر": 3090,
      "پیام": 3091,
      "وزیر": 3092,
      "##واره": 3093,
      "کسب": 3094,
      "قسمت": 3095,
      "##lo": 3096,
      "##as": 3097,
      "واح": 3098,
      "حوزه": 3099,
      "دکتر": 3100,
      "جهانی": 3101,
      "##ion": 3102,
      "##ing": 3103,
      "۲۳": 3104,
      "حتی": 3105,
      "درمان": 3106,
      "معرفی": 3107,
      "اخرین": 3108,
      "معاون": 3109,
      "##وده": 3110,
      "##یدا": 3111,
      "اض": 3112,
      "تحقیق": 3113,
      "##تان": 3114,
      "میزان": 3115,
      "مطلب": 3116,
      "امنیت": 3117,
      "زبان": 3118,
      "تخ": 3119,
      "مانند": 3120,
      "تجهیز": 3121,
      "##تو": 3122,
      "تلا": 3123,
      "گی": 3124,
      "تاثیر": 3125,
      "شخص": 3126,
      "##تری": 3127,
      "اساس": 3128,
      "##ttp": 3129,
      "پیر": 3130,
      "ان‌ها": 3131,
      "##کو": 3132,
      "##خش": 3133,
      "هدف": 3134,
      "طریق": 3135,
      "باشید": 3136,
      "کارشن": 3137,
      "شو": 3138,
      "مشاهده": 3139,
      "دخ": 3140,
      "http": 3141,
      "##اهی": 3142,
      "فقط": 3143,
      "##اویر": 3144,
      "پل": 3145,
      "بسیاری": 3146,
      "بح": 3147,
      "علمی": 3148,
      "مقاله": 3149,
      "ارو": 3150,
      "پشت": 3151,
      "##عتی": 3152,
      "##لیت": 3153,
      "۰۰۰": 3154,
      "##ro": 3155,
      "کردند": 3156,
      "وض": 3157,
      "زمینه": 3158,
      "ازاد": 3159,
      "واقع": 3160,
      "هو": 3161,
      "##تل": 3162,
      "بین‌ال": 3163,
      "شاه": 3164,
      "اولین": 3165,
      "مستق": 3166,
      "پژ": 3167,
      "##ابت": 3168,
      "فرا": 3169,
      "موفق": 3170,
      "خوب": 3171,
      "##جوی": 3172,
      "##is": 3173,
      "خاص": 3174,
      "واحد": 3175,
      "بین‌المل": 3176,
      "اجرای": 3177,
      "اندرو": 3178,
      "##یزی": 3179,
      "ندارد": 3180,
      "لازم": 3181,
      "اغاز": 3182,
      "##ربی": 3183,
      "سریال": 3184,
      "بیمار": 3185,
      "##اج": 3186,
      "انقلاب": 3187,
      "دوره": 3188,
      "کمی": 3189,
      "##امد": 3190,
      "##گیرد": 3191,
      "سطح": 3192,
      "تاکید": 3193,
      "رق": 3194,
      "صنعت": 3195,
      "ممکن": 3196,
      "##کننده": 3197,
      "مطال": 3198,
      "زیب": 3199,
      "جنگ": 3200,
      "مک": 3201,
      "##گزاری": 3202,
      "ir": 3203,
      "قدر": 3204,
      "اور": 3205,
      "##یکی": 3206,
      "میل": 3207,
      "##ew": 3208,
      "محل": 3209,
      "تلاش": 3210,
      "طبی": 3211,
      "##بته": 3212,
      "##ه‌ب": 3213,
      "تیر": 3214,
      "##صر": 3215,
      "تصاویر": 3216,
      "سفر": 3217,
      "امید": 3218,
      "##ایع": 3219,
      "مشکلات": 3220,
      "انتق": 3221,
      "انلاین": 3222,
      "com": 3223,
      "تامین": 3224,
      "##ونا": 3225,
      "بهداشت": 3226,
      "تش": 3227,
      "پیدا": 3228,
      "خبری": 3229,
      "البته": 3230,
      "مربوط": 3231,
      "خوش": 3232,
      "شع": 3233,
      "مرت": 3234,
      "هوا": 3235,
      "##et": 3236,
      "جامعه": 3237,
      "تجهیزات": 3238,
      "##یط": 3239,
      "##ورش": 3240,
      "حک": 3241,
      "موجود": 3242,
      "##گاهی": 3243,
      "فوتبال": 3244,
      "##الت": 3245,
      "##سل": 3246,
      "##کنون": 3247,
      "نوشت": 3248,
      "##وزی": 3249,
      "فارسی": 3250,
      "سوی": 3251,
      "شر": 3252,
      "جلس": 3253,
      "منتشر": 3254,
      "شکل": 3255,
      "##il": 3256,
      "جشن": 3257,
      "تلف": 3258,
      "اگه": 3259,
      "##اشی": 3260,
      "پزشکی": 3261,
      "موب": 3262,
      "صح": 3263,
      "سلامت": 3264,
      "امور": 3265,
      "طور": 3266,
      "##ابع": 3267,
      "طول": 3268,
      "برق": 3269,
      "اثر": 3270,
      "سیاسی": 3271,
      "پایگاه": 3272,
      "شبکه": 3273,
      "جمله": 3274,
      "کنتر": 3275,
      "تف": 3276,
      "قد": 3277,
      "فل": 3278,
      "##کور": 3279,
      "محیط": 3280,
      "##لیغ": 3281,
      "پوست": 3282,
      "حدود": 3283,
      "ورزش": 3284,
      "اقای": 3285,
      "تور": 3286,
      "##اسم": 3287,
      "چشم": 3288,
      "مسيول": 3289,
      "حساب": 3290,
      "##قت": 3291,
      "مدت": 3292,
      "عرض": 3293,
      "خبرگزاری": 3294,
      "بودن": 3295,
      "پوش": 3296,
      "##وعه": 3297,
      "اضاف": 3298,
      "##طور": 3299,
      "دن": 3300,
      "اندروید": 3301,
      "قانون": 3302,
      "نیم": 3303,
      "تبلیغ": 3304,
      "کالا": 3305,
      "##سانی": 3306,
      "استاند": 3307,
      "اموزشی": 3308,
      "باشند": 3309,
      "مستقیم": 3310,
      "##ac": 3311,
      "طی": 3312,
      "نسخ": 3313,
      "##۲۰": 3314,
      "##ایج": 3315,
      "شا": 3316,
      "ویژ": 3317,
      "لوازم": 3318,
      "مل": 3319,
      "کنار": 3320,
      "خبرنگ": 3321,
      "۰۲": 3322,
      "##بیر": 3323,
      "خارجی": 3324,
      "دوست": 3325,
      "بدن": 3326,
      "شماره": 3327,
      "سایر": 3328,
      "مهند": 3329,
      "##nd": 3330,
      "منظ": 3331,
      "خاطر": 3332,
      "ظرف": 3333,
      "##el": 3334,
      "ویر": 3335,
      "حمایت": 3336,
      "پژوه": 3337,
      "۲۶": 3338,
      "مذ": 3339,
      "موبایل": 3340,
      "دختر": 3341,
      "فصل": 3342,
      "سل": 3343,
      "گوشی": 3344,
      "جمه": 3345,
      "##اسان": 3346,
      "خوبی": 3347,
      "داخلی": 3348,
      "کنترل": 3349,
      "۰۱": 3350,
      "##امپ": 3351,
      "نخست": 3352,
      "اقتصاد": 3353,
      "صادر": 3354,
      "##ینگ": 3355,
      "شهرد": 3356,
      "##ریف": 3357,
      "کوچ": 3358,
      "رشد": 3359,
      "حل": 3360,
      "##خوا": 3361,
      "صنعتی": 3362,
      "##میر": 3363,
      "برابر": 3364,
      "فضای": 3365,
      "##ابط": 3366,
      "اینده": 3367,
      "##لیس": 3368,
      "##وهای": 3369,
      "##یند": 3370,
      "##میت": 3371,
      "نزد": 3372,
      "##‌م": 3373,
      "گفته": 3374,
      "جذ": 3375,
      "دنبال": 3376,
      "شامل": 3377,
      "۲۰۰": 3378,
      "حاض": 3379,
      "گردش": 3380,
      "مشاور": 3381,
      "یه": 3382,
      "قدرت": 3383,
      "حقوق": 3384,
      "مجموعه": 3385,
      "برچسب‌ها": 3386,
      "علوم": 3387,
      "کودک": 3388,
      "وضعیت": 3389,
      "##تور": 3390,
      "##گذاری": 3391,
      "##میم": 3392,
      "کارت": 3393,
      "##ایند": 3394,
      "نتی": 3395,
      "خدا": 3396,
      "##سر": 3397,
      "اث": 3398,
      "زمانی": 3399,
      "ایت": 3400,
      "##حل": 3401,
      "عد": 3402,
      "۲۷": 3403,
      "##پا": 3404,
      "چون": 3405,
      "دقی": 3406,
      "تماس": 3407,
      "موس": 3408,
      "کا": 3409,
      "ایا": 3410,
      "##سن": 3411,
      "##انت": 3412,
      "میلیارد": 3413,
      "##ریم": 3414,
      "عملی": 3415,
      "روست": 3416,
      "گیر": 3417,
      "پروژه": 3418,
      "##oo": 3419,
      "بین‌المللی": 3420,
      "گرم": 3421,
      "##فاوت": 3422,
      "نصب": 3423,
      "برخورد": 3424,
      "لباس": 3425,
      "می‌گو": 3426,
      "فنا": 3427,
      "##ریز": 3428,
      "طرف": 3429,
      "۲۸": 3430,
      "##ستر": 3431,
      "پیشنه": 3432,
      "##id": 3433,
      "قاب": 3434,
      "۱۳۹۴": 3435,
      "جمهوری": 3436,
      "حاضر": 3437,
      "##ent": 3438,
      "شناس": 3439,
      "قالب": 3440,
      "##روع": 3441,
      "تهیه": 3442,
      "سیم": 3443,
      "اسپ": 3444,
      "اخیر": 3445,
      "راه‌": 3446,
      "ارزش": 3447,
      "می‌رس": 3448,
      "این‌": 3449,
      "هفت": 3450,
      "ضر": 3451,
      "##فع": 3452,
      "اینترنتی": 3453,
      "معدن": 3454,
      "۱۰۰": 3455,
      "منابع": 3456,
      "۵۰": 3457,
      "عالی": 3458,
      "مغ": 3459,
      "فروشگاه": 3460,
      "مدار": 3461,
      "انتظ": 3462,
      "خوان": 3463,
      "ساختمان": 3464,
      "##صه": 3465,
      "##لم": 3466,
      "##ow": 3467,
      "دقیقه": 3468,
      "##هم": 3469,
      "کاربرد": 3470,
      "##گذار": 3471,
      "کوت": 3472,
      "نت": 3473,
      "##ag": 3474,
      "هنگ": 3475,
      "برگزاری": 3476,
      "##اسیون": 3477,
      "بهتر": 3478,
      "نظام": 3479,
      "همکاری": 3480,
      "۰۸": 3481,
      "جا": 3482,
      "موارد": 3483,
      "##خواست": 3484,
      "زیبا": 3485,
      "یع": 3486,
      "##بود": 3487,
      "هوش": 3488,
      "مشه": 3489,
      "##ریح": 3490,
      "۲۹": 3491,
      "##جب": 3492,
      "##يی": 3493,
      "##‌جمه": 3494,
      "روح": 3495,
      "فرمان": 3496,
      "##اوم": 3497,
      "ورود": 3498,
      "##وتر": 3499,
      "نمود": 3500,
      "تخصص": 3501,
      "بیماری": 3502,
      "کاربران": 3503,
      "ابزار": 3504,
      "سوم": 3505,
      "جلو": 3506,
      "بتوان": 3507,
      "روابط": 3508,
      "ازمون": 3509,
      "کیل": 3510,
      "شروع": 3511,
      "احتم": 3512,
      "شدند": 3513,
      "کاری": 3514,
      "اسف": 3515,
      "##اتر": 3516,
      "دیگری": 3517,
      "۰۴": 3518,
      "تحت": 3519,
      "مطالب": 3520,
      "وقتی": 3521,
      "##‌نام": 3522,
      "##جو": 3523,
      "##جر": 3524,
      "توضی": 3525,
      "دلار": 3526,
      "سن": 3527,
      "##یدن": 3528,
      "##دیل": 3529,
      "می‌کنیم": 3530,
      "سرمایه": 3531,
      "عضو": 3532,
      "سرو": 3533,
      "بسته": 3534,
      "ندار": 3535,
      "تمامی": 3536,
      "دیدگاه": 3537,
      "بگیر": 3538,
      "انسان": 3539,
      "دنیا": 3540,
      "یعنی": 3541,
      "اضافه": 3542,
      "می‌توانند": 3543,
      "۰۳": 3544,
      "عزی": 3545,
      "سیاست": 3546,
      "بازیکن": 3547,
      "مف": 3548,
      "##ولو": 3549,
      "دیدار": 3550,
      "راست": 3551,
      "رض": 3552,
      "میر": 3553,
      "شهید": 3554,
      "نشست": 3555,
      "بع": 3556,
      "##لیه": 3557,
      "بودند": 3558,
      "##خی": 3559,
      "کودکان": 3560,
      "##لاف": 3561,
      "بهر": 3562,
      "توضیح": 3563,
      "تبدیل": 3564,
      "پن": 3565,
      "استقل": 3566,
      "محم": 3567,
      "عملکرد": 3568,
      "باشگاه": 3569,
      "تصمیم": 3570,
      "هتل": 3571,
      "##نو": 3572,
      "##غال": 3573,
      "##گار": 3574,
      "##ساز": 3575,
      "کاف": 3576,
      "رسان": 3577,
      "##گرام": 3578,
      "مبار": 3579,
      "مثل": 3580,
      "خانواده": 3581,
      "کننده": 3582,
      "انتخابات": 3583,
      "جلسه": 3584,
      "اشن": 3585,
      "مز": 3586,
      "تای": 3587,
      "محد": 3588,
      "نسخه": 3589,
      "مرح": 3590,
      "نتیجه": 3591,
      "##ay": 3592,
      "##‌الله": 3593,
      "۰۷": 3594,
      "جمع": 3595,
      "استقلال": 3596,
      "##وک": 3597,
      "نگه": 3598,
      "۴۰": 3599,
      "اماده": 3600,
      "۰۵": 3601,
      "##تن": 3602,
      "##ظیم": 3603,
      "معت": 3604,
      "بند": 3605,
      "##اهم": 3606,
      "ابر": 3607,
      "اطلاع": 3608,
      "کف": 3609,
      "سرد": 3610,
      "نداشت": 3611,
      "مراج": 3612,
      "چین": 3613,
      "امد": 3614,
      "##ولیس": 3615,
      "##ec": 3616,
      "مسیر": 3617,
      "##غان": 3618,
      "فنی": 3619,
      "دهید": 3620,
      "زنان": 3621,
      "می‌کرد": 3622,
      "یافت": 3623,
      "تشکیل": 3624,
      "هزینه": 3625,
      "پاک": 3626,
      "عزیز": 3627,
      "مقام": 3628,
      "##دای": 3629,
      "##‌پ": 3630,
      "فرز": 3631,
      "##بع": 3632,
      "##راق": 3633,
      "مراسم": 3634,
      "##رود": 3635,
      "تحص": 3636,
      "کامپی": 3637,
      "##نش": 3638,
      "هنگام": 3639,
      "فرم": 3640,
      "##فاع": 3641,
      "فناوری": 3642,
      "می‌خواه": 3643,
      "##لاق": 3644,
      "##وبی": 3645,
      "اصفه": 3646,
      "بهمن": 3647,
      "حسین": 3648,
      "##پرس": 3649,
      "وقت": 3650,
      "لح": 3651,
      "##رسانی": 3652,
      "خواب": 3653,
      "نویس": 3654,
      "##گل": 3655,
      "هنر": 3656,
      "بده": 3657,
      "نیوز": 3658,
      "پذیر": 3659,
      "ظرفیت": 3660,
      "##چی": 3661,
      "خون": 3662,
      "##us": 3663,
      "طبیعی": 3664,
      "صنایع": 3665,
      "کوتاه": 3666,
      "رابط": 3667,
      "کسی": 3668,
      "##یشن": 3669,
      "جمعه": 3670,
      "۰۰": 3671,
      "ضد": 3672,
      "تاب": 3673,
      "##بهشت": 3674,
      "مرکزی": 3675,
      "انر": 3676,
      "رشته": 3677,
      "فوق": 3678,
      "داخل": 3679,
      "متر": 3680,
      "##سیون": 3681,
      "##مپ": 3682,
      "عدم": 3683,
      "##ol": 3684,
      "غذایی": 3685,
      "بش": 3686,
      "##ig": 3687,
      "##ot": 3688,
      "اداره": 3689,
      "پرسپ": 3690,
      "حف": 3691,
      "اردی": 3692,
      "نف": 3693,
      "پیشر": 3694,
      "دادن": 3695,
      "##وتی": 3696,
      "خارج": 3697,
      "۰۶": 3698,
      "فشار": 3699,
      "شنا": 3700,
      "عو": 3701,
      "چگونه": 3702,
      "کشاور": 3703,
      "فکر": 3704,
      "قابلیت": 3705,
      "برج": 3706,
      "##لات": 3707,
      "خرداد": 3708,
      "داریم": 3709,
      "اردیبهشت": 3710,
      "می‌گیرد": 3711,
      "##‌ز": 3712,
      "مقابل": 3713,
      "مقاوم": 3714,
      "رم": 3715,
      "تلفن": 3716,
      "##خان": 3717,
      "تد": 3718,
      "##خصوص": 3719,
      "ثبت‌نام": 3720,
      "امار": 3721,
      "##ظر": 3722,
      "##طر": 3723,
      "##ab": 3724,
      "سرعت": 3725,
      "پیشنهاد": 3726,
      "ول": 3727,
      "##یره": 3728,
      "مادر": 3729,
      "جشنواره": 3730,
      "مار": 3731,
      "۱۳۸": 3732,
      "تخصصی": 3733,
      "موسی": 3734,
      "کشت": 3735,
      "##بات": 3736,
      "دع": 3737,
      "پول": 3738,
      "##ww": 3739,
      "دهد": 3740,
      "دستور": 3741,
      "صب": 3742,
      "سع": 3743,
      "شهریور": 3744,
      "##ادت": 3745,
      "راح": 3746,
      "##یلی": 3747,
      "مناط": 3748,
      "کشورهای": 3749,
      "چنین": 3750,
      "منظور": 3751,
      "هنوز": 3752,
      "امیر": 3753,
      "طبق": 3754,
      "شنبه": 3755,
      "سید": 3756,
      "##این": 3757,
      "پرسپولیس": 3758,
      "of": 3759,
      "##فاق": 3760,
      "لیگ": 3761,
      "##ینه": 3762,
      "فول": 3763,
      "تی": 3764,
      "ورزشی": 3765,
      "شاید": 3766,
      "اصفهان": 3767,
      "جریان": 3768,
      "##کش": 3769,
      "##ه‌بندی": 3770,
      "۳۱": 3771,
      "اتاق": 3772,
      "گذاشت": 3773,
      "##ews": 3774,
      "تکن": 3775,
      "اجر": 3776,
      "پست": 3777,
      "اختی": 3778,
      "##راک": 3779,
      "غذا": 3780,
      "نح": 3781,
      "##افت": 3782,
      "##قا": 3783,
      "##پر": 3784,
      "علاوه": 3785,
      "##یدان": 3786,
      "کوچک": 3787,
      "زیاد": 3788,
      "ضمن": 3789,
      "الکتر": 3790,
      "نماینده": 3791,
      "دوربین": 3792,
      "نزدیک": 3793,
      "حرفه‌ای": 3794,
      "احتمال": 3795,
      "##وریه": 3796,
      "##‌نامه": 3797,
      "پخش": 3798,
      "##راین": 3799,
      "##جویان": 3800,
      "کرده‌اند": 3801,
      "مناطق": 3802,
      "حی": 3803,
      "##اوی": 3804,
      "ابان": 3805,
      "مرحله": 3806,
      "روسی": 3807,
      "##ولا": 3808,
      "ماس": 3809,
      "اذر": 3810,
      "##فون": 3811,
      "وس": 3812,
      "برنامه‌های": 3813,
      "www": 3814,
      "##وله": 3815,
      "انرژی": 3816,
      "شوند": 3817,
      "##نگی": 3818,
      "دام": 3819,
      "##وران": 3820,
      "بهره‌": 3821,
      "##iv": 3822,
      "##لاگ": 3823,
      "اتفاق": 3824,
      "رییس": 3825,
      "##‌کننده": 3826,
      "کامپیوتر": 3827,
      "عراق": 3828,
      "##عیین": 3829,
      "##‌جمهور": 3830,
      "اجرا": 3831,
      "##دین": 3832,
      "اون": 3833,
      "##خته": 3834,
      "۲۰۱۷": 3835,
      "سود": 3836,
      "چاپ": 3837,
      "سوال": 3838,
      "##برداری": 3839,
      "ازمایش": 3840,
      "انتقال": 3841,
      "تعیین": 3842,
      "##پرد": 3843,
      "اصلاح": 3844,
      "##گوی": 3845,
      "##۵۰": 3846,
      "جد": 3847,
      "##تون": 3848,
      "مطالعه": 3849,
      "شهرداری": 3850,
      "مهندسی": 3851,
      "گاز": 3852,
      "سه‌": 3853,
      "عرضه": 3854,
      "سمت": 3855,
      "الکترون": 3856,
      "می‌کنم": 3857,
      "##مر": 3858,
      "##هی": 3859,
      "موتور": 3860,
      "نوشته": 3861,
      "داستان": 3862,
      "علیه": 3863,
      "مطرح": 3864,
      "##گردد": 3865,
      "قهر": 3866,
      "##لیک": 3867,
      "رسمی": 3868,
      "اختیار": 3869,
      "##يو": 3870,
      "in": 3871,
      "##‌ا": 3872,
      "##im": 3873,
      "حفظ": 3874,
      "گزین": 3875,
      "اختص": 3876,
      "مسل": 3877,
      "سرویس": 3878,
      "نرخ": 3879,
      "درست": 3880,
      "اسفند": 3881,
      "کاملا": 3882,
      "حذ": 3883,
      "دفت": 3884,
      "چیست": 3885,
      "اینجا": 3886,
      "##ادث": 3887,
      "صبح": 3888,
      "مرداد": 3889,
      "انجمن": 3890,
      "##روف": 3891,
      "۲۰۱۶": 3892,
      "نمایشگاه": 3893,
      "حجم": 3894,
      "##ستانی": 3895,
      "##مایی": 3896,
      "خواست": 3897,
      "##جم": 3898,
      "##رمز": 3899,
      "تعمیر": 3900,
      "بنی": 3901,
      "توص": 3902,
      "مرتبط": 3903,
      "روان": 3904,
      "سخت": 3905,
      "اهمیت": 3906,
      "##em": 3907,
      "##ویزی": 3908,
      "حالی": 3909,
      "نمی‌توان": 3910,
      "احس": 3911,
      "##‌و": 3912,
      "استخدام": 3913,
      "خاک": 3914,
      "دستگاه‌های": 3915,
      "نگاه": 3916,
      "حضرت": 3917,
      "دش": 3918,
      "نمایید": 3919,
      "حالت": 3920,
      "##عامل": 3921,
      "پرورش": 3922,
      "##ریزی": 3923,
      "درخواست": 3924,
      "ارشد": 3925,
      "خیاب": 3926,
      "##روی": 3927,
      "پژوهش": 3928,
      "هند": 3929,
      "پایین": 3930,
      "##رز": 3931,
      "##نویس": 3932,
      "امتی": 3933,
      "سپس": 3934,
      "تس": 3935,
      "حرکت": 3936,
      "رژ": 3937,
      "تنظیم": 3938,
      "می‌رسد": 3939,
      "قطع": 3940,
      "طلا": 3941,
      "##ه‌سازی": 3942,
      "بناب": 3943,
      "بیشتری": 3944,
      "برتر": 3945,
      "##ايل": 3946,
      "لط": 3947,
      "دقیق": 3948,
      "رضا": 3949,
      "##ادگی": 3950,
      "علت": 3951,
      "عاش": 3952,
      "تلویزی": 3953,
      "همیشه": 3954,
      "اختصاص": 3955,
      "##لق": 3956,
      "##زل": 3957,
      "##ابه": 3958,
      "اورد": 3959,
      "##اندازی": 3960,
      "دم": 3961,
      "کلیک": 3962,
      "هستیم": 3963,
      "مراجعه": 3964,
      "##پیم": 3965,
      "مشهد": 3966,
      "##سون": 3967,
      "دفتر": 3968,
      "گردشگری": 3969,
      "رابطه": 3970,
      "##بانی": 3971,
      "اعضای": 3972,
      "صرف": 3973,
      "چیزی": 3974,
      "چهارشنبه": 3975,
      "عق": 3976,
      "##رار": 3977,
      "۹۵": 3978,
      "قرارد": 3979,
      "خانم": 3980,
      "موق": 3981,
      "##وردین": 3982,
      "مشخصات": 3983,
      "فارس": 3984,
      "نبود": 3985,
      "نخواه": 3986,
      "نمونه": 3987,
      "افغان": 3988,
      "دری": 3989,
      "۹۶": 3990,
      "نک": 3991,
      "۹۸": 3992,
      "##ch": 3993,
      "فروردین": 3994,
      "وب‌س": 3995,
      "هیات": 3996,
      "اینترنت": 3997,
      "لذ": 3998,
      "این‌که": 3999,
      "روند": 4000,
      "صند": 4001,
      "بروز": 4002,
      "تحلیل": 4003,
      "کشاورزی": 4004,
      "##اورد": 4005,
      "کمتر": 4006,
      "دارید": 4007,
      "وب‌سایت": 4008,
      "##‌ام": 4009,
      "موسیقی": 4010,
      "نتایج": 4011,
      "مسابق": 4012,
      "کی": 4013,
      "##رانی": 4014,
      "خصوصی": 4015,
      "ترکیه": 4016,
      "سریع": 4017,
      "۹۷": 4018,
      "یک‌": 4019,
      "خبرنگار": 4020,
      "درد": 4021,
      "##شود": 4022,
      "##یتی": 4023,
      "##قق": 4024,
      "پاور": 4025,
      "ایس": 4026,
      "شرکت‌های": 4027,
      "بنابراین": 4028,
      "##روس": 4029,
      "اسیب": 4030,
      "اروپا": 4031,
      "##ه‌ایم": 4032,
      "##افق": 4033,
      "##ادل": 4034,
      "##شناسی": 4035,
      "بست": 4036,
      "مال": 4037,
      "سراس": 4038,
      "##اصل": 4039,
      "روسیه": 4040,
      "##ربه": 4041,
      "ورد": 4042,
      "##ورس": 4043,
      "۱۳۹۳": 4044,
      "##ابقه": 4045,
      "نکرد": 4046,
      "مسکن": 4047,
      "##واج": 4048,
      "جل": 4049,
      "برد": 4050,
      "فراهم": 4051,
      "بیر": 4052,
      "##اها": 4053,
      "##رن": 4054,
      "برنامه‌": 4055,
      "تحریم": 4056,
      "وال": 4057,
      "بیمه": 4058,
      "the": 4059,
      "##جان": 4060,
      "دبیر": 4061,
      "دفاع": 4062,
      "می‌گوید": 4063,
      "##ازند": 4064,
      "##یستی": 4065,
      "هوشمند": 4066,
      "##خیص": 4067,
      "می‌دهند": 4068,
      "گیاه": 4069,
      "اجرایی": 4070,
      "##قدر": 4071,
      "قبلی": 4072,
      "##رده": 4073,
      "امسال": 4074,
      "مهدی": 4075,
      "##سم": 4076,
      "##راج": 4077,
      "##کز": 4078,
      "##طه": 4079,
      "ابی": 4080,
      "##‌ت": 4081,
      "انتظار": 4082,
      "۲۰۱۸": 4083,
      "موجب": 4084,
      "رون": 4085,
      "##صورت": 4086,
      "استاندارد": 4087,
      "عرب": 4088,
      "وح": 4089,
      "بحث": 4090,
      "ساله": 4091,
      "فرص": 4092,
      "کنم": 4093,
      "بلکه": 4094,
      "حذف": 4095,
      "اثار": 4096,
      "امتیاز": 4097,
      "جست": 4098,
      "تجربه": 4099,
      "##گون": 4100,
      "##ur": 4101,
      "##ورتی": 4102,
      "ترامپ": 4103,
      "نج": 4104,
      "دسته": 4105,
      "ملت": 4106,
      "بعدی": 4107,
      "محدود": 4108,
      "نیروهای": 4109,
      "##ویه": 4110,
      "##مینی": 4111,
      "درامد": 4112,
      "نیروی": 4113,
      "رژیم": 4114,
      "حمل": 4115,
      "بلند": 4116,
      "##یلات": 4117,
      "ارزی": 4118,
      "##ap": 4119,
      "##load": 4120,
      "##هن": 4121,
      "##ir": 4122,
      "سبک": 4123,
      "##گی‌های": 4124,
      "##ضایی": 4125,
      "اگهی": 4126,
      "سوریه": 4127,
      "زیبایی": 4128,
      "##چار": 4129,
      "کرمان": 4130,
      "شکست": 4131,
      "خدمت": 4132,
      "جلوگیری": 4133,
      "قل": 4134,
      "کارخانه": 4135,
      "شاهد": 4136,
      "ایش": 4137,
      "احمد": 4138,
      "##تا": 4139,
      "##افظ": 4140,
      "کلاس": 4141,
      "خورد": 4142,
      "روشن": 4143,
      "اسیاب": 4144,
      "برند": 4145,
      "سخن": 4146,
      "##مال": 4147,
      "۳۲": 4148,
      "##‌د": 4149,
      "##طان": 4150,
      "امر": 4151,
      "عملیات": 4152,
      "##‌رسانی": 4153,
      "ارام": 4154,
      "راهنم": 4155,
      "تجارت": 4156,
      "احساس": 4157,
      "##انگ": 4158,
      "##اخ": 4159,
      "##ut": 4160,
      "کرونا": 4161,
      "منبع": 4162,
      "استاد": 4163,
      "اصل": 4164,
      "##وگ": 4165,
      "نشده": 4166,
      "ممن": 4167,
      "خواهند": 4168,
      "مجازی": 4169,
      "گرفتن": 4170,
      "مسابقات": 4171,
      "وزن": 4172,
      "##اقل": 4173,
      "حالا": 4174,
      "رشت": 4175,
      "دوشنبه": 4176,
      "مدیران": 4177,
      "پایه": 4178,
      "کمیسیون": 4179,
      "##ریب": 4180,
      "عش": 4181,
      "تصریح": 4182,
      "دانشجویان": 4183,
      "داشتن": 4184,
      "مبت": 4185,
      "کلیه": 4186,
      "سق": 4187,
      "مراکز": 4188,
      "هشت": 4189,
      "سازی": 4190,
      "##حال": 4191,
      "می‌دان": 4192,
      "سبز": 4193,
      "مبل": 4194,
      "قرارداد": 4195,
      "##سیم": 4196,
      "بای": 4197,
      "مام": 4198,
      "##ابد": 4199,
      "مدرس": 4200,
      "خانگی": 4201,
      "رز": 4202,
      "##وسی": 4203,
      "##لیسی": 4204,
      "تاس": 4205,
      "لیست": 4206,
      "سه‌شنبه": 4207,
      "می‌گردد": 4208,
      "۲۰۱۹": 4209,
      "##دال": 4210,
      "امده": 4211,
      "تجاری": 4212,
      "مشترک": 4213,
      "زیرا": 4214,
      "۶۰": 4215,
      "ازد": 4216,
      "##کنش": 4217,
      "خیابان": 4218,
      "می‌رود": 4219,
      "نهاد": 4220,
      "موفقیت": 4221,
      "روحانی": 4222,
      "##ظم": 4223,
      "کردم": 4224,
      "جاری": 4225,
      "رفع": 4226,
      "چیز": 4227,
      "##od": 4228,
      "شده‌اند": 4229,
      "##ماه": 4230,
      "راه‌اندازی": 4231,
      "پلیس": 4232,
      "۱۳۹۹": 4233,
      "##ریه": 4234,
      "فرایند": 4235,
      "نویسنده": 4236,
      "سپاه": 4237,
      "دوستان": 4238,
      "نکت": 4239,
      "کمیت": 4240,
      "##داران": 4241,
      "##ارش": 4242,
      "متفاوت": 4243,
      "##لاک": 4244,
      "شخصی": 4245,
      "تبلیغات": 4246,
      "حسن": 4247,
      "اولیه": 4248,
      "ظاه": 4249,
      "مرگ": 4250,
      "خور": 4251,
      "افغانستان": 4252,
      "۳۵": 4253,
      "جذب": 4254,
      "##رافی": 4255,
      "قران": 4256,
      "##ی‌شده": 4257,
      "باشیم": 4258,
      "##داد": 4259,
      "ساده": 4260,
      "##غل": 4261,
      "اتش": 4262,
      "##ه‌هایی": 4263,
      "ريیس‌جمهور": 4264,
      "گذاری": 4265,
      "دوران": 4266,
      "##يت": 4267,
      "and": 4268,
      "می‌کنید": 4269,
      "عامل": 4270,
      "زند": 4271,
      "۳۶": 4272,
      "قم": 4273,
      "الب": 4274,
      "سوالات": 4275,
      "دارم": 4276,
      "##ah": 4277,
      "رقابت": 4278,
      "##تح": 4279,
      "مجموع": 4280,
      "##op": 4281,
      "متخصص": 4282,
      "کارشناسی": 4283,
      "یکشنبه": 4284,
      "##لال": 4285,
      "مسايل": 4286,
      "##ation": 4287,
      "دولتی": 4288,
      "##ولوژی": 4289,
      "بهبود": 4290,
      "عوامل": 4291,
      "امیدوار": 4292,
      "انسانی": 4293,
      "ماده": 4294,
      "جوانان": 4295,
      "##داف": 4296,
      "نحوه": 4297,
      "نظرات": 4298,
      "بخشی": 4299,
      "رهبری": 4300,
      "تبریز": 4301,
      "شوید": 4302,
      "غرب": 4303,
      "##وینت": 4304,
      "مقای": 4305,
      "مشاوره": 4306,
      "##گین": 4307,
      "سفید": 4308,
      "ماند": 4309,
      "ایشان": 4310,
      "انگلیسی": 4311,
      "خودش": 4312,
      "ریال": 4313,
      "امکانات": 4314,
      "##اصله": 4315,
      "خیر": 4316,
      "حمله": 4317,
      "دندان": 4318,
      "میشه": 4319,
      "درس": 4320,
      "##اباد": 4321,
      "خرو": 4322,
      "دانست": 4323,
      "حو": 4324,
      "##طی": 4325,
      "##مات": 4326,
      "##دهی": 4327,
      "امنیتی": 4328,
      "وسی": 4329,
      "##میل": 4330,
      "المان": 4331,
      "هستید": 4332,
      "نکن": 4333,
      "تمرین": 4334,
      "##ul": 4335,
      "زنانه": 4336,
      "تصویری": 4337,
      "انان": 4338,
      "میک": 4339,
      "ازدواج": 4340,
      "##واری": 4341,
      "##امت": 4342,
      "##ers": 4343,
      "اتح": 4344,
      "صحبت": 4345,
      "۱۳۹۲": 4346,
      "هواپیم": 4347,
      "The": 4348,
      "پدر": 4349,
      "اعتر": 4350,
      "قا": 4351,
      "دچار": 4352,
      "##پوینت": 4353,
      "فرصت": 4354,
      "##عف": 4355,
      "##زن": 4356,
      "فرو": 4357,
      "حداقل": 4358,
      "ویروس": 4359,
      "مساف": 4360,
      "جامع": 4361,
      "جرا": 4362,
      "##جد": 4363,
      "##اجه": 4364,
      "##لیلی": 4365,
      "گوگل": 4366,
      "خشک": 4367,
      "نظامی": 4368,
      "رهبر": 4369,
      "اندازه": 4370,
      "نباید": 4371,
      "وظ": 4372,
      "ران": 4373,
      "##av": 4374,
      "##۸۰": 4375,
      "اعتبار": 4376,
      "##دهم": 4377,
      "شبک": 4378,
      "##قد": 4379,
      "شاخص": 4380,
      "لای": 4381,
      "مسيولان": 4382,
      "جالب": 4383,
      "تایید": 4384,
      "الی": 4385,
      "بالای": 4386,
      "موثر": 4387,
      "بدان": 4388,
      "چرخ": 4389,
      "معمولا": 4390,
      "ارزان": 4391,
      "نان": 4392,
      "کنندگان": 4393,
      "مشتریان": 4394,
      "برس": 4395,
      "رفتار": 4396,
      "رت": 4397,
      "کافی": 4398,
      "##‌ک": 4399,
      "صورتی": 4400,
      "توی": 4401,
      "##un": 4402,
      "ابتدا": 4403,
      "ایست": 4404,
      "##os": 4405,
      "پیشرفت": 4406,
      "خام": 4407,
      "۴۵": 4408,
      "اسک": 4409,
      "##واز": 4410,
      "مکانی": 4411,
      "ویند": 4412,
      "ریاست": 4413,
      "ببین": 4414,
      "شمار": 4415,
      "دارو": 4416,
      "بودجه": 4417,
      "پیش‌ب": 4418,
      "##‌الات": 4419,
      "واکنش": 4420,
      "تشخیص": 4421,
      "##دانلود": 4422,
      "##ادن": 4423,
      "##ویل": 4424,
      "علم": 4425,
      "##مندان": 4426,
      "##وف": 4427,
      "دشمن": 4428,
      "مخصوص": 4429,
      "مذاک": 4430,
      "کمپ": 4431,
      "پروژ": 4432,
      "اقدامات": 4433,
      "##own": 4434,
      "نار": 4435,
      "##نز": 4436,
      "##‌سازی": 4437,
      "تلویزیون": 4438,
      "۹۰": 4439,
      "##um": 4440,
      "شهرو": 4441,
      "##ناد": 4442,
      "می‌شد": 4443,
      "جنوبی": 4444,
      "مقایسه": 4445,
      "##ژاد": 4446,
      "دهند": 4447,
      "روغ": 4448,
      "##۰۰۰": 4449,
      "جدی": 4450,
      "##زا": 4451,
      "پاورپوینت": 4452,
      "ادرس": 4453,
      "##‌ف": 4454,
      "زد": 4455,
      "##‌الع": 4456,
      "گست": 4457,
      "##وي": 4458,
      "صادرات": 4459,
      "مناق": 4460,
      "صدا": 4461,
      "قصد": 4462,
      "##یمان": 4463,
      "##خوان": 4464,
      "##ماد": 4465,
      "تقویت": 4466,
      "سعی": 4467,
      "ذخ": 4468,
      "ایت‌الله": 4469,
      "ویندوز": 4470,
      "اداری": 4471,
      "##اکی": 4472,
      "توافق": 4473,
      "##ter": 4474,
      "ایمیل": 4475,
      "اسم": 4476,
      "##ژن": 4477,
      "خراسان": 4478,
      "کاربردی": 4479,
      "شناسایی": 4480,
      "عصر": 4481,
      "میت": 4482,
      "وردپرس": 4483,
      "اتوم": 4484,
      "##ct": 4485,
      "۲۰۱۵": 4486,
      "نوز": 4487,
      "طراح": 4488,
      "عاشق": 4489,
      "##سونگ": 4490,
      "پارک": 4491,
      "پوشش": 4492,
      "##الیا": 4493,
      "https": 4494,
      "زنج": 4495,
      "##وال": 4496,
      "بیمارستان": 4497,
      "بورس": 4498,
      "بازگ": 4499,
      "مای": 4500,
      "##وید": 4501,
      "##اسف": 4502,
      "گیل": 4503,
      "اطلاع‌رسانی": 4504,
      "تاسیس": 4505,
      "دیر": 4506,
      "##یبانی": 4507,
      "درجه": 4508,
      "لغ": 4509,
      "سامسونگ": 4510,
      "مبارزه": 4511,
      "ارایش": 4512,
      "کمیته": 4513,
      "##۱۲": 4514,
      "##ess": 4515,
      "سینما": 4516,
      "برنامه‌ریزی": 4517,
      "##هایت": 4518,
      "کدام": 4519,
      "ترا": 4520,
      "##خر": 4521,
      "۳۳": 4522,
      "می‌اید": 4523,
      "فران": 4524,
      "معماری": 4525,
      "##رافیک": 4526,
      "رمان": 4527,
      "##گفت": 4528,
      "نخستین": 4529,
      "ایسنا": 4530,
      "##زیک": 4531,
      "تاریخی": 4532,
      "سامانه": 4533,
      "رسیده": 4534,
      "اخر": 4535,
      "##باز": 4536,
      "دسترسی": 4537,
      "دیج": 4538,
      "محور": 4539,
      "واقعی": 4540,
      "گستر": 4541,
      "شای": 4542,
      "شار": 4543,
      "##انیه": 4544,
      "فرش": 4545,
      "نمایندگان": 4546,
      "پور": 4547,
      "ویژگی‌های": 4548,
      "استق": 4549,
      "کسانی": 4550,
      "دقت": 4551,
      "ایل": 4552,
      "دستی": 4553,
      "##عود": 4554,
      "ترور": 4555,
      "قابل‌": 4556,
      "مخاط": 4557,
      "تحقیقات": 4558,
      "معن": 4559,
      "نمی‌شود": 4560,
      "گران": 4561,
      "پشتیبانی": 4562,
      "پا": 4563,
      "نکته": 4564,
      "##کتری": 4565,
      "افرادی": 4566,
      "ترکیب": 4567,
      "جدا": 4568,
      "حتما": 4569,
      "تلگرام": 4570,
      "وک": 4571,
      "##اسب": 4572,
      "قانونی": 4573,
      "روزانه": 4574,
      "جمعیت": 4575,
      "##بیل": 4576,
      "متاسف": 4577,
      "ماشین‌الات": 4578,
      "بچ": 4579,
      "اشک": 4580,
      "صدای": 4581,
      "##دس": 4582,
      "ذکر": 4583,
      "بزر": 4584,
      "##گانه": 4585,
      "اجازه": 4586,
      "فعالیت‌های": 4587,
      "ترب": 4588,
      "فیزی": 4589,
      "انچه": 4590,
      "البوم": 4591,
      "محس": 4592,
      "بعضی": 4593,
      "پیک": 4594,
      "##زمان": 4595,
      "مردانه": 4596,
      "اهداف": 4597,
      "##گانی": 4598,
      "رع": 4599,
      "عبار": 4600,
      "عشق": 4601,
      "##ماند": 4602,
      "توضیحات": 4603,
      "سند": 4604,
      "میدان": 4605,
      "مواجه": 4606,
      "کارگرد": 4607,
      "##مون": 4608,
      "عربستان": 4609,
      "معامل": 4610,
      "رد": 4611,
      "رخ": 4612,
      "##ak": 4613,
      "هنرم": 4614,
      "رک": 4615,
      "##۱۰": 4616,
      "##یتر": 4617,
      "دیجیت": 4618,
      "توزی": 4619,
      "اشپ": 4620,
      "مقاومت": 4621,
      "خلا": 4622,
      "روزهای": 4623,
      "St": 4624,
      "مکان": 4625,
      "بلو": 4626,
      "روغن": 4627,
      "نگر": 4628,
      "نظارت": 4629,
      "نخواهد": 4630,
      "##شاه": 4631,
      "##وج": 4632,
      "##بوب": 4633,
      "##ولیت": 4634,
      "راحتی": 4635,
      "تسه": 4636,
      "ماهی": 4637,
      "صفح": 4638,
      "مها": 4639,
      "بازی‌های": 4640,
      "##شه": 4641,
      "وبلاگ": 4642,
      "برخوردار": 4643,
      "هماه": 4644,
      "جدیدترین": 4645,
      "جنس": 4646,
      "۸۰": 4647,
      "سرمای": 4648,
      "رح": 4649,
      "##زاده": 4650,
      "تاکنون": 4651,
      "رسیدن": 4652,
      "نگهداری": 4653,
      "##کسی": 4654,
      "کنکور": 4655,
      "##غذ": 4656,
      "همسر": 4657,
      "مرز": 4658,
      "##کتور": 4659,
      "جایگاه": 4660,
      "ارزیابی": 4661,
      "نمایند": 4662,
      "##ownload": 4663,
      "رست": 4664,
      "##ی‌که": 4665,
      "تازه": 4666,
      "کلید": 4667,
      "توزیع": 4668,
      "##‌ن": 4669,
      "دنیای": 4670,
      "##سین": 4671,
      "##کنان": 4672,
      "صاد": 4673,
      "اساسی": 4674,
      "تعط": 4675,
      "رعایت": 4676,
      "ستاد": 4677,
      "مقدار": 4678,
      "##ربایج": 4679,
      "چهارم": 4680,
      "هنری": 4681,
      "۵۵": 4682,
      "خوز": 4683,
      "امریکایی": 4684,
      "همچنان": 4685,
      "اکنون": 4686,
      "طل": 4687,
      "۵۰۰": 4688,
      "حاصل": 4689,
      "مشار": 4690,
      "تست": 4691,
      "##جویی": 4692,
      "بازیکنان": 4693,
      "##اظ": 4694,
      "متاسفانه": 4695,
      "سهام": 4696,
      "اهن": 4697,
      "فلس": 4698,
      "نیازمند": 4699,
      "سیاه": 4700,
      "زنده": 4701,
      "##دنی": 4702,
      "##گرم": 4703,
      "۹۲": 4704,
      "##وانی": 4705,
      "بهداشتی": 4706,
      "##ه‌ام": 4707,
      "استرات": 4708,
      "برداشت": 4709,
      "شمال": 4710,
      "جانبی": 4711,
      "بگیرید": 4712,
      "زیرنویس": 4713,
      "##ویسی": 4714,
      "۳۴": 4715,
      "شش": 4716,
      "شیمی": 4717,
      "##قیه": 4718,
      "معروف": 4719,
      "کانال": 4720,
      "جذاب": 4721,
      "کرب": 4722,
      "حکوم": 4723,
      "##ستگی": 4724,
      "روزنامه": 4725,
      "هیيت": 4726,
      "مثال": 4727,
      "سیل": 4728,
      "##ایر": 4729,
      "اینست": 4730,
      "##ard": 4731,
      "##پرداز": 4732,
      "##فاظ": 4733,
      "تغییرات": 4734,
      "ثابت": 4735,
      "شدید": 4736,
      "جزيی": 4737,
      "باغ": 4738,
      "۷۰": 4739,
      "درمانی": 4740,
      "هاش": 4741,
      "##اشند": 4742,
      "##ia": 4743,
      "اذربایج": 4744,
      "وید": 4745,
      "معل": 4746,
      "ایمنی": 4747,
      "##اتیک": 4748,
      "##and": 4749,
      "سنتی": 4750,
      "##شتی": 4751,
      "##شهر": 4752,
      "ازادی": 4753,
      "خبرنگاران": 4754,
      "فدر": 4755,
      "داره": 4756,
      "همکار": 4757,
      "مخال": 4758,
      "فی": 4759,
      "باب": 4760,
      "##اژ": 4761,
      "قوان": 4762,
      "نیرو": 4763,
      "##شون": 4764,
      "قطعات": 4765,
      "##امبر": 4766,
      "ایفون": 4767,
      "مفید": 4768,
      "ندارند": 4769,
      "گسترش": 4770,
      "خس": 4771,
      "##ه‌اید": 4772,
      "الم": 4773,
      "دوباره": 4774,
      "بصورت": 4775,
      "##علی": 4776,
      "##اساس": 4777,
      "##زیست": 4778,
      "همایش": 4779,
      "مقدم": 4780,
      "اصول": 4781,
      "##یکس": 4782,
      "مرغ": 4783,
      "مجله": 4784,
      "رفتن": 4785,
      "محک": 4786,
      "عکس‌های": 4787,
      "سراسر": 4788,
      "متع": 4789,
      "سفارش": 4790,
      "ویز": 4791,
      "##عهد": 4792,
      "تکمیل": 4793,
      "عه": 4794,
      "##جع": 4795,
      "خواهیم": 4796,
      "##طرف": 4797,
      "کیلوم": 4798,
      "اعتماد": 4799,
      "پرونده": 4800,
      "مدارس": 4801,
      "##عش": 4802,
      "لپ": 4803,
      "بحران": 4804,
      "بافت": 4805,
      "##کنندگان": 4806,
      "In": 4807,
      "ناشی": 4808,
      "##تاح": 4809,
      "نامه": 4810,
      "تاز": 4811,
      "چال": 4812,
      "##پذیر": 4813,
      "مقر": 4814,
      "اشنایی": 4815,
      "مول": 4816,
      "۴۴": 4817,
      "اسیا": 4818,
      "محیط‌": 4819,
      "۹۴": 4820,
      "۴۲": 4821,
      "##وعات": 4822,
      "بازاری": 4823,
      "خوزستان": 4824,
      "۳۷": 4825,
      "##بد": 4826,
      "بس": 4827,
      "رفته": 4828,
      "گفت‌و": 4829,
      "##لاست": 4830,
      "ریا": 4831,
      "منزل": 4832,
      "داشتند": 4833,
      "##ate": 4834,
      "صاح": 4835,
      "نقد": 4836,
      "##۳۰": 4837,
      "ویت": 4838,
      "متو": 4839,
      "سرطان": 4840,
      "##بور": 4841,
      "زود": 4842,
      "##لح": 4843,
      "اشتب": 4844,
      "نهایی": 4845,
      "افزار": 4846,
      "##يین": 4847,
      "سالن": 4848,
      "قوانین": 4849,
      "تز": 4850,
      "روب": 4851,
      "##ادیه": 4852,
      "تعریف": 4853,
      "ویرایش": 4854,
      "موسسه": 4855,
      "##ودر": 4856,
      "##اسلام": 4857,
      "تغذ": 4858,
      "فرانسه": 4859,
      "##اهیم": 4860,
      "شبکه‌های": 4861,
      "مشارکت": 4862,
      "شان": 4863,
      "بانکی": 4864,
      "لایه": 4865,
      "##ost": 4866,
      "بیست": 4867,
      "موزیک": 4868,
      "درب": 4869,
      "##پوش": 4870,
      "##مانان": 4871,
      "حفاظ": 4872,
      "##‌گیری": 4873,
      "##گن": 4874,
      "##eh": 4875,
      "کفش": 4876,
      "مدیرعامل": 4877,
      "کارشناسان": 4878,
      "پیچ": 4879,
      "##ov": 4880,
      "می‌نم": 4881,
      "مشابه": 4882,
      "خارجه": 4883,
      "اشتغال": 4884,
      "حجت": 4885,
      "اذربایجان": 4886,
      "جنوب": 4887,
      "عدد": 4888,
      "فولاد": 4889,
      "##وقی": 4890,
      "اکس": 4891,
      "کشف": 4892,
      "محسوب": 4893,
      "قلب": 4894,
      "چهر": 4895,
      "##تیب": 4896,
      "سوخت": 4897,
      "بو": 4898,
      "تحویل": 4899,
      "پسر": 4900,
      "ترجمه": 4901,
      "براساس": 4902,
      "عبدال": 4903,
      "فت": 4904,
      "خطر": 4905,
      "##عم": 4906,
      "نداشته": 4907,
      "جراحی": 4908,
      "##گز": 4909,
      "فرزند": 4910,
      "درص": 4911,
      "روش‌های": 4912,
      "دعوت": 4913,
      "مگ": 4914,
      "پایان‌نامه": 4915,
      "فن": 4916,
      "۲۰۱۴": 4917,
      "عص": 4918,
      "محقق": 4919,
      "افتتاح": 4920,
      "لطفا": 4921,
      "اشنا": 4922,
      "نهایت": 4923,
      "on": 4924,
      "خانواد": 4925,
      "کیلو": 4926,
      "مقدس": 4927,
      "راستای": 4928,
      "##کلی": 4929,
      "##اهن": 4930,
      "ناب": 4931,
      "پیروزی": 4932,
      "شمالی": 4933,
      "دین": 4934,
      "نموده": 4935,
      "دیگه": 4936,
      "شناخت": 4937,
      "هسته‌ای": 4938,
      "##دیگر": 4939,
      "نسل": 4940,
      "خاصی": 4941,
      "پیش‌بینی": 4942,
      "##روم": 4943,
      "مراق": 4944,
      "می‌گیر": 4945,
      "##عب": 4946,
      "محیط‌زیست": 4947,
      "##۹۰": 4948,
      "درون": 4949,
      "سال‌های": 4950,
      "تحصیلی": 4951,
      "مجوز": 4952,
      "مبلغ": 4953,
      "نوش": 4954,
      "##ip": 4955,
      "مهارت": 4956,
      "رود": 4957,
      "کردیم": 4958,
      "##ont": 4959,
      "به‌روز": 4960,
      "اید": 4961,
      "فاصله": 4962,
      "انداز": 4963,
      "##رکز": 4964,
      "نوزاد": 4965,
      "رادی": 4966,
      "کره": 4967,
      "##ine": 4968,
      "حادث": 4969,
      "مقالات": 4970,
      "بخو": 4971,
      "فوق‌الع": 4972,
      "ببر": 4973,
      "سنج": 4974,
      "باشه": 4975,
      "دیده": 4976,
      "تفاوت": 4977,
      "رف": 4978,
      "یزد": 4979,
      "صندوق": 4980,
      "همس": 4981,
      "##یری": 4982,
      "۳۸": 4983,
      "th": 4984,
      "سبب": 4985,
      "کلیدی": 4986,
      "الان": 4987,
      "زم": 4988,
      "دیدن": 4989,
      "های": 4990,
      "حز": 4991,
      "##یافته": 4992,
      "##قای": 4993,
      "کاغذ": 4994,
      "پنجشنبه": 4995,
      "بارد": 4996,
      "##یت‌های": 4997,
      "چک": 4998,
      "##کند": 4999,
      "گیلان": 5000,
      "شیراز": 5001,
      "راهنمای": 5002,
      "بنا": 5003,
      "##۱۳": 5004,
      "مازند": 5005,
      "##جوان": 5006,
      "##ast": 5007,
      "همزمان": 5008,
      "۹۳": 5009,
      "متح": 5010,
      "##او": 5011,
      "##افع": 5012,
      "مراحل": 5013,
      "کارهای": 5014,
      "فرام": 5015,
      "مجاز": 5016,
      "##ارانتی": 5017,
      "مهمترین": 5018,
      "گم": 5019,
      "تض": 5020,
      "معظم": 5021,
      "ارتباطات": 5022,
      "سالم": 5023,
      "مدرسه": 5024,
      "تبلیغاتی": 5025,
      "##ابله": 5026,
      "مشتری": 5027,
      "مسيله": 5028,
      "عبور": 5029,
      "to": 5030,
      "گام": 5031,
      "ریز": 5032,
      "##باب": 5033,
      "۴۳": 5034,
      "جی": 5035,
      "##eb": 5036,
      "جدیدی": 5037,
      "عبارت": 5038,
      "دیجیتال": 5039,
      "کوه": 5040,
      "محبوب": 5041,
      "اعتراض": 5042,
      "شاد": 5043,
      "علاقه": 5044,
      "اعمال": 5045,
      "فردی": 5046,
      "اشتراک": 5047,
      "منجر": 5048,
      "قادر": 5049,
      "ویدی": 5050,
      "ترتیب": 5051,
      "چی": 5052,
      "ارش": 5053,
      "پت": 5054,
      "اتحادیه": 5055,
      "فدراسیون": 5056,
      "قه": 5057,
      "تشکر": 5058,
      "متوس": 5059,
      "مقابله": 5060,
      "قرمز": 5061,
      "۴۸": 5062,
      "تقری": 5063,
      "اینستا": 5064,
      "محسن": 5065,
      "ماج": 5066,
      "##ob": 5067,
      "مثبت": 5068,
      "عضویت": 5069,
      "نقاط": 5070,
      "همچون": 5071,
      "اپلیک": 5072,
      "توصیه": 5073,
      "علیر": 5074,
      "دادند": 5075,
      "کانون": 5076,
      "##‌پذیر": 5077,
      "شبی": 5078,
      "دهه": 5079,
      "دومین": 5080,
      "اشتباه": 5081,
      "کاربری": 5082,
      "ایرنا": 5083,
      "حسینی": 5084,
      "شارژ": 5085,
      "##کنند": 5086,
      "ادبی": 5087,
      "##all": 5088,
      "زنی": 5089,
      "ارتش": 5090,
      "##۹۹": 5091,
      "دیگران": 5092,
      "زندان": 5093,
      "مدیرکل": 5094,
      "پدید": 5095,
      "مطل": 5096,
      "پارس": 5097,
      "نماز": 5098,
      "حقوقی": 5099,
      "واردات": 5100,
      "گزینه": 5101,
      "واقعا": 5102,
      "تکر": 5103,
      "##ه‌دار": 5104,
      "گفتگو": 5105,
      "##کری": 5106,
      "دکور": 5107,
      "##ه‌اش": 5108,
      "داعش": 5109,
      "کنس": 5110,
      "تغذیه": 5111,
      "##اث": 5112,
      "حیوان": 5113,
      "قز": 5114,
      "۴۶": 5115,
      "جایی": 5116,
      "شدت": 5117,
      "##دهنده": 5118,
      "تربیت": 5119,
      "##عاد": 5120,
      "رضایت": 5121,
      "فرمانده": 5122,
      "می‌د": 5123,
      "تکنولوژی": 5124,
      "##۴۰": 5125,
      "قدیمی": 5126,
      "##ht": 5127,
      "زیبای": 5128,
      "باق": 5129,
      "عروس": 5130,
      "تولیدی": 5131,
      "نمایندگی": 5132,
      "زدن": 5133,
      "۴۷": 5134,
      "کاش": 5135,
      "##مندی": 5136,
      "حکومت": 5137,
      "##نشان": 5138,
      "ساخته": 5139,
      "بیرون": 5140,
      "سابق": 5141,
      "واس": 5142,
      "معتبر": 5143,
      "##فرم": 5144,
      "##‌ق": 5145,
      "باور": 5146,
      "شعر": 5147,
      "ترس": 5148,
      "گاهی": 5149,
      "##اهای": 5150,
      "شهادت": 5151,
      "##انیا": 5152,
      "##زام": 5153,
      "۱۳۹۱": 5154,
      "می‌باشند": 5155,
      "حزب": 5156,
      "##پایی": 5157,
      "بازگشت": 5158,
      "حساس": 5159,
      "انجام‌شده": 5160,
      "بهره": 5161,
      "گارانتی": 5162,
      "بگذار": 5163,
      "۸۸": 5164,
      "##ه‌گیری": 5165,
      "بوش": 5166,
      "نوا": 5167,
      "فلزی": 5168,
      "عک": 5169,
      "##‌تاپ": 5170,
      "پرداز": 5171,
      "لپ‌تاپ": 5172,
      "فرود": 5173,
      "##باری": 5174,
      "اپل": 5175,
      "##۱۱": 5176,
      "مرور": 5177,
      "گیرد": 5178,
      "##ce": 5179,
      "##گاه‌های": 5180,
      "اسناد": 5181,
      "##یار": 5182,
      "اپلیکیشن": 5183,
      "##میه": 5184,
      "پرواز": 5185,
      "درصدی": 5186,
      "مجد": 5187,
      "مختلفی": 5188,
      "حکم": 5189,
      "برقی": 5190,
      "##ack": 5191,
      "همواره": 5192,
      "باد": 5193,
      "##ابایت": 5194,
      "تماش": 5195,
      "##دایی": 5196,
      "سرخ": 5197,
      "عجی": 5198,
      "ترم": 5199,
      "سیر": 5200,
      "الکترونیکی": 5201,
      "تان": 5202,
      "تحلیلی": 5203,
      "جستجو": 5204,
      "زاده": 5205,
      "کارشناس": 5206,
      "۳۰۰": 5207,
      "هوایی": 5208,
      "مثلا": 5209,
      "ستاره": 5210,
      "دکتری": 5211,
      "سک": 5212,
      "##ریس": 5213,
      "کابل": 5214,
      "سهم": 5215,
      "جزيیات": 5216,
      "چندین": 5217,
      "##سلام": 5218,
      "ها": 5219,
      "##دیر": 5220,
      "##شو": 5221,
      "سیستم‌های": 5222,
      "ماسه": 5223,
      "فوق‌العاده": 5224,
      "کارکنان": 5225,
      "اصلا": 5226,
      "##حیح": 5227,
      "گردید": 5228,
      "##هام": 5229,
      "اسان": 5230,
      "تهدید": 5231,
      "بندی": 5232,
      "##بول": 5233,
      "Pro": 5234,
      "شکن": 5235,
      "بسیج": 5236,
      "موقعیت": 5237,
      "ماد": 5238,
      "جواب": 5239,
      "قضایی": 5240,
      "کرم": 5241,
      "حادثه": 5242,
      "دسته‌بندی": 5243,
      "فهر": 5244,
      "محت": 5245,
      "##ویب": 5246,
      "مهم‌ترین": 5247,
      "جدول": 5248,
      "الکترونیک": 5249,
      "##‌الاسلام": 5250,
      "وسایل": 5251,
      "۵۷": 5252,
      "##‌اوری": 5253,
      "بزرگترین": 5254,
      "نماید": 5255,
      "یون": 5256,
      "ساختار": 5257,
      "توانست": 5258,
      "صدور": 5259,
      "فضا": 5260,
      "##مای": 5261,
      "توپ": 5262,
      "اینستاگرام": 5263,
      "لحاظ": 5264,
      "نوجوان": 5265,
      "لا": 5266,
      "تصویب": 5267,
      "بازیگر": 5268,
      "##فیف": 5269,
      "مربی": 5270,
      "ابعاد": 5271,
      "۳۹": 5272,
      "۴۱": 5273,
      "##ضان": 5274,
      "غربی": 5275,
      "شرح": 5276,
      "رتبه": 5277,
      "جوش": 5278,
      "مسی": 5279,
      "مصاح": 5280,
      "##ی‌ترین": 5281,
      "مزای": 5282,
      "عید": 5283,
      "بزن": 5284,
      "##ord": 5285,
      "ادم": 5286,
      "تي": 5287,
      "عمر": 5288,
      "##عدی": 5289,
      "خاطرنشان": 5290,
      "حجت‌الاسلام": 5291,
      "علی‌": 5292,
      "##ارچ": 5293,
      "بخوان": 5294,
      "اتص": 5295,
      "بیت": 5296,
      "خورش": 5297,
      "۹۹": 5298,
      "##شا": 5299,
      "درج": 5300,
      "رسانه": 5301,
      "فراموش": 5302,
      "محافظ": 5303,
      "پلاست": 5304,
      "علاق": 5305,
      "انتقاد": 5306,
      "مازندران": 5307,
      "پیشگیری": 5308,
      "##۶۰": 5309,
      "پیگیری": 5310,
      "سینمایی": 5311,
      "یکدیگر": 5312,
      "شست": 5313,
      "می‌گذ": 5314,
      "دیوار": 5315,
      "##if": 5316,
      "##شناس": 5317,
      "اهل": 5318,
      "وظیف": 5319,
      "تقریبا": 5320,
      "بگیرد": 5321,
      "مور": 5322,
      "بالایی": 5323,
      "for": 5324,
      "بازاریابی": 5325,
      "##مي": 5326,
      "##ایان": 5327,
      "الکت": 5328,
      "گوشت": 5329,
      "تحصیل": 5330,
      "برجام": 5331,
      "##ارف": 5332,
      "مطالعات": 5333,
      "چالش": 5334,
      "مردان": 5335,
      "بینی": 5336,
      "گذشت": 5337,
      "ادع": 5338,
      "۲۰۱۳": 5339,
      "تبلت": 5340,
      "معاونت": 5341,
      "تحول": 5342,
      "##th": 5343,
      "پروت": 5344,
      "بنیاد": 5345,
      "سامان": 5346,
      "گفت‌وگو": 5347,
      "ژاپ": 5348,
      "##به‌های": 5349,
      "فیلتر": 5350,
      "استاندار": 5351,
      "شهروندان": 5352,
      "##se": 5353,
      "درو": 5354,
      "اطلاعاتی": 5355,
      "استخراج": 5356,
      "محاس": 5357,
      "##est": 5358,
      "سرمایه‌": 5359,
      "پاید": 5360,
      "اختلاف": 5361,
      "کت": 5362,
      "درک": 5363,
      "سرپر": 5364,
      "انجا": 5365,
      "بهار": 5366,
      "مسابقه": 5367,
      "بندر": 5368,
      "راحت": 5369,
      "کاب": 5370,
      "نقطه": 5371,
      "اشپز": 5372,
      "بخش‌های": 5373,
      "جهاد": 5374,
      "##ک‌های": 5375,
      "##يم": 5376,
      "عباس": 5377,
      "فهرست": 5378,
      "##ارات": 5379,
      "شف": 5380,
      "##زاد": 5381,
      "##ex": 5382,
      "نظری": 5383,
      "سنگین": 5384,
      "گون": 5385,
      "##‌ماه": 5386,
      "صوتی": 5387,
      "اموزان": 5388,
      "ابتدای": 5389,
      "لغو": 5390,
      "vi": 5391,
      "##افرین": 5392,
      "##توجه": 5393,
      "##گویی": 5394,
      "متقا": 5395,
      "حر": 5396,
      "##لاغ": 5397,
      "محتر": 5398,
      "##رگانی": 5399,
      "سعید": 5400,
      "##سایت": 5401,
      "ذهن": 5402,
      "##بند": 5403,
      "مسجد": 5404,
      "هوای": 5405,
      "متوجه": 5406,
      "##اترین": 5407,
      "معدنی": 5408,
      "حمید": 5409,
      "شهردار": 5410,
      "۵۲": 5411,
      "##az": 5412,
      "لذت": 5413,
      "ضروری": 5414,
      "مطمي": 5415,
      "نشد": 5416,
      "بیشترین": 5417,
      "لذا": 5418,
      "##الم": 5419,
      "منطق": 5420,
      "سرور": 5421,
      "مجمع": 5422,
      "هزینه‌های": 5423,
      "قهرمانی": 5424,
      "افتاب": 5425,
      "بازرگانی": 5426,
      "امروزه": 5427,
      "واب": 5428,
      "مغز": 5429,
      "اختصاصی": 5430,
      "خروج": 5431,
      "نیمه": 5432,
      "بانوان": 5433,
      "محتو": 5434,
      "انیم": 5435,
      "استقبال": 5436,
      "##الله": 5437,
      "شناسه": 5438,
      "مسيولیت": 5439,
      "پذیرش": 5440,
      "##one": 5441,
      "اجاره": 5442,
      "بهره‌برداری": 5443,
      "فس": 5444,
      "شرقی": 5445,
      "خوردن": 5446,
      "تسهیلات": 5447,
      "##میلی": 5448,
      "هستم": 5449,
      "حداک": 5450,
      "عهده": 5451,
      "st": 5452,
      "##ناک": 5453,
      "##ort": 5454,
      "ساختمانی": 5455,
      "خودم": 5456,
      "##‌بندی": 5457,
      "##گاری": 5458,
      "رقم": 5459,
      "انتظامی": 5460,
      "منص": 5461,
      "خواهید": 5462,
      "ظاهر": 5463,
      "تال": 5464,
      "خمینی": 5465,
      "##یداد": 5466,
      "سرمربی": 5467,
      "تولد": 5468,
      "دلایل": 5469,
      "خلاصه": 5470,
      "پان": 5471,
      "##الد": 5472,
      "۵۹": 5473,
      "۵۴": 5474,
      "بنام": 5475,
      "##درضا": 5476,
      "##انگیز": 5477,
      "##وریت": 5478,
      "مبنی": 5479,
      "علیرضا": 5480,
      "##ویم": 5481,
      "خودروی": 5482,
      "مذه": 5483,
      "انف": 5484,
      "دوب": 5485,
      "پرت": 5486,
      "طبیعت": 5487,
      "##‌خ": 5488,
      "##pp": 5489,
      "۲۰۲۰": 5490,
      "طرح‌های": 5491,
      "##وذ": 5492,
      "مستند": 5493,
      "۵۳": 5494,
      "##رغ": 5495,
      "پروژه‌های": 5496,
      "تند": 5497,
      "##کشی": 5498,
      "##وره": 5499,
      "##ه‌ترین": 5500,
      "یخ": 5501,
      "۴۹": 5502,
      "بیماران": 5503,
      "مدرن": 5504,
      "رسانه‌های": 5505,
      "شرق": 5506,
      "##الح": 5507,
      "زیست": 5508,
      "هم‌": 5509,
      "سلول": 5510,
      "ریاضی": 5511,
      "لیز": 5512,
      "##ev": 5513,
      "##اموز": 5514,
      "شخصیت": 5515,
      "۵۸": 5516,
      "##زوم": 5517,
      "عمده": 5518,
      "##پور": 5519,
      "##‌یافته": 5520,
      "معنی": 5521,
      "ورودی": 5522,
      "مناسبی": 5523,
      "تهی": 5524,
      "۵۶": 5525,
      "##شتر": 5526,
      "دانش‌ام": 5527,
      "صحیح": 5528,
      "ضرب": 5529,
      "##مع": 5530,
      "امادگی": 5531,
      "هم‌ا": 5532,
      "##نجی": 5533,
      "##ian": 5534,
      "معادن": 5535,
      "##اشیه": 5536,
      "مهمی": 5537,
      "هماهنگی": 5538,
      "۵۱": 5539,
      "کنفر": 5540,
      "دهیم": 5541,
      "چقدر": 5542,
      "کلمات": 5543,
      "##ونم": 5544,
      "گردد": 5545,
      "اکثر": 5546,
      "هم‌اکنون": 5547,
      "##oc": 5548,
      "متعد": 5549,
      "قزوین": 5550,
      "کول": 5551,
      "##وپ": 5552,
      "اخذ": 5553,
      "##‌شناسی": 5554,
      "ولایت": 5555,
      "هش": 5556,
      "##جام": 5557,
      "##ran": 5558,
      "گروه‌های": 5559,
      "##کا": 5560,
      "اولویت": 5561,
      "ناخ": 5562,
      "پاد": 5563,
      "##یان": 5564,
      "بودم": 5565,
      "انگلیس": 5566,
      "جاد": 5567,
      "رضوی": 5568,
      "##ect": 5569,
      "صاحب": 5570,
      "##‌اس": 5571,
      "کرج": 5572,
      "نقشه": 5573,
      "حاک": 5574,
      "پمپ": 5575,
      "گال": 5576,
      "عدالت": 5577,
      "زخ": 5578,
      "هاشمی": 5579,
      "محلی": 5580,
      "##وگرافی": 5581,
      "کیلومتر": 5582,
      "##شین": 5583,
      "دکوراسیون": 5584,
      "ad": 5585,
      "ایین": 5586,
      "رستوران": 5587,
      "ارا": 5588,
      "##ive": 5589,
      "می‌گویند": 5590,
      "کشتی": 5591,
      "##ودگی": 5592,
      "##ep": 5593,
      "##art": 5594,
      "استر": 5595,
      "میراث": 5596,
      "قاچ": 5597,
      "بزرگی": 5598,
      "کارگران": 5599,
      "راهکار": 5600,
      "ساخته‌شده": 5601,
      "عجیب": 5602,
      "##iz": 5603,
      "می‌ی": 5604,
      "نوعی": 5605,
      "##وح": 5606,
      "رونمایی": 5607,
      "##اتور": 5608,
      "توانایی": 5609,
      "معتقد": 5610,
      "وسیله": 5611,
      "محترم": 5612,
      "پرسش": 5613,
      "سردار": 5614,
      "چای": 5615,
      "۸۵": 5616,
      "##ینال": 5617,
      "داوط": 5618,
      "نیک": 5619,
      "پودر": 5620,
      "نکات": 5621,
      "شهرهای": 5622,
      "خودروهای": 5623,
      "##ویا": 5624,
      "بازیگران": 5625,
      "مرجع": 5626,
      "داری": 5627,
      "لوله": 5628,
      "##دامی": 5629,
      "##لبان": 5630,
      "روستایی": 5631,
      "متقاضی": 5632,
      "مساله": 5633,
      "فیلم‌های": 5634,
      "حیوانات": 5635,
      "Ar": 5636,
      "صفر": 5637,
      "##ارس": 5638,
      "sh": 5639,
      "پیمان": 5640,
      "##ستری": 5641,
      "تعوی": 5642,
      "##‌گر": 5643,
      "خواص": 5644,
      "رمز": 5645,
      "ترد": 5646,
      "دک": 5647,
      "گن": 5648,
      "##کده": 5649,
      "گوشی‌های": 5650,
      "##ژانس": 5651,
      "##۱۴": 5652,
      "۲۰۱۲": 5653,
      "حفاظت": 5654,
      "##اوری": 5655,
      "فارکس": 5656,
      "حاج": 5657,
      "عطر": 5658,
      "##نظر": 5659,
      "##عده": 5660,
      "منح": 5661,
      "خلاق": 5662,
      "هواد": 5663,
      "Sh": 5664,
      "##اندن": 5665,
      "ناز": 5666,
      "واحدهای": 5667,
      "پال": 5668,
      "تصاد": 5669,
      "قاچاق": 5670,
      "زرد": 5671,
      "##۷۰": 5672,
      "فرمت": 5673,
      "عقب": 5674,
      "طرز": 5675,
      "##our": 5676,
      "##رض": 5677,
      "انکه": 5678,
      "هشدار": 5679,
      "##og": 5680,
      "فردا": 5681,
      "تخفیف": 5682,
      "کنفرانس": 5683,
      "حاشیه": 5684,
      "##جات": 5685,
      "نیستند": 5686,
      "چربی": 5687,
      "##ژیک": 5688,
      "نشود": 5689,
      "فاط": 5690,
      "رویداد": 5691,
      "کشوری": 5692,
      "گیاهان": 5693,
      "##یکرد": 5694,
      "۶۴": 5695,
      "ترکی": 5696,
      "عرصه": 5697,
      "اغلب": 5698,
      "وبسایت": 5699,
      "پنل": 5700,
      "##يید": 5701,
      "##wn": 5702,
      "دادگاه": 5703,
      "##پس": 5704,
      "شیمیایی": 5705,
      "دف": 5706,
      "##شنامه": 5707,
      "عن": 5708,
      "##شویی": 5709,
      "جایزه": 5710,
      "بیماری‌های": 5711,
      "##ile": 5712,
      "رویکرد": 5713,
      "سخنگ": 5714,
      "##ایید": 5715,
      "نگران": 5716,
      "##ist": 5717,
      "کردستان": 5718,
      "حوادث": 5719,
      "مراقبت": 5720,
      "##ویش": 5721,
      "تقا": 5722,
      "بالاتر": 5723,
      "خداوند": 5724,
      "وظیفه": 5725,
      "یار": 5726,
      "پلاس": 5727,
      "وام": 5728,
      "افس": 5729,
      "##عداد": 5730,
      "دینی": 5731,
      "##خورد": 5732,
      "اپارت": 5733,
      "ارامش": 5734,
      "مهاج": 5735,
      "##ire": 5736,
      "ام‌اس": 5737,
      "هنرمندان": 5738,
      "تعهد": 5739,
      "چنان": 5740,
      "الله": 5741,
      "پایت": 5742,
      "سانت": 5743,
      "غل": 5744,
      "##سا": 5745,
      "##‌گذاری": 5746,
      "تعدادی": 5747,
      "می‌برد": 5748,
      "عنا": 5749,
      "کنگ": 5750,
      "خواندن": 5751,
      "ویديو": 5752,
      "هدایت": 5753,
      "عرو": 5754,
      "##ختی": 5755,
      "##۱۸": 5756,
      "انص": 5757,
      "میلادی": 5758,
      "##داث": 5759,
      "می‌گیرند": 5760,
      "اطمین": 5761,
      "ملل": 5762,
      "##min": 5763,
      "المپ": 5764,
      "اباد": 5765,
      "مردمی": 5766,
      "ممنوع": 5767,
      "بک": 5768,
      "##۵۵": 5769,
      "بشر": 5770,
      "منفی": 5771,
      "موضوعات": 5772,
      "نفس": 5773,
      "##ra": 5774,
      "##ازدهم": 5775,
      "میکرو": 5776,
      "##ایق": 5777,
      "پرست": 5778,
      "مخالف": 5779,
      "سنت": 5780,
      "درخت": 5781,
      "ان‌": 5782,
      "##eg": 5783,
      "##mp": 5784,
      "##۱۶": 5785,
      "اطراف": 5786,
      "##رفت": 5787,
      "ویژگی": 5788,
      "احداث": 5789,
      "نوروز": 5790,
      "##زم": 5791,
      "جس": 5792,
      "راه‌های": 5793,
      "تبریک": 5794,
      "نوشته‌شده": 5795,
      "مبتلا": 5796,
      "طولانی": 5797,
      "فرزندان": 5798,
      "تابستان": 5799,
      "چوب": 5800,
      "مدل‌های": 5801,
      "##کنه": 5802,
      "روستای": 5803,
      "بارداری": 5804,
      "##۱۹": 5805,
      "##ونت": 5806,
      "هیچ‌": 5807,
      "بتواند": 5808,
      "متوسط": 5809,
      "تخت": 5810,
      "قضا": 5811,
      "مخدر": 5812,
      "ایده": 5813,
      "عوار": 5814,
      "اقا": 5815,
      "##اکس": 5816,
      "واقعیت": 5817,
      "سایز": 5818,
      "اسراي": 5819,
      "داده‌شده": 5820,
      "مناسبت": 5821,
      "افتخ": 5822,
      "په": 5823,
      "##خوانی": 5824,
      "مهندس": 5825,
      "حقیق": 5826,
      "عج": 5827,
      "کیش": 5828,
      "برادر": 5829,
      "اورده": 5830,
      "کارگاه": 5831,
      "رسیدگی": 5832,
      "تخم": 5833,
      "زل": 5834,
      "نتوان": 5835,
      "می‌بین": 5836,
      "اطمینان": 5837,
      "گونا": 5838,
      "کمبود": 5839,
      "تعمیرات": 5840,
      "قی": 5841,
      "##افظه": 5842,
      "گروهی": 5843,
      "میلی‌": 5844,
      "بم": 5845,
      "می‌نماید": 5846,
      "اکت": 5847,
      "هاست": 5848,
      "دریایی": 5849,
      "صفحات": 5850,
      "محمدرضا": 5851,
      "کاناد": 5852,
      "مفه": 5853,
      "یور": 5854,
      "##ub": 5855,
      "عربی": 5856,
      "کرمانشاه": 5857,
      "##بل": 5858,
      "بدین": 5859,
      "جع": 5860,
      "رشته‌های": 5861,
      "بدانید": 5862,
      "HD": 5863,
      "اگاهی": 5864,
      "شیک": 5865,
      "ارسال‌شده": 5866,
      "پیشرفته": 5867,
      "##ینت": 5868,
      "##رق": 5869,
      "گیگ": 5870,
      "سخنگوی": 5871,
      "گلکسی": 5872,
      "##امله": 5873,
      "##یزه": 5874,
      "ایالات": 5875,
      "انیمیشن": 5876,
      "##ax": 5877,
      "برنج": 5878,
      "مشغ": 5879,
      "بردن": 5880,
      "##اشن": 5881,
      "##وشی": 5882,
      "فعلی": 5883,
      "موسس": 5884,
      "##ومه": 5885,
      "سرز": 5886,
      "نوین": 5887,
      "بیک": 5888,
      "سان": 5889,
      "چش": 5890,
      "بازداشت": 5891,
      "راهی": 5892,
      "دانشجویی": 5893,
      "شیرین": 5894,
      "جرم": 5895,
      "بوی": 5896,
      "خلی": 5897,
      "##بران": 5898,
      "۱۳۹۰": 5899,
      "حداکثر": 5900,
      "نویسی": 5901,
      "اشپزخانه": 5902,
      "تون": 5903,
      "##۲۲": 5904,
      "سقف": 5905,
      "##ریت": 5906,
      "روانی": 5907,
      "##رفه": 5908,
      "محتوای": 5909,
      "عین": 5910,
      "برسد": 5911,
      "Ch": 5912,
      "لند": 5913,
      "مناقصه": 5914,
      "ویتامین": 5915,
      "شفاف": 5916,
      "قلم": 5917,
      "تابل": 5918,
      "منتظر": 5919,
      "می‌کردند": 5920,
      "صلح": 5921,
      "فجر": 5922,
      "##ه‌ال": 5923,
      "توج": 5924,
      "دهم": 5925,
      "##usic": 5926,
      "ابراز": 5927,
      "هدی": 5928,
      "اهواز": 5929,
      "کالای": 5930,
      "##کران": 5931,
      "۴۰۰": 5932,
      "کشورمان": 5933,
      "یادگیری": 5934,
      "جمع‌اوری": 5935,
      "Download": 5936,
      "روزه": 5937,
      "سخنان": 5938,
      "##ore": 5939,
      "پنجم": 5940,
      "ویدیو": 5941,
      "ظهر": 5942,
      "##جایی": 5943,
      "نمی‌کند": 5944,
      "احتمالا": 5945,
      "نکنید": 5946,
      "##فل": 5947,
      "##‌اباد": 5948,
      "میوه": 5949,
      "گیاهی": 5950,
      "نظیر": 5951,
      "معاملات": 5952,
      "نمون": 5953,
      "ماهه": 5954,
      "##زشکی": 5955,
      "قتل": 5956,
      "مجل": 5957,
      "کلیپ": 5958,
      "حرم": 5959,
      "حاوی": 5960,
      "ایام": 5961,
      "##ud": 5962,
      "زاي": 5963,
      "روزی": 5964,
      "ضرورت": 5965,
      "مصاحبه": 5966,
      "##ial": 5967,
      "اسل": 5968,
      "##متح": 5969,
      "رنگی": 5970,
      "شغل": 5971,
      "حافظه": 5972,
      "سرک": 5973,
      "دخترانه": 5974,
      "محکوم": 5975,
      "views": 5976,
      "لول": 5977,
      "تدوین": 5978,
      "##نظ": 5979,
      "ابتدایی": 5980,
      "گرامی": 5981,
      "بین‌الملل": 5982,
      "##age": 5983,
      "نجات": 5984,
      "مذهبی": 5985,
      "وجه": 5986,
      "سوي": 5987,
      "مشغول": 5988,
      "امتح": 5989,
      "خودکار": 5990,
      "ادبیات": 5991,
      "پایتخت": 5992,
      "مجه": 5993,
      "کری": 5994,
      "##عیف": 5995,
      "ایرانیان": 5996,
      "##log": 5997,
      "رمضان": 5998,
      "نه‌": 5999,
      "##دل": 6000,
      "سرپرست": 6001,
      "دانش‌اموز": 6002,
      "##ment": 6003,
      "شدم": 6004,
      "شعار": 6005,
      "نگار": 6006,
      "##ولان": 6007,
      "##گرمی": 6008,
      "##انو": 6009,
      "##تنها": 6010,
      "سرا": 6011,
      "قدم": 6012,
      "اسید": 6013,
      "خالی": 6014,
      "سيو": 6015,
      "کارافرین": 6016,
      "باره": 6017,
      "نقاشی": 6018,
      "##‌متح": 6019,
      "گلستان": 6020,
      "ریس": 6021,
      "##عکس": 6022,
      "سد": 6023,
      "لر": 6024,
      "Al": 6025,
      "فاز": 6026,
      "##کام": 6027,
      "محمدی": 6028,
      "صادق": 6029,
      "ایالات‌متح": 6030,
      "تسن": 6031,
      "##رضا": 6032,
      "اقامت": 6033,
      "مسلح": 6034,
      "مذاکرات": 6035,
      "##۱۵": 6036,
      "درگیر": 6037,
      "قطر": 6038,
      "گسترده": 6039,
      "ایالات‌متحده": 6040,
      "۸۶": 6041,
      "##ight": 6042,
      "سابقه": 6043,
      "کشته": 6044,
      "##یسی": 6045,
      "دارویی": 6046,
      "معامله": 6047,
      "مطب": 6048,
      "شرایطی": 6049,
      "توجیه": 6050,
      "ششم": 6051,
      "بگو": 6052,
      "سران": 6053,
      "دیروز": 6054,
      "باقی": 6055,
      "اوق": 6056,
      "مقامات": 6057,
      "طال": 6058,
      "گونه": 6059,
      "المپیک": 6060,
      "نژاد": 6061,
      "##قان": 6062,
      "##۳۴": 6063,
      "##انداز": 6064,
      "نفوذ": 6065,
      "ذخیره": 6066,
      "بخوانید": 6067,
      "##ندم": 6068,
      "کمپانی": 6069,
      "Ad": 6070,
      "یو": 6071,
      "تکنیک": 6072,
      "دوبله": 6073,
      "تقسیم": 6074,
      "##بخت": 6075,
      "تحقق": 6076,
      "افزونه": 6077,
      "منتقل": 6078,
      "##تمع": 6079,
      "کشورها": 6080,
      "گرفته‌شده": 6081,
      "##ity": 6082,
      "پژوهشی": 6083,
      "ژان": 6084,
      "##وکر": 6085,
      "عاشقانه": 6086,
      "##وشاپ": 6087,
      "جلب": 6088,
      "##غلی": 6089,
      "سیستم‌": 6090,
      "خلق": 6091,
      "##امون": 6092,
      "ارتقا": 6093,
      "سخنرانی": 6094,
      "اپارتمان": 6095,
      "##ی‌ن": 6096,
      "بوشهر": 6097,
      "نه‌تنها": 6098,
      "##دت": 6099,
      "##۱۷": 6100,
      "##گزین": 6101,
      "##ایتی": 6102,
      "درم": 6103,
      "##افی": 6104,
      "سینمای": 6105,
      "##lay": 6106,
      "کارگ": 6107,
      "دانشگاهی": 6108,
      "مایک": 6109,
      "حقیقت": 6110,
      "سیستم‌عامل": 6111,
      "لزوم": 6112,
      "صحنه": 6113,
      "تیم‌های": 6114,
      "##ايید": 6115,
      "##روت": 6116,
      "موج": 6117,
      "مجتمع": 6118,
      "تسنیم": 6119,
      "۷۵": 6120,
      "عموم": 6121,
      "سیب": 6122,
      "قوی": 6123,
      "##ey": 6124,
      "##ead": 6125,
      "استفاد": 6126,
      "گرافیک": 6127,
      "تمرکز": 6128,
      "زندانی": 6129,
      "پیوند": 6130,
      "طبقه": 6131,
      "اتصال": 6132,
      "داده‌اند": 6133,
      "گذاشته": 6134,
      "عوارض": 6135,
      "مبارک": 6136,
      "می‌یابد": 6137,
      "هید": 6138,
      "##ارا": 6139,
      "مسعود": 6140,
      "سیمان": 6141,
      "مجهز": 6142,
      "##سک": 6143,
      "ایتالیا": 6144,
      "داغ": 6145,
      "نکرده": 6146,
      "ممنون": 6147,
      "کلمه": 6148,
      "حسابداری": 6149,
      "کارگردان": 6150,
      "تکرار": 6151,
      "##برز": 6152,
      "جزو": 6153,
      "انتی": 6154,
      "مشکلی": 6155,
      "بشه": 6156,
      "طوری": 6157,
      "هایی": 6158,
      "اروپایی": 6159,
      "قوه": 6160,
      "روزها": 6161,
      "رسانی": 6162,
      "محمود": 6163,
      "##ib": 6164,
      "##ik": 6165,
      "ژاپن": 6166,
      "وکیل": 6167,
      "مجید": 6168,
      "قطعا": 6169,
      "مطمين": 6170,
      "##متر": 6171,
      "قرن": 6172,
      "کم‌": 6173,
      "رسانه‌ها": 6174,
      "بگذارید": 6175,
      "مین": 6176,
      "##اصر": 6177,
      "ناح": 6178,
      "##ng": 6179,
      "کلان": 6180,
      "##ang": 6181,
      "عسل": 6182,
      "##یدر": 6183,
      "دانشجو": 6184,
      "پلی": 6185,
      "##اما": 6186,
      "اسرايیل": 6187,
      "ثانیه": 6188,
      "##۳۵": 6189,
      "##sh": 6190,
      "##ft": 6191,
      "مانتو": 6192,
      "صهی": 6193,
      "##وسته": 6194,
      "روایت": 6195,
      "شرکت‌ها": 6196,
      "شهدا": 6197,
      "##خانه‌های": 6198,
      "صهیون": 6199,
      "الودگی": 6200,
      "متری": 6201,
      "غذای": 6202,
      "نفتی": 6203,
      "زنگ": 6204,
      "باتری": 6205,
      "سیاست‌های": 6206,
      "تروریستی": 6207,
      "فتوشاپ": 6208,
      "ارشاد": 6209,
      "##نای": 6210,
      "##قاد": 6211,
      "الهی": 6212,
      "چهره": 6213,
      "##ریحی": 6214,
      "##لاقی": 6215,
      "دیپ": 6216,
      "بتوانند": 6217,
      "امداد": 6218,
      "چرم": 6219,
      "##یدم": 6220,
      "دون": 6221,
      "شغلی": 6222,
      "##ته": 6223,
      "##مدی": 6224,
      "پوشاک": 6225,
      "لحظه": 6226,
      "مقط": 6227,
      "سگ": 6228,
      "جنسی": 6229,
      "سقوط": 6230,
      "اچ": 6231,
      "استع": 6232,
      "چراغ": 6233,
      "کالاهای": 6234,
      "روس": 6235,
      "نباشد": 6236,
      "##شیو": 6237,
      "مربوطه": 6238,
      "ملک": 6239,
      "##ه‌کننده": 6240,
      "مجدد": 6241,
      "یابد": 6242,
      "##نک": 6243,
      "خودتان": 6244,
      "تياتر": 6245,
      "##are": 6246,
      "حدی": 6247,
      "مسو": 6248,
      "قبول": 6249,
      "تجربی": 6250,
      "مواردی": 6251,
      "نمک": 6252,
      "قدرتمند": 6253,
      "هواپیما": 6254,
      "##حت": 6255,
      "می‌ز": 6256,
      "۱۵۰": 6257,
      "شیخ": 6258,
      "ناحیه": 6259,
      "Bl": 6260,
      "##۶۵": 6261,
      "عمران": 6262,
      "همکاران": 6263,
      "فضایی": 6264,
      "##جار": 6265,
      "علايم": 6266,
      "شرط": 6267,
      "همدان": 6268,
      "ابلاغ": 6269,
      "چسب": 6270,
      "##خیر": 6271,
      "##صه‌های": 6272,
      "مذاکره": 6273,
      "cont": 6274,
      "علام": 6275,
      "اتم": 6276,
      "کلین": 6277,
      "موقع": 6278,
      "##۳۷": 6279,
      "هواداران": 6280,
      "جاده": 6281,
      "مصوب": 6282,
      "باران": 6283,
      "تعویض": 6284,
      "همه‌": 6285,
      "پیاد": 6286,
      "می‌خواهید": 6287,
      "سبزی": 6288,
      "مظ": 6289,
      "##‌دهنده": 6290,
      "مطابق": 6291,
      "جنب": 6292,
      "نمايید": 6293,
      "مسک": 6294,
      "مجبور": 6295,
      "ستار": 6296,
      "قدیم": 6297,
      "##ی‌اش": 6298,
      "برترین": 6299,
      "فرودگاه": 6300,
      "والی": 6301,
      "##AT": 6302,
      "پیوست": 6303,
      "واری": 6304,
      "##فروش": 6305,
      "##صاب": 6306,
      "##احت": 6307,
      "جاذ": 6308,
      "استرس": 6309,
      "خطوط": 6310,
      "امتحان": 6311,
      "##ash": 6312,
      "زه": 6313,
      "جایگزین": 6314,
      "اندازه‌گیری": 6315,
      "هرمز": 6316,
      "زنجان": 6317,
      "news": 6318,
      "اگاه": 6319,
      "##غه": 6320,
      "##ith": 6321,
      "سراسری": 6322,
      "کیک": 6323,
      "##ml": 6324,
      "همانطور": 6325,
      "راهنمایی": 6326,
      "##زایی": 6327,
      "متهم": 6328,
      "سلامتی": 6329,
      "عکاسی": 6330,
      "چینی": 6331,
      "پاکستان": 6332,
      "کلاه": 6333,
      "سعودی": 6334,
      "##ه‌تر": 6335,
      "سالانه": 6336,
      "up": 6337,
      "شیش": 6338,
      "##نشین": 6339,
      "فیس": 6340,
      "اعتی": 6341,
      "واگذاری": 6342,
      "فش": 6343,
      "##io": 6344,
      "بودیم": 6345,
      "دانشکده": 6346,
      "مهلت": 6347,
      "##وای": 6348,
      "##۲۴": 6349,
      "الح": 6350,
      "بدست": 6351,
      "مالیات": 6352,
      "می‌خواهد": 6353,
      "خواستار": 6354,
      "یافته": 6355,
      "احتر": 6356,
      "قلبی": 6357,
      "کارگردانی": 6358,
      "فلسط": 6359,
      "zwn": 6360,
      "فلش": 6361,
      "عط": 6362,
      "فکی": 6363,
      "zwnj": 6364,
      "##لیط": 6365,
      "##‌جمهوری": 6366,
      "اعتیاد": 6367,
      "PM": 6368,
      "خال": 6369,
      "امیدوارم": 6370,
      "جاب": 6371,
      "سوز": 6372,
      "##زای": 6373,
      "##ارو": 6374,
      "تمایل": 6375,
      "پستی": 6376,
      "##۳۸": 6377,
      "نیازهای": 6378,
      "##ضل": 6379,
      "##روه": 6380,
      "##ass": 6381,
      "مدارک": 6382,
      "منطقه‌ای": 6383,
      "شکر": 6384,
      "چطور": 6385,
      "نگ": 6386,
      "هویت": 6387,
      "##ram": 6388,
      "مدتی": 6389,
      "وقوع": 6390,
      "##ice": 6391,
      "تمیز": 6392,
      "شهدای": 6393,
      "اتوماتیک": 6394,
      "قدس": 6395,
      "نمی‌تواند": 6396,
      "عینک": 6397,
      "##جانی": 6398,
      "شهرسازی": 6399,
      "##گردان": 6400,
      "کور": 6401,
      "۶۵": 6402,
      "al": 6403,
      "تورم": 6404,
      "ضربه": 6405,
      "بطور": 6406,
      "جبه": 6407,
      "کانادا": 6408,
      "شیشه": 6409,
      "غلام": 6410,
      "##۶۸": 6411,
      "اصط": 6412,
      "پروف": 6413,
      "استخوان": 6414,
      "می­": 6415,
      "افتاد": 6416,
      "یاداور": 6417,
      "اردبیل": 6418,
      "بت": 6419,
      "توق": 6420,
      "واژ": 6421,
      "الع": 6422,
      "روستا": 6423,
      "روانشناسی": 6424,
      "قطعه": 6425,
      "سختی": 6426,
      "پتروش": 6427,
      "ارشیو": 6428,
      "سازنده": 6429,
      "طلایی": 6430,
      "مقررات": 6431,
      "ht": 6432,
      "شگفت": 6433,
      "وحدت": 6434,
      "##کد": 6435,
      "یادداشت": 6436,
      "سنجش": 6437,
      "دز": 6438,
      "عادی": 6439,
      "نع": 6440,
      "سرگرمی": 6441,
      "می‌رو": 6442,
      "##ه‌رو": 6443,
      "قهرمان": 6444,
      "معنای": 6445,
      "تزریق": 6446,
      "سکه": 6447,
      "کجا": 6448,
      "##ادار": 6449,
      "جمعی": 6450,
      "##ثی": 6451,
      "پیش‌": 6452,
      "نوار": 6453,
      "##خبر": 6454,
      "افریق": 6455,
      "##چم": 6456,
      "##ind": 6457,
      "مسيولین": 6458,
      "کنگره": 6459,
      "ذه": 6460,
      "البرز": 6461,
      "##ill": 6462,
      "ببینید": 6463,
      "مسکونی": 6464,
      "مخاب": 6465,
      "##ver": 6466,
      "تقدیر": 6467,
      "میلاد": 6468,
      "امیدواریم": 6469,
      "نگرانی": 6470,
      "خلیج": 6471,
      "الف": 6472,
      "والدین": 6473,
      "طراحی‌شده": 6474,
      "هل": 6475,
      "پد": 6476,
      "دوره‌های": 6477,
      "هدیه": 6478,
      "اتی": 6479,
      "مض": 6480,
      "##وبه": 6481,
      "##گم": 6482,
      "##اهد": 6483,
      "گیری": 6484,
      "فرماندار": 6485,
      "بید": 6486,
      "##ایف": 6487,
      "مذکور": 6488,
      "تصور": 6489,
      "مصد": 6490,
      "مخلو": 6491,
      "خروجی": 6492,
      "گوناگون": 6493,
      "سم": 6494,
      "##پار": 6495,
      "بازنش": 6496,
      "فایل‌های": 6497,
      "صندلی": 6498,
      "سمن": 6499,
      "##۷۷": 6500,
      "##ue": 6501,
      "##ایب": 6502,
      "هرگونه": 6503,
      "پارچه": 6504,
      "رکورد": 6505,
      "صلاح": 6506,
      "##ide": 6507,
      "نگاهی": 6508,
      "وار": 6509,
      "##غد": 6510,
      "مشهور": 6511,
      "خودشان": 6512,
      "شیوه": 6513,
      "محاسبه": 6514,
      "معلم": 6515,
      "خریداری": 6516,
      "##ورا": 6517,
      "سازمانی": 6518,
      "پایی": 6519,
      "##بازی": 6520,
      "##انلود": 6521,
      "##املی": 6522,
      "مانع": 6523,
      "گمرک": 6524,
      "فاض": 6525,
      "همت": 6526,
      "دیوان": 6527,
      "رسانه‌ای": 6528,
      "ترافیک": 6529,
      "بگیرند": 6530,
      "نماد": 6531,
      "تخلف": 6532,
      "##۲۵": 6533,
      "قبیل": 6534,
      "ارتباطی": 6535,
      "پناه": 6536,
      "##یکه": 6537,
      "##زنی": 6538,
      "##گیل": 6539,
      "استراتژی": 6540,
      "بتن": 6541,
      "محرم": 6542,
      "کریم": 6543,
      "مزایای": 6544,
      "by": 6545,
      "تری": 6546,
      "شبیه": 6547,
      "تماشا": 6548,
      "##۶۴": 6549,
      "تاج": 6550,
      "پیشنهادی": 6551,
      "مفهوم": 6552,
      "Sp": 6553,
      "زغال": 6554,
      "شلو": 6555,
      "ال‌": 6556,
      "ماک": 6557,
      "پزشکان": 6558,
      "اری": 6559,
      "##ایم": 6560,
      "بران": 6561,
      "دهان": 6562,
      "دانشگاه‌های": 6563,
      "لحظ": 6564,
      "برطرف": 6565,
      "می‌بر": 6566,
      "##سور": 6567,
      "##یمانی": 6568,
      "نمی": 6569,
      "دمای": 6570,
      "متعلق": 6571,
      "الکتریک": 6572,
      "پایدار": 6573,
      "باند": 6574,
      "##ستم": 6575,
      "امضا": 6576,
      "##دیت": 6577,
      "مالک": 6578,
      "##زله": 6579,
      "همانند": 6580,
      "عزیزان": 6581,
      "##بک": 6582,
      "فرست": 6583,
      "دیپلم": 6584,
      "۹۱": 6585,
      "پنج‌": 6586,
      "دامنه": 6587,
      "مسافر": 6588,
      "پنه": 6589,
      "چرب": 6590,
      "گشت": 6591,
      "##عه‌": 6592,
      "اضطر": 6593,
      "سیما": 6594,
      "می‌پرداز": 6595,
      "دیواری": 6596,
      "##وعی": 6597,
      "##ل‌های": 6598,
      "ایکس": 6599,
      "یمن": 6600,
      "##‌وز": 6601,
      "امین": 6602,
      "سالگی": 6603,
      "تاسیسات": 6604,
      "حرک": 6605,
      "منو": 6606,
      "بدنه": 6607,
      "مهد": 6608,
      "گذر": 6609,
      "##نوشت": 6610,
      "رادیو": 6611,
      "##مح": 6612,
      "##ی‌نژاد": 6613,
      "خرم": 6614,
      "فاطمه": 6615,
      "یورو": 6616,
      "##ساخت": 6617,
      "##چین": 6618,
      "خطرن": 6619,
      "محققان": 6620,
      "بکار": 6621,
      "وابسته": 6622,
      "##گذشت": 6623,
      "بنزین": 6624,
      "۶۰۰": 6625,
      "کنونی": 6626,
      "دسترس": 6627,
      "راستا": 6628,
      "فیزیکی": 6629,
      "سرزمین": 6630,
      "##اطر": 6631,
      "دانشگاه‌ها": 6632,
      "ردی": 6633,
      "##nt": 6634,
      "نشر": 6635,
      "محدوده": 6636,
      "می‏": 6637,
      "علیه‌ال": 6638,
      "موهای": 6639,
      "اسمان": 6640,
      "مصنو": 6641,
      "بنیان": 6642,
      "تحریم‌های": 6643,
      "علیه‌السلام": 6644,
      "##لر": 6645,
      "##لیم": 6646,
      "اخلاق": 6647,
      "##‌ط": 6648,
      "##ff": 6649,
      "سرقت": 6650,
      "زده": 6651,
      "یاس": 6652,
      "اینه": 6653,
      "می‌توانیم": 6654,
      "##ی‌سازی": 6655,
      "انع": 6656,
      "غذاهای": 6657,
      "##چنین": 6658,
      "بهین": 6659,
      "موزه": 6660,
      "عمد": 6661,
      "قهوه": 6662,
      "##‌ای": 6663,
      "موشک": 6664,
      "شهرک": 6665,
      "ایز": 6666,
      "سه‌ب": 6667,
      "اتوب": 6668,
      "کیلوگرم": 6669,
      "هیدرو": 6670,
      "US": 6671,
      "ظریف": 6672,
      "هرچ": 6673,
      "نبوده": 6674,
      "تدریس": 6675,
      "دشمنان": 6676,
      "وان": 6677,
      "چگون": 6678,
      "ابراهیم": 6679,
      "New": 6680,
      "بلیط": 6681,
      "##ure": 6682,
      "قربانی": 6683,
      "is": 6684,
      "لایحه": 6685,
      "مقطع": 6686,
      "سه‌بعدی": 6687,
      "انب": 6688,
      "##شده‌اند": 6689,
      "##ذر": 6690,
      "اوج": 6691,
      "صدر": 6692,
      "کمترین": 6693,
      "مالیاتی": 6694,
      "اوراق": 6695,
      "لاغ": 6696,
      "می‌داد": 6697,
      "##end": 6698,
      "نباش": 6699,
      "Com": 6700,
      "ثروت": 6701,
      "هرگز": 6702,
      "انگشت": 6703,
      "ابتلا": 6704,
      "پتروشیمی": 6705,
      "بستر": 6706,
      "##‌انگیز": 6707,
      "انح": 6708,
      "##وقف": 6709,
      "نانو": 6710,
      "##ی‌تر": 6711,
      "شیوع": 6712,
      "صرفا": 6713,
      "گونه‌ای": 6714,
      "زوج": 6715,
      "##اجی": 6716,
      "##عل": 6717,
      "مدعی": 6718,
      "محدودیت": 6719,
      "اوم": 6720,
      "سور": 6721,
      "##چال": 6722,
      "پیشین": 6723,
      "نوری": 6724,
      "##۹۴": 6725,
      "افکار": 6726,
      "متنوع": 6727,
      "بنده": 6728,
      "##یدنی": 6729,
      "فره": 6730,
      "بارش": 6731,
      "شکم": 6732,
      "والیبال": 6733,
      "نیا": 6734,
      "##جستان": 6735,
      "استانی": 6736,
      "##تیک": 6737,
      "بانک‌ها": 6738,
      "پیامبر": 6739,
      "لیزر": 6740,
      "هج": 6741,
      "اله": 6742,
      "فعالان": 6743,
      "##ite": 6744,
      "تعطیل": 6745,
      "دروغ": 6746,
      "خات": 6747,
      "##رنگ": 6748,
      "##۲۸": 6749,
      "##ثار": 6750,
      "شکایت": 6751,
      "فساد": 6752,
      "باری": 6753,
      "ارایه": 6754,
      "لرستان": 6755,
      "اوا": 6756,
      "##زان": 6757,
      "۱۲۰": 6758,
      "به‌ع": 6759,
      "جلسات": 6760,
      "مبتنی": 6761,
      "بچه": 6762,
      "دس": 6763,
      "ساد": 6764,
      "هور": 6765,
      "وای": 6766,
      "##جای": 6767,
      "ورزشگاه": 6768,
      "فاضل": 6769,
      "##ه‌است": 6770,
      "تعامل": 6771,
      "مقاومتی": 6772,
      "توصیف": 6773,
      "Th": 6774,
      "وعده": 6775,
      "##نس": 6776,
      "سبد": 6777,
      "بزنید": 6778,
      "##بخش": 6779,
      "##ear": 6780,
      "##اتو": 6781,
      "نداریم": 6782,
      "خند": 6783,
      "##۷۸": 6784,
      "##حس": 6785,
      "##per": 6786,
      "##گرفت": 6787,
      "نامزد": 6788,
      "حمام": 6789,
      "سومین": 6790,
      "##۹۸": 6791,
      "فرار": 6792,
      "انداخت": 6793,
      "سوء": 6794,
      "هنگامی‌که": 6795,
      "مخلوط": 6796,
      "مریم": 6797,
      "هرچه": 6798,
      "تنوع": 6799,
      "نوروزی": 6800,
      "درای": 6801,
      "منافع": 6802,
      "برگشت": 6803,
      "عمی": 6804,
      "##‌تری": 6805,
      "گردن": 6806,
      "جواد": 6807,
      "تشریح": 6808,
      "برنده": 6809,
      "##ولد": 6810,
      "معرض": 6811,
      "متوقف": 6812,
      "پایانی": 6813,
      "بازارهای": 6814,
      "رونق": 6815,
      "دی‌": 6816,
      "پخت": 6817,
      "##pt": 6818,
      "مدرک": 6819,
      "بازسازی": 6820,
      "افتخار": 6821,
      "چگونگی": 6822,
      "مون": 6823,
      "##شب": 6824,
      "کرده‌ایم": 6825,
      "ضعیف": 6826,
      "گفتم": 6827,
      "##‌دستی": 6828,
      "ببرید": 6829,
      "سلاح": 6830,
      "##۷۵": 6831,
      "##ry": 6832,
      "املاک": 6833,
      "کنه": 6834,
      "مبانی": 6835,
      "داشتم": 6836,
      "پردازش": 6837,
      "مصنوعی": 6838,
      "پورت": 6839,
      "ارتفاع": 6840,
      "تخریب": 6841,
      "گزینه‌های": 6842,
      "روبرو": 6843,
      "احترام": 6844,
      "نوبت": 6845,
      "##‌ی": 6846,
      "راهبرد": 6847,
      "##ant": 6848,
      "اکشن": 6849,
      "۱۳۸۹": 6850,
      "الگوی": 6851,
      "۲۰۱۱": 6852,
      "اطلاعی": 6853,
      "##۹۵": 6854,
      "##پت": 6855,
      "نقدی": 6856,
      "اژانس": 6857,
      "ضعف": 6858,
      "##۶۶": 6859,
      "کتابخانه": 6860,
      "اختلال": 6861,
      "کادر": 6862,
      "##استه": 6863,
      "##ندر": 6864,
      "توجهی": 6865,
      "اپدیت": 6866,
      "رنج": 6867,
      "##ینا": 6868,
      "ارايه‌شده": 6869,
      "کرک": 6870,
      "##راری": 6871,
      "لبنان": 6872,
      "انقلابی": 6873,
      "تفکر": 6874,
      "تنگ": 6875,
      "سنی": 6876,
      "فای": 6877,
      "##OS": 6878,
      "##زیه": 6879,
      "منحصر": 6880,
      "زح": 6881,
      "یازدهم": 6882,
      "خسارت": 6883,
      "سی‌": 6884,
      "فک": 6885,
      "اعزام": 6886,
      "معمولی": 6887,
      "زخم": 6888,
      "هلال": 6889,
      "ورزشک": 6890,
      "مستقل": 6891,
      "نوجوانان": 6892,
      "مجلسی": 6893,
      "##ge": 6894,
      "##انا": 6895,
      "##ايی": 6896,
      "##روسافت": 6897,
      "شناسی": 6898,
      "مخرو": 6899,
      "سطوح": 6900,
      "نمودار": 6901,
      "html": 6902,
      "##ایی‌ها": 6903,
      "تضمین": 6904,
      "می‌افت": 6905,
      "##مانت": 6906,
      "تصادف": 6907,
      "##‌وزیر": 6908,
      "##وه‌ای": 6909,
      "##انه‌ای": 6910,
      "استیل": 6911,
      "##ome": 6912,
      "واش": 6913,
      "##ly": 6914,
      "##ضه": 6915,
      "وظایف": 6916,
      "pro": 6917,
      "کاپ": 6918,
      "دستاورد": 6919,
      "نیازی": 6920,
      "میزبان": 6921,
      "اوردن": 6922,
      "ال‌جی": 6923,
      "گیم": 6924,
      "##ail": 6925,
      "اعتقاد": 6926,
      "فلز": 6927,
      "پدیده": 6928,
      "اصطلاح": 6929,
      "بقیه": 6930,
      "فال": 6931,
      "##ورک": 6932,
      "پرچم": 6933,
      "خوراکی": 6934,
      "جزیره": 6935,
      "خوشحال": 6936,
      "خواند": 6937,
      "چپ": 6938,
      "صنایع‌دستی": 6939,
      "موسسات": 6940,
      "پنج‌شنبه": 6941,
      "##چرخ": 6942,
      "تومانی": 6943,
      "حملات": 6944,
      "می‌دهیم": 6945,
      "گالری": 6946,
      "جبران": 6947,
      "طنز": 6948,
      "کریمی": 6949,
      "انفجار": 6950,
      "ورق": 6951,
      "اظهارات": 6952,
      "پلاستیک": 6953,
      "خل": 6954,
      "##ust": 6955,
      "اربع": 6956,
      "راه‌حل": 6957,
      "زودی": 6958,
      "غم": 6959,
      "می‌خواست": 6960,
      "می‌ساز": 6961,
      "اکران": 6962,
      "گردیده": 6963,
      "پنجره": 6964,
      "معص": 6965,
      "##فاوتی": 6966,
      "دختران": 6967,
      "رانندگی": 6968,
      "جبهه": 6969,
      "پکی": 6970,
      "##sp": 6971,
      "##ber": 6972,
      "##­های": 6973,
      "درام": 6974,
      "سرباز": 6975,
      "مطلوب": 6976,
      "خطرناک": 6977,
      "اربعین": 6978,
      "##خور": 6979,
      "##لان": 6980,
      "##ردگی": 6981,
      "##وسف": 6982,
      "داشتیم": 6983,
      "مهمان": 6984,
      "شریف": 6985,
      "جناب": 6986,
      "بالاترین": 6987,
      "##ies": 6988,
      "خوشم": 6989,
      "پارسی": 6990,
      "پیامک": 6991,
      "نده": 6992,
      "نوک": 6993,
      "##راتور": 6994,
      "admin": 6995,
      "مایکروسافت": 6996,
      "or": 6997,
      "قیم": 6998,
      "پولی": 6999,
      "##سیر": 7000,
      "مباح": 7001,
      "سرمایه‌گذاری": 7002,
      "تابلو": 7003,
      "شری": 7004,
      "##اطع": 7005,
      "اسب": 7006,
      "معادل": 7007,
      "دغد": 7008,
      "فری": 7009,
      "##لیف": 7010,
      "##وردی": 7011,
      "خاور": 7012,
      "##ss": 7013,
      "##ایست": 7014,
      "امدن": 7015,
      "غیرم": 7016,
      "مخاطب": 7017,
      "ناپ": 7018,
      "##عمل": 7019,
      "بهم": 7020,
      "جستجوی": 7021,
      "زهرا": 7022,
      "سال‌ها": 7023,
      "همراهی": 7024,
      "پارل": 7025,
      "##فونت": 7026,
      "بایگانی": 7027,
      "ربات": 7028,
      "##۴۴": 7029,
      "می‌اورد": 7030,
      "##مانده": 7031,
      "سیگار": 7032,
      "گیگابایت": 7033,
      "کامی": 7034,
      "بابت": 7035,
      "اسکن": 7036,
      "قطعی": 7037,
      "جواه": 7038,
      "پیرامون": 7039,
      "شاخ": 7040,
      "ژن": 7041,
      "##دهمین": 7042,
      "کارگر": 7043,
      "##رسان": 7044,
      "شورا": 7045,
      "حوزه‌های": 7046,
      "چت": 7047,
      "##oh": 7048,
      "برگز": 7049,
      "##رافیکی": 7050,
      "پلی‌": 7051,
      "کاشت": 7052,
      "درحال": 7053,
      "۲۰۱۰": 7054,
      "##فاعی": 7055,
      "احتمالی": 7056,
      "##پل": 7057,
      "مشا": 7058,
      "۱۰۰۰": 7059,
      "پکیج": 7060,
      "AM": 7061,
      "سایت‌های": 7062,
      "فکری": 7063,
      "میخو": 7064,
      "برقرار": 7065,
      "##خرید": 7066,
      "تالار": 7067,
      "قاي": 7068,
      "پلت": 7069,
      "##مايید": 7070,
      "هیجان": 7071,
      "یک‌بار": 7072,
      "میش": 7073,
      "##ایز": 7074,
      "متناسب": 7075,
      "عملیاتی": 7076,
      "تراکتور": 7077,
      "الکتریکی": 7078,
      "جغ": 7079,
      "رسول": 7080,
      "ابزارهای": 7081,
      "بعنوان": 7082,
      "محتوا": 7083,
      "Tr": 7084,
      "##ER": 7085,
      "خورشید": 7086,
      "##بتی": 7087,
      "کارکرد": 7088,
      "مدافع": 7089,
      "حرارت": 7090,
      "زلزله": 7091,
      "عفونت": 7092,
      "پروانه": 7093,
      "نهم": 7094,
      "میانگین": 7095,
      "استخدامی": 7096,
      "تفریحی": 7097,
      "رها": 7098,
      "##ain": 7099,
      "می‌دانید": 7100,
      "کنسرت": 7101,
      "اوقات": 7102,
      "۸۷": 7103,
      "اسات": 7104,
      "دلم": 7105,
      "شناخته": 7106,
      "جلوی": 7107,
      "احمدی‌نژاد": 7108,
      "##۳۶": 7109,
      "می‎": 7110,
      "نمی‌دان": 7111,
      "باط": 7112,
      "تمدید": 7113,
      "چهل": 7114,
      "ایمان": 7115,
      "پنهان": 7116,
      "فوری": 7117,
      "دکمه": 7118,
      "حافظ": 7119,
      "##دود": 7120,
      "برود": 7121,
      "استی": 7122,
      "ورژن": 7123,
      "نفره": 7124,
      "نیمه‌": 7125,
      "##‌ساز": 7126,
      "##ook": 7127,
      "##‌فارس": 7128,
      "خلیج‌فارس": 7129,
      "شام": 7130,
      "ذخیر": 7131,
      "##طفی": 7132,
      "##af": 7133,
      "ارم": 7134,
      "الوم": 7135,
      "دادگ": 7136,
      "##ary": 7137,
      "اردو": 7138,
      "معنوی": 7139,
      "قول": 7140,
      "عمرانی": 7141,
      "کاخ": 7142,
      "بتوانیم": 7143,
      "تازگی": 7144,
      "برف": 7145,
      "روزنام": 7146,
      "##ell": 7147,
      "##حسین": 7148,
      "الگو": 7149,
      "تلویزیونی": 7150,
      "توجیهی": 7151,
      "ذوب": 7152,
      "نادر": 7153,
      "##دیده": 7154,
      "##وریسم": 7155,
      "##اکتور": 7156,
      "ريیس‌جمهوری": 7157,
      "فراوانی": 7158,
      "برجسته": 7159,
      "متقاضیان": 7160,
      "راد": 7161,
      "بررس": 7162,
      "##ذکر": 7163,
      "##پوز": 7164,
      "##ON": 7165,
      "دربار": 7166,
      "تاپ": 7167,
      "ایثار": 7168,
      "مرتضی": 7169,
      "##line": 7170,
      "##gle": 7171,
      "بیوگرافی": 7172,
      "اخلاقی": 7173,
      "نقره": 7174,
      "مرورگر": 7175,
      "مهاجرت": 7176,
      "##ولین": 7177,
      "تدا": 7178,
      "فرک": 7179,
      "کنی": 7180,
      "دستگیر": 7181,
      "داوطلبان": 7182,
      "چا": 7183,
      "مدال": 7184,
      "##کاران": 7185,
      "مگر": 7186,
      "چوبی": 7187,
      "##فاده": 7188,
      "##ix": 7189,
      "فو": 7190,
      "وف": 7191,
      "##ED": 7192,
      "موز": 7193,
      "سمنان": 7194,
      "بیانیه": 7195,
      "اوب": 7196,
      "دیدنی": 7197,
      "تلفنی": 7198,
      "هادی": 7199,
      "درگذشت": 7200,
      "برش": 7201,
      "استان‌های": 7202,
      "ارومیه": 7203,
      "هواوی": 7204,
      "تمرینات": 7205,
      "بیل": 7206,
      "۸۴": 7207,
      "نخست‌وزیر": 7208,
      "حیات": 7209,
      "استرالیا": 7210,
      "##ی‌ف": 7211,
      "##یتا": 7212,
      "##کلن": 7213,
      "کارافرینی": 7214,
      "دما": 7215,
      "##اشق": 7216,
      "ارتقای": 7217,
      "##ree": 7218,
      "مکمل": 7219,
      "ویژه‌ای": 7220,
      "رییس‌جمهور": 7221,
      "اتومبیل": 7222,
      "دادگستری": 7223,
      "ژوي": 7224,
      "##۳۲": 7225,
      "راز": 7226,
      "تروی": 7227,
      "اندیشه": 7228,
      "نهادهای": 7229,
      "ایلام": 7230,
      "عروسی": 7231,
      "خویش": 7232,
      "زای": 7233,
      "##فران": 7234,
      "بنویس": 7235,
      "هرمزگان": 7236,
      "بپرداز": 7237,
      "اعتباری": 7238,
      "##رهای": 7239,
      "##قیقی": 7240,
      "ساعات": 7241,
      "تنهایی": 7242,
      "یخچال": 7243,
      "##کوه": 7244,
      "به‌عنوان": 7245,
      "بص": 7246,
      "بگذ": 7247,
      "جور": 7248,
      "قرانی": 7249,
      "هزاره": 7250,
      "مانده": 7251,
      "مرم": 7252,
      "##فس": 7253,
      "##ark": 7254,
      "اساتید": 7255,
      "##ویز": 7256,
      "شعبه": 7257,
      "اقایان": 7258,
      "مراجع": 7259,
      "له": 7260,
      "##فیه": 7261,
      "استانه": 7262,
      "همد": 7263,
      "##ومیت": 7264,
      "افتاده": 7265,
      "ریسک": 7266,
      "گنج": 7267,
      "قبلا": 7268,
      "##ame": 7269,
      "می‌دانند": 7270,
      "content": 7271,
      "سار": 7272,
      "##خره": 7273,
      "همه‌ی": 7274,
      "سفیر": 7275,
      "ایلنا": 7276,
      "فاضلاب": 7277,
      "##نه‌ای": 7278,
      "نمی‌ده": 7279,
      "چندان": 7280,
      "افزوده": 7281,
      "استفاده‌شده": 7282,
      "کلا": 7283,
      "##راحت": 7284,
      "تنش": 7285,
      "مورخ": 7286,
      "سراغ": 7287,
      "رام": 7288,
      "کارها": 7289,
      "##قیب": 7290,
      "سینه": 7291,
      "ماسک": 7292,
      "##۷۲": 7293,
      "##فاقی": 7294,
      "ناد": 7295,
      "##ایات": 7296,
      "فراوان": 7297,
      "نوشتن": 7298,
      "خوراک": 7299,
      "رفاه": 7300,
      "حاکم": 7301,
      "موقت": 7302,
      "بارها": 7303,
      "##سلمین": 7304,
      "سلیمانی": 7305,
      "تحریم‌ها": 7306,
      "##ext": 7307,
      "بهینه‌سازی": 7308,
      "گذار": 7309,
      "حین": 7310,
      "دای": 7311,
      "فلسطین": 7312,
      "ریم": 7313,
      "ضمانت": 7314,
      "گندم": 7315,
      "##ie": 7316,
      "##AN": 7317,
      "مواف": 7318,
      "گرایش": 7319,
      "موسوی": 7320,
      "قیمتی": 7321,
      "مری": 7322,
      "هارد": 7323,
      "##خصی": 7324,
      "چراکه": 7325,
      "هیيت‌": 7326,
      "عمیق": 7327,
      "نرس": 7328,
      "ماست": 7329,
      "خم": 7330,
      "قند": 7331,
      "هنرمند": 7332,
      "##‌دار": 7333,
      "گزارشی": 7334,
      "GB": 7335,
      "ph": 7336,
      "ترف": 7337,
      "##اذ": 7338,
      "میکنه": 7339,
      "ابرو": 7340,
      "مصر": 7341,
      "##اموزش": 7342,
      "پاری": 7343,
      "۸۰۰": 7344,
      "##ابری": 7345,
      "توانمند": 7346,
      "هفتم": 7347,
      "خواننده": 7348,
      "رقابت‌های": 7349,
      "چنانچه": 7350,
      "وات": 7351,
      "##۷۴": 7352,
      "عوض": 7353,
      "ایستگاه": 7354,
      "اتمام": 7355,
      "تگ": 7356,
      "حامد": 7357,
      "##اع": 7358,
      "##کنی": 7359,
      "##نیوز": 7360,
      "جاوا": 7361,
      "##able": 7362,
      "ویزیت": 7363,
      "ar": 7364,
      "##جز": 7365,
      "##ارتی": 7366,
      "سالی": 7367,
      "بدنی": 7368,
      "تجزیه": 7369,
      "غیره": 7370,
      "##‌زاده": 7371,
      "جلد": 7372,
      "هایش": 7373,
      "##ینو": 7374,
      "##مانه": 7375,
      "کارایی": 7376,
      "پرده": 7377,
      "موی": 7378,
      "انال": 7379,
      "یافتن": 7380,
      "صادقی": 7381,
      "صهیونیستی": 7382,
      "wp": 7383,
      "##AM": 7384,
      "کنون": 7385,
      "اندیش": 7386,
      "ترکیبی": 7387,
      "موافقت": 7388,
      "download": 7389,
      "مید": 7390,
      "۷۲": 7391,
      "دارا": 7392,
      "تحمل": 7393,
      "تصفیه": 7394,
      "اسلاید": 7395,
      "پاش": 7396,
      "##ous": 7397,
      "سانتی‌": 7398,
      "فهم": 7399,
      "درستی": 7400,
      "استانبول": 7401,
      "انتخاباتی": 7402,
      "ماجرای": 7403,
      "محافظت": 7404,
      "جنبش": 7405,
      "دیز": 7406,
      "انس": 7407,
      "فرمايید": 7408,
      "##عباس": 7409,
      "##man": 7410,
      "بخار": 7411,
      "##ress": 7412,
      "کارد": 7413,
      "متصل": 7414,
      "##OO": 7415,
      "زیرساخت": 7416,
      "توانسته": 7417,
      "غی": 7418,
      "##غم": 7419,
      "متعدد": 7420,
      "ناش": 7421,
      "داروهای": 7422,
      "ویلا": 7423,
      "برم": 7424,
      "فرانس": 7425,
      "اندام": 7426,
      "ندارم": 7427,
      "هشتم": 7428,
      "سپاهان": 7429,
      "On": 7430,
      "##فو": 7431,
      "اتفاقی": 7432,
      "خوشبخت": 7433,
      "برده": 7434,
      "دریاچه": 7435,
      "مخاطبان": 7436,
      "Ph": 7437,
      "تقل": 7438,
      "نگین": 7439,
      "احسان": 7440,
      "مسلمانان": 7441,
      "هرچند": 7442,
      "خسته": 7443,
      "طلاق": 7444,
      "##ایلی": 7445,
      "بخاطر": 7446,
      "خز": 7447,
      "۷۰۰": 7448,
      "می‌زن": 7449,
      "توقف": 7450,
      "USB": 7451,
      "هکت": 7452,
      "۸۹": 7453,
      "انز": 7454,
      "کتاب‌های": 7455,
      "دموکر": 7456,
      "پالایش": 7457,
      "مباحث": 7458,
      "ترفند": 7459,
      "زین": 7460,
      "##bo": 7461,
      "اخیرا": 7462,
      "##her": 7463,
      "##ینتر": 7464,
      "اسما": 7465,
      "زمستان": 7466,
      "بازرسی": 7467,
      "نزدیکی": 7468,
      "قهرمانان": 7469,
      "همسرش": 7470,
      "کربن": 7471,
      "##‌اح": 7472,
      "کلم": 7473,
      "محیطی": 7474,
      "##خانه‌ها": 7475,
      "مالزی": 7476,
      "پشتی": 7477,
      "ترویج": 7478,
      "استارت": 7479,
      "گرفتند": 7480,
      "کاندید": 7481,
      "یارانه": 7482,
      "مخروطی": 7483,
      "انتهای": 7484,
      "مصالح": 7485,
      "ریخت": 7486,
      "نتیج": 7487,
      "ریشه": 7488,
      "##طوب": 7489,
      "ایند": 7490,
      "##ه‌س": 7491,
      "##ی‌هایی": 7492,
      "بدهد": 7493,
      "اي": 7494,
      "سونی": 7495,
      "هرک": 7496,
      "##۷۶": 7497,
      "##غیر": 7498,
      "##۳۳": 7499,
      "یکبار": 7500,
      "##‌سنگ": 7501,
      "نگهبان": 7502,
      "دقیقا": 7503,
      "Ex": 7504,
      "رده": 7505,
      "##df": 7506,
      "بهتری": 7507,
      "می‌روند": 7508,
      "اتوبوس": 7509,
      "##ودرو": 7510,
      "##کم": 7511,
      "##خواب": 7512,
      "تشوی": 7513,
      "اثرات": 7514,
      "اتهام": 7515,
      "ساماندهی": 7516,
      "##ردی": 7517,
      "محروم": 7518,
      "نوسان": 7519,
      "شیعه": 7520,
      "##سازان": 7521,
      "Man": 7522,
      "صعود": 7523,
      "##متی": 7524,
      "کشیده": 7525,
      "مشکلاتی": 7526,
      "لینکها": 7527,
      "الومینی": 7528,
      "پلاک": 7529,
      "##ink": 7530,
      "واریز": 7531,
      "کشیدن": 7532,
      "##اموزی": 7533,
      "المانی": 7534,
      "نداره": 7535,
      "شویم": 7536,
      "اگهی‌های": 7537,
      "فرمود": 7538,
      "می‌خواهند": 7539,
      "زندگ": 7540,
      "بیکاری": 7541,
      "۶۲": 7542,
      "درگیری": 7543,
      "استراتژیک": 7544,
      "ماجرا": 7545,
      "طالبان": 7546,
      "with": 7547,
      "خلاف": 7548,
      "وم": 7549,
      "انبار": 7550,
      "سایه": 7551,
      "بمب": 7552,
      "##تین": 7553,
      "سیستان": 7554,
      "اختل": 7555,
      "تنظیمات": 7556,
      "سلول‌های": 7557,
      "هلال‌اح": 7558,
      "نود": 7559,
      "اینها": 7560,
      "فارغ": 7561,
      "لوکس": 7562,
      "پرسشنامه": 7563,
      "بچه‌ها": 7564,
      "هلال‌احمر": 7565,
      "##ok": 7566,
      "##زیستی": 7567,
      "##بیا": 7568,
      "بختی": 7569,
      "شاع": 7570,
      "شرک": 7571,
      "گازی": 7572,
      "##oft": 7573,
      "##یکر": 7574,
      "نمی‌کن": 7575,
      "خانوار": 7576,
      "سپت": 7577,
      "##‌مرغ": 7578,
      "##ign": 7579,
      "##اختی": 7580,
      "عز": 7581,
      "فاکتور": 7582,
      "داي": 7583,
      "خانوادگی": 7584,
      "فیزیک": 7585,
      "تخم‌مرغ": 7586,
      "رج": 7587,
      "عظیم": 7588,
      "کات": 7589,
      "##ld": 7590,
      "اینگونه": 7591,
      "##act": 7592,
      "قلعه": 7593,
      "##aj": 7594,
      "##قام": 7595,
      "می‌گفت": 7596,
      "دیابت": 7597,
      "رایج": 7598,
      "مخالفت": 7599,
      "Music": 7600,
      "قرص": 7601,
      "گردشگران": 7602,
      "عبدالله": 7603,
      "واک": 7604,
      "کرو": 7605,
      "هماهنگ": 7606,
      "اسباب": 7607,
      "اعضا": 7608,
      "انگل": 7609,
      "خاطرات": 7610,
      "کیس": 7611,
      "کپی": 7612,
      "##اقد": 7613,
      "##ars": 7614,
      "وضع": 7615,
      "تصمیم‌گیری": 7616,
      "پویا": 7617,
      "##استفاده": 7618,
      "سایپا": 7619,
      "ارزشمند": 7620,
      "صلاحیت": 7621,
      "زع": 7622,
      "ولت": 7623,
      "ارمان": 7624,
      "نشانی": 7625,
      "حجاب": 7626,
      "لطف": 7627,
      "حساسیت": 7628,
      "ید": 7629,
      "##خاص": 7630,
      "##یدگی": 7631,
      "تعبیر": 7632,
      "##اپی": 7633,
      "زمینی": 7634,
      "پردیس": 7635,
      "مدیریتی": 7636,
      "ماموران": 7637,
      "ناخن": 7638,
      "تقاضا": 7639,
      "تسل": 7640,
      "لاک": 7641,
      "##خشی": 7642,
      "برزی": 7643,
      "برگرد": 7644,
      "۲۵۰": 7645,
      "دونالد": 7646,
      "ون": 7647,
      "##ذار": 7648,
      "##ong": 7649,
      "زمینه‌های": 7650,
      "ازمایشگاه": 7651,
      "تروریست": 7652,
      "سپتامبر": 7653,
      "بوت": 7654,
      "تبی": 7655,
      "جاس": 7656,
      "مصرفی": 7657,
      "##ish": 7658,
      "##ضیه": 7659,
      "مشرو": 7660,
      "۱۲۸": 7661,
      "تکلیف": 7662,
      "##انسور": 7663,
      "علمیه": 7664,
      "کلینیک": 7665,
      "جوی": 7666,
      "ایف": 7667,
      "رساند": 7668,
      "مصطفی": 7669,
      "معمول": 7670,
      "دستورال": 7671,
      "می‌زند": 7672,
      "بوک": 7673,
      "ناک": 7674,
      "مسافران": 7675,
      "upload": 7676,
      "مود": 7677,
      "دهی": 7678,
      "اهنگ‌های": 7679,
      "سح": 7680,
      "کاس": 7681,
      "تاخیر": 7682,
      "عمودی": 7683,
      "منتخ": 7684,
      "ظاهری": 7685,
      "مگابایت": 7686,
      "مشاغل": 7687,
      "قارچ": 7688,
      "لاست": 7689,
      "۶۸": 7690,
      "ترجی": 7691,
      "ظرفیت‌های": 7692,
      "ریش": 7693,
      "کس": 7694,
      "##باشد": 7695,
      "بریت": 7696,
      "تولیدات": 7697,
      "دیدم": 7698,
      "میتوان": 7699,
      "واسه": 7700,
      "##هری": 7701,
      "فیر": 7702,
      "کوب": 7703,
      "##اهو": 7704,
      "مرات": 7705,
      "گرجستان": 7706,
      "۱۳۸۸": 7707,
      "##ction": 7708,
      "post": 7709,
      "مقصد": 7710,
      "اسپانیا": 7711,
      "ریزش": 7712,
      "تردد": 7713,
      "خشون": 7714,
      "##ef": 7715,
      "می‌خوان": 7716,
      "احتی": 7717,
      "بدهید": 7718,
      "##یدانلود": 7719,
      "ویزای": 7720,
      "بومی": 7721,
      "درخ": 7722,
      "##ابتی": 7723,
      "۷۴": 7724,
      "##التی": 7725,
      "اگرچه": 7726,
      "##ound": 7727,
      "قفل": 7728,
      "چاه": 7729,
      "بادی": 7730,
      "##الز": 7731,
      "وص": 7732,
      "دامپ": 7733,
      "فاقد": 7734,
      "یاران": 7735,
      "۶۶": 7736,
      "##ناس": 7737,
      "##ستند": 7738,
      "##یتون": 7739,
      "خراب": 7740,
      "مصوبه": 7741,
      "##قابل": 7742,
      "معنا": 7743,
      "حلقه": 7744,
      "خاموش": 7745,
      "##ازن": 7746,
      "خودداری": 7747,
      "الزام": 7748,
      "چشم‌": 7749,
      "امارات": 7750,
      "مناقصه‌های": 7751,
      "قابل‌توجه": 7752,
      "دود": 7753,
      "سرنوشت": 7754,
      "داشته‌اند": 7755,
      "بله": 7756,
      "رول": 7757,
      "قو": 7758,
      "##ثری": 7759,
      "همون": 7760,
      "نوامبر": 7761,
      "بخور": 7762,
      "دستگاه‌ها": 7763,
      "مکانیک": 7764,
      "می‌گذارد": 7765,
      "##نما": 7766,
      "می‌افتد": 7767,
      "دبی": 7768,
      "نمایشگر": 7769,
      "انگیزه": 7770,
      "##میلیون": 7771,
      "خاورمی": 7772,
      "استعداد": 7773,
      "معده": 7774,
      "استانداری": 7775,
      "##oogle": 7776,
      "##‌زده": 7777,
      "بلوچ": 7778,
      "##gh": 7779,
      "خواسته": 7780,
      "خشونت": 7781,
      "اکان": 7782,
      "مایع": 7783,
      "متولد": 7784,
      "۲۰۰۰": 7785,
      "##یسم": 7786,
      "اتو": 7787,
      "تعاون": 7788,
      "مارس": 7789,
      "هکتار": 7790,
      "متم": 7791,
      "می‌داند": 7792,
      "زغال‌سنگ": 7793,
      "##جه‌": 7794,
      "##rom": 7795,
      "بارسل": 7796,
      "خامنه‌ای": 7797,
      "میاد": 7798,
      "اعلام‌شده": 7799,
      "امکان‌پذیر": 7800,
      "فرکانس": 7801,
      "ویل": 7802,
      "##جاست": 7803,
      "##طو": 7804,
      "صحن": 7805,
      "قاسم": 7806,
      "##‌نش": 7807,
      "مرزی": 7808,
      "اهک": 7809,
      "تجدید": 7810,
      "پیروز": 7811,
      "اتفاقات": 7812,
      "رزرو": 7813,
      "فض": 7814,
      "##ناز": 7815,
      "##سالی": 7816,
      "##سنج": 7817,
      "بوده‌اند": 7818,
      "کمال": 7819,
      "شهرها": 7820,
      "رضایی": 7821,
      "##‌کم": 7822,
      "زایمان": 7823,
      "مهران": 7824,
      "##افل": 7825,
      "مرطوب": 7826,
      "کوین": 7827,
      "جزوه": 7828,
      "این‌گونه": 7829,
      "اوباما": 7830,
      "##cc": 7831,
      "درسی": 7832,
      "نمی‌کنند": 7833,
      "قايم": 7834,
      "بور": 7835,
      "پسند": 7836,
      "سازمان‌های": 7837,
      "دفترچه": 7838,
      "شیشه‌ای": 7839,
      "ظه": 7840,
      "##شایی": 7841,
      "بره": 7842,
      "انتشارات": 7843,
      "مربع": 7844,
      "برقراری": 7845,
      "پروتيین": 7846,
      "زبال": 7847,
      "۳۲۰": 7848,
      "##له‌ای": 7849,
      "##۷۹": 7850,
      "مجری": 7851,
      "قطار": 7852,
      "رنگ‌های": 7853,
      "دعا": 7854,
      "کلاسیک": 7855,
      "متعددی": 7856,
      "بهزیستی": 7857,
      "بردار": 7858,
      "اسامی": 7859,
      "ترانه": 7860,
      "۱۱۰": 7861,
      "##ace": 7862,
      "اشکال": 7863,
      "زودتر": 7864,
      "at": 7865,
      "##اسمی": 7866,
      "##وانه": 7867,
      "طرفداران": 7868,
      "علاقه‌": 7869,
      "حامی": 7870,
      "دانشجوی": 7871,
      "نشانه": 7872,
      "۹۰۰": 7873,
      "خواهان": 7874,
      "مسلمان": 7875,
      "فلسفه": 7876,
      "نوشیدن": 7877,
      "uploads": 7878,
      "Pre": 7879,
      "بماند": 7880,
      "شایع": 7881,
      "۷۸": 7882,
      "##وتو": 7883,
      "For": 7884,
      "یاب": 7885,
      "سوار": 7886,
      "تجمع": 7887,
      "راننده": 7888,
      "اکانت": 7889,
      "تیز": 7890,
      "لم": 7891,
      "##تس": 7892,
      "فروشنده": 7893,
      "استخر": 7894,
      "مجازات": 7895,
      "پاریس": 7896,
      "دستورالعمل": 7897,
      "خاورمیانه": 7898,
      "لاری": 7899,
      "استح": 7900,
      "##شید": 7901,
      "فرید": 7902,
      "جنگل": 7903,
      "Sc": 7904,
      "دستم": 7905,
      "عناصر": 7906,
      "ژوين": 7907,
      "بنگ": 7908,
      "ضبط": 7909,
      "احمدی": 7910,
      "گاه": 7911,
      "قیمت‌ها": 7912,
      "تخلیه": 7913,
      "شوهر": 7914,
      "مجموعه‌ای": 7915,
      "دستگیری": 7916,
      "یک‌میلیون": 7917,
      "متخصصان": 7918,
      "دی‌ماه": 7919,
      "شاپ": 7920,
      "لیتر": 7921,
      "##مار": 7922,
      "##AR": 7923,
      "توصی": 7924,
      "ان‌که": 7925,
      "برانکو": 7926,
      "خدای": 7927,
      "دفاعی": 7928,
      "##IN": 7929,
      "نیوی": 7930,
      "استان‌ها": 7931,
      "میزبانی": 7932,
      "تفاهم": 7933,
      "دشوار": 7934,
      "سکوت": 7935,
      "اواخر": 7936,
      "کشید": 7937,
      "##ech": 7938,
      "##اشناسی": 7939,
      "Gal": 7940,
      "##کیک": 7941,
      "۱۳۵": 7942,
      "فرس": 7943,
      "اماکن": 7944,
      "پرینتر": 7945,
      "##‌امیز": 7946,
      "ژانویه": 7947,
      "سبزیجات": 7948,
      "ادارات": 7949,
      "دلخواه": 7950,
      "خطی": 7951,
      "می‌خواهیم": 7952,
      "تعطیلات": 7953,
      "##axy": 7954,
      "لاغری": 7955,
      "خوشبختانه": 7956,
      "AF": 7957,
      "طعم": 7958,
      "چاق": 7959,
      "##گا": 7960,
      "##نده‌های": 7961,
      "##یتور": 7962,
      "##سیل": 7963,
      "تلخ": 7964,
      "می‌سازد": 7965,
      "ذیل": 7966,
      "پات": 7967,
      "داده‌های": 7968,
      "مخزن": 7969,
      "##‌بخش": 7970,
      "قابلیت‌های": 7971,
      "بام": 7972,
      "بگوی": 7973,
      "نبرد": 7974,
      "##کین": 7975,
      "##ug": 7976,
      "##qu": 7977,
      "براورد": 7978,
      "اماد": 7979,
      "محله": 7980,
      "پرداخته": 7981,
      "مارک": 7982,
      "مارکت": 7983,
      "اسیب‌های": 7984,
      "تحولات": 7985,
      "گرام": 7986,
      "گرفته‌اند": 7987,
      "ستون": 7988,
      "خنک": 7989,
      "##ae": 7990,
      "عضلات": 7991,
      "دامن": 7992,
      "مامور": 7993,
      "کنسول": 7994,
      "بختیاری": 7995,
      "حضوری": 7996,
      "##ave": 7997,
      "Con": 7998,
      "##شوی": 7999,
      "باخت": 8000,
      "مقال": 8001,
      "بتوانید": 8002,
      "تسهیل": 8003,
      "لندن": 8004,
      "##افز": 8005,
      "باشم": 8006,
      "اولی": 8007,
      "پیاز": 8008,
      "بی‌نظ": 8009,
      "گواه": 8010,
      "پذیرفت": 8011,
      "مطبوعات": 8012,
      "مستمر": 8013,
      "جغرافی": 8014,
      "ارک": 8015,
      "##اتل": 8016,
      "##ویچ": 8017,
      "محوط": 8018,
      "مدنی": 8019,
      "##۳۹": 8020,
      "مواق": 8021,
      "##برگ": 8022,
      "سوپ": 8023,
      "مخفی": 8024,
      "خانم‌ها": 8025,
      "ماموریت": 8026,
      "دستیابی": 8027,
      "افسردگی": 8028,
      "می‌برند": 8029,
      "ترجیح": 8030,
      "مکت": 8031,
      "دیسک": 8032,
      "##ory": 8033,
      "##پردازند": 8034,
      "خانواده‌های": 8035,
      "##‌قول": 8036,
      "Pl": 8037,
      "##obile": 8038,
      "عادت": 8039,
      "قبال": 8040,
      "##اتون": 8041,
      "نقل‌قول": 8042,
      "لیوان": 8043,
      "سلط": 8044,
      "اسپرت": 8045,
      "تسلیت": 8046,
      "گچ": 8047,
      "خریدار": 8048,
      "۱۹۸": 8049,
      "ویدي": 8050,
      "جاذبه‌های": 8051,
      "چارچ": 8052,
      "##وزه": 8053,
      "الگ": 8054,
      "اوایل": 8055,
      "##شکل": 8056,
      "فواید": 8057,
      "تشویق": 8058,
      "##وات": 8059,
      "##جت": 8060,
      "##۴۵": 8061,
      "##پک": 8062,
      "دانشمندان": 8063,
      "ترش": 8064,
      "دلاری": 8065,
      "رایانه": 8066,
      "کره‌ای": 8067,
      "بخواه": 8068,
      "pdf": 8069,
      "کلام": 8070,
      "استراحت": 8071,
      "دوچرخ": 8072,
      "اهالی": 8073,
      "برنامه‌ها": 8074,
      "ناگه": 8075,
      "پلاستیکی": 8076,
      "علامت": 8077,
      "واشنگ": 8078,
      "عرف": 8079,
      "تولیدکنندگان": 8080,
      "ظهور": 8081,
      "وین": 8082,
      "دارایی": 8083,
      "بستگی": 8084,
      "شبان": 8085,
      "عس": 8086,
      "پرف": 8087,
      "##ek": 8088,
      "رویت": 8089,
      "##نیا": 8090,
      "حریف": 8091,
      "یاری": 8092,
      "راس": 8093,
      "اسکری": 8094,
      "معلمان": 8095,
      "صبر": 8096,
      "اتحاد": 8097,
      "واشنگتن": 8098,
      "قاشق": 8099,
      "نیش": 8100,
      "اتخ": 8101,
      "منطقی": 8102,
      "حقیقی": 8103,
      "موان": 8104,
      "##ork": 8105,
      "فناور": 8106,
      "اکتبر": 8107,
      "نیویورک": 8108,
      "##news": 8109,
      "ارایشی": 8110,
      "سرانجام": 8111,
      "##جینال": 8112,
      "##بندی": 8113,
      "##ase": 8114,
      "ادعای": 8115,
      "خلاقیت": 8116,
      "Cl": 8117,
      "ناصر": 8118,
      "کوش": 8119,
      "برون": 8120,
      "گسترد": 8121,
      "ادعا": 8122,
      "تقاضای": 8123,
      "بارسلونا": 8124,
      "بغ": 8125,
      "ظروف": 8126,
      "شدیم": 8127,
      "خدماتی": 8128,
      "معاملاتی": 8129,
      "پاییز": 8130,
      "##ازل": 8131,
      "ساکن": 8132,
      "میه": 8133,
      "میو": 8134,
      "##ari": 8135,
      "تعادل": 8136,
      "مبنای": 8137,
      "سنسور": 8138,
      "بول": 8139,
      "کردی": 8140,
      "متفاوتی": 8141,
      "##لاس": 8142,
      "##جاع": 8143,
      "متحد": 8144,
      "فرهاد": 8145,
      "تایل": 8146,
      "##لیق": 8147,
      "کردید": 8148,
      "##احمد": 8149,
      "عبارتند": 8150,
      "کاشان": 8151,
      "ارتقاء": 8152,
      "##بیت": 8153,
      "##ES": 8154,
      "محرو": 8155,
      "عمق": 8156,
      "هزاران": 8157,
      "##‌افزار": 8158,
      "مفاهیم": 8159,
      "##ult": 8160,
      "رتب": 8161,
      "زايران": 8162,
      "بلوچستان": 8163,
      "شانس": 8164,
      "خودمان": 8165,
      "مشکی": 8166,
      "ابری": 8167,
      "اشخاص": 8168,
      "تقد": 8169,
      "شیو": 8170,
      "تشدید": 8171,
      "راه‌اهن": 8172,
      "اشپزی": 8173,
      "اتخاذ": 8174,
      "بساز": 8175,
      "خمیر": 8176,
      "##‎های": 8177,
      "##انلاین": 8178,
      "باکس": 8179,
      "##ه‌روی": 8180,
      "اعم": 8181,
      "نرم‌افزاری": 8182,
      "##ower": 8183,
      "واسطه": 8184,
      "تروریسم": 8185,
      "کیفی": 8186,
      "مهارت‌های": 8187,
      "شلوار": 8188,
      "اسکریپت": 8189,
      "اراک": 8190,
      "ثبات": 8191,
      "فیش": 8192,
      "##ولوژ": 8193,
      "خورشیدی": 8194,
      "amp": 8195,
      "اعد": 8196,
      "##نایی": 8197,
      "معی": 8198,
      "چهارمین": 8199,
      "دانش‌اموزان": 8200,
      "ذخیره‌سازی": 8201,
      "##امع": 8202,
      "بروید": 8203,
      "می‌خورد": 8204,
      "علل": 8205,
      "اردوی": 8206,
      "قهوه‌ای": 8207,
      "طیف": 8208,
      "گز": 8209,
      "##نل": 8210,
      "##‌اور": 8211,
      "روحی": 8212,
      "معیار": 8213,
      "افزون": 8214,
      "داور": 8215,
      "تجرب": 8216,
      "جنایت": 8217,
      "پاسداران": 8218,
      "مرحوم": 8219,
      "تماشای": 8220,
      "an": 8221,
      "شوم": 8222,
      "##ظمی": 8223,
      "##یما": 8224,
      "مشم": 8225,
      "موضوعی": 8226,
      "عقد": 8227,
      "جر": 8228,
      "عالم": 8229,
      "غنی": 8230,
      "گری": 8231,
      "##‌اهن": 8232,
      "صنفی": 8233,
      "##خواهی": 8234,
      "مطالبات": 8235,
      "هواپیمای": 8236,
      "وکالت": 8237,
      "چارچوب": 8238,
      "شادی": 8239,
      "طرفی": 8240,
      "##گزار": 8241,
      "##عار": 8242,
      "##pl": 8243,
      "##ck": 8244,
      "مقداری": 8245,
      "ایالت": 8246,
      "تبادل": 8247,
      "به‌طور": 8248,
      "شیرینی": 8249,
      "##low": 8250,
      "فراخوان": 8251,
      "رودخانه": 8252,
      "منتخب": 8253,
      "قش": 8254,
      "##طبی": 8255,
      "نما": 8256,
      "##گردی": 8257,
      "فراوری": 8258,
      "ولی‌ف": 8259,
      "اصلاحات": 8260,
      "مقرر": 8261,
      "ولی‌فقیه": 8262,
      "be": 8263,
      "عایق": 8264,
      "##وخت": 8265,
      "محض": 8266,
      "می‌بایست": 8267,
      "هواشناسی": 8268,
      "تفسیر": 8269,
      "سلف": 8270,
      "لک": 8271,
      "##چر": 8272,
      "سیگن": 8273,
      "بزرگ‌ترین": 8274,
      "عصبی": 8275,
      "##SI": 8276,
      "کولر": 8277,
      "خوشمزه": 8278,
      "بی‌نظیر": 8279,
      "##جن": 8280,
      "درخش": 8281,
      "سالهای": 8282,
      "اقس": 8283,
      "نظریه": 8284,
      "شنید": 8285,
      "##‌شان": 8286,
      "سپرده": 8287,
      "دریای": 8288,
      "معلوم": 8289,
      "Ed": 8290,
      "تار": 8291,
      "تزی": 8292,
      "##۹۲": 8293,
      "##گرفته": 8294,
      "سرما": 8295,
      "بزرگسال": 8296,
      "کودکی": 8297,
      "تاثیرگذار": 8298,
      "مخابرات": 8299,
      "PC": 8300,
      "پری": 8301,
      "##گی‌ها": 8302,
      "##DF": 8303,
      "##پد": 8304,
      "##الحی": 8305,
      "##یمتر": 8306,
      "ایراد": 8307,
      "اتمی": 8308,
      "مدیره": 8309,
      "پره": 8310,
      "ريال": 8311,
      "بروزرسانی": 8312,
      "افزارهای": 8313,
      "کارگروه": 8314,
      "ch": 8315,
      "ضخ": 8316,
      "درخصوص": 8317,
      "##ه‌ساز": 8318,
      "##ick": 8319,
      "دندانپ": 8320,
      "بلیت": 8321,
      "چار": 8322,
      "##۹۶": 8323,
      "امپ": 8324,
      "میخ": 8325,
      "##کوپ": 8326,
      "دبیرستان": 8327,
      "ذهنی": 8328,
      "ادکلن": 8329,
      "دادیم": 8330,
      "##ضاع": 8331,
      "دیدگاه‌ها": 8332,
      "سانتی‌متر": 8333,
      "##وود": 8334,
      "مداوم": 8335,
      "سرام": 8336,
      "پاسخگویی": 8337,
      "جک": 8338,
      "زاوی": 8339,
      "##وایی": 8340,
      "##غر": 8341,
      "##apt": 8342,
      "فرانسوی": 8343,
      "##طوبت": 8344,
      "ملاق": 8345,
      "اماری": 8346,
      "گفتنی": 8347,
      "##شدن": 8348,
      "##ams": 8349,
      "نگارش": 8350,
      "jp": 8351,
      "سپاس": 8352,
      "پوستی": 8353,
      "شستشو": 8354,
      "سیگنال": 8355,
      "بکش": 8356,
      "گذاشتن": 8357,
      "Galaxy": 8358,
      "##رون": 8359,
      "##دست": 8360,
      "##روشی": 8361,
      "اقت": 8362,
      "ایفا": 8363,
      "ثبت‌شده": 8364,
      "فرهنگیان": 8365,
      "اثبات": 8366,
      "فرمایید": 8367,
      "مکانیکی": 8368,
      "رطوبت": 8369,
      "می‌ایند": 8370,
      "کاراموزی": 8371,
      "##احتی": 8372,
      "راهکارهای": 8373,
      "گناه": 8374,
      "نز": 8375,
      "##بس": 8376,
      "##ele": 8377,
      "بیانی": 8378,
      "کمتری": 8379,
      "خطاب": 8380,
      "ناام": 8381,
      "ازمایشگاهی": 8382,
      "اختلالات": 8383,
      "نیت": 8384,
      "هک": 8385,
      "منع": 8386,
      "بیاید": 8387,
      "نوت": 8388,
      "خانه‌های": 8389,
      "ضرر": 8390,
      "انگلستان": 8391,
      "لاریجانی": 8392,
      "بط": 8393,
      "مترو": 8394,
      "دادم": 8395,
      "نفری": 8396,
      "کیلومتری": 8397,
      "باقی‌": 8398,
      "اراضی": 8399,
      "زندانیان": 8400,
      "تخصی": 8401,
      "سادگی": 8402,
      "۷۲۰": 8403,
      "۸۲": 8404,
      "##ی‌ش": 8405,
      "مساج": 8406,
      "##کلت": 8407,
      "نکند": 8408,
      "نفع": 8409,
      "پلاگ": 8410,
      "##PS": 8411,
      "بریز": 8412,
      "امشب": 8413,
      "کلسیم": 8414,
      "تفکیک": 8415,
      "بایستی": 8416,
      "اشکار": 8417,
      "خب": 8418,
      "سازه": 8419,
      "پرتاب": 8420,
      "بالغ": 8421,
      "##‌زمین": 8422,
      "جراح": 8423,
      "زانو": 8424,
      "ضریب": 8425,
      "۱۳۰": 8426,
      "ساحل": 8427,
      "شرکتهای": 8428,
      "نداد": 8429,
      "۲۲۰": 8430,
      "سفارت": 8431,
      "بهره‌گیری": 8432,
      "##عفری": 8433,
      "##ung": 8434,
      "تعهدات": 8435,
      "تخصیص": 8436,
      "نات": 8437,
      "کاروان": 8438,
      "تدری": 8439,
      "استانداردهای": 8440,
      "کربلا": 8441,
      "رفسنج": 8442,
      "حرکات": 8443,
      "نباشید": 8444,
      "طلای": 8445,
      "انقدر": 8446,
      "متغیر": 8447,
      "بهره‌مند": 8448,
      "غلط": 8449,
      "موانع": 8450,
      "ex": 8451,
      "فانت": 8452,
      "می‌گرد": 8453,
      "می‌شوید": 8454,
      "تحریک": 8455,
      "کمرب": 8456,
      "عده‌ای": 8457,
      "##جانبه": 8458,
      "پروفایل": 8459,
      "مساجد": 8460,
      "بلاگ": 8461,
      "شتاب": 8462,
      "صاب": 8463,
      "اورجینال": 8464,
      "تحصیلات": 8465,
      "طبقه‌بندی": 8466,
      "پلتفرم": 8467,
      "رب": 8468,
      "قص": 8469,
      "لیت": 8470,
      "##‌گیر": 8471,
      "##ورده": 8472,
      "همشه": 8473,
      "##icro": 8474,
      "بگیریم": 8475,
      "ماندن": 8476,
      "دايمی": 8477,
      "درخشان": 8478,
      "رگ": 8479,
      "براش": 8480,
      "پیشواز": 8481,
      "اعط": 8482,
      "سیم‌ک": 8483,
      "دسامبر": 8484,
      "اعدام": 8485,
      "مچی": 8486,
      "افکت": 8487,
      "تداوم": 8488,
      "Top": 8489,
      "گیت": 8490,
      "تمدن": 8491,
      "زیارت": 8492,
      "##ator": 8493,
      "اکث": 8494,
      "تحقیقاتی": 8495,
      "صادراتی": 8496,
      "An": 8497,
      "زر": 8498,
      "سون": 8499,
      "بدی": 8500,
      "عکسهای": 8501,
      "ایمن": 8502,
      "ایمالز": 8503,
      "فلزیاب": 8504,
      "پایداری": 8505,
      "جعفر": 8506,
      "And": 8507,
      "##غام": 8508,
      "دوش": 8509,
      "##esh": 8510,
      "کافه": 8511,
      "عادل": 8512,
      "مقی": 8513,
      "##طاف": 8514,
      "می‌نویس": 8515,
      "انرا": 8516,
      "امت": 8517,
      "پیاده": 8518,
      "سوابق": 8519,
      "##قب": 8520,
      "دادستان": 8521,
      "اموزش‌های": 8522,
      "اوریل": 8523,
      "قدرد": 8524,
      "نحو": 8525,
      "برزیل": 8526,
      "ايت": 8527,
      "ساری": 8528,
      "فینال": 8529,
      "وکتور": 8530,
      "کاد": 8531,
      "برسان": 8532,
      "حش": 8533,
      "فور": 8534,
      "پاپ": 8535,
      "##‌کرد": 8536,
      "کرده‌اید": 8537,
      "کامیون": 8538,
      "درباره‌ی": 8539,
      "کارمندان": 8540,
      "اموزشگاه": 8541,
      "پیراهن": 8542,
      "تدبیر": 8543,
      "App": 8544,
      "حرار": 8545,
      "##اء": 8546,
      "##الو": 8547,
      "استودی": 8548,
      "##نیاز": 8549,
      "گرما": 8550,
      "شعب": 8551,
      "هورمون": 8552,
      "استث": 8553,
      "الهام": 8554,
      "عناوین": 8555,
      "زعفران": 8556,
      "باقی‌مانده": 8557,
      "Dr": 8558,
      "##ظاه": 8559,
      "دراین": 8560,
      "##اسازی": 8561,
      "سواد": 8562,
      "کامپیوت": 8563,
      "شایسته": 8564,
      "##‌گرفته": 8565,
      "اضطراب": 8566,
      "تقدیم": 8567,
      "jpg": 8568,
      "بویر": 8569,
      "##شوند": 8570,
      "##البی": 8571,
      "فرق": 8572,
      "مستقر": 8573,
      "ماساژ": 8574,
      "صبحانه": 8575,
      "##‌پذیری": 8576,
      "حرارتی": 8577,
      "حبی": 8578,
      "##بو": 8579,
      "##اورند": 8580,
      "گواهی": 8581,
      "بالاخره": 8582,
      "واقع‌شده": 8583,
      "جدایی": 8584,
      "داوطلب": 8585,
      "بکن": 8586,
      "بلاف": 8587,
      "##ناط": 8588,
      "##خوری": 8589,
      "##‌زمینی": 8590,
      "ملاقات": 8591,
      "جون": 8592,
      "جنج": 8593,
      "حریم": 8594,
      "بهینه": 8595,
      "اوک": 8596,
      "##مدت": 8597,
      "تشکیل‌شده": 8598,
      "##tern": 8599,
      "تعطیلی": 8600,
      "عظ": 8601,
      "##حلی": 8602,
      "##US": 8603,
      "الته": 8604,
      "شماست": 8605,
      "##مینار": 8606,
      "نشریه": 8607,
      "##تحص": 8608,
      "شناخته‌شده": 8609,
      "Mobile": 8610,
      "اینچ": 8611,
      "ابن": 8612,
      "##ery": 8613,
      "تاریخچه": 8614,
      "ذرات": 8615,
      "شیا": 8616,
      "##لین": 8617,
      "##ونید": 8618,
      "تراز": 8619,
      "حماس": 8620,
      "فوتسال": 8621,
      "پیش‌بین": 8622,
      "##‌قیمت": 8623,
      "حدیث": 8624,
      "##گیلویه": 8625,
      "##کات": 8626,
      "##الیف": 8627,
      "اشیا": 8628,
      "نواوری": 8629,
      "معتقدند": 8630,
      "فشرده": 8631,
      "Gr": 8632,
      "الا": 8633,
      "دب": 8634,
      "##روزی": 8635,
      "گفتند": 8636,
      "اوضاع": 8637,
      "دیدگاهی": 8638,
      "##ics": 8639,
      "روشهای": 8640,
      "فراورد": 8641,
      "تابناک": 8642,
      "ترمیم": 8643,
      "پارلمان": 8644,
      "vst": 8645,
      "##ولت": 8646,
      "نسبتا": 8647,
      "مغزی": 8648,
      "بهمن‌ماه": 8649,
      "تیپ": 8650,
      "الگوریت": 8651,
      "جریم": 8652,
      "ممت": 8653,
      "معین": 8654,
      "ابوال": 8655,
      "تیمی": 8656,
      "امیری": 8657,
      "##ime": 8658,
      "PS": 8659,
      "عف": 8660,
      "##کب": 8661,
      "##حمل": 8662,
      "فروشگاهی": 8663,
      "محلول": 8664,
      "نویسندگان": 8665,
      "استعلام": 8666,
      "صالحی": 8667,
      "##په": 8668,
      "##NA": 8669,
      "بهشت": 8670,
      "فریم": 8671,
      "افرین": 8672,
      "شهروند": 8673,
      "Un": 8674,
      "وت": 8675,
      "اینچی": 8676,
      "نمیشه": 8677,
      "معرف": 8678,
      "##ade": 8679,
      "##ition": 8680,
      "نوشته‌های": 8681,
      "##osh": 8682,
      "پلاگین": 8683,
      "قن": 8684,
      "هات": 8685,
      "ژنتی": 8686,
      "کب": 8687,
      "##ه‌جویی": 8688,
      "##ریش": 8689,
      "زیان": 8690,
      "تران": 8691,
      "فعلا": 8692,
      "گرمایش": 8693,
      "نکاتی": 8694,
      "خانواده‌ها": 8695,
      "سول": 8696,
      "سیا": 8697,
      "پهن": 8698,
      "##pe": 8699,
      "موظ": 8700,
      "می‌پردازد": 8701,
      "وعد": 8702,
      "وصل": 8703,
      "##فش": 8704,
      "کهگیلویه": 8705,
      "مجاه": 8706,
      "جعفری": 8707,
      "۷۷": 8708,
      "##شیر": 8709,
      "##خند": 8710,
      "##لند": 8711,
      "##۴۸": 8712,
      "ازای": 8713,
      "##یدری": 8714,
      "##ی‌ام": 8715,
      "اشغال": 8716,
      "واگذار": 8717,
      "برتری": 8718,
      "خریداران": 8719,
      "برخلاف": 8720,
      "صحت": 8721,
      "مطرح‌شده": 8722,
      "قاضی": 8723,
      "DB": 8724,
      "عقل": 8725,
      "##مرد": 8726,
      "##aw": 8727,
      "دروس": 8728,
      "بهای": 8729,
      "##ه‌بان": 8730,
      "ارزوی": 8731,
      "کوچه": 8732,
      "جزء": 8733,
      "روستاهای": 8734,
      "##old": 8735,
      "وسط": 8736,
      "دفاتر": 8737,
      "ورزشکاران": 8738,
      "بلافاصله": 8739,
      "MB": 8740,
      "fa": 8741,
      "گرافیکی": 8742,
      "##گرا": 8743,
      "اسد": 8744,
      "گفتن": 8745,
      "##ool": 8746,
      "مبلمان": 8747,
      "##ull": 8748,
      "دروازه": 8749,
      "موظف": 8750,
      "سوا": 8751,
      "گریه": 8752,
      "##ph": 8753,
      "##ual": 8754,
      "تقویم": 8755,
      "ندارید": 8756,
      "استقرار": 8757,
      "حاشی": 8758,
      "فتح": 8759,
      "کیم": 8760,
      "مساحت": 8761,
      "۰۹۱۲": 8762,
      "منظم": 8763,
      "فیبر": 8764,
      "بوجود": 8765,
      "پوسته": 8766,
      "۶۷": 8767,
      "همگی": 8768,
      "مدد": 8769,
      "##باع": 8770,
      "سپرد": 8771,
      "داده‌ها": 8772,
      "نخب": 8773,
      "زیباترین": 8774,
      "##ood": 8775,
      "مقیاس": 8776,
      "بوم": 8777,
      "فوریه": 8778,
      "##ez": 8779,
      "##۹۳": 8780,
      "##پای": 8781,
      "باستان": 8782,
      "الات": 8783,
      "خاصیت": 8784,
      "ردیف": 8785,
      "فانتزی": 8786,
      "Pr": 8787,
      "##اندیش": 8788,
      "کمر": 8789,
      "نقض": 8790,
      "پیگیر": 8791,
      "تعرفه": 8792,
      "انتخابی": 8793,
      "بانک‌های": 8794,
      "انسان‌ها": 8795,
      "می‌کردم": 8796,
      "ذوب‌اهن": 8797,
      "ناه": 8798,
      "##ادلات": 8799,
      "##الیایی": 8800,
      "اوتی": 8801,
      "مردی": 8802,
      "گذاران": 8803,
      "۲۰۰۸": 8804,
      "پژوهشگران": 8805,
      "اعتبارات": 8806,
      "عال": 8807,
      "وج": 8808,
      "##oz": 8809,
      "##نگری": 8810,
      "باربری": 8811,
      "واژه": 8812,
      "مقدمه": 8813,
      "##کول": 8814,
      "##iew": 8815,
      "##گرایی": 8816,
      "دوستی": 8817,
      "اقلام": 8818,
      "به‌صورت": 8819,
      "جوانی": 8820,
      "شیعی": 8821,
      "قسمت‌های": 8822,
      "زنجیر": 8823,
      "خنده": 8824,
      "گش": 8825,
      "##رداد": 8826,
      "راضی": 8827,
      "اجلاس": 8828,
      "##فرنگی": 8829,
      "ساختن": 8830,
      "##ach": 8831,
      "۲۰۰۹": 8832,
      "پیکر": 8833,
      "رکود": 8834,
      "پیچیده": 8835,
      "دستاوردهای": 8836,
      "بخصوص": 8837,
      "مینی": 8838,
      "##يیس": 8839,
      "##IS": 8840,
      "##ولای": 8841,
      "داروی": 8842,
      "انگیز": 8843,
      "اصلاح‌ط": 8844,
      "مربیان": 8845,
      "as": 8846,
      "ذغال": 8847,
      "##شور": 8848,
      "##زده": 8849,
      "اسن": 8850,
      "##int": 8851,
      "تکیه": 8852,
      "پلیم": 8853,
      "فضاهای": 8854,
      "حاکی": 8855,
      "سمینار": 8856,
      "می‌گذار": 8857,
      "توه": 8858,
      "الوده": 8859,
      "##شکر": 8860,
      "##ank": 8861,
      "موضع": 8862,
      "خیال": 8863,
      "۱۸۰": 8864,
      "##ersian": 8865,
      "مقدماتی": 8866,
      "حاکمیت": 8867,
      "مات": 8868,
      "اقدامی": 8869,
      "##وتا": 8870,
      "تجلیل": 8871,
      "ارزشی": 8872,
      "##‌بازی": 8873,
      "نمودن": 8874,
      "طر": 8875,
      "وه": 8876,
      "##سو": 8877,
      "##‌کن": 8878,
      "##غی": 8879,
      "##na": 8880,
      "اخراج": 8881,
      "افزایش‌یافته": 8882,
      "بزرگتر": 8883,
      "تعیین‌شده": 8884,
      "تزیین": 8885,
      "ايتلاف": 8886,
      "AS": 8887,
      "صاف": 8888,
      "فقه": 8889,
      "گاو": 8890,
      "##زامی": 8891,
      "##بینی": 8892,
      "##ابادی": 8893,
      "##قیان": 8894,
      "ماه‌های": 8895,
      "تکمیلی": 8896,
      "پرسنل": 8897,
      "جداگانه": 8898,
      "صابون": 8899,
      "##۲۶": 8900,
      "سنگ‌های": 8901,
      "خاطره": 8902,
      "تلاش‌های": 8903,
      "بهرام": 8904,
      "لنز": 8905,
      "##يیه": 8906,
      "لباسشویی": 8907,
      "وحید": 8908,
      "مهاجم": 8909,
      "تبیین": 8910,
      "الگوریتم": 8911,
      "Tag": 8912,
      "طلب": 8913,
      "##زدی": 8914,
      "##ID": 8915,
      "برایتان": 8916,
      "پوستر": 8917,
      "درمورد": 8918,
      "دامپزشکی": 8919,
      "رصد": 8920,
      "ناس": 8921,
      "##یرت": 8922,
      "##رمانی": 8923,
      "شکل‌گیری": 8924,
      "پذیرفته": 8925,
      "مادرید": 8926,
      "انالیز": 8927,
      "شبه": 8928,
      "##OR": 8929,
      "امضای": 8930,
      "##ازده": 8931,
      "##وقت": 8932,
      "۱۴۰": 8933,
      "وقتی‌که": 8934,
      "پروتکل": 8935,
      "محاسبات": 8936,
      "زخمی": 8937,
      "بشناس": 8938,
      "تظاه": 8939,
      "##راتی": 8940,
      "یکم": 8941,
      "ارژ": 8942,
      "نقاله": 8943,
      "داوری": 8944,
      "بحرین": 8945,
      "هواپیمایی": 8946,
      "شاخص‌های": 8947,
      "فلا": 8948,
      "لرز": 8949,
      "ملای": 8950,
      "رقص": 8951,
      "تیره": 8952,
      "اضافی": 8953,
      "بشکه": 8954,
      "صرفه‌جویی": 8955,
      "ظاهرا": 8956,
      "ابادان": 8957,
      "us": 8958,
      "کمک‌های": 8959,
      "صاحبان": 8960,
      "جعبه": 8961,
      "بریتانیا": 8962,
      "Sm": 8963,
      "نایب": 8964,
      "##کانی": 8965,
      "##۹۷": 8966,
      "می‌رفت": 8967,
      "##ونیک": 8968,
      "سرهنگ": 8969,
      "##وتین": 8970,
      "راهپیم": 8971,
      "بنز": 8972,
      "پنجمین": 8973,
      "پژو": 8974,
      "##پوشان": 8975,
      "شستشوی": 8976,
      "نوکیا": 8977,
      "الومینیوم": 8978,
      "اوتیسم": 8979,
      "وارداتی": 8980,
      "یاداوری": 8981,
      "فقر": 8982,
      "تشی": 8983,
      "روده": 8984,
      "زاه": 8985,
      "سیک": 8986,
      "##باف": 8987,
      "موها": 8988,
      "بدهند": 8989,
      "اعتراف": 8990,
      "پیاده‌روی": 8991,
      "سلو": 8992,
      "۸۱": 8993,
      "هستی": 8994,
      "نوسازی": 8995,
      "تصمیمات": 8996,
      "مایل": 8997,
      "##فول": 8998,
      "دانه": 8999,
      "سطحی": 9000,
      "##roid": 9001,
      "اندرویدی": 9002,
      "مرتب": 9003,
      "حکیم": 9004,
      "وحشت": 9005,
      "تزيین": 9006,
      "کمربند": 9007,
      "فراورده‌های": 9008,
      "##‌تان": 9009,
      "##oon": 9010,
      "فراتر": 9011,
      "سهمیه": 9012,
      "##ode": 9013,
      "هیچ‌گونه": 9014,
      "احی": 9015,
      "خد": 9016,
      "شانه": 9017,
      "##ک‌ها": 9018,
      "بادام": 9019,
      "ادام": 9020,
      "اپراتور": 9021,
      "راهبردی": 9022,
      "سیم‌کارت": 9023,
      "##ارم": 9024,
      "##الدین": 9025,
      "##یرات": 9026,
      "می‌کشد": 9027,
      "کدخبر": 9028,
      "تبدیل‌شده": 9029,
      "CO": 9030,
      "ساند": 9031,
      "یوسف": 9032,
      "بهانه": 9033,
      "امدید": 9034,
      "##راط": 9035,
      "##گذاران": 9036,
      "نوشته‌ها": 9037,
      "نمی‌توانند": 9038,
      "ابیاری": 9039,
      "ناراحت": 9040,
      "ایده‌های": 9041,
      "پردازنده": 9042,
      "Post": 9043,
      "زار": 9044,
      "میده": 9045,
      "پرک": 9046,
      "##oy": 9047,
      "##هاست": 9048,
      "تجار": 9049,
      "##فیق": 9050,
      "##ence": 9051,
      "بازدیدها": 9052,
      "مانیتور": 9053,
      "مجددا": 9054,
      "کابینه": 9055,
      "روسای": 9056,
      "مواقع": 9057,
      "کامپیوتری": 9058,
      "Ser": 9059,
      "##دانش": 9060,
      "لوگو": 9061,
      "اکبر": 9062,
      "تیرماه": 9063,
      "روحیه": 9064,
      "می‌گذرد": 9065,
      "سويد": 9066,
      "ابه": 9067,
      "لیم": 9068,
      "##ET": 9069,
      "بابا": 9070,
      "انشا": 9071,
      "برنامه‌ای": 9072,
      "بهره‌وری": 9073,
      "سحر": 9074,
      "جزی": 9075,
      "خستگی": 9076,
      "گوار": 9077,
      "##ious": 9078,
      "می‌رساند": 9079,
      "LED": 9080,
      "جنین": 9081,
      "##فری": 9082,
      "##کیف": 9083,
      "مهار": 9084,
      "##مدیره": 9085,
      "ناو": 9086,
      "اسفالت": 9087,
      "۱۳۸۷": 9088,
      "هم‌چنین": 9089,
      "بازنشست": 9090,
      "قوت": 9091,
      "##چه‌های": 9092,
      "موافق": 9093,
      "بازی‌ها": 9094,
      "داوران": 9095,
      "احکام": 9096,
      "مغازه": 9097,
      "شایعات": 9098,
      "پارسیان": 9099,
      "رتبه‌بندی": 9100,
      "Mot": 9101,
      "PDF": 9102,
      "ضای": 9103,
      "قالی": 9104,
      "##ودن": 9105,
      "استناد": 9106,
      "امری": 9107,
      "نیستم": 9108,
      "شمس": 9109,
      "مفصل": 9110,
      "احساسات": 9111,
      "رهبران": 9112,
      "شرکتی": 9113,
      "جفت": 9114,
      "##‌ر": 9115,
      "##بوک": 9116,
      "##mad": 9117,
      "##ه‌برداری": 9118,
      "##لیقه": 9119,
      "گرگان": 9120,
      "##ict": 9121,
      "دخالت": 9122,
      "فرماندهی": 9123,
      "بدهی": 9124,
      "حاي": 9125,
      "۷۶": 9126,
      "منف": 9127,
      "ایرانسل": 9128,
      "هسته": 9129,
      "پرینت": 9130,
      "همکاری‌های": 9131,
      "پیم": 9132,
      "##‌بر": 9133,
      "##حالی": 9134,
      "دراز": 9135,
      "##ه‌نامه": 9136,
      "کارخان": 9137,
      "دیجی": 9138,
      "##orm": 9139,
      "نتوانست": 9140,
      "مسوولان": 9141,
      "انعطاف": 9142,
      "عزت": 9143,
      "وط": 9144,
      "چل": 9145,
      "سالگرد": 9146,
      "خبرهای": 9147,
      "جسمی": 9148,
      "کریست": 9149,
      "چشم‌انداز": 9150,
      "توهین": 9151,
      "con": 9152,
      "خونه": 9153,
      "عزاد": 9154,
      "##عیل": 9155,
      "##پورت": 9156,
      "##یتان": 9157,
      "محص": 9158,
      "نامه‌ای": 9159,
      "تصاویری": 9160,
      "عاشورا": 9161,
      "زحمت": 9162,
      "قدردانی": 9163,
      "##ps": 9164,
      "##راست": 9165,
      "##led": 9166,
      "فرمول": 9167,
      "نعمت": 9168,
      "res": 9169,
      "محبت": 9170,
      "مرحل": 9171,
      "سلطان": 9172,
      "هنرهای": 9173,
      "نجف": 9174,
      "مخصوصا": 9175,
      "ممتاز": 9176,
      "Aut": 9177,
      "kh": 9178,
      "ایک": 9179,
      "حامل": 9180,
      "فد": 9181,
      "فاج": 9182,
      "##مق": 9183,
      "##ru": 9184,
      "##وندی": 9185,
      "نامن": 9186,
      "سازمان‌ها": 9187,
      "##‌سوزی": 9188,
      "سعادت": 9189,
      "بستن": 9190,
      "خیریه": 9191,
      "جریمه": 9192,
      "رش": 9193,
      "نیل": 9194,
      "##بایی": 9195,
      "##۴۲": 9196,
      "معاصر": 9197,
      "اختر": 9198,
      "اهدا": 9199,
      "ایه": 9200,
      "کوتاهی": 9201,
      "am": 9202,
      "حبس": 9203,
      "فاصل": 9204,
      "##AS": 9205,
      "بری": 9206,
      "مجت": 9207,
      "##اکت": 9208,
      "۱۰۸۰": 9209,
      "##ical": 9210,
      "پنجر": 9211,
      "خورده": 9212,
      "##‌خودرو": 9213,
      "Am": 9214,
      "سجاد": 9215,
      "روکش": 9216,
      "کارنامه": 9217,
      "افشار": 9218,
      "##reat": 9219,
      "شاهین": 9220,
      "حکایت": 9221,
      "شبیه‌سازی": 9222,
      "مطلع": 9223,
      "IP": 9224,
      "تراک": 9225,
      "خودت": 9226,
      "انتن": 9227,
      "بی‌ب": 9228,
      "منظر": 9229,
      "هتل‌های": 9230,
      "برداشته": 9231,
      "بهشتی": 9232,
      "رقابتی": 9233,
      "می‌خواهم": 9234,
      "اردیبهشت‌ماه": 9235,
      "چالش‌های": 9236,
      "HT": 9237,
      "خشم": 9238,
      "##کسوت": 9239,
      "قیمت‌های": 9240,
      "مختص": 9241,
      "##اضع": 9242,
      "##‌بیت": 9243,
      "قسمتی": 9244,
      "شاگردان": 9245,
      "##پذیرد": 9246,
      "بندرعباس": 9247,
      "قضاوت": 9248,
      "##indow": 9249,
      "word": 9250,
      "you": 9251,
      "##سرای": 9252,
      "می‌شویم": 9253,
      "پیشینه": 9254,
      "فرصتی": 9255,
      "پهل": 9256,
      "Google": 9257,
      "طاه": 9258,
      "دره": 9259,
      "##ه‌کشی": 9260,
      "##فره": 9261,
      "علنی": 9262,
      "##حیطی": 9263,
      "خودروها": 9264,
      "اسیایی": 9265,
      "فردوسی": 9266,
      "محکم": 9267,
      "روبه‌رو": 9268,
      "باردار": 9269,
      "ترسناک": 9270,
      "بررسی‌های": 9271,
      "##يینی": 9272,
      "##رول": 9273,
      "ماهانه": 9274,
      "##ata": 9275,
      "مالکیت": 9276,
      "اطلاعیه": 9277,
      "غف": 9278,
      "قبر": 9279,
      "اموال": 9280,
      "بازگشایی": 9281,
      "برگزیده": 9282,
      "لاستیک": 9283,
      "مجتبی": 9284,
      "DV": 9285,
      "im": 9286,
      "##۸۸": 9287,
      "##پز": 9288,
      "دربی": 9289,
      "رویا": 9290,
      "بنر": 9291,
      "مشاوران": 9292,
      "فولادی": 9293,
      "رونالد": 9294,
      "##وسیله": 9295,
      "بیدار": 9296,
      "زباله": 9297,
      "##تحصیل": 9298,
      "##صلی": 9299,
      "ازار": 9300,
      "استین": 9301,
      "مسدود": 9302,
      "میهن": 9303,
      "گرفتم": 9304,
      "خالص": 9305,
      "پشتیبان": 9306,
      "ارژانت": 9307,
      "By": 9308,
      "رقیب": 9309,
      "پید": 9310,
      "##۳۱": 9311,
      "ازمایشی": 9312,
      "this": 9313,
      "جزیی": 9314,
      "اوری": 9315,
      "##ی‌ای": 9316,
      "ماشین‌های": 9317,
      "کشتار": 9318,
      "۳۶۰": 9319,
      "اهل‌بیت": 9320,
      "php": 9321,
      "بخواهید": 9322,
      "هندی": 9323,
      "##نرم": 9324,
      "بهش": 9325,
      "مقت": 9326,
      "نسخه‌های": 9327,
      "نگه‌": 9328,
      "فریدون": 9329,
      "اقساط": 9330,
      "نخبگان": 9331,
      "عاط": 9332,
      "##ox": 9333,
      "منچ": 9334,
      "تعلق": 9335,
      "بلوتو": 9336,
      "تهیه‌شده": 9337,
      "بگذارد": 9338,
      "۳۵۰": 9339,
      "##گام": 9340,
      "##اتین": 9341,
      "یکسان": 9342,
      "پیشکسوت": 9343,
      "خواهر": 9344,
      "کرون": 9345,
      "۱۶۰": 9346,
      "ماندگار": 9347,
      "دانستن": 9348,
      "صحبت‌های": 9349,
      "زیست‌م": 9350,
      "##منی": 9351,
      "##بسته": 9352,
      "اسکار": 9353,
      "اسیب‌": 9354,
      "تصادفی": 9355,
      "زیست‌محیطی": 9356,
      "بمان": 9357,
      "حراج": 9358,
      "##زاب": 9359,
      "##ادم": 9360,
      "##یران": 9361,
      "ترخیص": 9362,
      "تلقی": 9363,
      "اورژانس": 9364,
      "##ember": 9365,
      "بابک": 9366,
      "مولف": 9367,
      "بویراحمد": 9368,
      "pl": 9369,
      "غبار": 9370,
      "قوا": 9371,
      "##مره": 9372,
      "##عان": 9373,
      "می‌ماند": 9374,
      "روت": 9375,
      "اندکی": 9376,
      "نمی‌خواه": 9377,
      "رفتاری": 9378,
      "##نمایش": 9379,
      "جانشین": 9380,
      "دبیرخانه": 9381,
      "اتش‌سوزی": 9382,
      "تایلند": 9383,
      "راهپیمایی": 9384,
      "صی": 9385,
      "ژل": 9386,
      "##گونی": 9387,
      "نظم": 9388,
      "سینا": 9389,
      "ترکیبات": 9390,
      "اسماعیل": 9391,
      "کاست": 9392,
      "فرض": 9393,
      "اقشار": 9394,
      "حمایتی": 9395,
      "جانباز": 9396,
      "شکلات": 9397,
      "عهد": 9398,
      "نواحی": 9399,
      "ایین‌نامه": 9400,
      "##قانونی": 9401,
      "بلا": 9402,
      "باکتری": 9403,
      "هستن": 9404,
      "##نمای": 9405,
      "بستری": 9406,
      "تجربیات": 9407,
      "زور": 9408,
      "زیستی": 9409,
      "پتان": 9410,
      "خوبه": 9411,
      "##بیه": 9412,
      "ساحلی": 9413,
      "##ica": 9414,
      "مکال": 9415,
      "فروشگاه‌های": 9416,
      "مزیت": 9417,
      "دوربین‌های": 9418,
      "خونی": 9419,
      "سیز": 9420,
      "مفت": 9421,
      "##خدام": 9422,
      "##پن": 9423,
      "میث": 9424,
      "##اکبر": 9425,
      "انگار": 9426,
      "net": 9427,
      "بات": 9428,
      "مسکو": 9429,
      "میانه": 9430,
      "پیشرو": 9431,
      "بسیجی": 9432,
      "تناسب": 9433,
      "تهویه": 9434,
      "سفره": 9435,
      "۲۰۰۳": 9436,
      "نخواهند": 9437,
      "org": 9438,
      "متمرکز": 9439,
      "تیتر": 9440,
      "شکار": 9441,
      "عیار": 9442,
      "سالروز": 9443,
      "##گوست": 9444,
      "##نمایی": 9445,
      "قضاییه": 9446,
      "پیاده‌سازی": 9447,
      "گواهین": 9448,
      "شال": 9449,
      "کبد": 9450,
      "##امن": 9451,
      "می‌گرفت": 9452,
      "نظرس": 9453,
      "روزگار": 9454,
      "سوالی": 9455,
      "غربال": 9456,
      "پارکینگ": 9457,
      "بویژه": 9458,
      "چاقی": 9459,
      "##رایی": 9460,
      "##‌دهی": 9461,
      "##اته": 9462,
      "هموط": 9463,
      "پرندگان": 9464,
      "نامش": 9465,
      "##مدل": 9466,
      "حرفه": 9467,
      "پست‌های": 9468,
      "نمونه‌های": 9469,
      "مشمول": 9470,
      "جولای": 9471,
      "##عودی": 9472,
      "##داشتن": 9473,
      "افزودن": 9474,
      "پنیر": 9475,
      "ابراه": 9476,
      "والم": 9477,
      "مراتب": 9478,
      "Fl": 9479,
      "۶۱": 9480,
      "##wit": 9481,
      "##وزن": 9482,
      "##‌نشده": 9483,
      "متحرک": 9484,
      "شگفت‌انگیز": 9485,
      "هیيت‌مدیره": 9486,
      "التهاب": 9487,
      "##رال": 9488,
      "##جاز": 9489,
      "##ضاح": 9490,
      "##صی": 9491,
      "##ورز": 9492,
      "انکار": 9493,
      "مومن": 9494,
      "سويی": 9495,
      "برساند": 9496,
      "قضايیه": 9497,
      "##ارستان": 9498,
      "درواز": 9499,
      "کهن": 9500,
      "امروزی": 9501,
      "##میزی": 9502,
      "مرس": 9503,
      "احزاب": 9504,
      "سایتهای": 9505,
      "سیار": 9506,
      "افتابی": 9507,
      "تفریح": 9508,
      "درایور": 9509,
      "می‌زنند": 9510,
      "درگاه": 9511,
      "روشی": 9512,
      "منوی": 9513,
      "پیوسته": 9514,
      "دهنده": 9515,
      "نمی‌باشد": 9516,
      "حلق": 9517,
      "##oot": 9518,
      "افریقای": 9519,
      "بازنشستگان": 9520,
      "پو": 9521,
      "##میمی": 9522,
      "##کسیون": 9523,
      "##حافظ": 9524,
      "##انده": 9525,
      "بروج": 9526,
      "کارامد": 9527,
      "رسالت": 9528,
      "خرج": 9529,
      "می‌دانیم": 9530,
      "فروشی": 9531,
      "##۲۱": 9532,
      "##قیمت": 9533,
      "راجع": 9534,
      "دارن": 9535,
      "نقلیه": 9536,
      "اپلود": 9537,
      "نشان‌دهنده": 9538,
      "شکسته": 9539,
      "تربیتی": 9540,
      "دغدغه": 9541,
      "شاعر": 9542,
      "لامپ": 9543,
      "گمان": 9544,
      "منم": 9545,
      "نمره": 9546,
      "نواز": 9547,
      "خودروسازی": 9548,
      "کسب‌و": 9549,
      "تاثیرات": 9550,
      "نکنند": 9551,
      "بگویم": 9552,
      "محرومیت": 9553,
      "##کیفیت": 9554,
      "##شع": 9555,
      "##‌کل": 9556,
      "##۲۷": 9557,
      "##وریان": 9558,
      "##ert": 9559,
      "مغناط": 9560,
      "طراحان": 9561,
      "##ideo": 9562,
      "تذکر": 9563,
      "دشت": 9564,
      "##خانی": 9565,
      "##du": 9566,
      "نشدن": 9567,
      "چندی": 9568,
      "قیام": 9569,
      "فلزات": 9570,
      "نوسانات": 9571,
      "دستمزد": 9572,
      "محوطه": 9573,
      "sp": 9574,
      "مکر": 9575,
      "مداخ": 9576,
      "مسایل": 9577,
      "##ani": 9578,
      "موتورهای": 9579,
      "برنامه‌ریز": 9580,
      "جغرافیایی": 9581,
      "سرس": 9582,
      "شل": 9583,
      "صالح": 9584,
      "قلی": 9585,
      "۶۳": 9586,
      "ایران‌خودرو": 9587,
      "##یاط": 9588,
      "نظرم": 9589,
      "خطا": 9590,
      "پارام": 9591,
      "قابل‌م": 9592,
      "ایتالیایی": 9593,
      "احیای": 9594,
      "عارف": 9595,
      "فوم": 9596,
      "##کف": 9597,
      "##‌کنند": 9598,
      "##ذیب": 9599,
      "##انش": 9600,
      "برو": 9601,
      "بزند": 9602,
      "انگشتر": 9603,
      "فلور": 9604,
      "بدانیم": 9605,
      "می‌بینید": 9606,
      "گسترده‌ای": 9607,
      "حاجی": 9608,
      "سوره": 9609,
      "پک": 9610,
      "##تع": 9611,
      "##یع": 9612,
      "احیا": 9613,
      "مصلح": 9614,
      "##تمام": 9615,
      "هفتگی": 9616,
      "دیدگاه‌های": 9617,
      "سریع‌تر": 9618,
      "مسیح": 9619,
      "انحص": 9620,
      "دفع": 9621,
      "زیتون": 9622,
      "کیست": 9623,
      "##لک": 9624,
      "##یدند": 9625,
      "##اشویی": 9626,
      "گرانی": 9627,
      "موردی": 9628,
      "انجایی": 9629,
      "ساعته": 9630,
      "غیرقانونی": 9631,
      "جنگی": 9632,
      "ارزش‌های": 9633,
      "چشمه": 9634,
      "می‌خواستم": 9635,
      "بنویسید": 9636,
      "HP": 9637,
      "Sy": 9638,
      "تام": 9639,
      "رجوی": 9640,
      "غافل": 9641,
      "##کوس": 9642,
      "##ه‌گانه": 9643,
      "باشی": 9644,
      "می‌توانست": 9645,
      "##نجان": 9646,
      "تیمش": 9647,
      "کوچکی": 9648,
      "##تناب": 9649,
      "خصوصیات": 9650,
      "تراکتورسازی": 9651,
      "نمی‌دهد": 9652,
      "رونالدو": 9653,
      "ده‌ها": 9654,
      "پایش": 9655,
      "##نال": 9656,
      "کمدی": 9657,
      "اواز": 9658,
      "##منستان": 9659,
      "سایبری": 9660,
      "پاسخگوی": 9661,
      "واجد": 9662,
      "فرصت‌های": 9663,
      "انصاری": 9664,
      "انصراف": 9665,
      "دزفول": 9666,
      "مسافرتی": 9667,
      "AD": 9668,
      "حیدری": 9669,
      "##ron": 9670,
      "##عهده": 9671,
      "نقط": 9672,
      "##ann": 9673,
      "بدنسازی": 9674,
      "معتاد": 9675,
      "مترم": 9676,
      "نبودن": 9677,
      "بدانند": 9678,
      "تنی": 9679,
      "سنین": 9680,
      "##حث": 9681,
      "##ه‌گذاری": 9682,
      "اجتناب": 9683,
      "بازیابی": 9684,
      "##ناپذیر": 9685,
      "اکسی": 9686,
      "تیت": 9687,
      "##ذب": 9688,
      "استادی": 9689,
      "##ازد": 9690,
      "مواضع": 9691,
      "##هرانی": 9692,
      "امریکایی‌ها": 9693,
      "هزینه‌ها": 9694,
      "نداشتن": 9695,
      "رزم": 9696,
      "خنده‌دار": 9697,
      "بگم": 9698,
      "##‌کاری": 9699,
      "فراز": 9700,
      "دوام": 9701,
      "توسعه‌": 9702,
      "ماهیت": 9703,
      "##شمار": 9704,
      "##out": 9705,
      "inf": 9706,
      "واکسن": 9707,
      "زاویه": 9708,
      "##‌رسان": 9709,
      "##eed": 9710,
      "معارف": 9711,
      "مجرب": 9712,
      "کالاها": 9713,
      "##aper": 9714,
      "رفتارهای": 9715,
      "قابل‌حمل": 9716,
      "ضربه‌ای": 9717,
      "##حساب": 9718,
      "کروم": 9719,
      "##کاب": 9720,
      "##صره": 9721,
      "##��": 9722,
      "##ردن": 9723,
      "شده‌است": 9724,
      "بیاب": 9725,
      "ابشار": 9726,
      "##فرست": 9727,
      "سازگار": 9728,
      "بزرگان": 9729,
      "نگرش": 9730,
      "میلی‌متر": 9731,
      "انبوه": 9732,
      "والمسلمین": 9733,
      "تدار": 9734,
      "گویا": 9735,
      "##‌زد": 9736,
      "برام": 9737,
      "سرویس‌های": 9738,
      "کابینت": 9739,
      "شیاي": 9740,
      "زرا": 9741,
      "غدیر": 9742,
      "##rip": 9743,
      "##sc": 9744,
      "##۹۱": 9745,
      "##‏های": 9746,
      "##ایی‌های": 9747,
      "##ایران": 9748,
      "مقاد": 9749,
      "نظافت": 9750,
      "اعصاب": 9751,
      "عباسی": 9752,
      "فراگیر": 9753,
      "سیب‌زمینی": 9754,
      "##۶۷": 9755,
      "##ارض": 9756,
      "امواج": 9757,
      "کنین": 9758,
      "سرشار": 9759,
      "جهادی": 9760,
      "اوپک": 9761,
      "##منت": 9762,
      "می‌دهید": 9763,
      "فرمانداری": 9764,
      "رحم": 9765,
      "پرهیز": 9766,
      "Be": 9767,
      "اگوست": 9768,
      "خیل": 9769,
      "عام": 9770,
      "قاسمی": 9771,
      "۸۳": 9772,
      "##فسی": 9773,
      "توت": 9774,
      "کالری": 9775,
      "نصر": 9776,
      "نصف": 9777,
      "فتنه": 9778,
      "ژاپنی": 9779,
      "ستارگان": 9780,
      "علاقه‌مند": 9781,
      "##indows": 9782,
      "Mar": 9783,
      "##ریر": 9784,
      "##دهای": 9785,
      "##۸۵": 9786,
      "##ذی": 9787,
      "##چیز": 9788,
      "##ه‌نگ": 9789,
      "##راقی": 9790,
      "##بیان": 9791,
      "سازه‌های": 9792,
      "بیند": 9793,
      "عزیزم": 9794,
      "اکتش": 9795,
      "##ادمی": 9796,
      "توي": 9797,
      "اجتماع": 9798,
      "کارتون": 9799,
      "اسپیکر": 9800,
      "شفافیت": 9801,
      "شیايومی": 9802,
      "شامپ": 9803,
      "##رید": 9804,
      "##نویسی": 9805,
      "##پایان": 9806,
      "دوازدهم": 9807,
      "اصن": 9808,
      "رفتند": 9809,
      "سلمان": 9810,
      "طرفدار": 9811,
      "کشاورزان": 9812,
      "محبوبیت": 9813,
      "درختان": 9814,
      "این‌ها": 9815,
      "##رافت": 9816,
      "شهرت": 9817,
      "##باران": 9818,
      "نمی‌کرد": 9819,
      "##ating": 9820,
      "بی‌سیم": 9821,
      "شکوه": 9822,
      "خیابانی": 9823,
      "کمپین": 9824,
      "گنبد": 9825,
      "پرستاری": 9826,
      "کارگزار": 9827,
      "mm": 9828,
      "تیک": 9829,
      "گارد": 9830,
      "##وابط": 9831,
      "##روح": 9832,
      "بازیافت": 9833,
      "عکس‌ها": 9834,
      "خصوصا": 9835,
      "##‌کشی": 9836,
      "ایستاده": 9837,
      "کاردانی": 9838,
      "##راز": 9839,
      "##ه‌گری": 9840,
      "اموخت": 9841,
      "##ساله": 9842,
      "ریلی": 9843,
      "دغدغ": 9844,
      "شیعیان": 9845,
      "ضایعات": 9846,
      "سمپ": 9847,
      "غالب": 9848,
      "پوتین": 9849,
      "##یاری": 9850,
      "توم": 9851,
      "شدگان": 9852,
      "بازتاب": 9853,
      "مطهر": 9854,
      "##رایم": 9855,
      "راهنما": 9856,
      "خداحافظ": 9857,
      "مترجم": 9858,
      "۱۳۸۶": 9859,
      "روشنایی": 9860,
      "##EN": 9861,
      "##mail": 9862,
      "گرچه": 9863,
      "##ana": 9864,
      "جانب": 9865,
      "##پوزال": 9866,
      "Wh": 9867,
      "iP": 9868,
      "play": 9869,
      "##مش": 9870,
      "##co": 9871,
      "##اریخ": 9872,
      "فرنگی": 9873,
      "تایم": 9874,
      "حیاتی": 9875,
      "اتصالات": 9876,
      "تث": 9877,
      "وخ": 9878,
      "##DR": 9879,
      "سرگرم": 9880,
      "خواهش": 9881,
      "##enc": 9882,
      "مداربسته": 9883,
      "برندهای": 9884,
      "ببرد": 9885,
      "ببخش": 9886,
      "دایی": 9887,
      "ساید": 9888,
      "عقیق": 9889,
      "قراي": 9890,
      "ویک": 9891,
      "پیت": 9892,
      "درز": 9893,
      "همب": 9894,
      "همیش": 9895,
      "دانلودی": 9896,
      "رایانه‌ای": 9897,
      "قطب": 9898,
      "##کوک": 9899,
      "پیشنهادات": 9900,
      "دندانپزشکی": 9901,
      "مجاهدین": 9902,
      "##up": 9903,
      "الر": 9904,
      "بزرگداشت": 9905,
      "نیروگاه": 9906,
      "##ialis": 9907,
      "مظل": 9908,
      "بیانیه‌ای": 9909,
      "sc": 9910,
      "اقیان": 9911,
      "سلس": 9912,
      "لیس": 9913,
      "شمسی": 9914,
      "##لوازم": 9915,
      "هدای": 9916,
      "عددی": 9917,
      "تایپ": 9918,
      "##ويید": 9919,
      "بلوک": 9920,
      "ضخامت": 9921,
      "فست": 9922,
      "##فضل": 9923,
      "##قال": 9924,
      "##ایون": 9925,
      "کرده‌ام": 9926,
      "اراده": 9927,
      "##اکتر": 9928,
      "نشاط": 9929,
      "تنفسی": 9930,
      "خودروسازان": 9931,
      "ویزا": 9932,
      "وابستگی": 9933,
      "ممنوعیت": 9934,
[...]
