{
  "version": "1.0",
  "truncation": null,
  "padding": null,
  "added_tokens": [
    {
      "id": 0,
      "content": "<cls>",
      "single_word": false,
      "lstrip": false,
      "rstrip": false,
      "normalized": false,
      "special": true
    },
    {
      "id": 1,
      "content": "<sep>",
      "single_word": false,
      "lstrip": false,
      "rstrip": false,
      "normalized": false,
      "special": true
    },
    {
      "id": 2,
      "content": "<unk>",
      "single_word": false,
      "lstrip": false,
      "rstrip": false,
      "normalized": false,
      "special": true
    },
    {
      "id": 3,
      "content": "<pad>",
      "single_word": false,
      "lstrip": false,
      "rstrip": false,
      "normalized": false,
      "special": true
    },
    {
      "id": 4,
      "content": "<mask>",
      "single_word": false,
      "lstrip": false,
      "rstrip": false,
      "normalized": false,
      "special": true
    },
    {
      "id": 5,
      "content": "<s>",
      "single_word": false,
      "lstrip": false,
      "rstrip": false,
      "normalized": false,
      "special": true
    },
    {
      "id": 6,
      "content": "</s>",
      "single_word": false,
      "lstrip": false,
      "rstrip": false,
      "normalized": false,
      "special": true
    }
  ],
  "normalizer": {
    "type": "Sequence",
    "normalizers": [
      {
        "type": "NFKD"
      },
      {
        "type": "StripAccents"
      }
    ]
  },
  "pre_tokenizer": {
    "type": "Metaspace",
    "replacement": "▁",
    "add_prefix_space": true,
    "prepend_scheme": "always"
  },
  "post_processor": null,
  "decoder": null,
  "model": {
    "type": "Unigram",
    "unk_id": 2,
    "vocab": [
      [
        "<cls>",
        0.0
      ],
      [
        "<sep>",
        0.0
      ],
      [
        "<unk>",
        0.0
      ],
      [
        "<pad>",
        0.0
      ],
      [
        "<mask>",
        0.0
      ],
      [
        "<s>",
        0.0
      ],
      [
        "</s>",
        0.0
      ],
      [
        "▁و",
        -3.3946989953160323
      ],
      [
        "\n",
        -3.5624372939933657
      ],
      [
        "▁در",
        -3.7063593832560198
      ],
      [
        "▁",
        -3.706570802343002
      ],
      [
        "▁به",
        -3.9479493501673364
      ],
      [
        "▁از",
        -4.09213773857547
      ],
      [
        "،",
        -4.132511962284035
      ],
      [
        "ی",
        -4.286157931140238
      ],
      [
        "▁که",
        -4.510128223498004
      ],
      [
        "▁با",
        -4.532318282602253
      ],
      [
        "▁این",
        -4.574171252260715
      ],
      [
        "▁را",
        -4.635371841172132
      ],
      [
        "▁برای",
        -5.147846900342456
      ],
      [
        "/",
        -5.2633395515234955
      ],
      [
        "▁است",
        -5.358915210328858
      ],
      [
        "▁-",
        -5.392537941231334
      ],
      [
        ".",
        -5.465603825121255
      ],
      [
        ":",
        -5.496156052007635
      ],
      [
        "▁یک",
        -5.756218001648257
      ],
      [
        "‌های",
        -5.759592354997542
      ],
      [
        "▁است.",
        -5.781741386700229
      ],
      [
        "ه",
        -5.784137948213205
      ],
      [
        "▁ان",
        -5.788436284863183
      ],
      [
        "▁...",
        -5.904646765592531
      ],
      [
        ",",
        -5.937068809786789
      ],
      [
        "▁تا",
        -5.959955878961846
      ],
      [
        "▁,",
        -5.970699333734286
      ],
      [
        "▁خود",
        -5.977716777085083
      ],
      [
        "▁بر",
        -5.999156052689212
      ],
      [
        "و",
        -6.016742200633841
      ],
      [
        ")",
        -6.139375475511548
      ],
      [
        "»",
        -6.14549700274528
      ],
      [
        "‌ها",
        -6.159114409946236
      ],
      [
        "▁دانلود",
        -6.180666686104855
      ],
      [
        "م",
        -6.197156044931452
      ],
      [
        "▁هم",
        -6.254631642764446
      ],
      [
        "▁ایران",
        -6.258552421774345
      ],
      [
        "▁سال",
        -6.291707954934568
      ],
      [
        "▁یا",
        -6.307964347061217
      ],
      [
        "▁شما",
        -6.40492181794003
      ],
      [
        "ا",
        -6.410613713790562
      ],
      [
        "ش",
        -6.442731435124138
      ],
      [
        "▁|",
        -6.462163679836024
      ],
      [
        "▁شده",
        -6.483164428394906
      ],
      [
        "▁ما",
        -6.484659715999193
      ],
      [
        "▁استفاده",
        -6.5118853105589505
      ],
      [
        "▁نیز",
        -6.557502962746112
      ],
      [
        "▁کشور",
        -6.564197008504104
      ],
      [
        "▁کار",
        -6.583023377022508
      ],
      [
        "▁باید",
        -6.5863395467844885
      ],
      [
        "▁(",
        -6.586469687560969
      ],
      [
        "▁«",
        -6.5947308940407385
      ],
      [
        "د",
        -6.595729586515462
      ],
      [
        "ان",
        -6.614285632992397
      ],
      [
        "▁۲",
        -6.6299459335291075
      ],
      [
        "▁هر",
        -6.644347854330977
      ],
      [
        "▁۱",
        -6.656452586999977
      ],
      [
        "▁قرار",
        -6.676106341651526
      ],
      [
        "های",
        -6.688787216225069
      ],
      [
        "▁دو",
        -6.693569688600652
      ],
      [
        "▁مورد",
        -6.7016575536076815
      ],
      [
        "ن",
        -6.7211005324599284
      ],
      [
        "▁اما",
        -6.723003975956136
      ],
      [
        "ت",
        -6.734433481721444
      ],
      [
        "-",
        -6.736447981194074
      ],
      [
        "▁جدید",
        -6.759088440306524
      ],
      [
        "▁روز",
        -6.772704433704224
      ],
      [
        "ر",
        -6.7788297985680614
      ],
      [
        "▁۳",
        -6.795963463096532
      ],
      [
        "▁شد",
        -6.79817226203815
      ],
      [
        "▁شرکت",
        -6.803127551514098
      ],
      [
        "▁بود",
        -6.819795107661994
      ],
      [
        "▁صورت",
        -6.821887265896214
      ],
      [
        "▁٫",
        -6.837426060904933
      ],
      [
        "▁گزارش",
        -6.854442649930682
      ],
      [
        "▁گفت:",
        -6.891812748942188
      ],
      [
        "▁من",
        -6.909032043194971
      ],
      [
        "▁۵",
        -6.953511780890475
      ],
      [
        "▁او",
        -6.955996869666256
      ],
      [
        "▁کرده",
        -6.957353311198528
      ],
      [
        "ک",
        -6.959811048286218
      ],
      [
        "▁دیگر",
        -6.964785922207733
      ],
      [
        "▁۴",
        -6.969376739617573
      ],
      [
        "▁خرید",
        -6.97300686194593
      ],
      [
        "▁فیلم",
        -6.974194696327782
      ],
      [
        "▁دارد",
        -6.980118253236549
      ],
      [
        "▁قیمت",
        -6.982010411999331
      ],
      [
        "▁بازی",
        -6.983535933853426
      ],
      [
        "▁روی",
        -6.983653365911019
      ],
      [
        "▁تولید",
        -6.995861910520853
      ],
      [
        "ها",
        -6.997170242784856
      ],
      [
        "▁می‌شود",
        -7.003007480926229
      ],
      [
        "▁کرد",
        -7.018234584727924
      ],
      [
        "▁استان",
        -7.027642454052593
      ],
      [
        "▁۱۰",
        -7.028636605591473
      ],
      [
        "▁نظر",
        -7.029600576166546
      ],
      [
        "▁یکی",
        -7.030021887945805
      ],
      [
        "▁اگر",
        -7.034097041937869
      ],
      [
        "▁رو",
        -7.055977147309463
      ],
      [
        "▁عنوان",
        -7.057408138437976
      ],
      [
        "▁سایت",
        -7.058846988241367
      ],
      [
        "▁اموزش",
        -7.059278779953308
      ],
      [
        "؛",
        -7.060100619667795
      ],
      [
        "▁وجود",
        -7.088444317870245
      ],
      [
        "▁مردم",
        -7.099477019520609
      ],
      [
        "▁اینکه",
        -7.103559722610983
      ],
      [
        "▁خواهد",
        -7.103789567157836
      ],
      [
        "▁کردن",
        -7.111336395275089
      ],
      [
        "▁انجام",
        -7.112355110109325
      ],
      [
        "▁پس",
        -7.116070689159379
      ],
      [
        "▁تاریخ",
        -7.139501544832594
      ],
      [
        "▁فروش",
        -7.140620232118382
      ],
      [
        "▁انها",
        -7.153190049182852
      ],
      [
        "▁ساعت",
        -7.157292880579776
      ],
      [
        "▁تهران",
        -7.160913396491312
      ],
      [
        "s",
        -7.16343923798304
      ],
      [
        "▁شد.",
        -7.1643511740625545
      ],
      [
        "▁–",
        -7.168490518178357
      ],
      [
        "▁ادامه",
        -7.172095124502798
      ],
      [
        "▁می‌شود.",
        -7.172764019090913
      ],
      [
        "▁۸",
        -7.177828139738569
      ],
      [
        "▁دست",
        -7.179442392215524
      ],
      [
        "▁داشته",
        -7.185548276766186
      ],
      [
        "▁بیشتر",
        -7.1966834128371335
      ],
      [
        "▁بسیار",
        -7.198914649016272
      ],
      [
        "▁اب",
        -7.202333121467083
      ],
      [
        "▁توسط",
        -7.212564629422793
      ],
      [
        "▁کد",
        -7.2310111645156265
      ],
      [
        "‌",
        -7.245828805028532
      ],
      [
        "‌ای",
        -7.249954207438268
      ],
      [
        "▁پیش",
        -7.252487833062043
      ],
      [
        "▁اسلامی",
        -7.259697951182966
      ],
      [
        "▁حال",
        -7.2644158057344
      ],
      [
        "▁افزایش",
        -7.273109335522802
      ],
      [
        "▁شهر",
        -7.287417360849204
      ],
      [
        "▁نام",
        -7.308834656019233
      ],
      [
        "▁بعد",
        -7.3231281241602115
      ],
      [
        "▁کرد:",
        -7.323460866023035
      ],
      [
        "▁همچنین",
        -7.325586939864566
      ],
      [
        "▁توجه",
        -7.326191574895079
      ],
      [
        "ب",
        -7.327025412233477
      ],
      [
        "▁وی",
        -7.329386731021964
      ],
      [
        "▁کنید",
        -7.330946248859716
      ],
      [
        "▁چه",
        -7.334208115043213
      ],
      [
        "▁همه",
        -7.342578625919879
      ],
      [
        "▁اهنگ",
        -7.348822835669344
      ],
      [
        "‌ی",
        -7.358238720476683
      ],
      [
        "▁سازمان",
        -7.359179864287174
      ],
      [
        "▁زمان",
        -7.380966518096347
      ],
      [
        "▁۷",
        -7.386263979101463
      ],
      [
        "▁۶",
        -7.393126862585463
      ],
      [
        "!",
        -7.402238911482147
      ],
      [
        "▁کرد.",
        -7.405554781114111
      ],
      [
        "▁هزار",
        -7.411727910783409
      ],
      [
        "▁ماه",
        -7.412235565443465
      ],
      [
        "▁۱۲",
        -7.4129079472519805
      ],
      [
        "▁بازار",
        -7.413860816289571
      ],
      [
        "▁تیم",
        -7.414521471766111
      ],
      [
        "▁حضور",
        -7.416695458129858
      ],
      [
        "▁امریکا",
        -7.4169876693088135
      ],
      [
        "▁دانشگاه",
        -7.4221925251134255
      ],
      [
        "▁بخش",
        -7.423006354314481
      ],
      [
        "▁طرح",
        -7.426206868998893
      ],
      [
        "▁باشد",
        -7.427681855802726
      ],
      [
        "▁اطلاعات",
        -7.435520167371585
      ],
      [
        "▁مدل",
        -7.4359418971122775
      ],
      [
        "▁بین",
        -7.43956482808775
      ],
      [
        "▁همراه",
        -7.442176267568341
      ],
      [
        "▁شدن",
        -7.445178263127323
      ],
      [
        "▁چند",
        -7.445706636358409
      ],
      [
        "▁ملی",
        -7.457421805160614
      ],
      [
        "▁ایجاد",
        -7.461483814857761
      ],
      [
        "ز",
        -7.466430635941736
      ],
      [
        "▁دولت",
        -7.469766882086095
      ],
      [
        "▁بوده",
        -7.476018182508209
      ],
      [
        "▁کتاب",
        -7.484527849460564
      ],
      [
        "▁تومان",
        -7.4879499061704635
      ],
      [
        "▁۰",
        -7.489413244567027
      ],
      [
        "ین",
        -7.495568856630893
      ],
      [
        "▁جهت",
        -7.495834828850631
      ],
      [
        "▁بررسی",
        -7.496437600150323
      ],
      [
        "▁است،",
        -7.506039157876565
      ],
      [
        "▁کنید.",
        -7.50708349796186
      ],
      [
        "▁۱۱",
        -7.511520355462457
      ],
      [
        "▁خبر",
        -7.512637428058143
      ],
      [
        "▁می‌کند",
        -7.515088264758736
      ],
      [
        "▁زیر",
        -7.530678929372614
      ],
      [
        "▁درباره",
        -7.53907513785548
      ],
      [
        "▁برنامه",
        -7.542443329997898
      ],
      [
        "▁اعلام",
        -7.553959751588353
      ],
      [
        "▁۹",
        -7.554324069804146
      ],
      [
        "▁بدون",
        -7.561889650609983
      ],
      [
        "▁اشاره",
        -7.565582967990139
      ],
      [
        "▁امروز",
        -7.568539915304948
      ],
      [
        "▁می‌تواند",
        -7.5691877867260775
      ],
      [
        "▁مختلف",
        -7.569278421145212
      ],
      [
        "▁صفحه",
        -7.584451659386378
      ],
      [
        "▁دارد.",
        -7.591243609299543
      ],
      [
        "▁طراحی",
        -7.594056089626243
      ],
      [
        "▁همین",
        -7.595865701448597
      ],
      [
        "▁نیست",
        -7.598591868821469
      ],
      [
        "▁سنگ",
        -7.601113295977168
      ],
      [
        "▁اول",
        -7.601461581579651
      ],
      [
        "▁هستند",
        -7.604943261029664
      ],
      [
        "▁کاهش",
        -7.610187481433307
      ],
      [
        "▁زندگی",
        -7.611032512495415
      ],
      [
        "▁گذشته",
        -7.613322803597265
      ],
      [
        "ل",
        -7.614113373265409
      ],
      [
        "▁برخی",
        -7.629345504324059
      ],
      [
        "▁تمام",
        -7.632121863054804
      ],
      [
        "▁سه",
        -7.635289820165214
      ],
      [
        "▁درصد",
        -7.6355148446593475
      ],
      [
        "▁انتخاب",
        -7.643481185499116
      ],
      [
        "▁مدیریت",
        -7.643757433877548
      ],
      [
        "▁دارای",
        -7.647554971453406
      ],
      [
        "▁نیاز",
        -7.649314730600713
      ],
      [
        "▁سر",
        -7.649769156681417
      ],
      [
        "▁بود.",
        -7.6548197643177645
      ],
      [
        "▁گروه",
        -7.656018292047435
      ],
      [
        "▁بیان",
        -7.658030299617616
      ],
      [
        "▁دستگاه",
        -7.6623957875489985
      ],
      [
        "▁۲۰",
        -7.663058325290995
      ],
      [
        "▁قبل",
        -7.66328212049514
      ],
      [
        "▁می‌باشد.",
        -7.663469863486425
      ],
      [
        "▁افراد",
        -7.6652166178212156
      ],
      [
        "▁خدمات",
        -7.66619157435032
      ],
      [
        "▁داده",
        -7.673076413644013
      ],
      [
        "▁باز",
        -7.673784647096758
      ],
      [
        "▁اجتماعی",
        -7.677546676512103
      ],
      [
        "▁تو",
        -7.687649202601911
      ],
      [
        "ات",
        -7.69401865324202
      ],
      [
        "؟",
        -7.701700123176105
      ],
      [
        "▁بار",
        -7.711589270088783
      ],
      [
        "▁می‌توانید",
        -7.712300609193411
      ],
      [
        "▁موضوع",
        -7.717212326213925
      ],
      [
        "▁عکس",
        -7.717274883943064
      ],
      [
        "▁۱۳۹۸",
        -7.71780081315973
      ],
      [
        "▁بهترین",
        -7.719736600109947
      ],
      [
        "▁ساخت",
        -7.719899590304472
      ],
      [
        "▁دلیل",
        -7.721955887990946
      ],
      [
        "▁۱۵",
        -7.725141319236338
      ],
      [
        "▁بازدید",
        -7.7266498074040975
      ],
      [
        "▁اصلی",
        -7.7287766592268845
      ],
      [
        "▁جهان",
        -7.730453845271688
      ],
      [
        "▁مواد",
        -7.73071624964574
      ],
      [
        "▁خانه",
        -7.731214007058814
      ],
      [
        "▁شود.",
        -7.737642031475325
      ],
      [
        "▁شرایط",
        -7.737746241522093
      ],
      [
        "▁انواع",
        -7.740292727778996
      ],
      [
        "▁ارايه",
        -7.741690655932661
      ],
      [
        "▁نشان",
        -7.743824033859315
      ],
      [
        "▁کیفیت",
        -7.7478542561173676
      ],
      [
        "▁امام",
        -7.758322185238573
      ],
      [
        "▁خبر:",
        -7.75978245649449
      ],
      [
        "▁ولی",
        -7.763391758993759
      ],
      [
        "▁نفر",
        -7.779673240147506
      ],
      [
        "▁سنگ‌شکن",
        -7.783523813489664
      ],
      [
        "▁مجلس",
        -7.789462790211179
      ],
      [
        "▁کمک",
        -7.790317984218081
      ],
      [
        "▁برگزار",
        -7.792262109749819
      ],
      [
        "▁اقتصادی",
        -7.792535291951122
      ],
      [
        "▁اخبار",
        -7.792594348987256
      ],
      [
        "▁بیش",
        -7.797272359316054
      ],
      [
        "▁تعداد",
        -7.798490678218021
      ],
      [
        "▁دریافت",
        -7.799702389994845
      ],
      [
        "▁راه",
        -7.804981495733362
      ],
      [
        "▁عمومی",
        -7.806374608303658
      ],
      [
        "▁هیچ",
        -7.809867566700408
      ],
      [
        "▁کامل",
        -7.814974282583613
      ],
      [
        "▁شورای",
        -7.815785187435061
      ],
      [
        "▁۱۳۹۵",
        -7.820051465438455
      ],
      [
        "▁۱۳۹۷",
        -7.823192471502754
      ],
      [
        "▁می‌کند.",
        -7.825955287496974
      ],
      [
        "▁نمایش",
        -7.84020137991449
      ],
      [
        "▁نسبت",
        -7.840830366361349
      ],
      [
        "▁نرم‌افزار",
        -7.846907889588275
      ],
      [
        "▁شود",
        -7.846982620040704
      ],
      [
        "▁بالا",
        -7.856416591629937
      ],
      [
        "▁وارد",
        -7.857293333271324
      ],
      [
        "▁افزود:",
        -7.8586467795581605
      ],
      [
        "▁کل",
        -7.859078785930389
      ],
      [
        "▁دارند",
        -7.862375107316639
      ],
      [
        "▁تنها",
        -7.864646343221596
      ],
      [
        "▁منطقه",
        -7.866335673979963
      ],
      [
        "▁نوع",
        -7.867131202815271
      ],
      [
        "▁لینک",
        -7.872984468774831
      ],
      [
        "▁بزرگ",
        -7.879157969234367
      ],
      [
        "▁۱۳",
        -7.879300878586848
      ],
      [
        "▁باعث",
        -7.879461483157158
      ],
      [
        "▁گرفته",
        -7.880425218784893
      ],
      [
        "▁ایرانی",
        -7.880502763890778
      ],
      [
        "▁مرکز",
        -7.8862735992029975
      ],
      [
        "▁دوم",
        -7.88875806689766
      ],
      [
        "▁علی",
        -7.891402940390439
      ],
      [
        "▁ريیس",
        -7.8925091803185765
      ],
      [
        "▁+",
        -7.895599271248264
      ],
      [
        "▁محصولات",
        -7.896685301310509
      ],
      [
        "▁میلیون",
        -7.8992807966810386
      ],
      [
        "▁توسعه",
        -7.900965989728
      ],
      [
        "▁غیر",
        -7.902499171995871
      ],
      [
        "▁ویژه",
        -7.902981367416913
      ],
      [
        "▁هفته",
        -7.90417893463373
      ],
      [
        "▁باشد.",
        -7.904233601005355
      ],
      [
        "▁کند.",
        -7.905215410153724
      ],
      [
        "▁مصرف",
        -7.910979750651132
      ],
      [
        "▁مهر",
        -7.9152419337784465
      ],
      [
        "▁رایگان",
        -7.9168125270831915
      ],
      [
        "▁مناسب",
        -7.92067972067065
      ],
      [
        "▁۱۳۹۶",
        -7.920846362317558
      ],
      [
        "▁پر",
        -7.921280871856887
      ],
      [
        "▁زیادی",
        -7.92286142283308
      ],
      [
        "▁دی",
        -7.927111509184256
      ],
      [
        "▁خیلی",
        -7.9292870441477845
      ],
      [
        "▁ال",
        -7.92967580993734
      ],
      [
        "▁شهرستان",
        -7.931653852875163
      ],
      [
        "▁وزارت",
        -7.934471938141398
      ],
      [
        "▁پاسخ",
        -7.936089095220767
      ],
      [
        "▁۱۶",
        -7.93627408950594
      ],
      [
        "▁کند",
        -7.939125927001944
      ],
      [
        "▁۳۰",
        -7.948359512632127
      ],
      [
        "▁پایان",
        -7.949602399276134
      ],
      [
        "▁می‌باشد",
        -7.95078638512279
      ],
      [
        "▁سیستم",
        -7.953514424298069
      ],
      [
        "▁حوزه",
        -7.953525117419449
      ],
      [
        "▁انتشار:",
        -7.959742580504114
      ],
      [
        "▁حتی",
        -7.960322762436196
      ],
      [
        "▁رنگ",
        -7.964233477095391
      ],
      [
        "▁میان",
        -7.964884309209534
      ],
      [
        "▁معرفی",
        -7.965120016930378
      ],
      [
        "▁۱۴",
        -7.965213843961866
      ],
      [
        "▁میزان",
        -7.969031522495584
      ],
      [
        "▁روش",
        -7.973181325587332
      ],
      [
        "ست",
        -7.978224308185094
      ],
      [
        "▁طریق",
        -7.983734404056856
      ],
      [
        "س",
        -7.984787928704831
      ],
      [
        "▁خودرو",
        -7.985238062224646
      ],
      [
        "▁اخرین",
        -7.988328585728814
      ],
      [
        "▁نقل",
        -7.988742877008853
      ],
      [
        "▁اظهار",
        -7.990416754990058
      ],
      [
        "▁جهانی",
        -7.995185568900839
      ],
      [
        "▁می‌توان",
        -7.996025453386528
      ],
      [
        "▁۱۹",
        -7.997276527345717
      ],
      [
        "▁فرهنگی",
        -7.997562571422215
      ],
      [
        "▁تغییر",
        -7.9984099530587685
      ],
      [
        "▁ب",
        -8.003698831316386
      ],
      [
        "▁زمینه",
        -8.005578924757197
      ],
      [
        "▁خوب",
        -8.00559200544866
      ],
      [
        "▁وزیر",
        -8.010243322769112
      ],
      [
        "▁ان‌ها",
        -8.012330018129093
      ],
      [
        "▁زبان",
        -8.015641328603863
      ],
      [
        "▁فقط",
        -8.020012825135709
      ],
      [
        "▁۱۸",
        -8.020338388517576
      ],
      [
        "▁مشاهده",
        -8.020619115228671
      ],
      [
        "▁مانند",
        -8.021048275211566
      ],
      [
        "ند",
        -8.021080693929832
      ],
      [
        "▁۰۰۰",
        -8.02179156981254
      ],
      [
        "▁کسب",
        -8.022778446871339
      ],
      [
        "▁دکتر",
        -8.024449850061549
      ],
      [
        "▁بانک",
        -8.029178558800625
      ],
      [
        "▁داد",
        -8.031630893028906
      ],
      [
        "▁پی",
        -8.032641894753805
      ],
      [
        "▁اجرای",
        -8.035054503183483
      ],
      [
        "▁مهم",
        -8.035523652689893
      ],
      [
        "▁انقلاب",
        -8.035621046124463
      ],
      [
        "▁اولین",
        -8.03574714678241
      ],
      [
        "▁سطح",
        -8.037421002878737
      ],
      [
        "▁بسیاری",
        -8.038337021508188
      ],
      [
        "▁لازم",
        -8.042640592362732
      ],
      [
        "▁تاکید",
        -8.043668293664734
      ],
      [
        "▁فایل",
        -8.047144005685846
      ],
      [
        "▁پیدا",
        -8.050231202537631
      ],
      [
        "▁اغاز",
        -8.05059460506979
      ],
      [
        "▁مشکلات",
        -8.058486730097957
      ],
      [
        "▁مقاله",
        -8.060536644701893
      ],
      [
        "▁سریال",
        -8.061724226403005
      ],
      [
        "▁درمان",
        -8.06210765157889
      ],
      [
        "▁داشت",
        -8.063470026862916
      ],
      [
        "▁جامعه",
        -8.07094273601943
      ],
      [
        "▁تامین",
        -8.0709586980639
      ],
      [
        "▁شبکه",
        -8.07176600978507
      ],
      [
        "▁اساس",
        -8.078486681962923
      ],
      [
        "▁تجهیزات",
        -8.079254707118004
      ],
      [
        "▁S",
        -8.080014053594162
      ],
      [
        "▁جمله",
        -8.085591727019954
      ],
      [
        "▁۱۷",
        -8.086018721375584
      ],
      [
        "▁محمد",
        -8.086357130389677
      ],
      [
        "▁چرا",
        -8.0879762538032
      ],
      [
        "▁ارسال",
        -8.089930290530875
      ],
      [
        "▁گل",
        -8.093531114361216
      ],
      [
        "▁ممکن",
        -8.096148800451871
      ],
      [
        "▁دوره",
        -8.098947115495113
      ],
      [
        "▁می‌کنند",
        -8.099904101965102
      ],
      [
        "▁می‌دهد",
        -8.099933017267091
      ],
      [
        "▁خبری",
        -8.10054595848557
      ],
      [
        "▁قسمت",
        -8.101564738507518
      ],
      [
        "▁ای",
        -8.104506761377015
      ],
      [
        "▁اس",
        -8.105034601652093
      ],
      [
        "▁البته",
        -8.106228159582734
      ],
      [
        "▁منتشر",
        -8.106939933507691
      ],
      [
        "▁فوتبال",
        -8.10801786073474
      ],
      [
        "‌ترین",
        -8.11075406803828
      ],
      [
        "▁پرداخت",
        -8.112608945060677
      ],
      [
        "▁امور",
        -8.115281502477732
      ],
      [
        "▁A",
        -8.116169460479117
      ],
      [
        "▁سلامت",
        -8.116267753558084
      ],
      [
        "▁کنند.",
        -8.118297953318903
      ],
      [
        "▁ir",
        -8.119327656197083
      ],
      [
        "▁هدف",
        -8.12140698714174
      ],
      [
        "▁طور",
        -8.122223982744336
      ],
      [
        "▁۲۲",
        -8.12505144890447
      ],
      [
        "▁گفت",
        -8.126134117059111
      ],
      [
        "▁سیاسی",
        -8.1289815875271
      ],
      [
        "▁علمی",
        -8.130184910022688
      ],
      [
        "▁ازاد",
        -8.13110979839353
      ],
      [
        "▁خبرگزاری",
        -8.131653720485652
      ],
      [
        "▁فارسی",
        -8.13218145280442
      ],
      [
        "▁سوی",
        -8.134904425945265
      ],
      [
        "▁بودن",
        -8.137002536969694
      ],
      [
        "▁پزشکی",
        -8.1390271445601
      ],
      [
        "▁بی",
        -8.139126081238047
      ],
      [
        "▁ثبت",
        -8.139230536066153
      ],
      [
        "▁خارجی",
        -8.140266607613
      ],
      [
        "▁اقدام",
        -8.14097502785741
      ],
      [
        "▁کنار",
        -8.143697473421252
      ],
      [
        "▁انلاین",
        -8.155669177821725
      ],
      [
        "d",
        -8.162138087830645
      ],
      [
        "▁سایر",
        -8.165314296723903
      ],
      [
        "▁com",
        -8.165954517881888
      ],
      [
        "▁نه",
        -8.16611599170971
      ],
      [
        "▁نفت",
        -8.169167413077195
      ],
      [
        "▁موبایل",
        -8.170648994569557
      ],
      [
        "▁اموزشی",
        -8.171170824431464
      ],
      [
        "▁تلاش",
        -8.17130300633862
      ],
      [
        "▁حدود",
        -8.172829807132326
      ],
      [
        "▁مشکل",
        -8.175285382851808
      ],
      [
        "▁مطلب",
        -8.175752591371676
      ],
      [
        "▁صنعت",
        -8.176289276349793
      ],
      [
        "▁۲۴",
        -8.176815221901714
      ],
      [
        "▁رشد",
        -8.177289471812308
      ],
      [
        "▁لوازم",
        -8.178307454124687
      ],
      [
        "▁قانون",
        -8.178805211061038
      ],
      [
        "▁اینده",
        -8.178821036917354
      ],
      [
        "▁گوشی",
        -8.17925116308891
      ],
      [
        "▁نقش",
        -8.179500718794928
      ],
      [
        "▁محصول",
        -8.180273423869215
      ],
      [
        "▁امکان",
        -8.185298541446514
      ],
      [
        "▁شماره",
        -8.186873966839363
      ],
      [
        "▁داخلی",
        -8.187668733293139
      ],
      [
        "▁فضای",
        -8.18890820218934
      ],
      [
        "▁خوبی",
        -8.18919897138104
      ],
      [
        "▁۲۱",
        -8.189610135716244
      ],
      [
        "▁برابر",
        -8.191132934776949
      ],
      [
        "▁پایگاه",
        -8.192553486840428
      ],
      [
        "▁فعالیت",
        -8.194218527077657
      ],
      [
        "شان",
        -8.195454933905975
      ],
      [
        "▁مدت",
        -8.197456328900776
      ],
      [
        "ای",
        -8.197834111337292
      ],
      [
        "▁تاثیر",
        -8.2108853715953
      ],
      [
        "▁مجموعه",
        -8.213477653089026
      ],
      [
        "▁طی",
        -8.215837062163523
      ],
      [
        "▁عمل",
        -8.217155110303164
      ],
      [
        "▁قابل",
        -8.217366169192646
      ],
      [
        "▁موجود",
        -8.21936597528875
      ],
      [
        "▁پروژه",
        -8.2207988409048
      ],
      [
        "▁حمایت",
        -8.223812314204542
      ],
      [
        "▁علوم",
        -8.226096396744396
      ],
      [
        "▁فصل",
        -8.226283776065365
      ],
      [
        "▁دانش",
        -8.227470123854834
      ],
      [
        "▁۲۵",
        -8.228547243259126
      ],
      [
        "▁گفته",
        -8.230362693158144
      ],
      [
        "▁وضعیت",
        -8.230407314484724
      ],
      [
        "▁دنبال",
        -8.231288001770489
      ],
      [
        "▁مدیر",
        -8.232295809334524
      ],
      [
        "▁خصوص",
        -8.23340312335762
      ],
      [
        "▁کنترل",
        -8.23833484738098
      ],
      [
        "▁حاضر",
        -8.240103431472358
      ],
      [
        "▁صنعتی",
        -8.242511574772927
      ],
      [
        "▁تهیه",
        -8.245826020499816
      ],
      [
        "▁متن",
        -8.246249371698521
      ],
      [
        "▁ایا",
        -8.2472415677955
      ],
      [
        "▁مالی",
        -8.247958674476672
      ],
      [
        "▁۰۹",
        -8.248038710353917
      ],
      [
        "▁چون",
        -8.250035437807266
      ],
      [
        "▁سفر",
        -8.250199081238753
      ],
      [
        "▁حقوق",
        -8.252597115832076
      ],
      [
        "▁همان",
        -8.2562602727642
      ],
      [
        "▁هستند.",
        -8.256886273618306
      ],
      [
        "▁بین‌المللی",
        -8.259068694004
      ],
      [
        "...",
        -8.259081015927782
      ],
      [
        "▁اثر",
        -8.260952706451958
      ],
      [
        "▁زیبا",
        -8.261412070459434
      ],
      [
        "▁دور",
        -8.267303627389806
      ],
      [
        "▁محل",
        -8.268366508732285
      ],
      [
        "▁اقتصاد",
        -8.270225383113965
      ],
      [
        "▁منابع",
        -8.272465567783016
      ],
      [
        "▁تن",
        -8.27469158358329
      ],
      [
        "▁جمهوری",
        -8.275195823140049
      ],
      [
        "▁بدن",
        -8.28213373691487
      ],
      [
        "▁می‌",
        -8.282557429452842
      ],
      [
        "▁کاربران",
        -8.284001415085331
      ],
      [
        "▁۱۳۹۴",
        -8.284038926845923
      ],
      [
        "▁مربوط",
        -8.284385880749516
      ],
      [
        "▁ارتباط",
        -8.285777974904969
      ],
      [
        "▁کنند",
        -8.28638774107271
      ],
      [
        "▁همکاری",
        -8.286981140666967
      ],
      [
        "▁اینترنتی",
        -8.29097434838098
      ],
      [
        "▁دقیقه",
        -8.291606648597414
      ],
      [
        "▁۲۳",
        -8.292889647207256
      ],
      [
        "▁شامل",
        -8.293723808146988
      ],
      [
        "▁اقای",
        -8.297952463499636
      ],
      [
        "▁زمانی",
        -8.300748748761793
      ],
      [
        "▁خانواده",
        -8.301580059315073
      ],
      [
        "▁نسخه",
        -8.301771199459626
      ],
      [
        "▁سرمایه",
        -8.301826992742905
      ],
      [
        "▁کودک",
        -8.302623177706623
      ],
      [
        "▁کم",
        -8.3029312199976
      ],
      [
        "▁عالی",
        -8.306924395719605
      ],
      [
        "تر",
        -8.310597284892676
      ],
      [
        "▁میلیارد",
        -8.314699605111617
      ],
      [
        "▁دنیا",
        -8.315127580226427
      ],
      [
        "▁تماس",
        -8.316569987998081
      ],
      [
        "▁شب",
        -8.317646561858417
      ],
      [
        "▁بسته",
        -8.319145627006595
      ],
      [
        "▁کننده",
        -8.320796193344952
      ],
      [
        "▁نتیجه",
        -8.322064304641446
      ],
      [
        "▁جای",
        -8.322917639027448
      ],
      [
        "▁نصب",
        -8.326876936585236
      ],
      [
        "▁تصاویر",
        -8.328423696840376
      ],
      [
        "▁برگزاری",
        -8.33087588339502
      ],
      [
        "▁دلار",
        -8.331121379848557
      ],
      [
        "▁عضو",
        -8.331339050221361
      ],
      [
        "▁معدن",
        -8.331889717364483
      ],
      [
        "▁معاون",
        -8.333137586074656
      ],
      [
        "▁نظام",
        -8.334035872105304
      ],
      [
        "▁زمین",
        -8.334961245188996
      ],
      [
        "▁روابط",
        -8.336429655267992
      ],
      [
        "▁قالب",
        -8.33784270143466
      ],
      [
        "▁کودکان",
        -8.34270623035454
      ],
      [
        "_",
        -8.344504819660742
      ],
      [
        "▁ورود",
        -8.34695158788904
      ],
      [
        "▁تحت",
        -8.3493496519962
      ],
      [
        "دانلود",
        -8.351137228176666
      ],
      [
        "▁اضافه",
        -8.356955369804949
      ],
      [
        "▁می‌توانند",
        -8.357100617276611
      ],
      [
        "e",
        -8.35775332159885
      ],
      [
        "▁مستقیم",
        -8.357891920044414
      ],
      [
        "▁فرهنگ",
        -8.360793659707657
      ],
      [
        "▁وقتی",
        -8.365949440228492
      ],
      [
        "▁شروع",
        -8.366377449312155
      ],
      [
        "‌تر",
        -8.366509936865901
      ],
      [
        "▁پوست",
        -8.3676127691995
      ],
      [
        "▁جلسه",
        -8.367884477881418
      ],
      [
        "▁تمامی",
        -8.36877375993947
      ],
      [
        "▁واحد",
        -8.368816131761088
      ],
      [
        "▁اماده",
        -8.371121385730202
      ],
      [
        "▁بهتر",
        -8.37203494729829
      ],
      [
        "▁خط",
        -8.375960960635567
      ],
      [
        "تان",
        -8.376963141957884
      ],
      [
        "▁سی",
        -8.38146161032831
      ],
      [
        "▁برچسب‌ها:",
        -8.382197661958877
      ],
      [
        "▁یعنی",
        -8.38226389288862
      ],
      [
        "▁زنان",
        -8.382515638948536
      ],
      [
        "▁انتخابات",
        -8.385157564158881
      ],
      [
        "▁دیگری",
        -8.387118369410118
      ],
      [
        "▁اندروید",
        -8.395840648513564
      ],
      [
        "▁زن",
        -8.396306505400497
      ],
      [
        "▁کالا",
        -8.3965302998818
      ],
      [
        "▁هزینه",
        -8.400062096514464
      ],
      [
        "▁دیدار",
        -8.401093812304753
      ],
      [
        "▁فنی",
        -8.404408299360519
      ],
      [
        "▁ساختمان",
        -8.408552174746877
      ],
      [
        "▁ازمون",
        -8.410613092754314
      ],
      [
        "▁عملکرد",
        -8.411455786698628
      ],
      [
        "▁مراسم",
        -8.411565960944687
      ],
      [
        "▁بیماری",
        -8.413566968013251
      ],
      [
        "▁فناوری",
        -8.413582389220817
      ],
      [
        "▁استقلال",
        -8.416672481008046
      ],
      [
        "▁طول",
        -8.423418272834429
      ],
      [
        "▁ورزش",
        -8.423724188371892
      ],
      [
        "ف",
        -8.425296015191039
      ],
      [
        "▁چهار",
        -8.429339018826944
      ],
      [
        "در",
        -8.430428629216669
      ],
      [
        "▁باشید",
        -8.432792076118755
      ],
      [
        "▁شهید",
        -8.43348762384972
      ],
      [
        "▁نور",
        -8.440447710267991
      ],
      [
        "▁مو",
        -8.441810438971045
      ],
      [
        "▁چین",
        -8.442869084186773
      ],
      [
        "▁شکل",
        -8.445108236458355
      ],
      [
        "]",
        -8.448103446361493
      ],
      [
        "▁رشته",
        -8.45017600012027
      ],
      [
        "▁اخیر",
        -8.450184703688295
      ],
      [
        "▁اداره",
        -8.45067209345923
      ],
      [
        "y",
        -8.456716471095213
      ],
      [
        "▁فکر",
        -8.457675625683665
      ],
      [
        "▁داخل",
        -8.45842124188083
      ],
      [
        "ال",
        -8.459628400889446
      ],
      [
        "▁فروشگاه",
        -8.459756229405968
      ],
      [
        "▁۰۱",
        -8.461823328239875
      ],
      [
        "▁کسی",
        -8.462127494036757
      ],
      [
        "▁مثل",
        -8.466103471042647
      ],
      [
        "▁جشنواره",
        -8.466104380449963
      ],
      [
        "▁دوست",
        -8.466283384389508
      ],
      [
        "▁دادن",
        -8.466580756318487
      ],
      [
        "▁۰۸",
        -8.470040121945338
      ],
      [
        "▁فرد",
        -8.470263956575414
      ],
      [
        "▁باشگاه",
        -8.471906184535499
      ],
      [
        "▁مرکزی",
        -8.471948584379696
      ],
      [
        "▁مطالب",
        -8.47274899830602
      ],
      [
        "▁عدم",
        -8.47651376372074
      ],
      [
        "▁سرعت",
        -8.47667221567419
      ],
      [
        "▁برق",
        -8.477395830775208
      ],
      [
        "▁تبدیل",
        -8.479216028911003
      ],
      [
        "▁طبیعی",
        -8.481462379132584
      ],
      [
        "▁امنیت",
        -8.482612462127914
      ],
      [
        "▁می‌کنند.",
        -8.482931298718688
      ],
      [
        "▁تخصصی",
        -8.483235516114865
      ],
      [
        "▁لباس",
        -8.483520764772999
      ],
      [
        "▁تیر",
        -8.483657097623643
      ],
      [
        "▁C",
        -8.489504279621363
      ],
      [
        "▁کاری",
        -8.490082842032752
      ],
      [
        "▁دیدگاه",
        -8.491240571647213
      ],
      [
        "▁نشست",
        -8.491338620521189
      ],
      [
        "▁ندارد",
        -8.4914402376995
      ],
      [
        "▁مقابل",
        -8.492283649407428
      ],
      [
        "▁چگونه",
        -8.493027017016267
      ],
      [
        "▁ثبت‌نام",
        -8.494287059851327
      ],
      [
        "▁ماشین",
        -8.497507336913111
      ],
      [
        "▁غذایی",
        -8.504312180093251
      ],
      [
        "ح",
        -8.507129804228288
      ],
      [
        "▁کوتاه",
        -8.510565254033416
      ],
      [
        "▁سلام",
        -8.511392390446613
      ],
      [
        "▁کارت",
        -8.51221788642001
      ],
      [
        "▁نماینده",
        -8.512233396269604
      ],
      [
        "▁G",
        -8.512593658875128
      ],
      [
        "ع",
        -8.512691820060303
      ],
      [
        "▁داد.",
        -8.513195131029214
      ],
      [
        "▁۰۲",
        -8.513664339629878
      ],
      [
        "▁قدرت",
        -8.514163924642787
      ],
      [
        "▁مناطق",
        -8.51449000034603
      ],
      [
        "▁کشورهای",
        -8.514548585837748
      ],
      [
        "▁چنین",
        -8.515410233075201
      ],
      [
        "▁هنوز",
        -8.515717102333774
      ],
      [
        "▁۰۴",
        -8.516034275063786
      ],
      [
        "▁جنگ",
        -8.516603208319873
      ],
      [
        "▁حسین",
        -8.517722180570805
      ],
      [
        "▁#",
        -8.518382319150936
      ],
      [
        "▁تصویر",
        -8.518874581639796
      ],
      [
        "▁http",
        -8.522322009992426
      ],
      [
        "از",
        -8.523611966103292
      ],
      [
        "▁منظور",
        -8.525824651920221
      ],
      [
        "▁چشم",
        -8.525924263705711
      ],
      [
        "▁[",
        -8.527955691504454
      ],
      [
        "▁واقع",
        -8.528066679872996
      ],
      [
        "▁بهداشت",
        -8.528144333634156
      ],
      [
        "▁ضد",
        -8.529129096624615
      ],
      [
        "▁لیگ",
        -8.529309803825402
      ],
      [
        "▁پرسپولیس",
        -8.529431379362926
      ],
      [
        "▁شاید",
        -8.533612776743148
      ],
      [
        "▁فعال",
        -8.536163747294191
      ],
      [
        "▁اذر",
        -8.537193507875218
      ],
      [
        "▁D",
        -8.538450946959754
      ],
      [
        "▁انرژی",
        -8.539384859108116
      ],
      [
        "▁علاوه",
        -8.539866175589683
      ],
      [
        "▁خاص",
        -8.5408296230214
      ],
      [
        "▁هتل",
        -8.541344145766354
      ],
      [
        "▁تحقیق",
        -8.543465265976586
      ],
      [
        "▁خرداد",
        -8.54715457704066
      ],
      [
        "▁جمعه",
        -8.547891101439484
      ],
      [
        "▁وقت",
        -8.551513180502596
      ],
      [
        "▁حرفه‌ای",
        -8.553095149889835
      ],
      [
        "‌هایی",
        -8.553838712975722
      ],
      [
        "تون",
        -8.553985748347788
      ],
      [
        "▁زیاد",
        -8.554496008479793
      ],
      [
        "▁حل",
        -8.557135439946203
      ],
      [
        "▁حساب",
        -8.557684763004273
      ],
      [
        "▁مرحله",
        -8.559415562619844
      ],
      [
        "▁انتقال",
        -8.56290501776186
      ],
      [
        "▁کردند",
        -8.565768430021539
      ],
      [
        "▁خارج",
        -8.566105568432524
      ],
      [
        "▁خون",
        -8.566802157270438
      ],
      [
        "▁موارد",
        -8.56834998787371
      ],
      [
        "▁کنیم",
        -8.568543050692675
      ],
      [
        "▁اجرا",
        -8.570140354770642
      ],
      [
        "▁جوان",
        -8.570734928564345
      ],
      [
        "ق",
        -8.571272444535154
      ],
      [
        "▁هست",
        -8.571604117452953
      ],
      [
        "▁مسیر",
        -8.57279826970169
      ],
      [
        "▁عرضه",
        -8.573122388853909
      ],
      [
        "▁شهرداری",
        -8.57326472492097
      ],
      [
        "▁ورزشی",
        -8.574117597586554
      ],
      [
        "▁مشخص",
        -8.574322633531317
      ],
      [
        "▁سمت",
        -8.574333694281036
      ],
      [
        "▁٪",
        -8.574473550667037
      ],
      [
        "▁سوم",
        -8.578410365473093
      ],
      [
        "▁شهریور",
        -8.580205733212766
      ],
      [
        "▁ابان",
        -8.580854708965754
      ],
      [
        "▁بهمن",
        -8.58221979556421
      ],
      [
        "▁مطالعه",
        -8.584635919273852
      ],
      [
        "یک",
        -8.585536104894453
      ],
      [
        "▁خاطر",
        -8.587511904292567
      ],
      [
        "▁خدا",
        -8.588113642190972
      ],
      [
        "▁۲۶",
        -8.58869311506691
      ],
      [
        "▁of",
        -8.589162569613663
      ],
      [
        "▁داد:",
        -8.589758571531476
      ],
      [
        "▁جریان",
        -8.590598605447166
      ],
      [
        "▁*",
        -8.591850569722425
      ],
      [
        "▁۱۰۰",
        -8.592358471697253
      ],
      [
        "▁اینجا",
        -8.592543286807127
      ],
      [
        "▁۰۷",
        -8.593603839815191
      ],
      [
        "▁رسمی",
        -8.596027265442673
      ],
      [
        "▁کامپیوتر",
        -8.596719964078495
      ],
      [
        "▁۲۷",
        -8.59752590287548
      ],
      [
        "▁۵۰",
        -8.599112619083536
      ],
      [
        "را",
        -8.603517220857764
      ],
      [
        "▁مهندسی",
        -8.603976089491903
      ],
      [
        "▁ضمن",
        -8.606254427286384
      ],
      [
        "▁۲۰۱۷",
        -8.606307726384847
      ],
      [
        "▁۰۳",
        -8.608267912272664
      ],
      [
        "▁ارشد",
        -8.609360828031921
      ],
      [
        "▁حفظ",
        -8.61186594044484
      ],
      [
        "▁دستگاه‌های",
        -8.612855991677161
      ],
      [
        "▁ابزار",
        -8.613088129294585
      ],
      [
        "▁علیه",
        -8.613367230970361
      ],
      [
        "▁اصفهان",
        -8.613777400576963
      ],
      [
        "▁نیوز",
        -8.613795418414096
      ],
      [
        "▁طلا",
        -8.613843283085517
      ],
      [
        "▁۰۵",
        -8.61582038685219
      ],
      [
        "▁کاملا",
        -8.615979487550794
      ],
      [
        "▁(ع)",
        -8.619416357830012
      ],
      [
        "▁فشار",
        -8.620906095701043
      ],
      [
        "▁سوال",
        -8.621595866777518
      ],
      [
        "▁اردیبهشت",
        -8.621787421432995
      ],
      [
        "▁عراق",
        -8.624723868657282
      ],
      [
        "▁بیمه",
        -8.62528876303001
      ],
      [
        "▁کوچک",
        -8.627944344278859
      ],
      [
        "▁نمونه",
        -8.62875468130335
      ],
      [
        "▁پرورش",
        -8.629965759396049
      ],
      [
        "▁حالت",
        -8.630088724121999
      ],
      [
        "▁اهمیت",
        -8.632330892191634
      ],
      [
        "▁مشهد",
        -8.632656192596086
      ],
      [
        "▁نگاه",
        -8.633788388911789
      ],
      [
        "▁ظ",
        -8.633824663734966
      ],
      [
        "▁حضرت",
        -8.634465894566453
      ],
      [
        "▁۲۰۱۶",
        -8.634796052513158
      ],
      [
        "▁www.",
        -8.635959471291379
      ],
      [
        "▁پخش",
        -8.638031957430638
      ],
      [
        "▁حرکت",
        -8.638958946169373
      ],
      [
        "▁یاد",
        -8.640017441559301
      ],
      [
        "▁پیام",
        -8.641962634275004
      ],
      [
        "▁رابطه",
        -8.643516113257645
      ],
      [
        "▁۲۸",
        -8.643586653099863
      ],
      [
        "▁برتر",
        -8.643615367684106
      ],
      [
        "▁سپس",
        -8.645133801755433
      ],
      [
        "▁دل",
        -8.646293418499996
      ],
      [
        "▁هنگام",
        -8.64711200715292
      ],
      [
        "▁گرم",
        -8.647688096567888
      ],
      [
        "▁علت",
        -8.648380893747964
      ],
      [
        "▁برنامه‌های",
        -8.648670557205028
      ],
      [
        "▁جان",
        -8.648759300536494
      ],
      [
        "▁درست",
        -8.649212892545107
      ],
      [
        "▁روند",
        -8.650233370737427
      ],
      [
        "▁مراجعه",
        -8.650653621062615
      ],
      [
        "مان",
        -8.65121894361284
      ],
      [
        "▁پول",
        -8.65213039046594
      ],
      [
        "▁تجربه",
        -8.65213706272191
      ],
      [
        "▁موسیقی",
        -8.652696597774483
      ],
      [
        "▁انسان",
        -8.653924122261115
      ],
      [
        "▁همیشه",
        -8.654164686979986
      ],
      [
        "▁امر",
        -8.654841650311592
      ],
      [
        "▁۲۹",
        -8.656588897617272
      ],
      [
        "▁نزدیک",
        -8.656643395716051
      ],
      [
        "▁خواب",
        -8.65688529904687
      ],
      [
        "▁خبرنگار",
        -8.657893835202891
      ],
      [
        "▁ارزش",
        -8.659025410193257
      ],
      [
        "▁کلیک",
        -8.659220626072308
      ],
      [
        "▁اختیار",
        -8.659255790452168
      ],
      [
        "▁انتشار",
        -8.65942355863324
      ],
      [
        "▁قابلیت",
        -8.66023219859598
      ],
      [
        "▁رضا",
        -8.66038143714471
      ],
      [
        "▁نرخ",
        -8.660735516514055
      ],
      [
        "▁می‌دهد.",
        -8.662417021982387
      ],
      [
        "▁اعضای",
        -8.663095039132159
      ],
      [
        "▁استخدام",
        -8.664097153736526
      ],
      [
        "▁اثار",
        -8.664379581251037
      ],
      [
        "▁موفق",
        -8.664783011870846
      ],
      [
        "▁حق",
        -8.665915986131083
      ],
      [
        "▁حالی",
        -8.669924546461449
      ],
      [
        "▁گردشگری",
        -8.671642851880954
      ],
      [
        "▁M",
        -8.673261487632724
      ],
      [
        "▁نیست.",
        -8.674298452366891
      ],
      [
        "▁حجم",
        -8.674465223839618
      ],
      [
        "▁کمتر",
        -8.675134487716115
      ],
      [
        "▁مشخصات",
        -8.675262999411192
      ],
      [
        "▁پیشنهاد",
        -8.675531098180626
      ],
      [
        "▁چیزی",
        -8.677369305439894
      ],
      [
        "▁کشاورزی",
        -8.67746967219262
      ],
      [
        "▁۰۶",
        -8.678019573672607
      ],
      [
        "er",
        -8.679165729079203
      ],
      [
        "▁نوشته",
        -8.679429294676854
      ],
      [
        "▁می‌شوند",
        -8.679767866611577
      ],
      [
        "▁اسفند",
        -8.680652247085277
      ],
      [
        "▁بودند",
        -8.683503985011413
      ],
      [
        "▁این‌که",
        -8.683553334181523
      ],
      [
        "▁اینترنت",
        -8.684084143678984
      ],
      [
        "▁باشند",
        -8.688334450532299
      ],
      [
        "▁مرداد",
        -8.68851815405723
      ],
      [
        "▁گاز",
        -8.688630485082836
      ],
      [
        "▁هنر",
        -8.68948123698944
      ],
      [
        "▁درخواست",
        -8.689647538702857
      ],
      [
        "▁انجمن",
        -8.690214649171589
      ],
      [
        "ایی",
        -8.691164896862137
      ],
      [
        "▁تشکیل",
        -8.692722021035522
      ],
      [
        "▁ترکیه",
        -8.692897257156684
      ],
      [
        "▁اروپا",
        -8.693485810443113
      ],
      [
        "▁بنابراین",
        -8.694143323339745
      ],
      [
        "▁می‌کنیم",
        -8.694753961008129
      ],
      [
        "▁سید",
        -8.698968457113235
      ],
      [
        "▁کلی",
        -8.700069203849239
      ],
      [
        "▁ظرفیت",
        -8.70068756025127
      ],
      [
        "▁نمایشگاه",
        -8.701425181900305
      ],
      [
        "▁بیشتری",
        -8.701740808202342
      ],
      [
        "▁صنایع",
        -8.701760552399257
      ],
      [
        "▁شرکت‌های",
        -8.705946111599385
      ],
      [
        "▁مسکن",
        -8.707533240215605
      ],
      [
        "▁چهارشنبه",
        -8.708711020724564
      ],
      [
        "▁دفاع",
        -8.710076694803792
      ],
      [
        "▁روسیه",
        -8.710356067963374
      ],
      [
        "▁مرتبط",
        -8.711251826133907
      ],
      [
        "▁پایه",
        -8.711702009411818
      ],
      [
        "▁دوربین",
        -8.711841930736478
      ],
      [
        "▁زیبایی",
        -8.71238262684754
      ],
      [
        "▁ارز",
        -8.712977249781533
      ],
      [
        "▁هیات",
        -8.713035232417486
      ],
      [
        "▁مهدی",
        -8.715918735843168
      ],
      [
        "▁امسال",
        -8.717133557997045
      ],
      [
        "ing",
        -8.718975843829163
      ],
      [
        "▁موجب",
        -8.720253106635433
      ],
      [
        "▁دارند.",
        -8.720912782629147
      ],
      [
        "▁ساله",
        -8.722107776201124
      ],
      [
        "▁۱۳۹۳",
        -8.722693546103894
      ],
      [
        "▁نیروی",
        -8.723026672170068
      ],
      [
        "▁کارخانه",
        -8.726249756250247
      ],
      [
        "▁B",
        -8.72724699493336
      ],
      [
        "▁بلکه",
        -8.728299478032612
      ],
      [
        "▁جا",
        -8.728941431412041
      ],
      [
        "ار",
        -8.72965989635587
      ],
      [
        "▁داریم",
        -8.730238395194723
      ],
      [
        "▁طرف",
        -8.730782839282806
      ],
      [
        "▁اجرایی",
        -8.733588230102907
      ],
      [
        "▁نیروهای",
        -8.736927551640068
      ],
      [
        "▁نتایج",
        -8.73895159785908
      ],
      [
        "▁شاهد",
        -8.740418643635389
      ],
      [
        "▁•",
        -8.740543867321652
      ],
      [
        "▁وب‌سایت",
        -8.741625527428313
      ],
      [
        "▁۹۵",
        -8.743083871678287
      ],
      [
        "▁>",
        -8.74360254607527
      ],
      [
        "▁کمی",
        -8.74478156108228
      ],
      [
        "▁۲۰۱۸",
        -8.746073484515666
      ],
      [
        "▁the",
        -8.746223667413203
      ],
      [
        "▁ترامپ",
        -8.748103531312761
      ],
      [
        "▁سوریه",
        -8.748144804474215
      ],
      [
        "▁اتاق",
        -8.748181907348155
      ],
      [
        "ج",
        -8.749070458724743
      ],
      [
        "▁سازی",
        -8.751496713147475
      ],
      [
        "▁نشده",
        -8.751593075635647
      ],
      [
        "▁داشت.",
        -8.752688587573498
      ],
      [
        "▁کرونا",
        -8.754363100149977
      ],
      [
        "ed",
        -8.756110356534379
      ],
      [
        "▁جلوگیری",
        -8.756905460694004
      ],
      [
        "ترین",
        -8.7581303579608
      ],
      [
        "▁رژیم",
        -8.758290002492917
      ],
      [
        "▁شنبه",
        -8.76107868921066
      ],
      [
        "▁فراهم",
        -8.761601311110343
      ],
      [
        "▁عملیات",
        -8.76244091212499
      ],
      [
        "▁مطرح",
        -8.763284983393833
      ],
      [
        "▁تلفن",
        -8.76418833807869
      ],
      [
        "▁دانشجویان",
        -8.764264397962101
      ],
      [
        "‌شده",
        -8.764513442273245
      ],
      [
        "▁مراکز",
        -8.764754580816303
      ],
      [
        "▁سری",
        -8.765061033299144
      ],
      [
        "▁کلیه",
        -8.765767482617546
      ],
      [
        "▁پشت",
        -8.766219180620752
      ],
      [
        "▁امده",
        -8.766385322078348
      ],
      [
        "▁دستور",
        -8.768349693082456
      ],
      [
        "▁مدیران",
        -8.769345259299108
      ],
      [
        "▁تصمیم",
        -8.769359175428677
      ],
      [
        "▁مسابقات",
        -8.771008401281774
      ],
      [
        "▁گرفتن",
        -8.771560465608541
      ],
      [
        "▁لیست",
        -8.771776144074346
      ],
      [
        "▁مجازی",
        -8.771832887302942
      ],
      [
        "▁خواهند",
        -8.772277719734785
      ],
      [
        "▁تحلیل",
        -8.774099745086133
      ],
      [
        "▁سود",
        -8.775202361306206
      ],
      [
        "▁تجارت",
        -8.775508249347936
      ],
      [
        "▁داشتن",
        -8.777075430111495
      ],
      [
        "▁P",
        -8.779201593925894
      ],
      [
        "▁خدمت",
        -8.779354440352018
      ],
      [
        "▁تصریح",
        -8.779444493270452
      ],
      [
        "▁سرویس",
        -8.779796371850864
      ],
      [
        "▁بحث",
        -8.780524504895729
      ],
      [
        "به",
        -8.783028787854196
      ],
      [
        "▁T",
        -8.783885860002748
      ],
      [
        "▁کمیسیون",
        -8.784505623672185
      ],
      [
        "▁حالا",
        -8.785100717790765
      ],
      [
        "▁حد",
        -8.785610951131837
      ],
      [
        "▁می‌کنم",
        -8.78681398777186
      ],
      [
        "▁جام",
        -8.787629016398974
      ],
      [
        "▁۴۰",
        -8.78780200967009
      ],
      [
        "▁حذف",
        -8.788719791827752
      ],
      [
        "▁سبک",
        -8.788935099041382
      ],
      [
        "▁خانگی",
        -8.790963457638135
      ],
      [
        "▁انتظار",
        -8.791281790866925
      ],
      [
        "▁اولیه",
        -8.791383364610297
      ],
      [
        "▁تجاری",
        -8.79239911668963
      ],
      [
        "▁شخصی",
        -8.79567180449914
      ],
      [
        "▁قبلی",
        -8.797500600053578
      ],
      [
        "▁چاپ",
        -8.798239028004605
      ],
      [
        "▁امید",
        -8.799155328073455
      ],
      [
        "▁۹۸",
        -8.79959531909506
      ],
      [
        "▁گذاری",
        -8.80049860388516
      ],
      [
        "▁فروردین",
        -8.803915556147732
      ],
      [
        "▁اسیاب",
        -8.80411861512422
      ],
      [
        "▁زیرا",
        -8.804521165280036
      ],
      [
        "▁ساده",
        -8.805398346783175
      ],
      [
        "▁هوشمند",
        -8.806624986127979
      ],
      [
        "▁دوران",
        -8.807018099648946
      ],
      [
        "▁پنج",
        -8.80871219623575
      ],
      [
        "▁رفع",
        -8.809080506754302
      ],
      [
        "▁نویسنده",
        -8.810445209873478
      ],
      [
        "هایی",
        -8.810834934412902
      ],
      [
        "یان",
        -8.811299250907197
      ],
      [
        "▁می‌شود،",
        -8.812167806400101
      ],
      [
        "▁جاری",
        -8.813287714529329
      ],
      [
        "▁جذب",
        -8.813537995227222
      ],
      [
        "▁متفاوت",
        -8.814047989847381
      ],
      [
        "▁پلیس",
        -8.814140341407064
      ],
      [
        "▁پا",
        -8.815151332524254
      ],
      [
        "▁ماده",
        -8.815295300114737
      ],
      [
        "▁۹۶",
        -8.815660712054626
      ],
      [
        "▁راه‌اندازی",
        -8.81666575825707
      ],
      [
        "▁۹۷",
        -8.817254456291845
      ],
      [
        "▁پست",
        -8.817896340863527
      ],
      [
        "▁متر",
        -8.817953645766355
      ],
      [
        "r",
        -8.819897237535258
      ],
      [
        "▁۲۰۱۹",
        -8.820147173691623
      ],
      [
        "▁گرفت",
        -8.820635838929734
      ],
      [
        "▁داستان",
        -8.821091228245619
      ],
      [
        "▁افغانستان",
        -8.821572863512166
      ],
      [
        "▁پایین",
        -8.821760086455745
      ],
      [
        "▁سفید",
        -8.824220145991205
      ],
      [
        "▁تعیین",
        -8.824879743756592
      ],
      [
        "▁وزن",
        -8.82676715570219
      ],
      [
        "▁۱۳۹۹",
        -8.827338298132819
      ],
      [
        "▁حمله",
        -8.82756326026762
      ],
      [
        "▁دوشنبه",
        -8.827768609175244
      ],
      [
        "▁امار",
        -8.831442515151451
      ],
      [
        "ه‌ای",
        -8.833112698001045
      ],
      [
        "▁قران",
        -8.834376895791259
      ],
      [
        "▁ريیس‌جمهور",
        -8.834609383849944
      ],
      [
        "▁صبح",
        -8.834674379627042
      ],
      [
        "▁رییس",
        -8.836102393861594
      ],
      [
        "▁بعدی",
        -8.837484697667051
      ],
      [
        "▁اسلام",
        -8.838054444483923
      ],
      [
        "اب",
        -8.838319222901294
      ],
      [
        "▁تبلیغات",
        -8.840022569441851
      ],
      [
        "▁سوالات",
        -8.841672217772075
      ],
      [
        "▁می‌شوند.",
        -8.842075348800325
      ],
      [
        "▁جوانان",
        -8.843115391612029
      ],
      [
        "▁مسايل",
        -8.84473764266803
      ],
      [
        "▁تور",
        -8.844992192497145
      ],
      [
        "‌ها،",
        -8.846779380887563
      ],
      [
        "▁دختر",
        -8.846863663208257
      ],
      [
        "‌اش",
        -8.847906843332149
      ],
      [
        "▁سه‌شنبه",
        -8.850818913623549
      ],
      [
        "▁بهبود",
        -8.85170358096608
      ],
      [
        "▁استاد",
        -8.851817432991151
      ],
      [
        "▁هوا",
        -8.853146686428165
      ],
      [
        "▁مقام",
        -8.85348739524817
      ],
      [
        "▁خصوصی",
        -8.854898907505113
      ],
      [
        "▁اون",
        -8.856074016058338
      ],
      [
        "▁طبق",
        -8.856400817412997
      ],
      [
        "▁انگلیسی",
        -8.857605860131502
      ],
      [
        "▁دوستان",
        -8.857777538076132
      ],
      [
        "▁تبریز",
        -8.860614883766257
      ],
      [
        "▁عوامل",
        -8.860841466415277
      ],
      [
        "▁انسانی",
        -8.862844388710604
      ],
      [
        "▁امکانات",
        -8.863962234411085
      ],
      [
        "▁کارشناسی",
        -8.863994089052916
      ],
      [
        "با",
        -8.864298575770874
      ],
      [
        "▁ریال",
        -8.864942780090821
      ],
      [
        "▁اندازه",
        -8.869963339317474
      ],
      [
        "▁مشاوره",
        -8.87105145085287
      ],
      [
        "▁تی",
        -8.871391942115084
      ],
      [
        "▁ایشان",
        -8.87209035040641
      ],
      [
        "▁رهبری",
        -8.872269456959168
      ],
      [
        "▁تک",
        -8.872496052434675
      ],
      [
        "▁ملت",
        -8.873131346947552
      ],
      [
        "▁نحوه",
        -8.873599166917073
      ],
      [
        "▁جمع",
        -8.87380633438201
      ],
      [
        "▁حسن",
        -8.87402559947344
      ],
      [
        "i",
        -8.8743417592636
      ],
      [
        "▁شدند",
        -8.875986618425587
      ],
      [
        "▁درامد",
        -8.88036887238901
      ],
      [
        "▁مقایسه",
        -8.881368923624457
      ],
      [
        "▁F",
        -8.881394459026197
      ],
      [
        "▁شهری",
        -8.881944484974476
      ],
      [
        "▁H",
        -8.884413158789705
      ],
      [
        "▁روحانی",
        -8.885091645260584
      ],
      [
        "▁بودجه",
        -8.885269449225753
      ],
      [
        "داشت:",
        -8.885815457865203
      ],
      [
        "▁دفتر",
        -8.88605653653169
      ],
      [
        "▁عامل",
        -8.886306310763
      ],
      [
        "▁بخشی",
        -8.886509922885185
      ],
      [
        "▁حداقل",
        -8.88968915280519
      ],
      [
        "▁زنانه",
        -8.890669276001187
      ],
      [
        "▁نکته",
        -8.891901921690545
      ],
      [
        "▁مسيولان",
        -8.893541876673844
      ],
      [
        "▁اگهی",
        -8.894555964633662
      ],
      [
        "▁مشتریان",
        -8.896188335000957
      ],
      [
        "▁دولتی",
        -8.896345209191672
      ],
      [
        "▁دچار",
        -8.898110103520214
      ],
      [
        "▁مرد",
        -8.898642261888405
      ],
      [
        "▁امتیاز",
        -8.900865182633684
      ],
      [
        "▁عزیز",
        -8.902342230972117
      ],
      [
        "▁می",
        -8.90386604835141
      ],
      [
        "▁گوگل",
        -8.904208418080774
      ],
      [
        "▁یکشنبه",
        -8.904587580071581
      ],
      [
        "▁امنیتی",
        -8.904723607115056
      ],
      [
        "▁نباید",
        -8.906286668847805
      ],
      [
        "▁کافی",
        -8.907797092506023
      ],
      [
        "▁ازدواج",
        -8.908291963924981
      ],
      [
        "al",
        -8.908477955202937
      ],
      [
        "▁۱۳۹۲",
        -8.908984710465479
      ],
      [
        "▁تصویری",
        -8.9090697283881
      ],
      [
        "▁المان",
        -8.910110085300797
      ],
      [
        "▁کنندگان",
        -8.911184054723558
      ],
      [
        "▁and",
        -8.912566830002152
      ],
      [
        "▁E",
        -8.913520192888871
      ],
      [
        "رد",
        -8.913814023448438
      ],
      [
        "▁ابتدا",
        -8.915784036243593
      ],
      [
        "o",
        -8.916511269564332
      ],
      [
        "▁محیط",
        -8.916765474451696
      ],
      [
        "▁بورس",
        -8.91763528153121
      ],
      [
        "▁دهید",
        -8.917918008533896
      ],
      [
        "▁شیر",
        -8.919108076923962
      ],
      [
        "▁جالب",
        -8.919350017389757
      ],
      [
        "▁شد،",
        -8.919798310542374
      ],
      [
        "▁معمولا",
        -8.920633548153544
      ],
      [
        "ە",
        -8.920739590893412
      ],
      [
        "▁دارید",
        -8.921595668279908
      ],
      [
        "دار",
        -8.923313712857182
      ],
      [
        "بر",
        -8.924080191843522
      ],
      [
        "▁جدی",
        -8.924650925857847
      ],
      [
        "▁The",
        -8.927162657422445
      ],
      [
        "▁غذا",
        -8.929397876953175
      ],
      [
        "▁اقدامات",
        -8.930286642296245
      ],
      [
        "ند.",
        -8.930667998606541
      ],
      [
        "▁بد",
        -8.930700505278242
      ],
      [
        "▁انان",
        -8.930826200410493
      ],
      [
        "▁مرگ",
        -8.931304773872913
      ],
      [
        "▁اتفاق",
        -8.93383709500461
      ],
      [
        "▁سبز",
        -8.934539448714808
      ],
      [
        "▁خرد",
        -8.93464207179704
      ],
      [
        "▁کن",
        -8.934777195200873
      ],
      [
        "▁بروز",
        -8.936124444134531
      ],
      [
        "▁درجه",
        -8.936312845057257
      ],
      [
        "▁کردند.",
        -8.941296593149108
      ],
      [
        "▁۶۰",
        -8.9419215131444
      ],
      [
        "▁کمیته",
        -8.942020224579657
      ],
      [
        "▁قصد",
        -8.942375985762537
      ],
      [
        "▁موفقیت",
        -8.943233408802993
      ],
      [
        "▁تشخیص",
        -8.944706259612662
      ],
      [
        "▁جنوبی",
        -8.946280285630884
      ],
      [
        "▁عصر",
        -8.946448416199834
      ],
      [
        "▁اصل",
        -8.946489672433534
      ],
      [
        "▁تازه",
        -8.947001820845085
      ],
      [
        "▁موتور",
        -8.947635386915586
      ],
      [
        "▁می‌رسد",
        -8.948359902819561
      ],
      [
        "▁بالای",
        -8.949654432590151
      ],
      [
        "▁a",
        -8.949769057763987
      ],
      [
        "▁تایید",
        -8.950431900742622
      ],
      [
        "▁حمل",
        -8.951211195519138
      ],
      [
        "▁نو",
        -8.951265462356991
      ],
      [
        "▁ویروس",
        -8.951802047546678
      ],
      [
        "▁صادرات",
        -8.952682545984572
      ],
      [
        "▁مادر",
        -8.953704907301496
      ],
      [
        "▁احتمال",
        -8.954069303698681
      ],
      [
        "▁سعی",
        -8.954695201454701
      ],
      [
        "▁احساس",
        -8.955817046049116
      ],
      [
        "انه",
        -8.955886030612211
      ],
      [
        "▁کاربردی",
        -8.95598035538959
      ],
      [
        "▁دسته",
        -8.957526582894147
      ],
      [
        "▁in",
        -8.958355797606696
      ],
      [
        "▁ساز",
        -8.960640020794237
      ],
      [
        "▁ابی",
        -8.96261961314094
      ],
      [
        "▁اداری",
        -8.963202717397916
      ],
      [
        "▁شناسایی",
        -8.965237658479777
      ],
      [
        ")،",
        -8.966579001682643
      ],
      [
        "▁سامانه",
        -8.967285596396941
      ],
      [
        "▁نرم",
        -8.967614237581467
      ],
      [
        "▁بلند",
        -8.968466941937164
      ],
      [
        "▁برنامه‌ریزی",
        -8.968945626848274
      ],
      [
        "▁کنیم.",
        -8.9692036478447
      ],
      [
        "▁رسیده",
        -8.969694659257268
      ],
      [
        "▁ویندوز",
        -8.970925152511565
      ],
      [
        "▁مبارزه",
        -8.971867171723904
      ],
      [
        "▁وردپرس",
        -8.972027867243476
      ],
      [
        "▁p",
        -8.972601057823098
      ],
      [
        "▁موثر",
        -8.973285492531943
      ],
      [
        "▁برخورد",
        -8.973300464035251
      ],
      [
        "▁خراسان",
        -8.97651340670695
      ],
      [
        "پ",
        -8.97711660009865
      ],
      [
        "▁خودش",
        -8.977945384509223
      ],
      [
        "▁ایت‌الله",
        -8.978852114637721
      ],
      [
        "▁دار",
        -8.979190269238005
      ],
      [
        "▁فرایند",
        -8.97959491804302
      ],
      [
        "▁نمایندگان",
        -8.979809171056225
      ],
      [
        "▁خاک",
        -8.98042312004506
      ],
      [
        "▁اطلاع‌رسانی",
        -8.983037417257552
      ],
      [
        "▁عشق",
        -8.983749104615459
      ],
      [
        "▁خیابان",
        -8.985596413295568
      ],
      [
        "▁قم",
        -8.98748979310098
      ],
      [
        "▁مردانه",
        -8.988275997766006
      ],
      [
        "l",
        -8.98839940631884
      ],
      [
        "▁R",
        -8.99051487267255
      ],
      [
        "ام",
        -8.990748591906934
      ],
      [
        "▁واکنش",
        -8.991005645025819
      ],
      [
        "▁سامسونگ",
        -8.991501634151025
      ],
      [
        "|",
        -8.991715455045746
      ],
      [
        "▁ایمیل",
        -8.992359017610891
      ],
      [
        "▁دسترسی",
        -8.99261213119161
      ],
      [
        "▁معماری",
        -8.993798555744885
      ],
      [
        "▁تلویزیون",
        -8.995376559512646
      ],
      [
        "▁مشترک",
        -8.995781964130767
      ],
      [
        "▁خانم",
        -8.99720851391577
      ],
      [
        "▁تنظیم",
        -8.997830720082145
      ],
      [
        "▁فعالیت‌های",
        -8.998138022751059
      ],
      [
        "▁دقت",
        -8.99855547550213
      ],
      [
        "»،",
        -8.998759916163142
      ],
      [
        "▁کاربر",
        -9.000516613943947
      ],
      [
        "▁....",
        -9.000688263569856
      ],
      [
        "▁اجازه",
        -9.000924598299111
      ],
      [
        "▁بی‌",
        -9.000964014755402
      ],
      [
        "▁K",
        -9.000983056194821
      ],
      [
        "g",
        -9.001192621784904
      ],
      [
        "▁واقعی",
        -9.001505810419332
      ],
      [
        "▁دارم",
        -9.00343492959341
      ],
      [
        "▁کسانی",
        -9.00474074689766
      ],
      [
        "▁سخت",
        -9.005470596255961
      ],
      [
        "▁۲۰۱۵",
        -9.005797696723024
      ],
      [
        "▁تحقیقات",
        -9.005822061931251
      ],
      [
        "▁صدای",
        -9.00867693875771
      ],
      [
        "▁روزانه",
        -9.009831468053687
      ],
      [
        "S",
        -9.009838238240931
      ],
      [
        "▁بعضی",
        -9.010485991359204
      ],
      [
        "▁باشند.",
        -9.01165979081447
      ],
      [
        "▁عربستان",
        -9.012891380395764
      ],
      [
        "m",
        -9.013268129075895
      ],
      [
        "▁ریاست",
        -9.0143122804918
      ],
      [
        "▁پوشش",
        -9.01440752813582
      ],
      [
        "چ",
        -9.015043127201459
      ],
      [
        "▁قرارداد",
        -9.015951955282826
      ],
      [
        "▁ذکر",
        -9.016630939142859
      ],
      [
        "▁پشتیبانی",
        -9.017122707437226
      ],
      [
        "▁ویژگی‌های",
        -9.01857347859826
      ],
      [
        "▁اهداف",
        -9.019567997545908
      ],
      [
        "▁پاورپوینت",
        -9.022216595108123
      ],
      [
        "▁روزهای",
        -9.022350419023333
      ],
      [
        "▁سن",
        -9.025783051942202
      ],
      [
        "▁نخستین",
        -9.025896613708326
      ],
      [
        "د.",
        -9.027154192608556
      ],
      [
        "▁شکست",
        -9.02871054104055
      ],
      [
        "▁ماشین‌الات",
        -9.028857831735746
      ],
      [
        "▁زنده",
        -9.029607331347314
      ],
      [
        "▁کنکور",
        -9.03086775927418
      ],
      [
        "▁تلگرام",
        -9.03118063537225
      ],
      [
        "▁وبلاگ",
        -9.031290489691752
      ],
      [
        "▁نا",
        -9.03203156906687
      ],
      [
        "▁حتما",
        -9.032996858660256
      ],
      [
        "▁صدا",
        -9.033697564476867
      ],
      [
        "▁بازیکنان",
        -9.034979673255975
      ],
      [
        "▁ندارد.",
        -9.038184732006911
      ],
      [
        "▁علم",
        -9.038392901489566
      ],
      [
        "▁هستیم",
        -9.038559156269553
      ],
      [
        "▁ستاد",
        -9.038587801535526
      ],
      [
        "▁امیر",
        -9.039194431502375
      ],
      [
        "▁برند",
        -9.039604763587024
      ],
      [
        "▁ارزیابی",
        -9.039925867070387
      ],
      [
        "▁است؟",
        -9.041753320819241
      ],
      [
        "▁البوم",
        -9.042583182739019
      ],
      [
        "کار",
        -9.043136510849505
      ],
      [
        "t",
        -9.043520513301154
      ],
      [
        "‌ام",
        -9.044263758410114
      ],
      [
        "▁ترک",
        -9.046033594056007
      ],
      [
        "▁سیاست",
        -9.047754740710026
      ],
      [
        "▁انچه",
        -9.047918508767536
      ],
      [
        "▁مقاومت",
        -9.049239867606769
      ],
      [
        "▁نظارت",
        -9.04944379925551
      ],
      [
        "▁میشه",
        -9.049517619533738
      ],
      [
        "▁قانونی",
        -9.050491021795423
      ],
      [
        "▁نظامی",
        -9.050562187009948
      ],
      [
        "▁https",
        -9.050577384471831
      ],
      [
        "▁فارس",
        -9.05074184494864
      ],
      [
        "▁روشن",
        -9.050742243240336
      ],
      [
        "▁نظرات",
        -9.051008656889698
      ],
      [
        "▁خوش",
        -9.051938550663735
      ],
      [
        "▁راحتی",
        -9.054620451375559
      ],
      [
        "▁۳۱",
        -9.055646108222826
      ],
      [
        "▁نخواهد",
        -9.05709364822487
      ],
      [
        "▁نگهداری",
        -9.057630701436043
      ],
      [
        "▁چیست؟",
        -9.05841255617641
      ],
      [
        "▁مفید",
        -9.05950201231434
      ],
      [
        "▁سینما",
        -9.063334526069465
      ],
      [
        "in",
        -9.064307825954987
      ],
      [
        "▁جایگاه",
        -9.064453581319805
      ],
      [
        "▁[...]",
        -9.0646558769477
      ],
      [
        "گر",
        -9.065675824816774
      ],
      [
        "▁اصلاح",
        -9.066063780576034
      ],
      [
        "▁رسیدن",
        -9.067309633149488
      ],
      [
        "▁اساسی",
        -9.06740124365502
      ],
      [
        "مون",
        -9.06793919436743
      ],
      [
        "▁کرده‌اند",
        -9.068394504399821
      ],
      [
        "اس",
        -9.071070744333536
      ],
      [
        "▁جامع",
        -9.071537520029025
      ],
      [
        "▁هند",
        -9.072749543900937
      ],
      [
        "▁تاکنون",
        -9.072788251672964
      ],
      [
        "▁افرادی",
        -9.073353427935746
      ],
      [
        "▁رسید",
        -9.074839997524753
      ],
      [
        "▁تاریخی",
        -9.075359534428946
      ],
      [
        "▁مقدار",
        -9.075700599201838
      ],
      [
        "▁اخر",
        -9.077505019390498
      ],
      [
        "▁تقویت",
        -9.077608560869365
      ],
      [
        "▁وب",
        -9.078561815548909
      ],
      [
        "▁پرونده",
        -9.078807164342427
      ],
      [
        "▁ک",
        -9.079823219126439
      ],
      [
        "▁رعایت",
        -9.080472438825758
      ],
      [
        "▁٪D",
        -9.081195103039255
      ],
      [
        "▁کدام",
        -9.082985148267264
      ],
      [
        "▁غرب",
        -9.083623700152604
      ],
      [
        "▁جانبی",
        -9.084058574359041
      ],
      [
        "▁جدیدترین",
        -9.084229342298169
      ],
      [
        "le",
        -9.084995343286698
      ],
      [
        "▁v",
        -9.085019168505301
      ],
      [
        "▁صحبت",
        -9.085282719090403
      ],
      [
        "▁منبع",
        -9.085783068848205
      ],
      [
        "▁استاندارد",
        -9.085999276557535
      ],
      [
        "▁امریکایی",
        -9.08649748217642
      ],
      [
        "c",
        -9.087638382022114
      ],
      [
        "▁رفت",
        -9.087668687991751
      ],
      [
        "▁همچنان",
        -9.088216447749966
      ],
      [
        "▁چیز",
        -9.088231600505576
      ],
      [
        "▁روزنامه",
        -9.088472849614753
      ],
      [
        "‏",
        -9.089954023870009
      ],
      [
        "▁پای",
        -9.091437514717413
      ],
      [
        "▁شن",
        -9.091467755013898
      ],
      [
        "▁اکنون",
        -9.091850893741197
      ],
      [
        "▁مثال",
        -9.092672861302695
      ],
      [
        "▁اشنا",
        -9.09294758543432
      ],
      [
        "A",
        -9.094133610044135
      ],
      [
        "▁منزل",
        -9.095242828337526
      ],
      [
        "▁کردم",
        -9.096464987797692
      ],
      [
        "▁بازی‌های",
        -9.096737830899743
      ],
      [
        "▁پیش‌بینی",
        -9.097796548200735
      ],
      [
        "▁هنری",
        -9.098165270116937
      ],
      [
        "▁میدان",
        -9.098645383691725
      ],
      [
        "▁می‌کنید",
        -9.09910217581547
      ],
      [
        "▁ها",
        -9.09934264469793
      ],
      [
        "a",
        -9.100117469849005
      ],
      [
        "▁بهداشتی",
        -9.102660405840679
      ],
      [
        "▁مجله",
        -9.103830204216154
      ],
      [
        "▁۹۰",
        -9.104113811363673
      ],
      [
        "▁کنم",
        -9.105655906963593
      ],
      [
        "▁روغن",
        -9.105740229988392
      ],
      [
        "▁تغییرات",
        -9.107444061565197
      ],
      [
        "▁حاصل",
        -9.107718856577748
      ],
      [
        "گی",
        -9.10808999358828
      ],
      [
        "▁سنتی",
        -9.108113492238722
      ],
      [
        "▁موسسه",
        -9.108125069691337
      ],
      [
        "▁_",
        -9.108322872364598
      ],
      [
        "▁پیشرفت",
        -9.108375719529963
      ],
      [
        "▁لایه",
        -9.109611140231609
      ],
      [
        "▁اسیا",
        -9.109937587887819
      ],
      [
        "▁بازدید:",
        -9.110970126376792
      ],
      [
        "▁دنیای",
        -9.111686959048733
      ],
      [
        "▁درس",
        -9.112623139560231
      ],
      [
        "▁رهبر",
        -9.112831055494631
      ],
      [
        "▁رمان",
        -9.113060549511811
      ],
      [
        "▁جمعیت",
        -9.113778552190272
      ],
      [
        "▁متاسفانه",
        -9.114589273774302
      ],
      [
        "▁رفتن",
        -9.115322956264453
      ],
      [
        "▁حرف",
        -9.115970611890358
      ],
      [
        "▁میز",
        -9.117208569762294
      ],
      [
        "▁خبرنگاران",
        -9.119667213603844
      ],
      [
        "+",
        -9.120151815911614
      ],
      [
        "▁دوباره",
        -9.120649019952676
      ],
      [
        "▁عکس‌های",
        -9.121439362532056
      ],
      [
        "▁زیرنویس",
        -9.122015827301643
      ],
      [
        "▁معروف",
        -9.122185450540847
      ],
      [
        "▁ازادی",
        -9.12262185711093
      ],
      [
        "▁توافق",
        -9.123409416692688
      ],
      [
        "▁نامه",
        -9.124012255718561
      ],
      [
        "▁سپاه",
        -9.124157252210061
      ],
      [
        "▁۵۰۰",
        -9.12478680487073
      ],
      [
        "▁توضیحات",
        -9.125486128149639
      ],
      [
        "▁پور",
        -9.125538711180294
      ],
      [
        "▁خطر",
        -9.126441197327653
      ],
      [
        "▁جی",
        -9.126978828201683
      ],
      [
        "▁ایمنی",
        -9.12698451497197
      ],
      [
        "▁ب.",
        -9.127322016837384
      ],
      [
        "▁ادرس",
        -9.127894398809477
      ],
      [
        "▁اهن",
        -9.12835072385877
      ],
      [
        "▁رفته",
        -9.128630949089583
      ],
      [
        "▁مسيله",
        -9.12889078604216
      ],
      [
        "▁to",
        -9.130220243946855
      ],
      [
        "تی",
        -9.130917688946292
      ],
      [
        "▁گرفت.",
        -9.130960568297212
      ],
      [
        "▁شمال",
        -9.13126815850131
      ],
      [
        "▁ثابت",
        -9.131544609368905
      ],
      [
        "▁سراسر",
        -9.131602302184767
      ],
      [
        "▁ایفون",
        -9.133085239372539
      ],
      [
        "گ",
        -9.13353418949221
      ],
      [
        "b",
        -9.135868481414239
      ],
      [
        "▁بصورت",
        -9.135953149010128
      ],
      [
        "▁دهه",
        -9.137769417728936
      ],
      [
        "▁برخوردار",
        -9.139672317147042
      ],
      [
        "▁قطعات",
        -9.139931656177982
      ],
      [
        "▁مدارس",
        -9.14098946255217
      ],
      [
        "▁جراحی",
        -9.141601869635025
      ],
      [
        "▁توزیع",
        -9.141718841893736
      ],
      [
        "▁روش‌های",
        -9.14243913427244
      ],
      [
        "▁سریع",
        -9.143446013456764
      ],
      [
        "▁خواهیم",
        -9.143815085651582
      ],
      [
        "▁قوانین",
        -9.14419838883893
      ],
      [
        ";",
        -9.144926263356496
      ],
      [
        "لی",
        -9.145708634115188
      ],
      [
        "▁است:",
        -9.147022292808124
      ],
      [
        "▁کارشناسان",
        -9.147508004720226
      ],
      [
        "▁ناشی",
        -9.14804007446238
      ],
      [
        "▁شدید",
        -9.149313849657371
      ],
      [
        "▁رفتار",
        -9.14969020842559
      ],
      [
        "▁بازیکن",
        -9.149828769771343
      ],
      [
        "▁فاصله",
        -9.1500437002657
      ],
      [
        "تا",
        -9.150718086199298
      ],
      [
        "▁نهایی",
        -9.152948184447519
      ],
      [
        "▁مقدس",
        -9.152984793944107
      ],
      [
        "▁توضیح",
        -9.153402675506925
      ],
      [
        "▁توان",
        -9.155364314476056
      ],
      [
        "▁بند",
        -9.155778019722627
      ],
      [
        "▁گسترش",
        -9.157055315359758
      ],
      [
        "▁درمانی",
        -9.15728328153807
      ],
      [
        "▁مشابه",
        -9.157965506722633
      ],
      [
        "▁نقد",
        -9.158732637497792
      ],
      [
        "▁مدیرعامل",
        -9.159102595868488
      ],
      [
        "▁نداشته",
        -9.159229537256529
      ],
      [
        "▁گزینه",
        -9.159318585249006
      ],
      [
        "▁پیروزی",
        -9.15960090385829
      ],
      [
        "من",
        -9.160047282470602
      ],
      [
        "▁نمایید.",
        -9.161380354240846
      ],
      [
        "▁مشارکت",
        -9.161909287531316
      ],
      [
        "▁علاقه",
        -9.161941643197071
      ],
      [
        "▁۲۰۰",
        -9.16207899674162
      ],
      [
        "سی",
        -9.162187234930283
      ],
      [
        "▁مناقصه",
        -9.16465931763214
      ],
      [
        "▁عدد",
        -9.165010348090602
      ],
      [
        "▁اشنایی",
        -9.166205912975373
      ],
      [
        "▁مواجه",
        -9.167861826055447
      ],
      [
        "▁پایان‌نامه",
        -9.168823675028069
      ],
      [
        "▁مخصوص",
        -9.171257350286984
      ],
      [
        "▁‏",
        -9.172702815062951
      ],
      [
        "▁خارجه",
        -9.17360368354427
      ],
      [
        "دی",
        -9.17393397325401
      ],
      [
        "▁تحویل",
        -9.173984782783013
      ],
      [
        "▁مد",
        -9.175126017896499
      ],
      [
        "▁N",
        -9.175526028592952
      ],
      [
        "▁ام",
        -9.17589103393924
      ],
      [
        "یا",
        -9.176591465948004
      ],
      [
        "▁توصیه",
        -9.178636458791491
      ],
      [
        "▁دهد.",
        -9.178978220604602
      ],
      [
        "▁دقیق",
        -9.179126735012632
      ],
      [
        "▁ترجمه",
        -9.179578197193235
      ],
      [
        "يی",
        -9.179810126865576
      ],
      [
        "▁محسوب",
        -9.17987945003311
      ],
      [
        "▁کره",
        -9.179996282591523
      ],
      [
        "▁مسيول",
        -9.180361732018032
      ],
      [
        "▁نبود",
        -9.180989613683312
      ],
      [
        "▁شبکه‌های",
        -9.183272642049474
      ],
      [
        "▁نموده",
        -9.184302249965846
      ],
      [
        "▁اعتماد",
        -9.18507047368838
      ],
      [
        "▁سرطان",
        -9.186651373423448
      ],
      [
        "▁تکمیل",
        -9.188193240706774
      ],
      [
        "ط",
        -9.188569851557341
      ],
      [
        "▁براساس",
        -9.189106669628579
      ],
      [
        "▁شاخص",
        -9.190316961843777
      ],
      [
        "▁بن",
        -9.190469762062031
      ],
      [
        "▁·",
        -9.191600586504801
      ],
      [
        "▁دیگه",
        -9.192474931237445
      ],
      [
        "▁تاریخ:",
        -9.192820146897567
      ],
      [
        "▁دیده",
        -9.19335961732066
      ],
      [
        "▁جنوب",
        -9.194329459514265
      ],
      [
        "▁نهایت",
        -9.194356263470546
      ],
      [
        "▁فرم",
        -9.195568126942545
      ],
      [
        "▁بیمارستان",
        -9.19626674554781
      ],
      [
        "▁فرش",
        -9.196468400491526
      ],
      [
        "▁قادر",
        -9.197101544611513
      ],
      [
        "▁محیط‌زیست",
        -9.197644966470694
      ],
      [
        "▁هسته‌ای",
        -9.198123111993738
      ],
      [
        "▁راستای",
        -9.199304388983887
      ],
      [
        "▁فرصت",
        -9.199721836995824
      ],
      [
        ").",
        -9.199780095704874
      ],
      [
        "▁فرا",
        -9.200452974311986
      ],
      [
        "▁پدر",
        -9.202261391410994
      ],
      [
        "▁شمالی",
        -9.202640156163074
      ],
      [
        "▁خوزستان",
        -9.202958023481347
      ],
      [
        "▁اعتبار",
        -9.203221004977685
      ],
      [
        "▁کلیدی",
        -9.20435662600589
      ],
      [
        "▁بانکی",
        -9.205631406463016
      ],
      [
        "▁شمار",
        -9.206153587629245
      ],
      [
        "▁شوند",
        -9.20696568308917
      ],
      [
        "▁مدرسه",
        -9.206999111613722
      ],
      [
        "▁تحصیلی",
        -9.207423450908673
      ],
      [
        "▁شیراز",
        -9.207425402283878
      ],
      [
        "▁اتحادیه",
        -9.209839448139228
      ],
      [
        "▁اطلاع",
        -9.210019008349148
      ],
      [
        "شون",
        -9.211248141023907
      ],
      [
        "▁می‌دهند",
        -9.211650310648057
      ],
      [
        "▁مقالات",
        -9.211796433317366
      ],
      [
        "▁ترتیب",
        -9.212580850344011
      ],
      [
        "f",
        -9.213477488556052
      ],
      [
        "▁مشتری",
        -9.214252594563565
      ],
      [
        "▁سبب",
        -9.214560596295673
      ],
      [
        "▁?",
        -9.214602396762547
      ],
      [
        "▁نخست",
        -9.2158594008025
      ],
      [
        "▁I",
        -9.216684658462421
      ],
      [
        "▁کی",
        -9.216948521466545
      ],
      [
        "▁تکنولوژی",
        -9.217049344439719
      ],
      [
        "▁شدند.",
        -9.217073371510647
      ],
      [
        "▁لطفا",
        -9.217669946131362
      ],
      [
        "▁سیاه",
        -9.217674916796383
      ],
      [
        "ما",
        -9.217851027035561
      ],
      [
        "an",
        -9.218095495748067
      ],
      [
        "▁همزمان",
        -9.219142525144868
      ],
      [
        "▁صورتی",
        -9.2207079006436
      ],
      [
        "▁اذربایجان",
        -9.22073128882682
      ],
      [
        "▁معظم",
        -9.221636772893731
      ],
      [
        "▁خاصی",
        -9.221955779271234
      ],
      [
        "E",
        -9.222435545948443
      ],
      [
        "▁فولاد",
        -9.22293120049552
      ],
      [
        "▁همایش",
        -9.22475463935898
      ],
      [
        "▁محسن",
        -9.224844267527384
      ],
      [
        "▁بحران",
        -9.224900561863386
      ],
      [
        "▁مراحل",
        -9.225183254277212
      ],
      [
        "▁پارک",
        -9.22630637996615
      ],
      [
        "▁سالم",
        -9.227513535913804
      ],
      [
        "▁ارتباطات",
        -9.231239981859705
      ],
      [
        "▁کانال",
        -9.233156596134284
      ],
      [
        "▁شود،",
        -9.233213524807882
      ],
      [
        "▁موزیک",
        -9.233610723593925
      ],
      [
        "h",
        -9.233657730112496
      ],
      [
        "‌سازی",
        -9.233914631369464
      ],
      [
        "▁تشکر",
        -9.23447454602638
      ],
      [
        "▁گیلان",
        -9.234588046646873
      ],
      [
        "ص",
        -9.236504053727966
      ],
      [
        "▁دیجیتال",
        -9.237067400141388
      ],
      [
        "▁داعش",
        -9.238082986542643
      ],
      [
        "▁بندی",
        -9.23825840370089
      ],
      [
        "▁مثبت",
        -9.2386722030878
      ],
      [
        "..",
        -9.241908627350966
      ],
      [
        "n",
        -9.24234117112713
      ],
      [
        "▁مهمترین",
        -9.242569392162725
      ],
      [
        "▁قلب",
        -9.242760472282797
      ],
      [
        "▁قدیمی",
        -9.24302933780083
      ],
      [
        "▁ارتش",
        -9.243088236789612
      ],
      [
        "▁اسناد",
        -9.243123414523723
      ],
      [
        "▁کاربری",
        -9.245319106413923
      ],
      [
        "▁قرمز",
        -9.245585157968272
      ],
      [
        "▁زدن",
        -9.246290372145408
      ],
      [
        "▁عبور",
        -9.24682409656509
      ],
      [
        "▁است؛",
        -9.246880305727345
      ],
      [
        "▁سند",
        -9.24782878329724
      ],
      [
        "▁سهام",
        -9.248151610871158
      ],
      [
        "▁سفارش",
        -9.248508097116531
      ],
      [
        "▁تعریف",
        -9.249006883408606
      ],
      [
        "▁تست",
        -9.249167468489617
      ],
      [
        "▁تبلیغاتی",
        -9.249690935393733
      ],
      [
        "▁کاربرد",
        -9.250143831269117
      ],
      [
        "▁منجر",
        -9.250809020019243
      ],
      [
        "▁کارهای",
        -9.25228917335183
      ],
      [
        "▁الان",
        -9.252909782295603
      ],
      [
        "▁باشید.",
        -9.25357541880058
      ],
      [
        "▁ساخته",
        -9.253757959758222
      ],
      [
        "▁فدراسیون",
        -9.25414036309355
      ],
      [
        "▁مقابله",
        -9.25414928856124
      ],
      [
        "▁برد",
        -9.254529649752897
      ],
      [
        "▁کفش",
        -9.254941006800305
      ],
      [
        "▁هستند،",
        -9.255916732721971
      ],
      [
        "▁می‌گیرد.",
        -9.257289671587063
      ],
      [
        "▁بخش‌های",
        -9.257755678830932
      ],
      [
        "▁سال‌های",
        -9.25826230082036
      ],
      [
        "▁معتبر",
        -9.258432285919568
      ],
      [
        "▁بنا",
        -9.26030397877172
      ],
      [
        "▁ترکیب",
        -9.26115607692557
      ],
      [
        "ول",
        -9.261475250465255
      ],
      [
        "▁عمر",
        -9.262124937357711
      ],
      [
        "▁تغذیه",
        -9.262394558599308
      ],
      [
        "▁اف",
        -9.262708248517903
      ],
      [
        "م.",
        -9.262848758033922
      ],
      [
        "▁نقاط",
        -9.26336001056065
      ],
      [
        "▁چی",
        -9.264442373152077
      ],
      [
        "ة",
        -9.264465531204571
      ],
      [
        "▁الی",
        -9.265157594981153
      ],
      [
        "▁پنجشنبه",
        -9.26527543005093
      ],
      [
        "M",
        -9.265323926619361
      ],
      [
        "▁احمد",
        -9.265875328338293
      ],
      [
        "▁همچون",
        -9.266001980514663
      ],
      [
        "▁جدا",
        -9.2665623320331
      ],
      [
        "▁عضویت",
        -9.266685335665692
      ],
      [
        "▁فردی",
        -9.266779630621517
      ],
      [
        "ی‌ها",
        -9.266956961157605
      ],
      [
        "▁می‌گیرد",
        -9.267463459303357
      ],
      [
        "▁زنی",
        -9.267610777592179
      ],
      [
        "▁بهره",
        -9.267915416351599
      ],
      [
        "▁جنس",
        -9.268627694330327
      ],
      [
        "▁c",
        -9.268753143590786
      ],
      [
        "▁۸۰",
        -9.26975766217837
      ],
      [
        "▁درون",
        -9.27018480615321
      ],
      [
        "▁کشف",
        -9.27022854742898
      ],
      [
        "▁پاک",
        -9.270319035290719
      ],
      [
        "▁واردات",
        -9.270429100379095
      ],
      [
        "▁شش",
        -9.270674974879036
      ],
      [
        "▁اپل",
        -9.271554370545411
      ],
      [
        "▁﻿",
        -9.271609293573075
      ],
      [
        "که",
        -9.271671111287924
      ],
      [
        "▁دیدن",
        -9.271897818752707
      ],
      [
        "▁دیگران",
        -9.272719245838086
      ],
      [
        "▁اشتراک",
        -9.274671913833064
      ],
      [
        "▁شوید",
        -9.275713083047414
      ],
      [
        "▁دومین",
        -9.276641459711497
      ],
      [
        "▁نمایندگی",
        -9.276820451326335
      ],
      [
        "▁چهارم",
        -9.277019591239036
      ],
      [
        "p",
        -9.277199945063753
      ],
      [
        "▁مجوز",
        -9.277337380888065
      ],
      [
        "▁دارو",
        -9.277977771760419
      ],
      [
        "▁ارزان",
        -9.279076855190148
      ],
      [
        "▁پژوهش",
        -9.279628894122801
      ],
      [
        "▁مدیرکل",
        -9.280312813584946
      ],
      [
        "▁۲۰۱۴",
        -9.280501342111766
      ],
      [
        "▁بیرون",
        -9.28081064106278
      ],
      [
        "▁فرانسه",
        -9.282463080667842
      ],
      [
        "▁واقعا",
        -9.28276990774649
      ],
      [
        "▁گارانتی",
        -9.282892294240007
      ],
      [
        "T",
        -9.284231678661945
      ],
      [
        "▁ستاره",
        -9.284559929785054
      ],
      [
        "▁کلاس",
        -9.285160017265031
      ],
      [
        "▁حسینی",
        -9.287010811596712
      ],
      [
        "▁پزشک",
        -9.287673074870991
      ],
      [
        "▁نسل",
        -9.288108545167425
      ],
      [
        "▁اینستاگرام",
        -9.289695478849755
      ],
      [
        "▁جز",
        -9.289993723967115
      ],
      [
        "ینگ",
        -9.290546846496715
      ],
      [
        "▁جواب",
        -9.290584929990661
      ],
      [
        "▁هستید",
        -9.291113763535838
      ],
      [
        "▁تربیت",
        -9.294627982051114
      ],
      [
        "▁اعمال",
        -9.296850080480809
      ],
      [
        "▁مبلغ",
        -9.297875570645935
      ],
      [
        "▁متخصص",
        -9.299417456962065
      ],
      [
        "▁فوق",
        -9.299605614750572
      ],
      [
        "خ",
        -9.299701992799967
      ],
      [
        "▁حقوقی",
        -9.300134629207989
      ],
      [
        "▁ماسه",
        -9.300249652725338
      ],
      [
        "▁وسایل",
        -9.301120518317251
      ],
      [
        "▁بازگشت",
        -9.301147873642321
      ],
      [
        "▁حادثه",
        -9.301451679237857
      ],
      [
        "▁سهم",
        -9.301770469809401
      ],
      [
        "▁انجام‌شده",
        -9.302124435231736
      ],
      [
        "▁صادر",
        -9.30267530006531
      ],
      [
        "▁شهادت",
        -9.303674807141709
      ],
      [
        "گان",
        -9.305354279715166
      ],
      [
        "▁شدت",
        -9.305974623150348
      ],
      [
        "▁۷۰",
        -9.306289644675065
      ],
      [
        "▁تعمیر",
        -9.307203937470245
      ],
      [
        "ده",
        -9.308478217923513
      ],
      [
        "▁لپ‌تاپ",
        -9.310129823343038
      ],
      [
        "▁دعوت",
        -9.310559664239637
      ],
      [
        "▁فوق‌العاده",
        -9.310709083147444
      ],
      [
        "▁رتبه",
        -9.312600363056326
      ],
      [
        "▁گاهی",
        -9.312953683975394
      ],
      [
        "▁داره",
        -9.3137193798818
      ],
      [
        "▁سالن",
        -9.313932403262427
      ],
      [
        "نده",
        -9.31424267251735
      ],
      [
        "▁حکومت",
        -9.31433570157026
      ],
      [
        "▁ویرایش",
        -9.314977976462735
      ],
      [
        "▁مازندران",
        -9.317161495727408
      ],
      [
        "▁ابعاد",
        -9.318522682808805
      ],
      [
        "▁همواره",
        -9.31973520487806
      ],
      [
        "▁۹۴",
        -9.319948134887902
      ],
      [
        "▁اگه",
        -9.319963661838658
      ],
      [
        "▁عمده",
        -9.32003569683458
      ],
      [
        "▁دین",
        -9.320145026187166
      ],
      [
        "▁کارکنان",
        -9.32028642454453
      ],
      [
        "▁۱۳۹۱",
        -9.321337743998887
      ],
      [
        "▁حکم",
        -9.321401262936732
      ],
      [
        "▁سوخت",
        -9.32153554890546
      ],
      [
        "▁جزيیات",
        -9.321592078042862
      ],
      [
        "▁الکترونیکی",
        -9.321643304636495
      ],
      [
        "▁رخ",
        -9.323026474228993
      ],
      [
        "▁اسم",
        -9.323311271116628
      ],
      [
        "▁نیمه",
        -9.323953818779113
      ],
      [
        "▁نماز",
        -9.324206784132048
      ],
      [
        "▁W",
        -9.324515116748906
      ],
      [
        "▁یزد",
        -9.325349076533357
      ],
      [
        "▁گفتگو",
        -9.32542713861243
      ],
      [
        "▁شوند.",
        -9.32569204391006
      ],
      [
        "▁نمی‌",
        -9.328899015271425
      ],
      [
        "B",
        -9.329480314018141
      ],
      [
        "▁گوش",
        -9.32978748478849
      ],
      [
        "▁چندین",
        -9.330385509711386
      ],
      [
        "▁سرد",
        -9.330412095240867
      ],
      [
        "▁کف",
        -9.331273906535522
      ],
      [
        "▁می‌رود",
        -9.331358739254394
      ],
      [
        "▁ایران،",
        -9.33184682277701
      ],
      [
        "▁شعر",
        -9.335891151493371
      ],
      [
        "▁جایی",
        -9.33681276375323
      ],
      [
        "▁امد",
        -9.337165432144687
      ],
      [
        "▁اختصاص",
        -9.337920950376152
      ],
      [
        "▁الکترونیک",
        -9.33863843863242
      ],
      [
        "▁عید",
        -9.339649212576473
      ],
      [
        "▁هوایی",
        -9.340373643342826
      ],
      [
        "▁مسابقه",
        -9.34267942899479
      ],
      [
        "▁سیستم‌های",
        -9.343702950889455
      ],
      [
        "▁بسیج",
        -9.345460711125597
      ],
      [
        "▁مهم‌ترین",
        -9.345566276961435
      ],
      [
        "▁برقی",
        -9.345730020880984
      ],
      [
        "▁کابل",
        -9.347855602876118
      ],
      [
        "▁به‌روز",
        -9.349008204009468
      ],
      [
        "▁L",
        -9.349780204195405
      ],
      [
        "▁دندان",
        -9.349871996865241
      ],
      [
        "‌کننده",
        -9.351501668179012
      ],
      [
        "▁دهید.",
        -9.352075174111928
      ],
      [
        "▁یافت",
        -9.35283550435175
      ],
      [
        "▁لحاظ",
        -9.352922182419249
      ],
      [
        "▁صدور",
        -9.35380535726912
      ],
      [
        "▁انجا",
        -9.354239680193249
      ],
      [
        "▁بزرگترین",
        -9.354706344087525
      ],
      [
        "▁مس",
        -9.355162962179012
      ],
      [
        "▁رسانه",
        -9.355840004776802
      ],
      [
        "▁می‌گوید",
        -9.356570409760206
      ],
      [
        "▁پیگیری",
        -9.356877759849318
      ],
      [
        "▁راهنمای",
        -9.358248522968761
      ],
      [
        "▁فر",
        -9.358637126606704
      ],
      [
        "▁بافت",
        -9.360395843209265
      ],
      [
        "▁اشتغال",
        -9.360507143266108
      ],
      [
        "▁برچسب",
        -9.36110503167679
      ],
      [
        "▁ده",
        -9.3620183414935
      ],
      [
        "▁ص",
        -9.363205666973414
      ],
      [
        "▁هفت",
        -9.363699681806217
      ],
      [
        "▁تحلیلی",
        -9.363766600389908
      ],
      [
        "▁اسیب",
        -9.364604485029691
      ],
      [
        "▁دید",
        -9.365328719821106
      ],
      [
        "▁غربی",
        -9.366717144340843
      ],
      [
        "▁شرح",
        -9.367081293554154
      ],
      [
        "▁تفاوت",
        -9.367392494805758
      ],
      [
        "▁خاطرنشان",
        -9.367414197127264
      ],
      [
        "▁فهرست",
        -9.367429184181137
      ],
      [
        "▁صفر",
        -9.36835954632863
      ],
      [
        "F",
        -9.369129764728962
      ],
      [
        "▁رقابت",
        -9.3691925644882
      ],
      [
        "▁خلاصه",
        -9.369419901759173
      ],
      [
        "ض",
        -9.3706865992486
      ],
      [
        "▁پیشگیری",
        -9.37089569341401
      ],
      [
        "▁اجاره",
        -9.371848029354041
      ],
      [
        "این",
        -9.372139497759747
      ],
      [
        "▁دکتری",
        -9.372549424710826
      ],
      [
        "▁بیست",
        -9.372880470769886
      ],
      [
        "▁توپ",
        -9.373003216017374
      ],
      [
        "▁محور",
        -9.373111025642089
      ],
      [
        "نگ",
        -9.373157697909987
      ],
      [
        "▁می‌گردد.",
        -9.37339233721828
      ],
      [
        "▁تمرین",
        -9.373518768651483
      ],
      [
        "­",
        -9.374107812166063
      ],
      [
        "سازی",
        -9.37518485820137
      ],
      [
        "▁جستجو",
        -9.376587086692375
      ],
      [
        "▁خوردن",
        -9.377122445252123
      ],
      [
        "▁۳۰۰",
        -9.377164663426022
      ],
      [
        "▁گوشت",
        -9.377276207711173
      ],
      [
        "▁گام",
        -9.37729704184264
      ],
      [
        "▁سینمایی",
        -9.377375721266802
      ],
      [
        "▁گیاه",
        -9.37739634148501
      ],
      [
        "▁یکدیگر",
        -9.3774789526566
      ],
      [
        "▁V",
        -9.37773034570801
      ],
      [
        "▁اموزان",
        -9.37786168959607
      ],
      [
        "▁ضروری",
        -9.378406874610205
      ],
      [
        "▁X",
        -9.379392880033897
      ],
      [
        "▁گفت‌وگو",
        -9.379806290527608
      ],
      [
        "▁حجت‌الاسلام",
        -9.380132866163379
      ],
      [
        "▁نقطه",
        -9.382472374289751
      ],
      [
        "▁شهروندان",
        -9.384396970420587
      ],
      [
        "▁برجام",
        -9.384744772882978
      ],
      [
        "▁فرزند",
        -9.385158535432858
      ],
      [
        "▁درصدی",
        -9.386068609476057
      ],
      [
        "▁خشک",
        -9.386347501325353
      ],
      [
        "▁پسر",
        -9.386696749672188
      ],
      [
        "▁می‌شد",
        -9.387286070121787
      ],
      [
        "▁مثلا",
        -9.388782018140635
      ],
      [
        "▁بیماران",
        -9.390262157727452
      ],
      [
        "▁تبلت",
        -9.390279242901524
      ],
      [
        "▁جدول",
        -9.390413009942874
      ],
      [
        "▁لو",
        -9.390950775397854
      ],
      [
        "▁کارشناس",
        -9.391131325178996
      ],
      [
        "▁کانون",
        -9.392832046869728
      ],
      [
        "▁کرمان",
        -9.393031340370243
      ],
      [
        "▁سابق",
        -9.393224636497429
      ],
      [
        "▁مختلفی",
        -9.39397259528543
      ],
      [
        "▁لغو",
        -9.395181068334974
      ],
      [
        "▁بازاریابی",
        -9.395373424679981
      ],
      [
        "▁صندوق",
        -9.396386467399962
      ],
      [
        "▁باشه",
        -9.397805860057273
      ],
      [
        "on",
        -9.397975962110362
      ],
      [
        "▁معاونت",
        -9.399859791347529
      ],
      [
        "▁کلید",
        -9.399967761396567
      ],
      [
        "▁حاشیه",
        -9.40023240254757
      ],
      [
        "▁استاندار",
        -9.401839992865769
      ],
      [
        "▁بالایی",
        -9.40208304549704
      ],
      [
        "▁تقریبا",
        -9.4024889913121
      ],
      [
        "▁تسهیلات",
        -9.403003255851846
      ],
      [
        "ی»",
        -9.403606109513747
      ],
      [
        "▁اقا",
        -9.403762644639169
      ],
      [
        "▁بیمار",
        -9.404099383690149
      ],
      [
        "▁سعید",
        -9.404679532883948
      ],
      [
        "▁عهده",
        -9.405142768937962
      ],
      [
        "▁وظیفه",
        -9.405397174791723
      ],
      [
        "▁می‌اید",
        -9.408149720609348
      ],
      [
        "▁بانوان",
        -9.408158736770007
      ],
      [
        "▁نقشه",
        -9.408614414311725
      ],
      [
        "▁هزینه‌های",
        -9.408702402314312
      ],
      [
        "▁بازیگر",
        -9.408816044743205
      ],
      [
        "▁باشیم",
        -9.409078778068988
      ],
      [
        "▁مردان",
        -9.409471829528517
      ],
      [
        "‎",
        -9.409716386225455
      ],
      [
        "▁متوجه",
        -9.410085873158273
      ],
      [
        "▁تولیدی",
        -9.410716606219252
      ],
      [
        "▁بینی",
        -9.411253393559633
      ],
      [
        "▁محدود",
        -9.411926149690203
      ],
      [
        "▁ظاهر",
        -9.413252130774575
      ],
      [
        "▁۹۳",
        -9.413878800974402
      ],
      [
        "▁نوزاد",
        -9.4143217963843
      ],
      [
        "▁صوتی",
        -9.414355106585184
      ],
      [
        "▁قهرمانی",
        -9.414505073369698
      ],
      [
        "▁تصویب",
        -9.41460799618316
      ],
      [
        "▁توی",
        -9.416610442410775
      ],
      [
        "▁ار",
        -9.416867800454368
      ],
      [
        "▁مرز",
        -9.417079985828893
      ],
      [
        "▁۲۰۱۳",
        -9.417210127381797
      ],
      [
        "له",
        -9.418283768762503
      ],
      [
        "▁جدیدی",
        -9.418404024623058
      ],
      [
        "▁افتتاح",
        -9.419005892227068
      ],
      [
        "▁قزوین",
        -9.419192738638198
      ],
      [
        "▁کلمات",
        -9.419566922596092
      ],
      [
        "▁پروژه‌های",
        -9.420072304896603
      ],
      [
        "▁شناسه",
        -9.420180335001561
      ],
      [
        "▁لذا",
        -9.42086290072344
      ],
      [
        "z",
        -9.42207642783098
      ],
      [
        "▁مرغ",
        -9.422429899120587
      ],
      [
        "::",
        -9.423824947202217
      ],
      [
        "▁طرح‌های",
        -9.424500428202403
      ],
      [
        "▁پارس",
        -9.425034782520434
      ],
      [
        "▁ساختار",
        -9.425197578498755
      ],
      [
        "▁ششم",
        -9.425410883922993
      ],
      [
        "▁اسان",
        -9.426016643667513
      ],
      [
        "▁رقم",
        -9.426158946149965
      ],
      [
        "▁تولد",
        -9.426678985961782
      ],
      [
        "▁اصول",
        -9.427184339796629
      ],
      [
        "▁زندان",
        -9.42773571043056
      ],
      [
        "▁فردا",
        -9.427767761733467
      ],
      [
        "▁بازرگانی",
        -9.428151670887281
      ],
      [
        "▁مساله",
        -9.428276144702501
      ],
      [
        "▁استقبال",
        -9.429017662180723
      ],
      [
        "▁استخراج",
        -9.429353370876786
      ],
      [
        "▁زاده",
        -9.429438943667105
      ],
      [
        "▁۳۲",
        -9.430700846710383
      ],
      [
        "▁x",
        -9.431287761452866
      ],
      [
        "▁مشاور",
        -9.431578538355586
      ],
      [
        "▁انتظامی",
        -9.432004358157329
      ],
      [
        "▁بهره‌برداری",
        -9.432124839961304
      ],
      [
        "▁صحیح",
        -9.432499884650323
      ],
      [
        "▁عرصه",
        -9.432587745555509
      ],
      [
        "▁مکان",
        -9.432621818884638
      ],
      [
        "▁هوای",
        -9.433214399894585
      ],
      [
        "▁همسر",
        -9.433304639907563
      ],
      [
        "▁رسید.",
        -9.433565972663763
      ],
      [
        "▁مغز",
        -9.434284293546977
      ],
      [
        "▁دلایل",
        -9.434458439008168
      ],
      [
        "▁پذیرش",
        -9.43450717380922
      ],
      [
        "▁ورودی",
        -9.434595030382255
      ],
      [
        "▁بیشترین",
        -9.435292013527633
      ],
      [
        "▁مبنی",
        -9.436897843360459
      ],
      [
        "▁ماهی",
        -9.437859868666003
      ],
      [
        "▁خمینی",
        -9.438282248634849
      ],
      [
        "▁شرقی",
        -9.438802112637358
      ],
      [
        "▁مجمع",
        -9.439106272481354
      ],
      [
        "▁فرمانده",
        -9.439635115344982
      ],
      [
        "▁۹۲",
        -9.43971504427889
      ],
      [
        "▁خواهید",
        -9.44002550853534
      ],
      [
        "▁معنی",
        -9.440345954112043
      ],
      [
        "▁محترم",
        -9.442045137235983
      ],
      [
        "▁نیازمند",
        -9.4428649525513
      ],
      [
        "▁کیف",
        -9.443084621774954
      ],
      [
        "▁اصلا",
        -9.443187586839118
      ],
      [
        "▁دهد",
        -9.443620390870642
      ],
      [
        "گو",
        -9.443982647116862
      ],
      [
        "▁m",
        -9.445008694082482
      ],
      [
        "K",
        -9.445824274441673
      ],
      [
        "▁ذهن",
        -9.446123986938403
      ],
      [
        "▁معدنی",
        -9.446541371422917
      ],
      [
        "▁امروزه",
        -9.447208814796642
      ],
      [
        "▁گو",
        -9.447298952301422
      ],
      [
        "▁بنام",
        -9.447548981151813
      ],
      [
        "▁کشتی",
        -9.447558262794214
      ],
      [
        "▁امادگی",
        -9.448226895327945
      ],
      [
        "▁رسانه‌های",
        -9.448880931367205
      ],
      [
        "▁نمی‌شود",
        -9.448938754283326
      ],
      [
        "نه",
        -9.450599489742697
      ],
      [
        "▁شارژ",
        -9.451180140070267
      ],
      [
        "▁کردیم",
        -9.451686341476094
      ],
      [
        "اش",
        -9.452011931190519
      ],
      [
        "▁گروه‌های",
        -9.453141061260673
      ],
      [
        "▁اختصاصی",
        -9.453564012696289
      ],
      [
        "غ",
        -9.455339047736155
      ],
      [
        "▁توانایی",
        -9.455424789230191
      ],
      [
        "▁دشمن",
        -9.45598909659364
      ],
      [
        "▁زیبای",
        -9.458131367214662
      ],
      [
        "▁هماهنگی",
        -9.458800773522807
      ],
      [
        "▁عدالت",
        -9.459315695221665
      ],
      [
        "▁دادگاه",
        -9.460944557381886
      ],
      [
        "▁جذاب",
        -9.461335699440601
      ],
      [
        "▁کاغذ",
        -9.46153330962488
      ],
      [
        "▁معادن",
        -9.462380915535636
      ],
      [
        "es",
        -9.46284054686615
      ],
      [
        "▁بازیگران",
        -9.462869728540994
      ],
      [
        "▁ایده",
        -9.463678512664188
      ],
      [
        "▁خودروهای",
        -9.464172301680808
      ],
      [
        "▁سردار",
        -9.464594230079385
      ],
      [
        "▁۲۰۲۰",
        -9.464681738549752
      ],
      [
        "D",
        -9.466350467462128
      ],
      [
        "▁اکثر",
        -9.46754490438092
      ],
      [
        "▁خروج",
        -9.468325687369854
      ],
      [
        "▁اشتباه",
        -9.468583205893477
      ],
      [
        "▁on",
        -9.469296975639512
      ],
      [
        "▁کرده‌اند.",
        -9.469620119463663
      ],
      [
        "▁پرواز",
        -9.470600673091896
      ],
      [
        "▁شرق",
        -9.470712850577822
      ],
      [
        "▁قطع",
        -9.471071943764834
      ],
      [
        "▁موقعیت",
        -9.472280127371459
      ],
      [
        "▁علیرضا",
        -9.47312696044116
      ],
      [
        "▁شهرهای",
        -9.473727352691228
      ],
      [
        "▁ساختمانی",
        -9.474265181875019
      ],
      [
        "▁مدرن",
        -9.474313331653136
      ],
      [
        "▁لوله",
        -9.474759993273835
      ],
      [
        "▁رضوی",
        -9.47506855910472
      ],
      [
        "▁هنرمندان",
        -9.475123077654397
      ],
      [
        "▁جایزه",
        -9.475912500915612
      ],
      [
        "▁وسیله",
        -9.475913274793193
      ],
      [
        "▁نیم",
        -9.475945053353946
      ],
      [
        "▁چقدر",
        -9.477521427697932
      ],
      [
        "▁هم‌اکنون",
        -9.478125492577373
      ],
      [
        "▁کیلومتر",
        -9.47843115805151
      ],
      [
        "▁ایرنا",
        -9.479357549959868
      ],
      [
        "▁کارگران",
        -9.481829217022725
      ],
      [
        "▁رضایت",
        -9.48198960974899
      ],
      [
        "R",
        -9.482814401292973
      ],
      [
        "▁اخذ",
        -9.483690266519666
      ],
      [
        "▁ابتدای",
        -9.483793713382024
      ],
      [
        "▁اشپزخانه",
        -9.483897738457394
      ],
      [
        "▁تحصیل",
        -9.48444540647941
      ],
      [
        "▁حزب",
        -9.484462372598326
      ],
      [
        "▁کنفرانس",
        -9.485783183109216
      ],
      [
        "▁گذشت",
        -9.486766792680127
      ],
      [
        "▁سرمربی",
        -9.487320679120122
      ],
      [
        "▁دکوراسیون",
        -9.487528050743736
      ],
      [
        "ه‌ی",
        -9.488682417159314
      ],
      [
        "▁ساخته‌شده",
        -9.489169940749743
      ],
      [
        "▁باغ",
        -9.48945571031344
      ],
      [
        "▁هاشمی",
        -9.489506704961126
      ],
      [
        "▁پودر",
        -9.489673775320046
      ],
      [
        "▁مرجع",
        -9.492035544863265
      ],
      [
        "▁شده‌اند",
        -9.492259666217464
      ],
      [
        "▁عطر",
        -9.492867349159809
      ],
      [
        "▁دبیر",
        -9.493979737122167
      ],
      [
        "▁سنگین",
        -9.494706061996308
      ],
      [
        "▁اطلاعاتی",
        -9.494831979961077
      ],
      [
        "▁حیوانات",
        -9.496003530795445
      ],
      [
        "▁اعتراض",
        -9.49615762488513
      ],
      [
        "▁اش",
        -9.497016505528983
      ],
      [
        "▁شاه",
        -9.497158877708817
      ],
      [
        "▁حس",
        -9.497205135670939
      ],
      [
        "▁رونمایی",
        -9.497541187686505
      ],
      [
        "▁نکات",
        -9.498708421515392
      ],
      [
        "▁شان",
        -9.499739457866713
      ],
      [
        "▁مصاحبه",
        -9.502241299163408
      ],
      [
        "▁واحدهای",
        -9.502758491393076
      ],
      [
        "▁داشتند",
        -9.503683881358203
      ],
      [
        "▁دانست",
        -9.503773666284907
      ],
      [
        "or",
        -9.505222520711563
      ],
      [
        "لا",
        -9.506323773644645
      ],
      [
        "▁اتش",
        -9.50686678421444
      ],
      [
        "▁گیاهان",
        -9.506875043190831
      ],
      [
        "▁نهاد",
        -9.510592581375374
      ],
      [
        "▁مطالعات",
        -9.510617996856164
      ],
      [
        "▁سرور",
        -9.510830273200629
      ],
      [
        "▁چرخ",
        -9.511689420745103
      ],
      [
        "▁عباس",
        -9.51255875739205
      ],
      [
        "▁بشر",
        -9.516115481166173
      ],
      [
        "P",
        -9.516898166772972
      ],
      [
        "▁فارکس",
        -9.517943796358502
      ],
      [
        "▁مسجد",
        -9.518762854420366
      ],
      [
        "▁مهمی",
        -9.518925285313262
      ],
      [
        "ه‌های",
        -9.519278663409846
      ],
      [
        "▁کردستان",
        -9.520377255843336
      ],
      [
        "▁۳۵",
        -9.52098281068945
      ],
      [
        "▁منتظر",
        -9.520984502337765
      ],
      [
        "▁اورده",
        -9.522071799345248
      ],
      [
        "▁محلی",
        -9.522353685927856
      ],
      [
        "▁۹۹",
        -9.524539971088078
      ],
      [
        "▁تحریم",
        -9.525031212343178
      ],
      [
        "▁خواص",
        -9.52668567551188
      ],
      [
        "▁عجیب",
        -9.52668953497735
      ],
      [
        "▁وبسایت",
        -9.527600358162942
      ],
      [
        "▁چربی",
        -9.52766895981997
      ],
      [
        "▁بنیاد",
        -9.527746716869856
      ],
      [
        "▁مناسبی",
        -9.528674150608255
      ],
      [
        "▁ندارند",
        -9.528977705497358
      ],
      [
        "▁سخن",
        -9.529514799201667
      ],
      [
        "▁راه‌های",
        -9.52994702709815
      ],
      [
        "▁نفس",
        -9.53043529761053
      ],
      [
        "▁جشن",
        -9.530576230076752
      ],
      [
        "▁گوشی‌های",
        -9.531343070603096
      ],
      [
        "▁انکه",
        -9.531724404704702
      ],
      [
        "▁بالاتر",
        -9.531781634548894
      ],
      [
        "▁می‌کرد",
        -9.532717600940023
      ],
      [
        "▁طولانی",
        -9.534707873654307
      ],
      [
        "▁لذت",
        -9.535595989198
      ],
      [
        "▁اگاهی",
        -9.536746846342094
      ],
      [
        "▁پرو",
        -9.53710945387628
      ],
      [
        "▁ادم",
        -9.537198544579784
      ],
      [
        "▁می‌گوید:",
        -9.537317053749344
      ],
      [
        "▁شیمیایی",
        -9.539813124055076
      ],
      [
        "ar",
        -9.540995730401967
      ],
      [
        "▁روان",
        -9.542413494397262
      ],
      [
        "▁سابقه",
        -9.542596753060096
      ],
      [
        "مین",
        -9.54300063868935
      ],
      [
        "▁هشت",
        -9.543129053530155
      ],
      [
        "▁اغلب",
        -9.543763263202917
      ],
      [
        "▁\"",
        -9.544815597100492
      ],
      [
        "▁تاسیس",
        -9.545237449218039
      ],
      [
        "▁فیلم‌های",
        -9.546681077470616
      ],
      [
        "am",
        -9.548895235162146
      ],
      [
        "▁کند،",
        -9.549485085746173
      ],
      [
        "w",
        -9.551811642863536
      ],
      [
        "▁باور",
        -9.551966869429101
      ],
      [
        "▁منفی",
        -9.552114060036928
      ],
      [
        "▁اپ",
        -9.553011370439393
      ],
      [
        "▁انگلیس",
        -9.553063047790566
      ],
      [
        "▁رمضان",
        -9.553618188068011
      ],
      [
        "▁بارداری",
        -9.55380990250162
      ],
      [
        "▁افتاب",
        -9.554161358036527
      ],
      [
        "▁جلو",
        -9.554268378960714
      ],
      [
        "▁مستند",
        -9.554430792583508
      ],
      [
        "▁مبتلا",
        -9.555920749309994
      ],
      [
        "▁O",
        -9.556007717791246
      ],
      [
        "▁ام‌اس",
        -9.556115413607905
      ],
      [
        "▁هدایت",
        -9.556421923396083
      ],
      [
        "▁صد",
        -9.55759104327575
      ],
      [
        "▁خودم",
        -9.557724118673711
      ],
      [
        "▁اطراف",
        -9.558375015304247
      ],
      [
        "▁پل",
        -9.558475102361532
      ],
      [
        "▁خداوند",
        -9.558719134885408
      ],
      [
        "▁for",
        -9.55879860576399
      ],
      [
        "k",
        -9.55885895083749
      ],
      [
        "▁پیشرفته",
        -9.559140620271236
      ],
      [
        "▁متوسط",
        -9.560130322874933
      ],
      [
        "▁ملل",
        -9.560345474991973
      ],
      [
        "ث",
        -9.561212259287377
      ],
      [
        "▁برنج",
        -9.561884483031093
      ],
      [
        "▁نظیر",
        -9.561909729448171
      ],
      [
        "▁روزه",
        -9.562087129107105
      ],
      [
        "▁صحنه",
        -9.562208900621858
      ],
      [
        "▁می‌کنیم.",
        -9.562844016961787
      ],
      [
        "▁نوین",
        -9.563435076884453
      ],
      [
        "▁بزرگی",
        -9.563753006270053
      ],
      [
        "▁کشته",
        -9.56428420954386
      ],
      [
        "▁کمبود",
        -9.564475348488275
      ],
      [
        "▁رسیدگی",
        -9.564595822134246
      ],
      [
        "▁دینی",
        -9.564980876858112
      ],
      [
        "▁دانشجویی",
        -9.565958603825415
      ],
      [
        "▁تخفیف",
        -9.565991782104824
      ],
      [
        "▁نوروز",
        -9.566009472540063
      ],
      [
        "▁حافظه",
        -9.566056803869579
      ],
      [
        "▁شخصیت",
        -9.566858386857337
      ],
      [
        "▁حوادث",
        -9.567168012115244
      ],
      [
        "▁بیماری‌های",
        -9.567446710555728
      ],
      [
        "▁اطمینان",
        -9.567574468337003
      ],
      [
        "▁کرمانشاه",
        -9.567807256818252
      ],
      [
        "▁مجموع",
        -9.567809848255413
      ],
      [
        "▁داده‌شده",
        -9.569889161616128
      ],
      [
        "▁میراث",
        -9.570274824288404
      ],
      [
        "▁حمید",
        -9.570933807518042
      ],
      [
        "ic",
        -9.570964890763342
      ],
      [
        "».",
        -9.571179867623796
      ],
      [
        "▁نوشته‌شده",
        -9.57155649582852
      ],
      [
        "▁مخدر",
        -9.571980548859386
      ],
      [
        ":۰۰",
        -9.572318295474977
      ],
      [
        "▁افزونه",
        -9.572907613461659
      ],
      [
        "▁موضوعات",
        -9.573561476128702
      ],
      [
        "▁چای",
        -9.573961708943672
      ],
      [
        "▁ع",
        -9.574017125925481
      ],
      [
        "▁تهدید",
        -9.574314321501674
      ],
      [
        "▁تبریک",
        -9.574469741713923
      ],
      [
        "▁طرز",
        -9.574806220564664
      ],
      [
        "li",
        -9.574962313486573
      ],
      [
        "▁روستای",
        -9.575191087054154
      ],
      [
        "▁ازمایش",
        -9.576571822976886
      ],
      [
        "▁اپلیکیشن",
        -9.577071746450134
      ],
      [
        "▁کرج",
        -9.577101767728388
      ],
      [
        "▁بتواند",
        -9.579281273155207
      ],
      [
        "▁فعلی",
        -9.579535759090973
      ],
      [
        "▁نیرو",
        -9.57960282170879
      ],
      [
        "▁نوعی",
        -9.579758177320759
      ],
      [
        "▁رشته‌های",
        -9.580144708722276
      ],
      [
        "سون",
        -9.580483701061791
      ],
      [
        "▁انتقاد",
        -9.580732774754225
      ],
      [
        "▁فاز",
        -9.581666257316567
      ],
      [
        "▁قوی",
        -9.581858655540021
      ],
      [
        "▁میوه",
        -9.58258260909271
      ],
      [
        "چه",
        -9.583122302385899
      ],
      [
        "▁سخنرانی",
        -9.583321351192915
      ],
      [
        "▁دریایی",
        -9.583437849386808
      ],
      [
        "▁تعمیرات",
        -9.583971817772172
      ],
      [
        "▁تهران،",
        -9.58413342148523
      ],
      [
        "ستان",
        -9.58438147428081
      ],
      [
        "▁میلادی",
        -9.584567780093945
      ],
      [
        "▁مسيولیت",
        -9.584655387273127
      ],
      [
        "H",
        -9.586079330064333
      ],
      [
        "▁خواندن",
        -9.587037648421315
      ],
      [
        "▁هشدار",
        -9.58876861940485
      ],
      [
        "▁تابستان",
        -9.589186836805151
      ],
      [
        "▁گونه",
        -9.589395023634136
      ],
      [
        "▁طبیعت",
        -9.58969316729911
      ],
      [
        "▁انیمیشن",
        -9.589772050013057
      ],
      [
        "▁عاشقانه",
        -9.590042417496576
      ],
      [
        "▁جهاد",
        -9.590085931264246
      ],
      [
        "▁فجر",
        -9.590644069181327
      ],
      [
        "▁الله",
        -9.591037849834386
      ],
      [
        "▁;",
        -9.591271232840246
      ],
      [
        "▁ریاضی",
        -9.591618298311491
      ],
      [
        "▁۸۸",
        -9.592476204540663
      ],
      [
        "▁ابتدایی",
        -9.592846838763846
      ],
      [
        "▁اهواز",
        -9.593117855747531
      ],
      [
        "▁بدانید",
        -9.593581497105781
      ],
      [
        "▁سخنگوی",
        -9.594130784211139
      ],
      [
        "▁مذاکرات",
        -9.59541207017039
      ],
      [
        "▁ارسال‌شده",
        -9.595547389410285
      ],
      [
        "▁بردن",
        -9.595555242742602
      ],
      [
        "▁مدل‌های",
        -9.59627825486136
      ],
      [
        "▁ارامش",
        -9.59635073074644
      ],
      [
        "▁بوشهر",
        -9.596638967058908
      ],
      [
        "▁بدین",
        -9.598072138377088
      ],
      [
        "▁مناسبت",
        -9.598360742734082
      ],
      [
        "ad",
        -9.60150900448319
      ],
      [
        "▁الودگی",
        -9.601818323262671
      ],
      [
        "C",
        -9.6020600401752
      ],
      [
        "▁فیلتر",
        -9.60238689982236
      ],
      [
        "▁حفاظت",
        -9.602433295601163
      ],
      [
        "▁ضرورت",
        -9.602676599566898
      ],
      [
        "▁گلکسی",
        -9.602776058178943
      ],
      [
        "▁شخص",
        -9.602798295038962
      ],
      [
        "▁حقیقت",
        -9.602957044401588
      ],
      [
        "el",
        -9.60351047866882
      ],
      [
        "▁لحظه",
        -9.603776185503616
      ],
      [
        "▁شغل",
        -9.604466783278593
      ],
      [
        "▁پنجم",
        -9.605062236787134
      ],
      [
        "▁عربی",
        -9.606432700428766
      ],
      [
        "▁کرد،",
        -9.606554677838233
      ],
      [
        "▁ق.",
        -9.607111183358843
      ],
      [
        "▁نویسی",
        -9.607666044560702
      ],
      [
        "▁ذخیره",
        -9.608600055705242
      ],
      [
        "▁جمع‌اوری",
        -9.609636994789362
      ],
      [
        "▁عرض",
        -9.610602626968348
      ],
      [
        "▁محتوای",
        -9.61102521101245
      ],
      [
        "▁مهندس",
        -9.612086022216006
      ],
      [
        "▁حداکثر",
        -9.612208204896582
      ],
      [
        "▁سقف",
        -9.612217015298256
      ],
      [
        "▁بهار",
        -9.612633733403428
      ],
      [
        "▁جرم",
        -9.61301261158011
      ],
      [
        "▁ویدیو",
        -9.613264125504964
      ],
      [
        "▁ابراز",
        -9.613290698788685
      ],
      [
        "▁خواست",
        -9.61368125106883
      ],
      [
        "▁المپیک",
        -9.614016457612982
      ],
      [
        "▁ج",
        -9.614148782872778
      ],
      [
        "▁طب",
        -9.614339272916505
      ],
      [
        "‌دار",
        -9.614853737838427
      ],
      [
        "id",
        -9.614924224338356
      ],
      [
        "▁دهم",
        -9.61496236944116
      ],
      [
        "▁معاملات",
        -9.615315764103073
      ],
      [
        "▁نجات",
        -9.615779061042375
      ],
      [
        "▁چوب",
        -9.61641680759971
      ],
      [
        "▁گسترده",
        -9.619245093871925
      ],
      [
        "▁گرامی",
        -9.619385613104896
      ],
      [
        "▁ظهر",
        -9.619746758188196
      ],
      [
        "▁احتمالا",
        -9.620862324599978
      ],
      [
        "▁خالی",
        -9.621220523571765
      ],
      [
        "است",
        -9.622142566753741
      ],
      [
        "▁گلستان",
        -9.622898539834765
      ],
      [
        "▁روستایی",
        -9.62357443203284
      ],
      [
        "▁کشورمان",
        -9.623950031384698
      ],
      [
        "▁روانی",
        -9.624669090144122
      ],
      [
        "▁یادگیری",
        -9.624734153966887
      ],
      [
        "▁کارگاه",
        -9.625070801559438
      ],
      [
        "▁می‌گردد",
        -9.630147467362978
      ],
      [
        "▁کلمه",
        -9.630296902392674
      ],
      [
        "فی",
        -9.630857568804762
      ],
      [
        "▁فرمت",
        -9.630928317408591
      ],
      [
        "▁دهند.",
        -9.631234873181821
      ],
      [
        "▁کام",
        -9.631259271589808
      ],
      [
        "▁فرزندان",
        -9.631315721755549
      ],
      [
        "▁ماهه",
        -9.631439212391742
      ],
      [
        "▁بین‌الملل",
        -9.63231725118835
      ],
      [
        "▁محمدرضا",
        -9.632853153608288
      ],
      [
        "▁راهنمایی",
        -9.63321851307682
      ],
      [
        "▁مشغول",
        -9.633488815781302
      ],
      [
        "▁معامله",
        -9.633859281680667
      ],
      [
        "▁۱۳۹۰",
        -9.634016693828425
      ],
      [
        "▁حاوی",
        -9.634383546360887
      ],
      [
        "▁عین",
        -9.634791204698974
      ],
      [
        "L",
        -9.63484673801445
      ],
      [
        "▁ثانیه",
        -9.635313800911824
      ],
      [
        "▁شناخت",
        -9.635410185963698
      ],
      [
        "▁برداشت",
        -9.636422991872525
      ],
      [
        "▁دخترانه",
        -9.63721409515112
      ],
      [
        "▁تعدادی",
        -9.637948044461037
      ],
      [
        "▁جوش",
        -9.638153872533213
      ],
      [
        "▁صرف",
        -9.638458797094904
      ],
      [
        "it",
        -9.638969424698677
      ],
      [
        "▁مراقبت",
        -9.638979645938555
      ],
      [
        "▁ادبیات",
        -9.639964164304429
      ],
      [
        "گاه",
        -9.640980280953189
      ],
      [
        "▁گیاهی",
        -9.641250489813403
      ],
      [
        "▁سایز",
        -9.641336131555413
      ],
      [
        "▁کمپانی",
        -9.641599571921368
      ],
      [
        "▁نقاشی",
        -9.641695736509135
      ],
      [
        "▁مطمين",
        -9.641731867753688
      ],
      [
        ",دانلود",
        -9.643224669493398
      ],
      [
        "▁مسعود",
        -9.643487140785119
      ],
      [
        "▁۰۰",
        -9.643972056247506
      ],
      [
        "▁احداث",
        -9.644835412340647
      ],
      [
        "▁Z",
        -9.644851275856695
      ],
      [
        "▁باقی",
        -9.645515228971568
      ],
      [
        "▁۲۰۱۲",
        -9.645668327886057
      ],
      [
        "▁گذاشته",
        -9.64587392077121
      ],
      [
        "x",
        -9.64591202921183
      ],
      [
        "▁خلق",
        -9.64658858174557
      ],
      [
        "et",
        -9.647148142520344
      ],
      [
        "▁باتری",
        -9.64718708708366
      ],
      [
        "▁چیست",
        -9.647375642986336
      ],
      [
        "▁ایرانیان",
        -9.647965312087294
      ],
      [
        "▁پایتخت",
        -9.648812826527857
      ],
      [
        "▁گرد",
        -9.649125904221016
      ],
      [
        "▁فراموش",
        -9.650299725935877
      ],
      [
        "▁مذهبی",
        -9.65073474357817
      ],
      [
        "v",
        -9.651348181345814
      ],
      [
        "▁می‌دهند.",
        -9.651588773153083
      ],
      [
        "▁علايم",
        -9.651615429627471
      ],
      [
        "▁پلی",
        -9.65189525547672
      ],
      [
        "▁عبارت",
        -9.652263206784253
      ],
      [
        "▁اختلاف",
        -9.653254491920979
      ],
      [
        "▁قاچاق",
        -9.654626482692976
      ],
      [
        "▁کالای",
        -9.654710363113258
      ],
      [
        "▁قضایی",
        -9.654907258119554
      ],
      [
        "▁هواپیما",
        -9.655529270460224
      ],
      [
        "en",
        -9.655825587742633
      ],
      [
        "نت",
        -9.655876012372904
      ],
      [
        "▁سرپرست",
        -9.65655103916074
      ],
      [
        "▁قطر",
        -9.656953905496529
      ],
      [
        "▁دارویی",
        -9.657554698877465
      ],
      [
        "▁وکیل",
        -9.657678017187187
      ],
      [
        "▁راحت",
        -9.658025174177835
      ],
      [
        "▁صاحب",
        -9.658156244937366
      ],
      [
        "▁می‌گویند",
        -9.658302057020757
      ],
      [
        "▁شاد",
        -9.658986657222295
      ],
      [
        "▁جو",
        -9.65968718053836
      ],
      [
        "پور",
        -9.660939468564521
      ],
      [
        "▁کنید،",
        -9.66166462501469
      ],
      [
        "▁نکرده",
        -9.661826169958477
      ],
      [
        "▁مقامات",
        -9.662661480446923
      ],
      [
        "اری",
        -9.663014959881044
      ],
      [
        "اموزش",
        -9.66360844717886
      ],
      [
        "▁ایالات‌متحده",
        -9.663610170669141
      ],
      [
        "▁Download",
        -9.66399052814948
      ],
      [
        "▁مبارک",
        -9.664736138116272
      ],
      [
        "۰۰۰",
        -9.664887284147316
      ],
      [
        "▁گرفته‌شده",
        -9.665272277916733
      ],
      [
        "▁خیر",
        -9.665395456362587
      ],
      [
        "▁پرسش",
        -9.665697222277343
      ],
      [
        "▁مت",
        -9.667070350887073
      ],
      [
        "▁۴۰۰",
        -9.667557661047962
      ],
      [
        "▁کلیپ",
        -9.667598570935644
      ],
      [
        "▁رستوران",
        -9.668270071789053
      ],
      [
        "▁دانشکده",
        -9.668411325061726
      ],
      [
        "▁بیت",
        -9.668428210674648
      ],
      [
        "▁چهره",
        -9.669499063137943
      ],
      [
        "▁باره",
        -9.669529930544623
      ],
      [
        "▁ناحیه",
        -9.670833873292217
      ],
      [
        "▁رسانی",
        -9.67107144360526
      ],
      [
        "بار",
        -9.671363059211128
      ],
      [
        "▁عروس",
        -9.672858145731249
      ],
      [
        "ta",
        -9.673190796181384
      ],
      [
        "▁تحقق",
        -9.673621855937531
      ],
      [
        "کس",
        -9.673938199398034
      ],
      [
        "▁اتصال",
        -9.67499394112729
      ],
      [
        "▁هیيت",
        -9.67576375830531
      ],
      [
        "اف",
        -9.675812377319687
      ],
      [
        "▁تمرکز",
        -9.676426463928038
      ],
      [
        "▁موقع",
        -9.677361934852321
      ],
      [
        "▁خودکار",
        -9.6777010938724
      ],
      [
        "▁n",
        -9.678597176487234
      ],
      [
        "▁موج",
        -9.678867453014263
      ],
      [
        "▁دریا",
        -9.679130795951913
      ],
      [
        "▁صلح",
        -9.679275019067482
      ],
      [
        "فر",
        -9.67932958646074
      ],
      [
        "re",
        -9.679439796525195
      ],
      [
        "▁ایام",
        -9.679574505958941
      ],
      [
        "▁نمایید",
        -9.679590175831727
      ],
      [
        "▁وجه",
        -9.680115868071287
      ],
      [
        "▁کیش",
        -9.681517091445485
      ],
      [
        "کن",
        -9.681633790035637
      ],
      [
        "▁نفوذ",
        -9.68249937944891
      ],
      [
        "▁واقعیت",
        -9.682642266076328
      ],
      [
        "▁گروهی",
        -9.682674433299951
      ],
      [
        "▁هدیه",
        -9.683239061083254
      ],
      [
        "▁ویديو",
        -9.683597733640301
      ],
      [
        "داری",
        -9.68360933682615
      ],
      [
        "▁نوشت:",
        -9.684005185754849
      ],
      [
        "▁دانشجو",
        -9.684415298580964
      ],
      [
        "▁قلم",
        -9.68466068297483
      ],
      [
        "▁نه‌تنها",
        -9.684852687520486
      ],
      [
        "▁پنل",
        -9.684988900169678
      ],
      [
        "▁طبقه",
        -9.685216093109535
      ],
      [
        "▁سیستم‌عامل",
        -9.685794318946847
      ],
      [
        "▁راست",
        -9.686100511620396
      ],
      [
        "▁سیمان",
        -9.686708882381375
      ],
      [
        "▁اهل",
        -9.686854728206791
      ],
      [
        "▁قوه",
        -9.686867548307475
      ],
      [
        "▁قتل",
        -9.687711477583974
      ],
      [
        "▁ارایش",
        -9.687783235506094
      ],
      [
        "▁J",
        -9.68788419710435
      ],
      [
        "▁بندر",
        -9.6879581681915
      ],
      [
        "▁هستم",
        -9.688281892285008
      ],
      [
        "▁بودند.",
        -9.688499220654277
      ],
      [
        "ly",
        -9.688681283074603
      ],
      [
        "▁تیم‌های",
        -9.689161633466943
      ],
      [
        "▁ویژگی",
        -9.689280018262341
      ],
      [
        "▁ولایت",
        -9.689666798898646
      ],
      [
        "▁میل",
        -9.689721165034232
      ],
      [
        "▁دوبله",
        -9.69015004393658
      ],
      [
        "▁رنگی",
        -9.690413088200899
      ],
      [
        "▁Pro",
        -9.69112222252139
      ],
      [
        "▁ایتالیا",
        -9.69288680237121
      ],
      [
        "▁کالاهای",
        -9.693034421035097
      ],
      [
        "▁عوارض",
        -9.69404625261706
      ],
      [
        "▁تکرار",
        -9.694213645161486
      ],
      [
        "▁سخنان",
        -9.696132382082126
      ],
      [
        "‌ال",
        -9.697043753660052
      ],
      [
        "▁نانو",
        -9.697130784027305
      ],
      [
        "▁اردبیل",
        -9.697171796661118
      ],
      [
        "▁گرافیک",
        -9.697502463743815
      ],
      [
        "▁سکه",
        -9.697524921898545
      ],
      [
        "▁اروپایی",
        -9.698099020950883
      ],
      [
        "▁کشورها",
        -9.698652219802142
      ],
      [
        "▁مانتو",
        -9.69919461538089
      ],
      [
        "▁نمک",
        -9.699469428074632
      ],
      [
        "▁مذاکره",
        -9.699730239976901
      ],
      [
        "▁بودم",
        -9.700652584011294
      ],
      [
        "▁مجهز",
        -9.7009825819403
      ],
      [
        "پر",
        -9.701119958811393
      ],
      [
        "at",
        -9.702994913912377
      ],
      [
        "▁می‌کنند،",
        -9.703234850423833
      ],
      [
        "▁پژوهشی",
        -9.703596931590834
      ],
      [
        "▁views",
        -9.70374043308197
      ],
      [
        "▁مجاز",
        -9.703783918459273
      ],
      [
        "▁سختی",
        -9.70410461935808
      ],
      [
        "▁دهند",
        -9.705809399393615
      ],
      [
        "▁برگ",
        -9.706055321670705
      ],
      [
        "▁i",
        -9.706705780766292
      ],
      [
        "▁تياتر",
        -9.706737462291134
      ],
      [
        "▁(ره)",
        -9.706737685104606
      ],
      [
        "علی",
        -9.70698163545751
      ],
      [
        "▁رسانه‌ها",
        -9.70730230046956
      ],
      [
        "▁حسابداری",
        -9.708909059285961
      ],
      [
        "▁ممنون",
        -9.708976639941788
      ],
      [
        "▁دسته‌بندی",
        -9.70938735701274
      ],
      [
        "▁راهی",
        -9.709894961020158
      ],
      [
        "▁معلم",
        -9.710037514570391
      ],
      [
        "▁گران",
        -9.710097723701518
      ],
      [
        "▁نمایند.",
        -9.71059140507428
      ],
      [
        "▁دیوار",
        -9.710608727917382
      ],
      [
        "▁شهردار",
        -9.710880552227826
      ],
      [
        "▁شیشه",
        -9.711121892007544
      ],
      [
        "هم",
        -9.713649398894619
      ],
      [
        "▁پرس",
        -9.71631179318971
      ],
      [
        "▁قطعه",
        -9.716728919142309
      ],
      [
        "▁ملک",
        -9.716777123426386
      ],
      [
        "▁قطعا",
        -9.717034664046459
      ],
      [
        "▁شهدا",
        -9.71722332186378
      ],
      [
        "▁معنای",
        -9.717275671619463
      ],
      [
        "▁نژاد",
        -9.717773180055882
      ],
      [
        "na",
        -9.718007380530796
      ],
      [
        "▁روزها",
        -9.718159809055457
      ],
      [
        "▁مردمی",
        -9.718292470686146
      ],
      [
        "▁سینمای",
        -9.718745335385446
      ],
      [
        "▁سیاست‌های",
        -9.719155166476604
      ],
      [
        "▁ف",
        -9.719170305691236
      ],
      [
        "▁ارشاد",
        -9.72033594139965
      ],
      [
        "▁مجید",
        -9.721469147626186
      ],
      [
        "ri",
        -9.721527178183086
      ],
      [
        "▁قدرتمند",
        -9.721824534308947
      ],
      [
        "▁g",
        -9.72282220596098
      ],
      [
        "▁یافته",
        -9.723010373277702
      ],
      [
        "▁مدارک",
        -9.724258969705105
      ],
      [
        "▁فی",
        -9.724542143071083
      ],
      [
        "▁داغ",
        -9.725272771117172
      ],
      [
        "▁مطلب:",
        -9.725343578777359
      ],
      [
        "۲۸",
        -9.725969315686733
      ],
      [
        "۱",
        -9.726775048907903
      ],
      [
        "▁متهم",
        -9.727104192014831
      ],
      [
        "▁فلزی",
        -9.727356833127885
      ],
      [
        "▁جنسی",
        -9.727555216343362
      ],
      [
        "▁شیرین",
        -9.72767494331224
      ],
      [
        "▁مک",
        -9.728045800862112
      ],
      [
        "▁سازنده",
        -9.728488749219968
      ],
      [
        "▁مجدد",
        -9.728565387139113
      ],
      [
        "▁فول",
        -9.728906430592026
      ],
      [
        "▁تان",
        -9.730044563355655
      ],
      [
        "▁عسل",
        -9.730141934206635
      ],
      [
        "▁بتوانند",
        -9.730294467966244
      ],
      [
        "▁قبول",
        -9.730301583832432
      ],
      [
        "▁جاده",
        -9.731295563020726
      ],
      [
        "▁میر",
        -9.731345837636958
      ],
      [
        "U",
        -9.731404244882382
      ],
      [
        "=",
        -9.731972821718035
      ],
      [
        "▁تمیز",
        -9.733113133568128
      ],
      [
        "▁خودروی",
        -9.73349745549525
      ],
      [
        "▁ارام",
        -9.734148406417576
      ],
      [
        "▁روایت",
        -9.734844089160068
      ],
      [
        "بین",
        -9.735234375958488
      ],
      [
        "▁تروریستی",
        -9.737312693761755
      ],
      [
        "▁پوشاک",
        -9.738110821827735
      ],
      [
        "▁انتی",
        -9.738304249269824
      ],
      [
        "u",
        -9.738363333983575
      ],
      [
        "▁زرد",
        -9.73838733521381
      ],
      [
        "▁سیر",
        -9.738564138148536
      ],
      [
        "▁مدار",
        -9.738590186221387
      ],
      [
        "▁تخت",
        -9.739175741827982
      ],
      [
        "ء",
        -9.739809254828987
      ],
      [
        "▁چک",
        -9.73994307135321
      ],
      [
        "▁فتوشاپ",
        -9.740679262449095
      ],
      [
        "▁کرم",
        -9.740695295463523
      ],
      [
        "▁داری",
        -9.740977617198421
      ],
      [
        "▁نمود.",
        -9.74126973169201
      ],
      [
        "▁افت",
        -9.741284504291484
      ],
      [
        "il",
        -9.741452614697822
      ],
      [
        "▁سیل",
        -9.741592687428108
      ],
      [
        "▁الهی",
        -9.742254299922926
      ],
      [
        "▁تعویض",
        -9.74239633431749
      ],
      [
        "▁اسرايیل",
        -9.742858231334413
      ],
      [
        "▁ظرف",
        -9.744095776864034
      ],
      [
        "▁تمایل",
        -9.74453168378772
      ],
      [
        "▁روستا",
        -9.74476426721192
      ],
      [
        "▁مانع",
        -9.745234867152302
      ],
      [
        "▁گیری",
        -9.747121945748347
      ],
      [
        "▁شیک",
        -9.747485204581487
      ],
      [
        "▁مربوطه",
        -9.747756752889906
      ],
      [
        "▁شغلی",
        -9.74892884180059
      ],
      [
        "▁ضربه",
        -9.749033898015728
      ],
      [
        "▁همدان",
        -9.749053182271116
      ],
      [
        "▁اندازه‌گیری",
        -9.749056662849668
      ],
      [
        "▁سقوط",
        -9.751560682573743
      ],
      [
        "▁هواداران",
        -9.752410450795805
      ],
      [
        "۰۹",
        -9.75360917840403
      ],
      [
        "▁تورم",
        -9.7541515503811
      ],
      [
        "▁۴۵",
        -9.754232398662733
      ],
      [
        "'",
        -9.7543489668473
      ],
      [
        "▁تزریق",
        -9.754431554177394
      ],
      [
        "▁لزوم",
        -9.75471132881871
      ],
      [
        "▁خودتان",
        -9.75476558068956
      ],
      [
        "▁می‌خواهید",
        -9.755118479443702
      ],
      [
        "▁کجا",
        -9.756422678976122
      ],
      [
        "▁عمران",
        -9.75751419114701
      ],
      [
        "▁شرایطی",
        -9.757909122570762
      ],
      [
        "▁نمود",
        -9.758164198791803
      ],
      [
        "▁زنجان",
        -9.758793011196243
      ],
      [
        "▁غذای",
        -9.759655798569963
      ],
      [
        "▁استرس",
        -9.75994728890203
      ],
      [
        "▁طوری",
        -9.760694505372083
      ],
      [
        "▁کانادا",
        -9.760864777510573
      ],
      [
        "▁جایگزین",
        -9.761622995729944
      ],
      [
        "▁شرکت‌ها",
        -9.761766258957921
      ],
      [
        "▁سرگرمی",
        -9.761886785064739
      ],
      [
        "▁کنگره",
        -9.762117330821837
      ],
      [
        "▁فرودگاه",
        -9.762865749209773
      ],
      [
        "▁سالانه",
        -9.763444816304713
      ],
      [
        "▁همانطور",
        -9.76421191871789
      ],
      [
        "▁پارچه",
        -9.764429696106351
      ],
      [
        "▁نفتی",
        -9.764766607963583
      ],
      [
        "▁سنت",
        -9.76522676596362
      ],
      [
        "ol",
        -9.765632105052475
      ],
      [
        "سا",
        -9.765736847590258
      ],
      [
        "▁سعودی",
        -9.76584420117921
      ],
      [
        "▁تصور",
        -9.766253787027868
      ],
      [
        "▁فضا",
        -9.766343163547948
      ],
      [
        "▁باشیم.",
        -9.76636872395747
      ],
      [
        "▁مشکلی",
        -9.76684358931109
      ],
      [
        "▁واگذاری",
        -9.767274519493114
      ],
      [
        "▁«م",
        -9.767761992890406
      ],
      [
        "▁خطوط",
        -9.768235545790631
      ],
      [
        "................",
        -9.768726130122342
      ],
      [
        "▁شکر",
        -9.770053271881986
      ],
      [
        "▁تدوین",
        -9.770314375820089
      ],
      [
        "▁بگیرید",
        -9.770751568437516
      ],
      [
        "▁مهلت",
        -9.771342394087865
      ],
      [
        "ها،",
        -9.771647536874706
      ],
      [
        "▁افزار",
        -9.772309380214415
      ],
      [
        "▁کشت",
        -9.772653003096746
      ],
      [
        "▁پاکستان",
        -9.772741528246193
      ],
      [
        "▁صفحات",
        -9.772753429153976
      ],
      [
        "▁محبوب",
        -9.774608000192814
      ],
      [
        "▁صادق",
        -9.774714218145313
      ],
      [
        "▁اپارتمان",
        -9.775278161360909
      ],
      [
        "us",
        -9.775583710103687
      ],
      [
        "▁برچسب:",
        -9.776484952773242
      ],
      [
        "▁برج",
        -9.776703556818395
      ],
      [
        "▁خواستار",
        -9.776799530798495
      ],
      [
        "اق",
        -9.776859526409325
      ],
      [
        "▁In",
        -9.77686743620674
      ],
      [
        "▁حج",
        -9.77698208143288
      ],
      [
        "▁عملی",
        -9.777163420203562
      ],
      [
        "▁می‌خواهد",
        -9.77751944853253
      ],
      [
        "▁=",
        -9.777905012859154
      ],
      [
        "▁فلش",
        -9.778544656640374
      ],
      [
        "▁منتقل",
        -9.778603853471962
      ],
      [
        "▁رمز",
        -9.778795301651702
      ],
      [
        "▁استراتژی",
        -9.778996217713578
      ],
      [
        "▁باران",
        -9.779048694640833
      ],
      [
        "▁شده‌اند.",
        -9.779256250675914
      ],
      [
        "▁عاشق",
        -9.779420734300285
      ],
      [
        "ro",
        -9.779573897347586
      ],
      [
        "▁زد",
        -9.779847254408711
      ],
      [
        "▁جلب",
        -9.780119084893396
      ],
      [
        "▁اچ",
        -9.780183737274054
      ],
      [
        "▁سرخ",
        -9.780413361110206
      ],
      [
        "▁رادیو",
        -9.781050842768945
      ],
      [
        "▁بازداشت",
        -9.781235524410818
      ],
      [
        "▁مالیات",
        -9.781517821043074
      ],
      [
        "وری",
        -9.781604224621704
      ],
      [
        "▁وعده",
        -9.783193539036965
      ],
      [
        "▁ارشیو",
        -9.784011534314512
      ],
      [
        "▁دادند",
        -9.784098674272993
      ],
      [
        "▁مقررات",
        -9.7844897814916
      ],
      [
        "▁f",
        -9.78462984377602
      ],
      [
        "▁عکاسی",
        -9.784898186367329
      ],
      [
        "▁مجبور",
        -9.784949294498487
      ],
      [
        "بل",
        -9.785211991425022
      ],
      [
        "▁بدست",
        -9.785333388560865
      ],
      [
        "▁نوار",
        -9.78563827466591
      ],
      [
        "▁مزایای",
        -9.785741977419168
      ],
      [
        "▁تسنیم",
        -9.785826754206896
      ],
      [
        "▁ژاپن",
        -9.786348634833072
      ],
      [
        "▁محمود",
        -9.786387076875258
      ],
      [
        "▁رویکرد",
        -9.786723996405845
      ],
      [
        "▁صندلی",
        -9.78689153325847
      ],
      [
        "▁کیک",
        -9.787138866302303
      ],
      [
        "▁پمپ",
        -9.78743676820466
      ],
      [
        "▁خروجی",
        -9.78787353940299
      ],
      [
        "▁اعتیاد",
        -9.788906915815293
      ],
      [
        "▁دستی",
        -9.789511500097507
      ],
      [
        "نامه",
        -9.79015538303445
      ],
      [
        "▁نیازهای",
        -9.790343473685583
      ],
      [
        "▁مواردی",
        -9.79060644696979
      ],
      [
        "▁فکی",
        -9.791038552596703
      ],
      [
        "▁شهدای",
        -9.791936910698777
      ],
      [
        "▁سراسری",
        -9.79226360084289
      ],
      [
        "▁عینک",
        -9.792556787827682
      ],
      [
        "▁کارگردانی",
        -9.7928558209136
      ],
      [
        "خرید",
        -9.794113671722155
      ],
      [
        "▁هفتم",
        -9.79418835332108
      ],
      [
        "▁'",
        -9.794220733113644
      ],
      [
        "▁قدس",
        -9.794398654854483
      ],
      [
        "▁b",
        -9.794595797895438
      ],
      [
        "▁بچه",
        -9.794624426349474
      ],
      [
        "▁حاج",
        -9.794682640288563
      ],
      [
        "▁گوناگون",
        -9.794847258922658
      ],
      [
        "▁ایسنا",
        -9.79518072714237
      ],
      [
        "گیر",
        -9.795793549260843
      ],
      [
        "▁اولویت",
        -9.795824034825587
      ],
      [
        "▁محدوده",
        -9.795946775165039
      ],
      [
        "▁عادی",
        -9.796221451890762
      ],
      [
        "▁دامنه",
        -9.796569814286567
      ],
      [
        "te",
        -9.797212053374073
      ],
      [
        "V",
        -9.79724595477495
      ],
      [
        "▁شهرسازی",
        -9.797290159220005
      ],
      [
        "▁نمی‌تواند",
        -9.79753268123239
      ],
      [
        "چی",
        -9.797963201892362
      ],
      [
        "فت",
        -9.798114153380782
      ],
      [
        "▁شیخ",
        -9.799817353713369
      ],
      [
        "سر",
        -9.800543973420831
      ],
      [
        "▁تب",
        -9.800841483554315
      ],
      [
        "▁امیدوارم",
        -9.802265622128665
      ],
      [
        "▁اتوماتیک",
        -9.802599904458084
      ],
      [
        "کد",
        -9.80281122249296
      ],
      [
        "▁طلایی",
        -9.802914080203998
      ],
      [
        "▁منطقه‌ای",
        -9.80333772848704
      ],
      [
        "j",
        -9.803390471821597
      ],
      [
        "▁وقوع",
        -9.803414177995204
      ],
      [
        "▁هویت",
        -9.803657719685338
      ],
      [
        "▁نان",
        -9.803786837285188
      ],
      [
        "▁شیوه",
        -9.804480183981791
      ],
      [
        "▁بدنه",
        -9.804860463299748
      ],
      [
        "▁شعار",
        -9.805531338041192
      ],
      [
        "▁عزیزان",
        -9.805692920689834
      ],
      [
        "▁فضایی",
        -9.806088367543886
      ],
      [
        "▁تقدیر",
        -9.806821029212257
      ],
      [
        "▁محاسبه",
        -9.807025366879138
      ],
      [
        "▁محمدی",
        -9.808109761845515
      ],
      [
        "یون",
        -9.808288097078105
      ],
      [
        "▁چینی",
        -9.808332580564365
      ],
      [
        "▁هستیم.",
        -9.808444697725545
      ],
      [
        "▁PM",
        -9.80970966410364
      ],
      [
        "▁نگرانی",
        -9.810588612627873
      ],
      [
        "▁والدین",
        -9.811165768596457
      ],
      [
        "▁مرا",
        -9.811281407913553
      ],
      [
        "▁سنجش",
        -9.811659211399313
      ],
      [
        "▁البرز",
        -9.811875893120103
      ],
      [
        "▁موزه",
        -9.81209178192228
      ],
      [
        "▁لا",
        -9.813411857279975
      ],
      [
        "▁۵۵",
        -9.813444054428448
      ],
      [
        "▁به‌",
        -9.81425050914477
      ],
      [
        "▁۱۵۰",
        -9.814328556221785
      ],
      [
        "▁کارگردان",
        -9.814681631653709
      ],
      [
        "▁وحدت",
        -9.815379551419817
      ],
      [
        "▁مسيولین",
        -9.815392917119256
      ],
      [
        "▁چطور",
        -9.816148900559034
      ],
      [
        "▁دانشگاهی",
        -9.816337468302308
      ],
      [
        "▁حساس",
        -9.816740487536986
      ],
      [
        "▁سیما",
        -9.81690578675002
      ],
      [
        "▁مسکونی",
        -9.817518595723277
      ],
      [
        "▁برجسته",
        -9.817533929172956
      ],
      [
        "▁همکاران",
        -9.818273607282578
      ],
      [
        "شهر",
        -9.818369651129885
      ],
      [
        "▁امین",
        -9.818527309150177
      ],
      [
        "▁قلبی",
        -9.819432501326558
      ],
      [
        "▁پتروشیمی",
        -9.819685355143386
      ],
      [
        "زاده",
        -9.81973975751752
      ],
      [
        "ation",
        -9.819936502576796
      ],
      [
        "▁جلسات",
        -9.819977842367418
      ],
      [
        "▁کادر",
        -9.82093738548489
      ],
      [
        "▁کشوری",
        -9.82100390600621
      ],
      [
        "▁--",
        -9.821110053628814
      ],
      [
        "ur",
        -9.821224748840457
      ],
      [
        "‌شان",
        -9.821679634674409
      ],
      [
        "▁سلامتی",
        -9.822927854092978
      ],
      [
        "▁میلاد",
        -9.82394377978973
      ],
      [
        "O",
        -9.824425562240817
      ],
      [
        "G",
        -9.824430072703397
      ],
      [
        "▁طراحی‌شده",
        -9.824856208002807
      ],
      [
        "▁U",
        -9.825009343241188
      ],
      [
        "فا",
        -9.825564945925084
      ],
      [
        "▁فن",
        -9.826118216662667
      ],
      [
        "▁راستا",
        -9.826202919837979
      ],
      [
        "▁پستی",
        -9.826360073823341
      ],
      [
        "▁کیلوگرم",
        -9.826712714166739
      ],
      [
        "▁مسلح",
        -9.827088259610699
      ],
      [
        "▁مذکور",
        -9.827229776753814
      ],
      [
        "▁دام",
        -9.827448527476763
      ],
      [
        "▁رم",
        -9.827912025295085
      ],
      [
        "▁امیدواریم",
        -9.8302105288152
      ],
      [
        "▁هاست",
        -9.830721978856594
      ],
      [
        "پی",
        -9.831102033037563
      ],
      [
        "▁محرم",
        -9.831480136304553
      ],
      [
        "▁رویداد",
        -9.831656092674715
      ],
      [
        "▁۱.",
        -9.832966519098834
      ],
      [
        "▁جبهه",
        -9.833481231864184
      ],
      [
        "▁۹۱",
        -9.833522380977055
      ],
      [
        "تن",
        -9.83384743717476
      ],
      [
        "▁مجتمع",
        -9.835634861994105
      ],
      [
        "▁حرم",
        -9.836343264657335
      ],
      [
        "▁شهرک",
        -9.83721324533346
      ],
      [
        "s.",
        -9.837539014312824
      ],
      [
        "▁ظریف",
        -9.837636269751762
      ],
      [
        "▁ترافیک",
        -9.837738730704949
      ],
      [
        "▁بطور",
        -9.83822834161827
      ],
      [
        "▁روانشناسی",
        -9.838905658833909
      ],
      [
        "▁لبنان",
        -9.83925746083222
      ],
      [
        "▁خریداری",
        -9.83972247738776
      ],
      [
        "▁هرگونه",
        -9.840239379543547
      ],
      [
        "▁&",
        -9.840278343784888
      ],
      [
        "▁تاسیسات",
        -9.840968131020684
      ],
      [
        "۲",
        -9.841066076802276
      ],
      [
        "▁فرماندار",
        -9.842257460139638
      ],
      [
        "▁دوره‌های",
        -9.843207344557134
      ],
      [
        "▁هوش",
        -9.843956326783818
      ],
      [
        "▁سالگی",
        -9.844232568538796
      ],
      [
        "▁توسط:",
        -9.84432163066776
      ],
      [
        "گل",
        -9.844544563845533
      ],
      [
        "▁دم",
        -9.844687495254043
      ],
      [
        "▁رسانه‌ای",
        -9.844838100623171
      ],
      [
        "▁پزشکان",
        -9.845125036362298
      ],
      [
        "گیری",
        -9.846475705783082
      ],
      [
        "▁لرستان",
        -9.846601542027006
      ],
      [
        "▁شبیه",
        -9.847025367380908
      ],
      [
        "▁متعلق",
        -9.84806388763317
      ],
      [
        ">",
        -9.848156048444004
      ],
      [
        "▁وام",
        -9.84823781362568
      ],
      [
        "▁کریم",
        -9.849215796091677
      ],
      [
        "▁ارایه",
        -9.849317520611926
      ],
      [
        "▁سيو",
        -9.849597583610391
      ],
      [
        "▁یورو",
        -9.850532015878457
      ],
      [
        "▁زده",
        -9.850846240954649
      ],
      [
        "▁پیوند",
        -9.85101500244498
      ],
      [
        "▁پرده",
        -9.85139610885581
      ],
      [
        "▁پایدار",
        -9.851795531251238
      ],
      [
        "۰۷",
        -9.851795779494509
      ],
      [
        "▁جمعی",
        -9.85207838433558
      ],
      [
        "▁فایل‌های",
        -9.852372917954472
      ],
      [
        "ذ",
        -9.85361236939206
      ],
      [
        "▁Re",
        -9.854603178560629
      ],
      [
        "▁لایحه",
        -9.854735155467052
      ],
      [
        "X",
        -9.855554248729398
      ],
      [
        "ژ",
        -9.855733068758864
      ],
      [
        "▁خودشان",
        -9.855914830777616
      ],
      [
        "▁قهوه",
        -9.856401957269934
      ],
      [
        "▁نظری",
        -9.856506294833226
      ],
      [
        "▁الگوی",
        -9.856513492497324
      ],
      [
        "▁یاداور",
        -9.857345148799613
      ],
      [
        "؟!",
        -9.858398226769125
      ],
      [
        "▁وابسته",
        -9.859221800352062
      ],
      [
        "▁نماید.",
        -9.85958769184327
      ],
      [
        "▁برطرف",
        -9.859731443938255
      ],
      [
        "▁مربی",
        -9.861089574000308
      ],
      [
        "▁لب",
        -9.861405576038134
      ],
      [
        "یدن",
        -9.861724371827478
      ],
      [
        "▁by",
        -9.862951610839982
      ],
      [
        "▁۶۴",
        -9.863388559978345
      ],
      [
        "▁مفهوم",
        -9.863397929975957
      ],
      [
        "▁ق",
        -9.863593423319141
      ],
      [
        "▁سرقت",
        -9.863896190314883
      ],
      [
        "▁نبوده",
        -9.864336458151442
      ],
      [
        "▁نت",
        -9.866062038637683
      ],
      [
        "▁محققان",
        -9.866219367631055
      ],
      [
        "▁برنده",
        -9.866493434713426
      ],
      [
        "▁شکایت",
        -9.867105010656335
      ],
      [
        "▁تحریم‌های",
        -9.867475927156336
      ],
      [
        "▁مدتی",
        -9.867603548502686
      ],
      [
        "▁برگشت",
        -9.867660053002886
      ],
      [
        "▁خ",
        -9.868190075250816
      ],
      [
        "N",
        -9.869843648979137
      ],
      [
        "▁همانند",
        -9.870582250485722
      ],
      [
        "▁نشر",
        -9.870657466839628
      ],
      [
        "▁ورزشگاه",
        -9.871316769164604
      ],
      [
        "▁دیواری",
        -9.871704746851318
      ],
      [
        "▁انفجار",
        -9.87274277127307
      ],
      [
        "قی",
        -9.87276176914455
      ],
      [
        "▁یافت.",
        -9.872790954634146
      ],
      [
        "▁بازسازی",
        -9.873520453004636
      ],
      [
        "▁بنزین",
        -9.873971411148204
      ],
      [
        "▁بارش",
        -9.874368213568555
      ],
      [
        "▁رده",
        -9.874647550209062
      ],
      [
        "▁اوج",
        -9.874740093767254
      ],
      [
        "▁مقطع",
        -9.876387311422901
      ],
      [
        "▁دهان",
        -9.876724509028799
      ],
      [
        "▁(۱)",
        -9.87689191124758
      ],
      [
        "تور",
        -9.877420604744577
      ],
      [
        "ي",
        -9.87809193206556
      ],
      [
        "▁نهم",
        -9.878338224371229
      ],
      [
        "▁احترام",
        -9.87843759161983
      ],
      [
        "▁پیشنهادی",
        -9.878568346725217
      ],
      [
        "▁قهرمان",
        -9.878930395107666
      ],
      [
        "▁فعالان",
        -9.879367787099099
      ],
      [
        "▁فاطمه",
        -9.879599534710014
      ],
      [
        "▁ارتفاع",
        -9.879659969199324
      ],
      [
        "▁یمن",
        -9.87997828016913
      ],
      [
        "▁اقامت",
        -9.880454463166762
      ],
      [
        "▁۸۵",
        -9.880621132550406
      ],
      [
        "▁پیامبر",
        -9.881229802006477
      ],
      [
        "Y",
        -9.882006919125624
      ],
      [
        "▁قرن",
        -9.882949626227857
      ],
      [
        "▁سبد",
        -9.883053522073059
      ],
      [
        "▁کنونی",
        -9.883789356993105
      ],
      [
        "▁دکمه",
        -9.884419348815424
      ],
      [
        "▁دشمنان",
        -9.885273640067673
      ],
      [
        "وند",
        -9.88688385467404
      ],
      [
        "▁فیزیکی",
        -9.88728897380119
      ],
      [
        "▁پنجره",
        -9.887342263990572
      ],
      [
        "یم.",
        -9.88867640720801
      ],
      [
        "▁منحصر",
        -9.888771145433171
      ],
      [
        "▁بنده",
        -9.8889370135251
      ],
      [
        "▁ابتلا",
        -9.889172621475332
      ],
      [
        "▁سیم",
        -9.889216920516635
      ],
      [
        "th",
        -9.889234917124929
      ],
      [
        "▁می‌توانیم",
        -9.889258836449528
      ],
      [
        "▁غذاهای",
        -9.889545348898316
      ],
      [
        "W",
        -9.889705876562868
      ],
      [
        "▁دانشگاه‌های",
        -9.89030716693485
      ],
      [
        "▁نگاهی",
        -9.891051916276595
      ],
      [
        "روز",
        -9.891127789792304
      ],
      [
        "▁خام",
        -9.89181219354705
      ],
      [
        "▁شکم",
        -9.892019337234562
      ],
      [
        "▁دمای",
        -9.892098581452444
      ],
      [
        "▁سه‌بعدی",
        -9.892239040482348
      ],
      [
        "ايی",
        -9.893279803244457
      ],
      [
        "▁لیزر",
        -9.893835049753427
      ],
      [
        "▁تقسیم",
        -9.894068245692768
      ],
      [
        "▁اوراق",
        -9.894628823544085
      ],
      [
        "▁متنوع",
        -9.895027140192372
      ],
      [
        "▁()",
        -9.895108592251718
      ],
      [
        "▁پنهان",
        -9.8957213742069
      ],
      [
        "▁مه",
        -9.896013023174822
      ],
      [
        "▁امداد",
        -9.896069704319792
      ],
      [
        "▁ایسنا،",
        -9.896084118250997
      ],
      [
        "▁منافع",
        -9.896882076301198
      ],
      [
        "▁مستقل",
        -9.896909820867606
      ],
      [
        "▁روزی",
        -9.897192954802886
      ],
      [
        "▁مطابق",
        -9.897551444079795
      ],
      [
        "▁سگ",
        -9.898149493261446
      ],
      [
        "▁می‌رود.",
        -9.898377434831943
      ],
      [
        "▁٪A",
        -9.898618737777648
      ],
      [
        "▁اخلاق",
        -9.898694295732337
      ],
      [
        "▁(م",
        -9.89881744151191
      ],
      [
        "▁نمی‌توان",
        -9.899166961356453
      ],
      [
        "▁بلیط",
        -9.899542499486298
      ],
      [
        "▁نگه",
        -9.901522674468982
      ],
      [
        "▁بقیه",
        -9.901549769554439
      ],
      [
        "▁دانشگاه‌ها",
        -9.903413193245086
      ],
      [
        "▁وظایف",
        -9.903887278888545
      ],
      [
        "▁تنوع",
        -9.903900881673707
      ],
      [
        "ra",
        -9.904074228338766
      ],
      [
        "­های",
        -9.904467875803228
      ],
      [
        "رس",
        -9.904715280737383
      ],
      [
        "▁استیل",
        -9.905157332235788
      ],
      [
        "▁مشهور",
        -9.906074895784219
      ],
      [
        "▁جزیره",
        -9.90635690439252
      ],
      [
        "▁گزینه‌های",
        -9.906761680635357
      ],
      [
        "جا",
        -9.90684799769337
      ],
      [
        "▁مال",
        -9.907144648247181
      ],
      [
        "▁ارتباطی",
        -9.907810692540188
      ],
      [
        "▁ح",
        -9.907845270168114
      ],
      [
        "▁اظهارات",
        -9.908390942254389
      ],
      [
        "▁گونه‌ای",
        -9.908436934866469
      ],
      [
        "▁پدیده",
        -9.908914345694704
      ],
      [
        "۱۱",
        -9.908937281185306
      ],
      [
        "▁شیوع",
        -9.90978063815136
      ],
      [
        "▁محکوم",
        -9.909945513706177
      ],
      [
        "▁قدم",
        -9.91107884317071
      ],
      [
        "▁بشه",
        -9.911328314007203
      ],
      [
        "▁سرزمین",
        -9.911868320201402
      ],
      [
        "▁مالیاتی",
        -9.912498631061723
      ],
      [
        "▁عقب",
        -9.913306925808014
      ],
      [
        "▁ریشه",
        -9.913658977431702
      ],
      [
        "▁کمترین",
        -9.914387219229528
      ],
      [
        "▁والیبال",
        -9.91449153186586
      ],
      [
        "مبتنی",
        -9.914496242153643
      ],
      [
        "▁شورا",
        -9.91459785587146
      ],
      [
        "▁فساد",
        -9.914908407660892
      ],
      [
        "▁زلزله",
        -9.915559269187435
      ],
      [
        "▁مصنوعی",
        -9.915672705107124
      ],
      [
        "فروش",
        -9.915886422852022
      ],
      [
        "▁رشت",
        -9.916960723648605
      ],
      [
        "▁حمام",
        -9.918048128812426
      ],
      [
        "▁رونق",
        -9.918058359607013
      ],
      [
        "▁نوبت",
        -9.918720621802892
      ],
      [
        "۵",
        -9.919062916067986
      ],
      [
        "▁س",
        -9.919219215775515
      ],
      [
        "▁ریز",
        -9.919446980743139
      ],
      [
        "▁New",
        -9.921267637021916
      ],
      [
        "▁صرفا",
        -9.92141178934866
      ],
      [
        "um",
        -9.92261730445289
      ],
      [
        "▁روبرو",
        -9.922833234752156
      ],
      [
        "▁خواننده",
        -9.922841943698854
      ],
      [
        "▁تشریح",
        -9.923667033762573
      ],
      [
        "▁بانک‌ها",
        -9.923909698385645
      ],
      [
        "▁گالری",
        -9.924093347633939
      ],
      [
        "▁هرگز",
        -9.924354711115878
      ],
      [
        "▁نشود",
        -9.924503316731391
      ],
      [
        "▁قطعی",
        -9.92464208507787
      ],
      [
        "▁اپدیت",
        -9.924952394446168
      ],
      [
        "▁پیشین",
        -9.925203268347742
      ],
      [
        "▁املاک",
        -9.925280799110318
      ],
      [
        "▁جواد",
        -9.925671803696194
      ],
      [
        "▁افتخار",
        -9.92624567896683
      ],
      [
        "▁ضعف",
        -9.926400937725155
      ],
      [
        "▁پردازش",
        -9.926703210031201
      ],
      [
        "▁دسترس",
        -9.927760853135045
      ],
      [
        "▁داوطلبان",
        -9.928595924039387
      ],
      [
        "▁معرض",
        -9.930010476552525
      ],
      [
        "▁ایین",
        -9.93006399951156
      ],
      [
        "▁مسی",
        -9.930737547611564
      ],
      [
        "▁تعطیل",
        -9.93145534806143
      ],
      [
        "▁یازدهم",
        -9.932217128729638
      ],
      [
        "اپ",
        -9.93255426145522
      ],
      [
        "▁بازارهای",
        -9.933059190943823
      ],
      [
        "▁سومین",
        -9.933466934235952
      ],
      [
        "▁درگیر",
        -9.934781879917043
      ],
      [
        "▁نوجوانان",
        -9.936121928203747
      ],
      [
        "▁کا",
        -9.936593440365908
      ],
      [
        "▁اورد",
        -9.936963021201539
      ],
      [
        "▁مدرک",
        -9.937291990314424
      ],
      [
        "▁چالش",
        -9.93745579530908
      ],
      [
        "▁ایکس",
        -9.937702382926012
      ],
      [
        "▁هرچه",
        -9.937779863821287
      ],
      [
        "▁چگونگی",
        -9.938049662679477
      ],
      [
        "▁خطرناک",
        -9.938186139191473
      ],
      [
        "▁مریم",
        -9.939006496400431
      ],
      [
        "▁توانست",
        -9.939300149002467
      ],
      [
        "▁اندیشه",
        -9.939468182832492
      ],
      [
        "▁تخریب",
        -9.939829269175377
      ],
      [
        "▁نیستند",
        -9.940638653608808
      ],
      [
        "جی",
        -9.940792642181872
      ],
      [
        "▁گردید.",
        -9.941709114473856
      ],
      [
        "▁سطوح",
        -9.942100605225995
      ],
      [
        "▁هنگامی‌که",
        -9.94223452727011
      ],
      [
        "▁گردیده",
        -9.94237363580278
      ],
      [
        "▁حملات",
        -9.942393942306587
      ],
      [
        "▁زود",
        -9.942458935413185
      ],
      [
        "▁سرمایه‌گذاری",
        -9.942909588015072
      ],
      [
        "▁ارايه‌شده",
        -9.943070119045359
      ],
      [
        "▁کتابخانه",
        -9.943140785401988
      ],
      [
        "▁محتوا",
        -9.943206987479126
      ],
      [
        "▁اسید",
        -9.943212531338784
      ],
      [
        "▁بایگانی",
        -9.943326396233608
      ],
      [
        "▁مخالف",
        -9.943947789942992
      ],
      [
        "▁متری",
        -9.944040442365823
      ],
      [
        "▁بتن",
        -9.944089444707368
      ],
      [
        "▁نشد",
        -9.945043000051898
      ],
      [
        "▁شور",
        -9.945085186921851
      ],
      [
        "▁سنی",
        -9.945160626867835
      ],
      [
        "▁شدم",
        -9.945445686711551
      ],
      [
        "▁ابزارهای",
        -9.945729898629388
      ],
      [
        "▁موسسات",
        -9.94591021168926
      ],
      [
        "▁۶۰۰",
        -9.946236576221725
      ],
      [
        "ان،",
        -9.947650155159026
      ],
      [
        "▁پیرامون",
        -9.948212471621932
      ],
      [
        "▁موقت",
        -9.9482792563677
      ],
      [
        "▁بگیرد",
        -9.948285448834863
      ],
      [
        "▁ضعیف",
        -9.948355772797498
      ],
      [
        "▁گیرد.",
        -9.948591969548163
      ],
      [
        "▁اختلال",
        -9.948674789123874
      ],
      [
        "▁اسمان",
        -9.94874109480227
      ],
      [
        "▁شناسی",
        -9.949139806326615
      ],
      [
        "▁میزبان",
        -9.949479799626136
      ],
      [
        "▁جزو",
        -9.949765463413998
      ],
      [
        "▁اعزام",
        -9.950060606878518
      ],
      [
        "▁چپ",
        -9.950110480566773
      ],
      [
        "▁موهای",
        -9.950501027552956
      ],
      [
        "▁چراغ",
        -9.950667588256664
      ],
      [
        "▁ابر",
        -9.951177527459315
      ],
      [
        "▁مقاومتی",
        -9.951380828953104
      ],
      [
        "▁نوری",
        -9.951768546977867
      ],
      [
        "▁اوردن",
        -9.952158646628527
      ],
      [
        "▁پروانه",
        -9.952608753142481
      ],
      [
        "▁شکن",
        -9.953390450154798
      ],
      [
        "▁اکشن",
        -9.95429058692142
      ],
      [
        "▁۲۰۱۱",
        -9.954977540843574
      ],
      [
        "▁برترین",
        -9.955307367407649
      ],
      [
        "▁کنی",
        -9.95554846046981
      ],
      [
        "▁نمی",
        -9.955721307855095
      ],
      [
        "▁ترس",
        -9.955950447171471
      ],
      [
        "▁تحول",
        -9.956046832840453
      ],
      [
        "ظ",
        -9.958075502601007
      ],
      [
        "▁باند",
        -9.958586004082168
      ],
      [
        "▁دیروز",
        -9.958833345267045
      ],
      [
        "▁قول",
        -9.958852180550535
      ],
      [
        "!!",
        -9.95900596462431
      ],
      [
        "▁(در",
        -9.959911467289249
      ],
      [
        "la",
        -9.95992009224398
      ],
      [
        "▁زودی",
        -9.960687080489251
      ],
      [
        "▁انگیزه",
        -9.960713002038329
      ],
      [
        "▁ویتامین",
        -9.961082185400855
      ],
      [
        "▁۳۳",
        -9.96119286984893
      ],
      [
        "▁ابلاغ",
        -9.961299009669982
      ],
      [
        ":۳۰",
        -9.961723098561395
      ],
      [
        "▁نوروزی",
        -9.962346912284373
      ],
      [
        "▁مخاطب",
        -9.96235394786482
      ],
      [
        "▁مهارت",
        -9.962565340958575
      ],
      [
        "▁ال‌جی",
        -9.964255631857583
      ],
      [
        "▁خوراکی",
        -9.96488959084597
      ],
      [
        "▁نقدی",
        -9.9651088194245
      ],
      [
        "▁خان",
        -9.966088395359971
      ],
      [
        "im",
        -9.96650612090782
      ],
      [
        "▁معمولی",
        -9.966692221041821
      ],
      [
        "▁رانندگی",
        -9.966752985093777
      ],
      [
        "▁۸۶",
        -9.966941424314289
      ],
      [
        "▁دختران",
        -9.967675200800027
      ],
      [
        "▁ماسک",
        -9.968053523161352
      ],
      [
        "▁کر",
        -9.968645973276045
      ],
      [
        "▁سینه",
        -9.969248398854283
      ],
      [
        "▁پلاستیک",
        -9.969505253546018
      ],
      [
        "▁یک‌بار",
        -9.970665085045745
      ],
      [
        "▁استخوان",
        -9.971794732706623
      ],
      [
        "▁دلم",
        -9.972308872624598
      ],
      [
        "▁نمودار",
        -9.972423800207498
      ],
      [
        "▁k",
        -9.972817947839534
      ],
      [
        "▁۷۵",
        -9.972932512879545
      ],
      [
        "▁استخدامی",
        -9.974064066525345
      ],
      [
        "▁فرار",
        -9.975016382260385
      ],
      [
        "▁صنایع‌دستی",
        -9.97552001701064
      ],
      [
        "▁شناخته",
        -9.975541905859814
      ],
      [
        "▁افکار",
        -9.975984398989628
      ],
      [
        "▁یکبار",
        -9.976067811230156
      ],
      [
        "▁تابلو",
        -9.976579724147763
      ],
      [
        "‌اند",
        -9.976639720481508
      ],
      [
        "se",
        -9.977437992241306
      ],
      [
        "ند،",
        -9.977997462690514
      ],
      [
        "▁پنج‌شنبه",
        -9.978040057706243
      ],
      [
        "▁شد:",
        -9.978060255207833
      ],
      [
        "▁اکران",
        -9.978306758847037
      ],
      [
        "▁کنند،",
        -9.978461588997355
      ],
      [
        "ساز",
        -9.978565849632083
      ],
      [
        "▁۱۳۸۹",
        -9.979348955027334
      ],
      [
        "▁۳۶",
        -9.98050044314617
      ],
      [
        "▁نگران",
        -9.981009709148903
      ],
      [
        "▁زهرا",
        -9.98102757941713
      ],
      [
        "▁بیانیه",
        -9.98142185313629
      ],
      [
        "▁می‌رسد.",
        -9.982637537233781
      ],
      [
        "▁گردش",
        -9.982863838778027
      ],
      [
        "▁مرور",
        -9.983442672561443
      ],
      [
        "▁کریمی",
        -9.98564770958777
      ],
      [
        "▁زنگ",
        -9.985689892423279
      ],
      [
        "▁۲.",
        -9.98588653586408
      ],
      [
        "▁مطلوب",
        -9.986151407404432
      ],
      [
        "▁بوی",
        -9.986436543686214
      ],
      [
        "کاری",
        -9.986612706438992
      ],
      [
        "▁اربعین",
        -9.986912092079752
      ],
      [
        "▁مهاجرت",
        -9.986949676125649
      ],
      [
        "▁طنز",
        -9.98737882700702
      ],
      [
        "▁امدن",
        -9.988516380167452
      ],
      [
        "▁گیگابایت",
        -9.988525007657874
      ],
      [
        "▁فک",
        -9.988553258205307
      ],
      [
        "▁بخار",
        -9.988680926617503
      ],
      [
        "▁کوه",
        -9.990878569762875
      ],
      [
        "▁رها",
        -9.991380623909057
      ],
      [
        "▁جبران",
        -9.992247690989286
      ],
      [
        "کم",
        -9.99231491332225
      ],
      [
        "▁درج",
        -9.992880449098081
      ],
      [
        "▁تفکر",
        -9.993876098749997
      ],
      [
        "▁بستر",
        -9.994426447312279
      ],
      [
        "▁متناسب",
        -9.994614611807206
      ],
      [
        "▁قبیل",
        -9.994910487658373
      ],
      [
        "▁افتاده",
        -9.994959828040326
      ],
      [
        "دل",
        -9.995041721642945
      ],
      [
        "▁شریف",
        -9.995109234267286
      ],
      [
        "▁می‌نماید.",
        -9.995480081947413
      ],
      [
        "▁پلاس",
        -9.995908087550767
      ],
      [
        "ونی",
        -9.996436773816018
      ],
      [
        "▁دیوان",
        -9.997197228786108
      ],
      [
        "▁نوشتن",
        -9.99766415305422
      ],
      [
        "▁برقرار",
        -9.998210828973697
      ],
      [
        "۴",
        -9.99841288178909
      ],
      [
        "▁دارا",
        -9.99958432550736
      ],
      [
        "▁تالار",
        -9.999619941292433
      ],
      [
        "▁مایکروسافت",
        -9.999724557770996
      ],
      [
        "▁بالاترین",
        -9.999771836648698
      ],
      [
        "▁۱۲۰",
        -9.999977887538162
      ],
      [
        "▁پیچ",
        -10.000332729475158
      ],
      [
        "▁(۱",
        -10.000353479135306
      ],
      [
        "▁پیامک",
        -10.00086943265303
      ],
      [
        "▁نماد",
        -10.001378678415797
      ],
      [
        "▁حرارت",
        -10.00151318462095
      ],
      [
        "▁مباحث",
        -10.002909541655686
      ],
      [
        "▁جستجوی",
        -10.003019511183844
      ],
      [
        "▁حوزه‌های",
        -10.003636090459771
      ],
      [
        "▁ممنوع",
        -10.004025450054876
      ],
      [
        "▁نقره",
        -10.004183488671512
      ],
      [
        "▁موی",
        -10.00496541662736
      ],
      [
        "▁جم",
        -10.004977362182919
      ],
      [
        "▁سد",
        -10.00582188857399
      ],
      [
        "▁رییس‌جمهور",
        -10.006192913000866
      ],
      [
        "▁بابت",
        -10.00638991554484
      ],
      [
        "▁تدریس",
        -10.006462464562752
      ],
      [
        "▁متقاضیان",
        -10.007081099268568
      ],
      [
        "▁سیگار",
        -10.007295874427744
      ],
      [
        "▁سایه",
        -10.007951890211348
      ],
      [
        "▁خویش",
        -10.008169036730404
      ],
      [
        "▁گردد.",
        -10.008207442228965
      ],
      [
        "▁پکیج",
        -10.008423399275918
      ],
      [
        "▁چرم",
        -10.008721868485466
      ],
      [
        "▁شعبه",
        -10.008730723900008
      ],
      [
        "▁اوقات",
        -10.008794758275258
      ],
      [
        "▁جناب",
        -10.009145979744082
      ],
      [
        "▁جلوی",
        -10.009264276767453
      ],
      [
        "▁رکورد",
        -10.009307477519112
      ],
      [
        "▁مخلوط",
        -10.009549526549492
      ],
      [
        "▁تفریحی",
        -10.011347696942927
      ],
      [
        "▁معنوی",
        -10.01139853682714
      ],
      [
        "▁برادر",
        -10.011665182949756
      ],
      [
        "▁استرالیا",
        -10.011728848426774
      ],
      [
        "▁کیلو",
        -10.011755295784479
      ],
      [
        "▁الکتریکی",
        -10.012265998271932
      ],
      [
        "▁روح",
        -10.012525011609817
      ],
      [
        "▁مدعی",
        -10.013720346997832
      ],
      [
        "▁ایلام",
        -10.014111619318495
      ],
      [
        "ir",
        -10.014268660696548
      ],
      [
        "‌تان",
        -10.01437544646787
      ],
      [
        "▁سازمانی",
        -10.014740046571369
      ],
      [
        "▁چسب",
        -10.014774447508499
      ],
      [
        "تین",
        -10.015693023309485
      ],
      [
        "▁اتی",
        -10.016467435355974
      ],
      [
        "▁ایمان",
        -10.016603856353465
      ],
      [
        "▁احمدی‌نژاد",
        -10.016640553546129
      ],
      [
        "▁خانه»",
        -10.016962369841451
      ],
      [
        "▁لطف",
        -10.018627766254525
      ],
      [
        "▁نمی‌کند",
        -10.018942450789979
      ],
      [
        "▁نخست‌وزیر",
        -10.019256430636322
      ],
      [
        "▁بعنوان",
        -10.019322324241589
      ],
      [
        "▁نهادهای",
        -10.019402636471973
      ],
      [
        "▁تم",
        -10.019577355022587
      ],
      [
        "▁خورشید",
        -10.019648835153225
      ],
      [
        "▁مانده",
        -10.019704327198298
      ],
      [
        "▁برش",
        -10.019790078073736
      ],
      [
        "رون",
        -10.020529335717955
      ],
      [
        "▁میانگین",
        -10.020634273783054
      ],
      [
        "▁تازگی",
        -10.02161645947081
      ],
      [
        "▁می‌باشند.",
        -10.021799851093256
      ],
      [
        "▁جاوا",
        -10.021928326422241
      ],
      [
        "▁می‌برد",
        -10.022469263728556
      ],
      [
        "▁می‌کردند",
        -10.023980290421207
      ],
      [
        "▁افزوده",
        -10.024426482947096
      ],
      [
        "▁استانبول",
        -10.024795905696578
      ],
      [
        "▁مبانی",
        -10.024864144908797
      ],
      [
        "▁حلقه",
        -10.025442995666005
      ],
      [
        "▁داروهای",
        -10.025816529535835
      ],
      [
        "▁سمنان",
        -10.025867224937372
      ],
      [
        "▁امتحان",
        -10.026240854800758
      ],
      [
        "I",
        -10.026635235318587
      ],
      [
        "▁is",
        -10.027448031354126
      ],
      [
        "▁تمرینات",
        -10.02820503793875
      ],
      [
        "▁زیست",
        -10.028292575694127
      ],
      [
        "▁دیدنی",
        -10.029439261118643
      ],
      [
        "▁مدال",
        -10.029583051645059
      ],
      [
        "▁متوقف",
        -10.029984622327042
      ],
      [
        "▁کارگر",
        -10.030361634333614
      ],
      [
        "ران",
        -10.030552383483283
      ],
      [
        "▁۲۰۱۰",
        -10.030587691903301
      ],
      [
        "▁ایستگاه",
        -10.030619930304958
      ],
      [
        "▁امضا",
        -10.030953033249858
      ],
      [
        "▁تمدید",
        -10.031187516684788
      ],
      [
        "▁بازرسی",
        -10.031302817722697
      ],
      [
        "▁کاخ",
        -10.0316978967245
      ],
      [
        "▁یخچال",
        -10.032499745162035
      ],
      [
        "▁بتوانیم",
        -10.032514190640434
      ],
      [
        "▁تصمیم‌گیری",
        -10.03260034667607
      ],
      [
        "▁نفره",
        -10.032974925331509
      ],
      [
        "▁خورد",
        -10.033243969497592
      ],
      [
        "اء",
        -10.03345877237377
      ],
      [
        "lo",
        -10.033619351475743
      ],
      [
        "▁پایانی",
        -10.033710125699583
      ],
      [
        "▁اساتید",
        -10.033827080099602
      ],
      [
        "۳",
        -10.03463328209365
      ],
      [
        "▁توجیهی",
        -10.034907632024302
      ],
      [
        "▁ورژن",
        -10.035174462296762
      ],
      [
        "▁هرمزگان",
        -10.03518898114949
      ],
      [
        "▁ارومیه",
        -10.03522932990239
      ],
      [
        "▁و...",
        -10.035346192547062
      ],
      [
        "▁نگهبان",
        -10.036679063045153
      ],
      [
        "▁فوری",
        -10.036690950334549
      ],
      [
        "▁دادگستری",
        -10.03783762925708
      ],
      [
        "▁انقلابی",
        -10.038060401088469
      ],
      [
        "▁اخلاقی",
        -10.038978831079348
      ],
      [
        "▁خلیج‌فارس",
        -10.03917739361006
      ],
      [
        "▁نباشد",
        -10.039352454577637
      ],
      [
        "▁هادی",
        -10.040020280468987
      ],
      [
        "▁یارانه",
        -10.040393918958792
      ],
      [
        "▁شوید.",
        -10.040441383265955
      ],
      [
        "▁احتمالی",
        -10.04044835060611
      ],
      [
        "▁تنهایی",
        -10.04057008680778
      ],
      [
        "▁سو",
        -10.040823685237633
      ],
      [
        "▁re",
        -10.041982718584574
      ],
      [
        "▁شو",
        -10.042766526189036
      ],
      [
        "▁عمرانی",
        -10.042820193692297
      ],
      [
        "بند",
        -10.042919290728836
      ],
      [
        "▁فراوانی",
        -10.042994803971308
      ],
      [
        "▁HD",
        -10.044899902852492
      ],
      [
        "as",
        -10.045141480452804
      ],
      [
        "▁حاکم",
        -10.045709196186097
      ],
      [
        "▁سلیمانی",
        -10.04702729115634
      ],
      [
        "▁نما",
        -10.048701992869727
      ],
      [
        "▁۱۰۰۰",
        -10.048921400912453
      ],
      [
        "▁منبع:",
        -10.048998441174664
      ],
      [
        "▁دارد؟",
        -10.049129598809806
      ],
      [
        "▁٪B",
        -10.049207106634519
      ],
      [
        "▁محقق",
        -10.04925258936441
      ],
      [
        "▁admin",
        -10.049761016249672
      ],
      [
        "▁فرمان",
        -10.050261067314233
      ],
      [
        "▁مجلسی",
        -10.051048039248686
      ],
      [
        "▁ریسک",
        -10.051253270286402
      ],
      [
        "▁ماجرای",
        -10.051327009177047
      ],
      [
        "▁مصر",
        -10.051617701085558
      ],
      [
        "▁ویلا",
        -10.05172294391351
      ],
      [
        "▁موضوع:",
        -10.05247395110731
      ],
      [
        "▁زمستان",
        -10.052523141925626
      ],
      [
        "▁فاضلاب",
        -10.05275259675357
      ],
      [
        "▁عروسی",
        -10.05316427573019
      ],
      [
        "عی",
        -10.053517365316125
      ],
      [
        "▁می‌گیرند",
        -10.053621748581984
      ],
      [
        "▁امروز:",
        -10.053903213325752
      ],
      [
        "▁صدر",
        -10.054667877656517
      ],
      [
        "▁ارتقای",
        -10.05471919805325
      ],
      [
        "me",
        -10.055362194382075
      ],
      [
        "▁تجزیه",
        -10.055404931660547
      ],
      [
        "▁هواوی",
        -10.055689751500093
      ],
      [
        "▁عملیاتی",
        -10.055874093411813
      ],
      [
        "▁گیر",
        -10.056035973205116
      ],
      [
        "▁معادل",
        -10.056073136441846
      ],
      [
        "▁(به",
        -10.056192860237964
      ],
      [
        "▁خسته",
        -10.056732878136115
      ],
      [
        "▁ویژه‌ای",
        -10.057460919273666
      ],
      [
        "▁چوبی",
        -10.05769388384833
      ],
      [
        "▁تضمین",
        -10.058090112383855
      ],
      [
        "▁اقایان",
        -10.058353908162864
      ],
      [
        "▁گیرد",
        -10.059049772619836
      ],
      [
        "▁کارافرینی",
        -10.059862511317927
      ],
      [
        "▁نمی‌شود.",
        -10.060480943508214
      ],
      [
        "▁سایت‌های",
        -10.060941893154581
      ],
      [
        "▁تصفیه",
        -10.061584887752439
      ],
      [
        "کل",
        -10.06166265467849
      ],
      [
        "▁تلویزیونی",
        -10.062222036190407
      ],
      [
        "▁قدر",
        -10.062475327254532
      ],
      [
        "۷",
        -10.063794653548456
      ],
      [
        "▁فراوان",
        -10.063870600191267
      ],
      [
        "تیک",
        -10.064830113970496
      ],
      [
        "▁بهینه‌سازی",
        -10.065075896286977
      ],
      [
        "▁مگر",
        -10.065232244264205
      ],
      [
        "▁دیسک",
        -10.06576186314517
      ],
      [
        "ter",
        -10.066003898101837
      ],
      [
        "▁شک",
        -10.06618122364841
      ],
      [
        "▁خواسته",
        -10.066634961665365
      ],
      [
        "▁گندم",
        -10.066820352965333
      ],
      [
        "▁مرتضی",
        -10.066972207513098
      ],
      [
        "▁فکری",
        -10.067003286611321
      ],
      [
        "▁پویا",
        -10.068011105436135
      ],
      [
        "ست.",
        -10.068174400833135
      ],
      [
        "▁html",
        -10.068235917095802
      ],
      [
        "▁است!",
        -10.068666137104668
      ],
      [
        "▁بودیم",
        -10.068804944351733
      ],
      [
        "▁ترویج",
        -10.069135527949552
      ],
      [
        "▁قارچ",
        -10.069136623270598
      ],
      [
        "▁درخت",
        -10.069690371460858
      ],
      [
        "▁قلعه",
        -10.070243858336415
      ],
      [
        "▁تحریم‌ها",
        -10.070454353669613
      ],
      [
        "▁رفاه",
        -10.070514013256913
      ],
      [
        "▁به‌عنوان",
        -10.070528896396318
      ],
      [
        "▁دریاچه",
        -10.070624080600522
      ],
      [
        "▁چت",
        -10.070741054875816
      ],
      [
        "▁منو",
        -10.071862032829088
      ],
      [
        "ha",
        -10.072473346035833
      ],
      [
        "▁۴۸",
        -10.072660236101594
      ],
      [
        "▁محافظت",
        -10.073311711835998
      ],
      [
        "▁ابراهیم",
        -10.073577600537714
      ],
      [
        "▁محروم",
        -10.074417835860324
      ],
      [
        "▁همسرش",
        -10.074618949383703
      ],
      [
        "▁بگیرید.",
        -10.07477382604304
      ],
      [
        "▁واریز",
        -10.07480829651372
      ],
      [
        "▁نگین",
        -10.074862132006531
      ],
      [
        "▁استفاده‌شده",
        -10.074935532533665
      ],
      [
        "▁برده",
        -10.074970389099615
      ],
      [
        "▁داشتم",
        -10.075132062771845
      ],
      [
        "اور",
        -10.075138813735236
      ],
      [
        "۶",
        -10.07535103108814
      ],
      [
        "▁شیمی",
        -10.075386992021343
      ],
      [
        "▁چندان",
        -10.075501404282981
      ],
      [
        "▁پولی",
        -10.075751077876063
      ],
      [
        "▁news",
        -10.075842161989916
      ],
      [
        "▁گردن",
        -10.075944969122183
      ],
      [
        "▁بارها",
        -10.078178917287428
      ],
      [
        "▁مستقیم,",
        -10.078514102813061
      ],
      [
        "▁.....",
        -10.07877002729759
      ],
      [
        "▁حامد",
        -10.078880246076142
      ],
      [
        "▁کارایی",
        -10.078882373305571
      ],
      [
        "▁تعامل",
        -10.079196908820453
      ],
      [
        "٪",
        -10.07920345537106
      ],
      [
        "ate",
        -10.079384230478972
      ],
      [
        "▁هزاره",
        -10.079518005099297
      ],
      [
        "▁اژانس",
        -10.079534677204657
      ],
      [
        "پا",
        -10.079598539755615
      ],
      [
        "▁نکنید",
        -10.0797877506087
      ],
      [
        ":۱۵",
        -10.079907698552745
      ],
      [
        "▁می‌اید.",
        -10.080036601200025
      ],
      [
        "▁مصالح",
        -10.080262139938618
      ],
      [
        "▁جلد",
        -10.080819833454758
      ],
      [
        "▁حین",
        -10.08098205291041
      ],
      [
        "▁کنیم؟",
        -10.08127767964905
      ],
      [
        "▁کتاب‌های",
        -10.08204270696726
      ],
      [
        "di",
        -10.082267642387773
      ],
      [
        "▁نمای",
        -10.082530855231433
      ],
      [
        "▁ريیس‌جمهوری",
        -10.083743916871843
      ],
      [
        "▁موسوی",
        -10.083823056204361
      ],
      [
        "خانه",
        -10.08448193702721
      ],
      [
        "!!!",
        -10.08470902966491
      ],
      [
        "▁چراکه",
        -10.08517488531942
      ],
      [
        "▁سونی",
        -10.086200729726073
      ],
      [
        "▁۳۴",
        -10.086955694610184
      ],
      [
        "▁استراتژیک",
        -10.087236541596637
      ],
      [
        "▁گشت",
        -10.08742305324364
      ],
      [
        "▁کارها",
        -10.087708913721615
      ],
      [
        "▁بیوگرافی",
        -10.088063503879699
      ],
      [
        "▁اعتباری",
        -10.088994730031638
      ],
      [
        "▁قهرمانان",
        -10.089658730406864
      ],
      [
        "▁لینکها",
        -10.091210734635688
      ],
      [
        "▁عالم",
        -10.091234781403458
      ],
      [
        "▁متولد",
        -10.091501944498024
      ],
      [
        "یست",
        -10.09153077938182
      ],
      [
        "▁حیات",
        -10.091828017215732
      ],
      [
        "▁قبلا",
        -10.092792962139772
      ],
      [
        "▁عوض",
        -10.093084912740142
      ],
      [
        "▁پروتيین",
        -10.093641087773092
      ],
      [
        "▁بگذارید",
        -10.094417596449135
      ],
      [
        "▁واسطه",
        -10.094483233335456
      ],
      [
        "▁عمیق",
        -10.094923632282306
      ],
      [
        "▁قاب",
        -10.095185579199178
      ],
      [
        "▁حساسیت",
        -10.095599885283953
      ],
      [
        "▁خسارت",
        -10.095777829998713
      ],
      [
        "▁یافتن",
        -10.095954355353046
      ],
      [
        "▁تلفنی",
        -10.096197564720647
      ],
      [
        "▁بوک",
        -10.096406546927128
      ],
      [
        "▁کنون",
        -10.096457704410394
      ],
      [
        "▁بخاطر",
        -10.097177784114963
      ],
      [
        "ید.",
        -10.097205579811053
      ],
      [
        "▁اتمام",
        -10.097214980211017
      ],
      [
        "▁متعدد",
        -10.097884047401589
      ],
      [
        "▁همه‌ی",
        -10.098167220587403
      ],
      [
        "▁رقابت‌های",
        -10.098920325497206
      ],
      [
[...]
