{
  "version": "1.0",
  "truncation": null,
  "padding": null,
  "added_tokens": [
    {
      "id": 0,
      "content": "<|endoftext|>",
      "single_word": false,
      "lstrip": false,
      "rstrip": false,
      "normalized": false,
      "special": true
    }
  ],
  "normalizer": null,
  "pre_tokenizer": {
    "type": "ByteLevel",
    "add_prefix_space": false,
    "trim_offsets": true,
    "use_regex": true
  },
  "post_processor": null,
  "decoder": null,
  "model": {
    "type": "BPE",
    "dropout": null,
    "unk_token": null,
    "continuing_subword_prefix": null,
    "end_of_word_suffix": null,
    "fuse_unk": false,
    "byte_fallback": false,
    "vocab": {
      "<|endoftext|>": 0,
      "!": 1,
      "\"": 2,
      "#": 3,
      "$": 4,
      "%": 5,
      "&": 6,
      "'": 7,
      "(": 8,
      ")": 9,
      "*": 10,
      "+": 11,
      ",": 12,
      "-": 13,
      ".": 14,
      "/": 15,
      "0": 16,
      "1": 17,
      "2": 18,
      "3": 19,
      "4": 20,
      "5": 21,
      "6": 22,
      "7": 23,
      "8": 24,
      "9": 25,
      ":": 26,
      ";": 27,
      "<": 28,
      "=": 29,
      ">": 30,
      "?": 31,
      "@": 32,
      "A": 33,
      "B": 34,
      "C": 35,
      "D": 36,
      "E": 37,
      "F": 38,
      "G": 39,
      "H": 40,
      "I": 41,
      "J": 42,
      "K": 43,
      "L": 44,
      "M": 45,
      "N": 46,
      "O": 47,
      "P": 48,
      "Q": 49,
      "R": 50,
      "S": 51,
      "T": 52,
      "U": 53,
      "V": 54,
      "W": 55,
      "X": 56,
      "Y": 57,
      "Z": 58,
      "[": 59,
      "\\": 60,
      "]": 61,
      "^": 62,
      "_": 63,
      "`": 64,
      "a": 65,
      "b": 66,
      "c": 67,
      "d": 68,
      "e": 69,
      "f": 70,
      "g": 71,
      "h": 72,
      "i": 73,
      "j": 74,
      "k": 75,
      "l": 76,
      "m": 77,
      "n": 78,
      "o": 79,
      "p": 80,
      "q": 81,
      "r": 82,
      "s": 83,
      "t": 84,
      "u": 85,
      "v": 86,
      "w": 87,
      "x": 88,
      "y": 89,
      "z": 90,
      "{": 91,
      "|": 92,
      "}": 93,
      "~": 94,
      "¡": 95,
      "¢": 96,
      "£": 97,
      "¤": 98,
      "¥": 99,
      "¦": 100,
      "§": 101,
      "¨": 102,
      "©": 103,
      "ª": 104,
      "«": 105,
      "¬": 106,
      "®": 107,
      "¯": 108,
      "°": 109,
      "±": 110,
      "²": 111,
      "³": 112,
      "´": 113,
      "µ": 114,
      "¶": 115,
      "·": 116,
      "¸": 117,
      "¹": 118,
      "º": 119,
      "»": 120,
      "¼": 121,
      "½": 122,
      "¾": 123,
      "¿": 124,
      "Â": 125,
      "Ã": 126,
      "Ä": 127,
      "Å": 128,
      "Æ": 129,
      "Ç": 130,
      "È": 131,
      "É": 132,
      "Ê": 133,
      "Ë": 134,
      "Ì": 135,
      "Í": 136,
      "Î": 137,
      "Ï": 138,
      "Ð": 139,
      "Ñ": 140,
      "Ò": 141,
      "Ó": 142,
      "Ô": 143,
      "Õ": 144,
      "Ö": 145,
      "×": 146,
      "Ø": 147,
      "Ù": 148,
      "Ú": 149,
      "Û": 150,
      "Ü": 151,
      "Ý": 152,
      "Þ": 153,
      "à": 154,
      "á": 155,
      "â": 156,
      "ã": 157,
      "ä": 158,
      "å": 159,
      "æ": 160,
      "ç": 161,
      "è": 162,
      "é": 163,
      "ê": 164,
      "ë": 165,
      "ì": 166,
      "í": 167,
      "î": 168,
      "ï": 169,
      "ð": 170,
      "Ā": 171,
      "ā": 172,
      "ą": 173,
      "Ć": 174,
      "Ĉ": 175,
      "ĉ": 176,
      "Ċ": 177,
      "ċ": 178,
      "ď": 179,
      "Đ": 180,
      "đ": 181,
      "Ē": 182,
      "Ę": 183,
      "ę": 184,
      "ě": 185,
      "Ğ": 186,
      "ğ": 187,
      "Ġ": 188,
      "ġ": 189,
      "Ģ": 190,
      "ģ": 191,
      "Ĥ": 192,
      "ĥ": 193,
      "Ħ": 194,
      "ħ": 195,
      "Ĩ": 196,
      "ĩ": 197,
      "Ī": 198,
      "ī": 199,
      "Ĭ": 200,
      "ĭ": 201,
      "Į": 202,
      "į": 203,
      "İ": 204,
      "ı": 205,
      "Ĳ": 206,
      "ĳ": 207,
      "Ĵ": 208,
      "ĵ": 209,
      "Ķ": 210,
      "ķ": 211,
      "ĸ": 212,
      "Ĺ": 213,
      "ĺ": 214,
      "Ļ": 215,
      "ļ": 216,
      "Ľ": 217,
      "ľ": 218,
      "Ŀ": 219,
      "ŀ": 220,
      "Ł": 221,
      "ł": 222,
      "Ń": 223,
      "Ø§": 224,
      "ĠØ": 225,
      "ÛĮ": 226,
      "Ø±": 227,
      "ĠÙ": 228,
      "ÙĨ": 229,
      "Ùĩ": 230,
      "Ø¯": 231,
      "ÙĪ": 232,
      "Øª": 233,
      "Ùħ": 234,
      "Ø§Ø": 235,
      "ÙĦ": 236,
      "Ú©": 237,
      "ĠØ¨": 238,
      "ĠÙħ": 239,
      "Ø§ÙĨ": 240,
      "Ø§ÛĮ": 241,
      "ĠØ¯": 242,
      "Ø³": 243,
      "Ø´": 244,
      "Ø§Ø±": 245,
      "ĠÙĪ": 246,
      "ĠØ§Ø": 247,
      "Ø¨": 248,
      "Ú¯": 249,
      "ĠÚ©": 250,
      "ĠØª": 251,
      "Ùģ": 252,
      "Ø²": 253,
      "ĠÙĨ": 254,
      "ĠØ±": 255,
      "âĢ": 256,
      "ĠØ¯Ø±": 257,
      "ĠÙĩ": 258,
      "ĠØ³": 259,
      "ĠØ´": 260,
      "Ø§Ùħ": 261,
      "ÙĤ": 262,
      "âĢĮ": 263,
      "Ø¹": 264,
      "Ø§ÙĦ": 265,
      "ÙĨØ¯": 266,
      "ĠØ¨Ùĩ": 267,
      "ÙĬ": 268,
      "ĠØ¢": 269,
      "Ø§Ø¯": 270,
      "ÙĪØ¯": 271,
      "ÙĪØ±": 272,
      "ĠØ®": 273,
      "ØĮ": 274,
      "ĠÙ¾": 275,
      "ÛĮØ¯": 276,
      "Ø¬": 277,
      "ĠØ§ÛĮ": 278,
      "Ø®": 279,
      "ÛĮÙĨ": 280,
      "ĠØ§Ø²": 281,
      "ĠØ§Ø³": 282,
      "Ø³Øª": 283,
      "ĠÙģ": 284,
      "ĠØ¨Ø±": 285,
      "ĠÙħÛĮ": 286,
      "Ø§Ùĩ": 287,
      "Ø§Øª": 288,
      "ØŃ": 289,
      "ĠÚ¯": 290,
      "ĠØ¬": 291,
      "ĠØ§Ø³Øª": 292,
      "Ø±Ø¯": 293,
      "Ø§Ø²": 294,
      "Øµ": 295,
      "ÚĨ": 296,
      "Ø±ÛĮ": 297,
      "ĠØ¹": 298,
      "ĠØ§": 299,
      "Ø§Ø¨": 300,
      "ĠÚ©Ùĩ": 301,
      "ĠØŃ": 302,
      "ĠØ§ÛĮÙĨ": 303,
      "ÙĦÛĮ": 304,
      "ĠØ¨Ø§": 305,
      "Ø§Ø³": 306,
      "ĠÙĤ": 307,
      "ÙĪÙĨ": 308,
      "Ø·": 309,
      "ĠØ±Ø§": 310,
      "ÛĮØ±": 311,
      "ĠÛĮ": 312,
      "ÛĮÙħ": 313,
      "Ø§Ø´": 314,
      "Ù¾": 315,
      "ĠØ²": 316,
      "Ø±ÙĪ": 317,
      "ÙĩØ§ÛĮ": 318,
      "ĠÛ": 319,
      "ÙĪÙĦ": 320,
      "ØªØ±": 321,
      "..": 322,
      "ĠØ§ÙĨ": 323,
      "Ø¯Ùĩ": 324,
      "ÙģØª": 325,
      "ÙĪÛĮ": 326,
      "ĠÙĩÙħ": 327,
      "ĠÚĨ": 328,
      "ÙĪØ²": 329,
      "Ø§Ø±ÛĮ": 330,
      "Ø±Ø§ÙĨ": 331,
      "ĠÙĩØ§ÛĮ": 332,
      "ÙħØ§ÙĨ": 333,
      "ØªÛĮ": 334,
      "Ø¶": 335,
      "ÙĪØ§ÙĨ": 336,
      "ÙĩØ§": 337,
      "ĠØµ": 338,
      "Ø³ÛĮ": 339,
      "ĠÙĦ": 340,
      "ĠØ¢ÙĨ": 341,
      "ĠØ§Ùħ": 342,
      "ÙĨÚ¯": 343,
      "ĠØ¨Ø±Ø§ÛĮ": 344,
      "ÙħÛĮ": 345,
      "±Û": 346,
      "ĠÚ©ÙĨ": 347,
      "Ġ1": 348,
      "Ø°": 349,
      "ĠÚ©Ø±Ø¯": 350,
      "Ø¸": 351,
      "ĠØ·": 352,
      "Û°": 353,
      "ĠÙħÙĨ": 354,
      "Ø§Ø¹": 355,
      "ĠÙħÙĪ": 356,
      "ÙĪØ´": 357,
      "ÛĮØ´": 358,
      "Ġ-": 359,
      "ĠÛĮÚ©": 360,
      "Ø§Ø¯Ùĩ": 361,
      "ØªÙĩ": 362,
      "Ú¯Ø§Ùĩ": 363,
      "Ø§Ø±Ø¯": 364,
      "ĠØ¯Ø§ÙĨ": 365,
      "Ø§ÙĨÛĮ": 366,
      "ÛĮØª": 367,
      "ĠØªÙĪ": 368,
      "ĠØ¨Ø§Ø²": 369,
      "Úĺ": 370,
      "ĠÚ©Ø§Ø±": 371,
      "ĠØ®ÙĪØ¯": 372,
      "Ø¨Ùĩ": 373,
      "Ú¯Ø±": 374,
      "Ġ(": 375,
      "ĠÙħØŃ": 376,
      "Ø§ÙĨÙĩ": 377,
      "Ø¨Ø±": 378,
      "Øº": 379,
      "ÛĮÙĦ": 380,
      "Ø§ÛĮÛĮ": 381,
      "ĠÙģØ±": 382,
      "Ú©ÙĨ": 383,
      "ĠØ§ÙĦ": 384,
      "Ú¯ÛĮ": 385,
      "ĠÙĩØ§": 386,
      "Ġ2": 387,
      "ĠØ§Ø±": 388,
      "ÙĪÙħ": 389,
      "Ø§Ø®": 390,
      "Ø²Ø§Ø±": 391,
      "ĠÙħØ±": 392,
      "ĠÙĨÛĮ": 393,
      "ĠØ´Ø¯Ùĩ": 394,
      "ĠÛ±Û": 395,
      "ĠØ´Ø¯": 396,
      "ĠØ¨ÙĪØ¯": 397,
      "ĠÙħØ¹": 398,
      "ĠØ¢Ùħ": 399,
      "Ø¨ÛĮ": 400,
      "ĠÙħØ¯": 401,
      "Ø§Ùģ": 402,
      "Ø¢": 403,
      "ÙĨÛĮ": 404,
      "ĠØªØ§": 405,
      "Ùĥ": 406,
      "ĠÙĥ": 407,
      "Ø§ÙħÙĩ": 408,
      "ĠÙħØ´": 409,
      "ĠØ¨Ø§Ø´": 410,
      "ÙĩØ±": 411,
      "Ø§ØŃ": 412,
      "ÙĦÙĪØ¯": 413,
      "Ø§ÙĤ": 414,
      "ĠØ§Ùģ": 415,
      "ÙħØ§ÛĮ": 416,
      "Ø§Ø±Ùĩ": 417,
      "Ø«": 418,
      "ÙĨØ¯Ùĩ": 419,
      "ĠØ±ÙĪ": 420,
      "ÙĦÙĩ": 421,
      "ÛĮÚ©": 422,
      "ÙħØ§": 423,
      "ÙĪØ±Ø¯": 424,
      "Ø±Ú©": 425,
      "ĠØ®ÙĪ": 426,
      "ĠØ³Ø§ÙĦ": 427,
      "Ø¯Ø±": 428,
      "ÙĦØ§Ùħ": 429,
      "Ø±Ùģ": 430,
      "Û¹": 431,
      "ĠØ¯Ø³Øª": 432,
      "Ø¯ÛĮØ¯": 433,
      "ĠØ¯ÛĮ": 434,
      "ĠØĮ": 435,
      "00": 436,
      "ĠØ³Ø±": 437,
      "...": 438,
      "Ø§Ú©": 439,
      "ĠØ§ÛĮØ±Ø§ÙĨ": 440,
      "ĠÚ©Ø´": 441,
      "Ø¦": 442,
      "ĠØ¯Ø§Ø±": 443,
      "Ġ:": 444,
      "Ø¹Ùĩ": 445,
      "Ø´ÙĨ": 446,
      "Ø¬Ùĩ": 447,
      "ĠÙħØª": 448,
      "ĠÙħØ³": 449,
      "ĠØ¯ÙĪ": 450,
      "Ø§Ø³Øª": 451,
      "er": 452,
      "Ø²ÛĮ": 453,
      "Ø±Ùħ": 454,
      "ÙĤÛĮ": 455,
      "ÙĬÙĨ": 456,
      "ĠÛĮØ§": 457,
      "ÙĪØ±ÛĮ": 458,
      "ĠØº": 459,
      "Ø§Ø¯ÛĮ": 460,
      "ĠâĢ": 461,
      "Â»": 462,
      "ĠÙħÙĤ": 463,
      "Ø§ÛĮØª": 464,
      "Ø¯ÛĮ": 465,
      "Ġ|": 466,
      "ĠØªØ±": 467,
      "Ø§ÛĮØ¯": 468,
      "Ú©Ùĩ": 469,
      "ĠÙĨØ¸": 470,
      "ĠØ¯Ø§ÙĨÙĦÙĪØ¯": 471,
      "ĠÙħØ¬": 472,
      "in": 473,
      "ĠØ±ÙĪØ²": 474,
      "ĠÙĤØ±": 475,
      "Ø§ÙĦÛĮ": 476,
      "an": 477,
      "ĠØ´ÙĪØ¯": 478,
      "on": 479,
      "ĠØ§ÙĨØª": 480,
      "Ø§Ø·": 481,
      "Ø³ØªØ§ÙĨ": 482,
      "ĠÚ¯ÙģØª": 483,
      "Û²": 484,
      "Ø§Ø´Øª": 485,
      "ĠØ¨ÛĮ": 486,
      "Ġ.": 487,
      "Ûķ": 488,
      "Ø¨Øª": 489,
      "ÙħÙĨ": 490,
      "Ø§ÙĪ": 491,
      "Ø§Ø¦": 492,
      "Û±Û": 493,
      "ĠØ³ÛĮ": 494,
      "Â«": 495,
      "ĠÚ¯Ø±": 496,
      "ĠØ¯Ùĩ": 497,
      "ï¿": 498,
      "ï¿½": 499,
      "ĠÙĩØ³Øª": 500,
      "Ø§ÙĬ": 501,
      "ÙĩÙĨÚ¯": 502,
      "ĠØ¹Ùħ": 503,
      "Ø§Ø¬": 504,
      "ÙĪØ¹": 505,
      "ĠØªØŃ": 506,
      "01": 507,
      "ĠÙħÙĩ": 508,
      "ÙģØ±": 509,
      "ĠÙ¾ÛĮØ´": 510,
      "ĠØ§Ø¹": 511,
      "ĠÛ±Û³": 512,
      "Ùī": 513,
      "Ø±ÙĪØ´": 514,
      "ĠØ¨Ø§Ø´Ø¯": 515,
      "Ø§Ø²ÛĮ": 516,
      "ĠØ¹ÙĦ": 517,
      "ÙĢ": 518,
      "ĠØ´ÙħØ§": 519,
      "Ûµ": 520,
      "ĠØ±Ø³": 521,
      "ĠØ§Ø¬": 522,
      "ÙħÙĩ": 523,
      "ĠÙ¾Ø±": 524,
      "ĠØ¬Ùĩ": 525,
      "Ø§ÙħÙĦ": 526,
      "Ø§Ø®Øª": 527,
      "ÛĮÙĩ": 528,
      "ar": 529,
      "Ø®Øµ": 530,
      "ÙĪØ±Øª": 531,
      "Ø¹Ø¯": 532,
      "ØŁ": 533,
      "ÙħØª": 534,
      "ĠÙĩØ±": 535,
      "ĠÂ«": 536,
      "ÙģØ§Ø¯Ùĩ": 537,
      "Ú¯Ø§ÙĨ": 538,
      "ĠØ¨Ø¯": 539,
      "ĠØ¯Ø§ÙĨØ´": 540,
      "Ø²Ø´": 541,
      "ÙĨØ§ÙħÙĩ": 542,
      "ĠØ§ÙĨØ¯": 543,
      "ĠÚ©Ø´ÙĪØ±": 544,
      "ÙģØªÙĩ": 545,
      "ĠØ¯Ø§Ø±Ø¯": 546,
      "ĠØ§ÙĪ": 547,
      "Ø§ÙĨØ¯": 548,
      "ĠØ§Øµ": 549,
      "ĠÙĨØ´": 550,
      "ĠÙħØ±Ø¯": 551,
      "Ø®Øª": 552,
      "ĠØ§Ø¯": 553,
      "ĠØªÙħ": 554,
      "ÙħÛĮÙĨ": 555,
      "ÙĪØ²Ø´": 556,
      "ĠØ§Ø³ØªÙģØ§Ø¯Ùĩ": 557,
      "Ø±Ú©Øª": 558,
      "Ø§Ø³ÛĮ": 559,
      "Ú©ÙĦ": 560,
      "Ú©Ø³": 561,
      "Ġ,": 562,
      "ÙĪÙĩ": 563,
      "ĠØ§Ø®": 564,
      "ĠÙħØ·": 565,
      "ĠØªÙĩ": 566,
      "Ú©ÛĮ": 567,
      "ØªÙħ": 568,
      "Ø±Ùĩ": 569,
      "ĠØ¨Ø§Ø²ÛĮ": 570,
      "ØªØ±ÛĮÙĨ": 571,
      "ĠÛ²": 572,
      "Ø®Ø´": 573,
      "ĠØ²ÛĮ": 574,
      "ĠÙħØ§": 575,
      "Ġ3": 576,
      "ÙĤØª": 577,
      "ï¿½ï¿½": 578,
      "ØªØ¨": 579,
      "ÙħØ¯": 580,
      "ĠÙĨÙĤ": 581,
      "ĠÙĨÙħØ§ÛĮ": 582,
      "Ø§Øµ": 583,
      "Ø§ÙĩØ¯": 584,
      "ĠØ¬Ø¯ÛĮØ¯": 585,
      "ĠØ§Ø¨": 586,
      "ĠÚ©Ùħ": 587,
      "âĢ¦": 588,
      "Û³": 589,
      "ïº": 590,
      "ĠØªÙĪØ§ÙĨ": 591,
      "Ø±Ø§ÛĮ": 592,
      "ĠS": 593,
      "ÛĮÙħØª": 594,
      "ĠØ®Ø±": 595,
      "or": 596,
      "ĠÛ±Û³Û¹": 597,
      "ÛĮØ³": 598,
      "ÙĨØ¬": 599,
      "Û´": 600,
      "ĠÙĨÙħ": 601,
      "ÙĤÙĩ": 602,
      "ĠÚ©ÙĨÛĮØ¯": 603,
      "Ø¬ÙĪØ¯": 604,
      "ĠØ®Ø¨Ø±": 605,
      "ØªÙĪØ§ÙĨ": 606,
      "ĠÚĨÙĩ": 607,
      "ĠÙĪÛĮ": 608,
      "ĠØ¯Ø§Ø¯": 609,
      "ĠÚ©ÙĦ": 610,
      "ĠØ´ÙĩØ±": 611,
      "ĠØªØµ": 612,
      "ĠØ·Ø±": 613,
      "ĠØ§Ø´": 614,
      "ĠØ¨ÛĮØ´": 615,
      "ĠØ¨Ø§ÛĮØ¯": 616,
      "Ø¨ÙĦ": 617,
      "Ġ13": 618,
      "ï»": 619,
      "ĠÙħÙĪØ±Ø¯": 620,
      "ÙĪØ³": 621,
      "al": 622,
      "Ø´Øª": 623,
      "en": 624,
      "ĠÙĨÛĮØ²": 625,
      "ĠØ³Ø§Ø²": 626,
      "Û¸": 627,
      "ĠÙģÛĮÙĦ": 628,
      "Ø¨Ø§ÙĨ": 629,
      "at": 630,
      "Û°Û°": 631,
      "ĠÙĤØ±Ø§Ø±": 632,
      "ĠÙģØ±ÙĪØ´": 633,
      "ĠØ¢ÙħÙĪØ²Ø´": 634,
      "ĠÚ©ÙĨØ¯": 635,
      "ÙĪÙĨÙĩ": 636,
      "ĠØ´Ùĩ": 637,
      "Ø¹ÛĮ": 638,
      "ĠA": 639,
      "ĠÙ¾Ø§ÛĮ": 640,
      "ĠÙĨØ§Ùħ": 641,
      "ĠÙ¾ÛĮ": 642,
      "Ø¨Ø§Ø±": 643,
      "ĠØ§ÙģØ²": 644,
      "ĠØ±Ø§Ùĩ": 645,
      "ĠM": 646,
      "Ø¯Ø§ÙĨ": 647,
      "ÙĦÙĪ": 648,
      "ĠØ´Ø±Ú©Øª": 649,
      "ĠØ§Øª": 650,
      "ÙĦÙģ": 651,
      "ĠØ§ÙħØ§": 652,
      "ĠØªÙĪØ³": 653,
      "Ø¯Ùħ": 654,
      "Ø§ÛĮÙĨ": 655,
      "ĠÚ©Ø±Ø¯Ùĩ": 656,
      "ĠØ¶": 657,
      "ĠÙĨØ¸Ø±": 658,
      "Ø§ÛĮÙĦ": 659,
      "Ú©Ø§ÙĨ": 660,
      "Ø´ÙĪØ¯": 661,
      "Ø¬Ø§Ùħ": 662,
      "es": 663,
      "ĠØ¨ÛĮÙĨ": 664,
      "ĠÚ¯Ø°": 665,
      "ĠØ§Ø·": 666,
      "ĠØªÙĨ": 667,
      "Ø³Ùĩ": 668,
      "ĠØ´ÙĨ": 669,
      "ĠØµÙĪØ±Øª": 670,
      "Ø§ÛĮØ´": 671,
      "ĠØ¯ÙĪØ±": 672,
      "ÙĬØ¯": 673,
      "ĠØ±ÙĪÛĮ": 674,
      "ĠP": 675,
      "Û¶": 676,
      "Ġ...": 677,
      "ØªØ§Ø¨": 678,
      "Ø§Ø´ØªÙĩ": 679,
      "ĠØªÙĪÙĦ": 680,
      "Û·": 681,
      "Ø§Ù¾": 682,
      "ĠØ¢Ø²": 683,
      "Ø¯Ø§Ø±": 684,
      "ĠÙħÙĬ": 685,
      "ĠÙģÛĮÙĦÙħ": 686,
      "Ø§ØªÛĮ": 687,
      "ĠØ¨Ø³ÛĮ": 688,
      "ĠØ§ØŃ": 689,
      "ØĽ": 690,
      "ĠÙĤÛĮÙħØª": 691,
      "ĠØ³Ø§ÛĮØª": 692,
      "ÚĨÙĩ": 693,
      "ĠÙħØ§Ùĩ": 694,
      "ĠÙ¾Ø³": 695,
      "Ø®ÙĪ": 696,
      "ĠÙĨÙħÛĮ": 697,
      "ĠÙĪØ±": 698,
      "Ú©Ø±": 699,
      "Ø§ÙĪØ±": 700,
      "ĠØŃØ§ÙĦ": 701,
      "ĠØŃØ³": 702,
      "ÙĪØ¨": 703,
      "....": 704,
      "Ø²Ø±": 705,
      "ÛĮÙģ": 706,
      "ĠØ¬Ùħ": 707,
      "ĠØ®Ø±ÛĮØ¯": 708,
      "ĠØ¢Ø¨": 709,
      "Ø§Ø±Øª": 710,
      "Ø§ÙħÛĮ": 711,
      "ĠØ³ÙĪ": 712,
      "ĠC": 713,
      "ĠØ§ÙĪÙĦ": 714,
      "Ġ9": 715,
      "ÛĮØ§": 716,
      "ĠØ³Ùĩ": 717,
      "ĠØ¨Ø§ÙĦ": 718,
      "Ġ4": 719,
      "ÙĪØª": 720,
      "ÙĦØ¨": 721,
      "ĠØ¯Ø§Ø´Øª": 722,
      "ĠØ¹ÙĨ": 723,
      "Ø²Ø§Ø±Ø´": 724,
      "ĠØ²ÙħØ§ÙĨ": 725,
      "ÙĦØ§Ø¹": 726,
      "Ú©Ø§Ø±": 727,
      "ÛĮØ±ÛĮ": 728,
      "ĠÙħØµ": 729,
      "ÚĺÙĩ": 730,
      "ĠØªØ¹": 731,
      "ĠØ¨Ø±ÙĨØ§ÙħÙĩ": 732,
      "Ùİ": 733,
      "ĠØªÙĩØ±Ø§ÙĨ": 734,
      "ÙĪÙĨØ¯": 735,
      "ĠÚ©ÙĨÙĨØ¯": 736,
      "ÙĨÛĮÙĨ": 737,
      "ĠØ«": 738,
      "Ø±Ø§Ùĩ": 739,
      "Ø§Ø±ÛĮØ®": 740,
      "ĠÙĥÙĩ": 741,
      "ĠØ¢ÙĩÙĨÚ¯": 742,
      "Ġ201": 743,
      "Ø§Ø¶": 744,
      "ĠØ¯ÛĮÚ¯Ø±": 745,
      "ĠT": 746,
      "ÛĮÙĨÛĮ": 747,
      "ÛĮØ²": 748,
      "ĠØªÙĪÙĦÛĮØ¯": 749,
      "âĢ¦âĢ¦": 750,
      "ØªÙĪ": 751,
      "ĠØ³Ø§Ø®Øª": 752,
      "ĠÙ¾Ø±ÙĪ": 753,
      "ĠØªØ¨": 754,
      "ic": 755,
      "ÛĮØ¯Ùĩ": 756,
      "Ø®Ø§Ø¨": 757,
      "ĠØ§ÙĨØ¬Ø§Ùħ": 758,
      "Ú¯Ùĩ": 759,
      "Ø¯Ø§": 760,
      "Ø¨Ø§": 761,
      "ĠÚ¯Ø²Ø§Ø±Ø´": 762,
      "Ø±Ø³": 763,
      "ĠØ§Ø·ÙĦØ§Ø¹": 764,
      "Ø®Ø±": 765,
      "om": 766,
      "Ġ5": 767,
      "Ø§Ø²Ùħ": 768,
      "ÙĨÙĩ": 769,
      "ĠØ¨Ø®Ø´": 770,
      "ĠÙĨØ³": 771,
      "ÙĤÙĦ": 772,
      "ÛĮÙĨÙĩ": 773,
      "ĀĀ": 774,
      "Ø§Ø¨ÙĦ": 775,
      "Ø³ØªÙĩ": 776,
      "Ø§Ø¹Øª": 777,
      "ĠÙĪØ¬ÙĪØ¯": 778,
      "ÙĪÙĨÛĮ": 779,
      "ĠÙĩÛĮ": 780,
      "Ø±Ø§": 781,
      "ĠØ²ÛĮØ±": 782,
      "Ø±Ø¨": 783,
      "Ø¯Ø§Ùħ": 784,
      "ÙĪÙĤ": 785,
      "Ø´ØªÙĩ": 786,
      "as": 787,
      "ĠØ¨Ø§Ø±": 788,
      "ĠØ§Ø³ÙĦØ§Ùħ": 789,
      "Ø³Ø¨": 790,
      "Ø±ÛĮÚ©": 791,
      "Ø±Ø³ÛĮ": 792,
      "Ø±ÙĪØ²": 793,
      "ĠØ§Ú¯Ø±": 794,
      "ĠÙĩØ³ØªÙĨØ¯": 795,
      "Û±": 796,
      "ÙħÙĦ": 797,
      "ĠâĢĵ": 798,
      "Ġ139": 799,
      "ĠÚ¯Ø±Ø¯": 800,
      "ĠØ´Ùħ": 801,
      "ĠØ´Ø¨": 802,
      "le": 803,
      "ĠØ¯Ø§Ø´ØªÙĩ": 804,
      "ĠØ±ÛĮ": 805,
      "ĠØ¨ÙĨ": 806,
      "ĠØ¢ÙĨÙĩØ§": 807,
      "ĠÙĨÛĮØ³Øª": 808,
      "ĠØ§Ø³ØªØ§ÙĨ": 809,
      "ĠØ§ÙĬÙĨ": 810,
      "it": 811,
      "ĠØªØ¬": 812,
      "ĠØ¹ÙĨÙĪØ§ÙĨ": 813,
      "ĠØ§ÙĨØªØ®Ø§Ø¨": 814,
      "ĠÚ©ØªØ§Ø¨": 815,
      "ĠØ³ÙĨÚ¯": 816,
      "ÙĨØ¯ÛĮ": 817,
      "ĠÙĬ": 818,
      "ØªØ±ÛĮ": 819,
      "Ġt": 820,
      "Ø´Ø§Ø±": 821,
      "ÙĦØ§": 822,
      "ĠØŃØ¶": 823,
      "ir": 824,
      "ÙĨØ¯Ú¯ÛĮ": 825,
      "Ø³Ø§ÙĦ": 826,
      "ĠÙģØ¹": 827,
      "ĠÙĩÙħÙĩ": 828,
      "ĠØ®Ø§ÙĨ": 829,
      "ad": 830,
      "ĠÙĩÙħÚĨ": 831,
      "ĠØªÙĦ": 832,
      "Ø®ÛĮ": 833,
      "ĠÙĨÙĩ": 834,
      "Ú©Ø±Ø¯": 835,
      "ĠÙħØ±Ø¯Ùħ": 836,
      "ĠD": 837,
      "is": 838,
      "ĠØ¨ÛĮÙħ": 839,
      "ĠØ®ÙĪØ§ÙĩØ¯": 840,
      "ĠÙģØ§Ø±": 841,
      "ĠØ¯ÙĦ": 842,
      "ĠØµÙĨ": 843,
      "ÙĩØ§ÛĮÛĮ": 844,
      "ĠÚ©Ø±Ø¯ÙĨ": 845,
      "am": 846,
      "ÙĢÙĢ": 847,
      "ĠÙĨÙĪ": 848,
      "Ġ0": 849,
      "Ø±Ø§Øª": 850,
      "ĠÙħØ³Øª": 851,
      "ĠÛĮÚ©ÛĮ": 852,
      "ĠØ¨Ø²Ø±": 853,
      "ĠØ¯Ø§ÙĨØ´Ú¯Ø§Ùĩ": 854,
      "Ø§ÙĦØ¨": 855,
      "ĠØªÙĪØ¬Ùĩ": 856,
      "ĠØ¨Ø±Ú¯": 857,
      "ĠÚĨÙĨØ¯": 858,
      "Ø§ØŃÛĮ": 859,
      "ĠØ¯ÙĪÙĦ": 860,
      "ÙħÙĪ": 861,
      "ÙĲ": 862,
      "ÙĨØ§": 863,
      "ĠØªÙĪØ³Ø·": 864,
      "Ø§Ø±Ø§ÙĨ": 865,
      "Ø¯Ø§ÙĨÙĦÙĪØ¯": 866,
      "ĠØ¹ÙĦÛĮ": 867,
      "ĠØ¯Ø§Ø¯Ùĩ": 868,
      "Ø§Øº": 869,
      "ØµØ¯": 870,
      "ĠØ³Ø§Ø¹Øª": 871,
      "Ú¯ÛĮØ±ÛĮ": 872,
      "ĠØªØ´": 873,
      "ĠÙĨØ¯": 874,
      "Ø´Ùĩ": 875,
      "Ø´Ø§ÙĨ": 876,
      "ĠØ²ÙĨ": 877,
      "ĠØ¯ÛĮØ¯": 878,
      "Ø´Ø¯": 879,
      "ĠØ±ÙĪØ´": 880,
      "Ø±ÙĪÙĩ": 881,
      "he": 882,
      "ÙĪØµ": 883,
      "ĠB": 884,
      "ĠØ³Ø±ÛĮ": 885,
      "ĠØ³Ø§Ø²ÙħØ§ÙĨ": 886,
      "Ġ/": 887,
      "ÙĬØ±": 888,
      "ĠØ¨Ø¹Ø¯": 889,
      "ØµÙĪÙĦ": 890,
      "Ø¹Øª": 891,
      "ĠØ°": 892,
      "ØŃÙĩ": 893,
      "ĠØ²ÙħÛĮÙĨ": 894,
      "ĠØŃØ¯": 895,
      "ĠØ§ÛĮÙĨÚ©Ùĩ": 896,
      "Ø´Ùħ": 897,
      "Ø£": 898,
      "ĠØ§ÙĤ": 899,
      "Ø¬ÛĮ": 900,
      "Ġ8": 901,
      "Ø¨Ø§Ø±Ùĩ": 902,
      "ĠØ¬ÙĨ": 903,
      "Ú¯Ø°": 904,
      "Ø§Ø²Ùĩ": 905,
      "Ø±Øª": 906,
      "ĠØ¨Ø³ÛĮØ§Ø±": 907,
      "ĠØªØ§Ø±ÛĮØ®": 908,
      "ÙĦØ³": 909,
      "Ġ6": 910,
      "ĠØ¸": 911,
      "ĠØ§ÙĤØª": 912,
      "ĠÙĩÙĪ": 913,
      "ĠÙħÛĮÙĦÛĮ": 914,
      "ÙĦÛĮÙĦ": 915,
      "ĠØ¨Ø§ÙĨ": 916,
      "ĠÙĩÙĨ": 917,
      "ĠØ¨ÛĮØ´ØªØ±": 918,
      "ĠÙħØ®Øª": 919,
      "ĠØ®ÛĮ": 920,
      "ĠØ®ÙĪØ¯Ø±ÙĪ": 921,
      "ĠØ¹Ø±": 922,
      "Ø®Ø§ÙĨÙĩ": 923,
      "Ø§ÙĦÙĩ": 924,
      "ĠØ¨ÙĦ": 925,
      "ĠÙģØ¹Ø§ÙĦ": 926,
      "Ø³ØªÙħ": 927,
      "ht": 928,
      "ÙĪÛĮÛĮ": 929,
      "Ú¯ÙĪ": 930,
      "Ø§Ø¨ÛĮ": 931,
      "ĠØ¬Ø§Ùħ": 932,
      "ĠÚ¯ÙĪØ´": 933,
      "ÙĪÙħÛĮ": 934,
      "Ø´ÛĮ": 935,
      "ĠG": 936,
      "ĠÙ¾Ø±Ø¯": 937,
      "ĠØ§Ø¯Ø§ÙħÙĩ": 938,
      "ĠØ¯Ø³ØªÚ¯Ø§Ùĩ": 939,
      "ĠØ§ÙĤØªØµ": 940,
      "ÙĨØ¯Ø§ÙĨ": 941,
      "ĠÙħØŃØµÙĪÙĦ": 942,
      "ĠÚ©ÙĪØ¯": 943,
      "Ø¯ÙĨ": 944,
      "ĠØµÙģ": 945,
      "Ø¨Ø±ÛĮ": 946,
      "Ø²Ø§ÙĨ": 947,
      "Ø²Ø¯": 948,
      "Ûİ": 949,
      "ĠÙĨØ¨": 950,
      "Ø¶Ø§": 951,
      "ÙĪÙĦÛĮ": 952,
      "Ġ\"": 953,
      "re": 954,
      "ĠØ·Ø±ØŃ": 955,
      "Ġs": 956,
      "ĠØŃÙĤ": 957,
      "Ø§Ø¯Ø±": 958,
      "ĠÙģØ±ÙĩÙĨÚ¯": 959,
      "ĠØ®Ø§Ø±": 960,
      "ĠÙħØ§ÙĨ": 961,
      "ĠÙĩÙħØ±Ø§Ùĩ": 962,
      "ĠØ¨Ø§Ø²Ø§Ø±": 963,
      "ĠÚ¯ÙĦ": 964,
      "ĠØ§ÙģØ²Ø§ÛĮØ´": 965,
      "ØªØ´": 966,
      "ĠØ±Ø§ÛĮ": 967,
      "ĠÙħØ«": 968,
      "ĠØ§Ø³ÙĦØ§ÙħÛĮ": 969,
      "ion": 970,
      "ĠÙħØ¯ÙĦ": 971,
      "ĠØ¨ÙĪØ¯Ùĩ": 972,
      "ro": 973,
      "ĠL": 974,
      "Ú©ÙĨØ¯": 975,
      "ØªÙĦ": 976,
      "ĠØ¨Ø²Ø±Ú¯": 977,
      "ÙħØ§ÙĨÛĮ": 978,
      "Ø³Ø§ÙĨ": 979,
      "ĠØ®Ø·": 980,
      "Ø§Ø¹ÛĮ": 981,
      "ĠH": 982,
      "ĠÙĪØ§ÙĤ": 983,
      "Ø¬Ø§Ø¯": 984,
      "ĠØªÙĤ": 985,
      "ĠÙħØ®ØªÙĦÙģ": 986,
      "ĠÚ©ÙĦÛĮ": 987,
      "ĠØ§ÙģØ±": 988,
      "ÙģÛĮ": 989,
      "Ú¯ÛĮØ±": 990,
      "Ø³ÙħØª": 991,
      "ĠÚ¯Ø±ÙĪÙĩ": 992,
      "Ø¶ÙĪØ¹": 993,
      "ĠØªØº": 994,
      "ĠØ´Ø¯ÙĨ": 995,
      "ĠI": 996,
      "Ġ7": 997,
      "ĠØ¯Ø§Ø±ÙĨØ¯": 998,
      "ĠØ¬ÙĩØª": 999,
      "ĠÚ©Ø§ÙħÙĦ": 1000,
      "Ú©ØªØ±": 1001,
      "ĠÛ³": 1002,
      "ĠØªÛĮÙħ": 1003,
      "Ùĭ": 1004,
      "ĠÙħÙĦ": 1005,
      "ĠØ§Ø·ÙĦØ§Ø¹Ø§Øª": 1006,
      "ĠÙ¾Ø§Ø³": 1007,
      "Ú¯Ø±Ø§ÙĨ": 1008,
      "ĠØ¯ÙĪÙĦØª": 1009,
      "Ú¯Ø±ÛĮ": 1010,
      "ed": 1011,
      "Ø·Ùĩ": 1012,
      "ĠØ§Ùĩ": 1013,
      "ĠÙĩØ²Ø§Ø±": 1014,
      "ÙģÙĩ": 1015,
      "ÙĩØ§ÙĬ": 1016,
      "ĠR": 1017,
      "ĠÚ¯Ø±ÙģØª": 1018,
      "ĠØ¢ÙħØ±ÛĮÚ©": 1019,
      "ĠÙĨÙħØ§ÛĮØ´": 1020,
      "ĠØ³Ø¨": 1021,
      "ĠÙĤØ¨ÙĦ": 1022,
      "Ġc": 1023,
      "ĠØ®ÙĪØ§Ùĩ": 1024,
      "ÙĪØ§Ø±": 1025,
      "ĠÙĦÛĮ": 1026,
      "ĠÙħØ´Ú©ÙĦ": 1027,
      "13": 1028,
      "Ø§Ø³Ø¨": 1029,
      "20": 1030,
      "Ø¨Ø±Ø¯": 1031,
      "Ø§ÙħÙ¾": 1032,
      "ĠÙĤØ·": 1033,
      "ÙĬÙħ": 1034,
      "Ġp": 1035,
      "ĠÙĨØ±Ùħ": 1036,
      "ĠÚ©Ø§ÙĦ": 1037,
      "ĠØ±ÙĨÚ¯": 1038,
      "ĠØºÛĮØ±": 1039,
      "ĠE": 1040,
      "el": 1041,
      "ĠF": 1042,
      "ĠØ¨Ø±Ø±Ø³ÛĮ": 1043,
      "ĠÙħÙĪØ¶ÙĪØ¹": 1044,
      "ĠÙĦÙĪ": 1045,
      "Ú©Øª": 1046,
      "ĠÚ©ÙĨÙĨØ¯Ùĩ": 1047,
      "ĠØªÙħØ§Ùħ": 1048,
      "Ø´ÙĨØ¨Ùĩ": 1049,
      "ĠØ§ÙħØ±ÙĪØ²": 1050,
      "Ø¹ÛĮØª": 1051,
      "ÙĤÛĮÙĤ": 1052,
      "Ø²Ø§Ø±ÛĮ": 1053,
      "ĠØ±ÙģØª": 1054,
      "ĠÚ©ÛĮÙģ": 1055,
      "ĠØ§ÙģØ²Ø§Ø±": 1056,
      "ÛĮÙĨÚ©": 1057,
      "ÛĮÚ©ÛĮ": 1058,
      "ĠØ§Ø¬ØªÙħ": 1059,
      "ÛĮØ¯ÛĮ": 1060,
      "ĠÚ©Ø±": 1061,
      "ĠÚĨÙĩØ§Ø±": 1062,
      "Ø³ØªÛĮ": 1063,
      "ĠØŃØ¶ÙĪØ±": 1064,
      "10": 1065,
      "ĠØ¹Ú©Ø³": 1066,
      "ĠÙħØ®": 1067,
      "ĠÚ©ÙĪ": 1068,
      "ĠØ³Ù¾": 1069,
      "ĠÙĨÙĪØ´": 1070,
      "lo": 1071,
      "ĠØ¹ÙħÙĦ": 1072,
      "ĠØ´Ø±": 1073,
      "ĠÛ¹": 1074,
      "ĠÚ¯ÛĮ": 1075,
      "ĠØ¨Ø¯ÙĪÙĨ": 1076,
      "Ġ10": 1077,
      "ĠÙĩÙħÚĨÙĨÛĮÙĨ": 1078,
      "ĠÙħØ±Ú©": 1079,
      "ĠÙħÙĩÙħ": 1080,
      "Ø¯ÙħØ§Øª": 1081,
      "ĠÙĤØ³ÙħØª": 1082,
      "000": 1083,
      "ØµÙĦ": 1084,
      "ĠÙħÙĦÛĮ": 1085,
      "ing": 1086,
      "ĠÙĪØ±Ø²Ø´": 1087,
      "et": 1088,
      "ĠØ¯ÙĪÙħ": 1089,
      "Ø¨Ø§ÙĦ": 1090,
      "ĠØ¬ÙĩØ§ÙĨ": 1091,
      "Ø¦ÛĮØ³": 1092,
      "ac": 1093,
      "ĠØ«Ø¨Øª": 1094,
      "ÙĨØª": 1095,
      "ÙĪÛĮØ³": 1096,
      "ĠØ§Ø¹ÙĦØ§Ùħ": 1097,
      "us": 1098,
      "ĠÙĩÙħÛĮÙĨ": 1099,
      "ï¿½ï¿½ï¿½ï¿½": 1100,
      "âĢı": 1101,
      "ĠØ¯Ø§Ø®": 1102,
      "ÙĪØ§Ø¹": 1103,
      "ĠØ§ÛĮØ¬Ø§Ø¯": 1104,
      "ÙĪØ²Ùĩ": 1105,
      "ÙĪØ¯ÛĮ": 1106,
      "ÚĺÛĮ": 1107,
      "ĠØ¯Ø±Ø¨Ø§Ø±Ùĩ": 1108,
      "ĠØªØ±Ú©": 1109,
      "ĠÚĨÛĮ": 1110,
      "Ø¨ÛĮÙĨ": 1111,
      "ĠØ¢ÛĮ": 1112,
      "ĠÙĨÛĮØ§Ø²": 1113,
      "ĠØ²ÙĨØ¯Ú¯ÛĮ": 1114,
      "ĠØ´ÙĪØ±": 1115,
      "ÙĬØª": 1116,
      "ĠÚ¯Ø±ÙģØªÙĩ": 1117,
      "Ø±Ø§ÛĮØ·": 1118,
      "ĠØ¢ÙĦ": 1119,
      "Ø²ÛĮÙĨÙĩ": 1120,
      "ĠØ§ÙħØ§Ùħ": 1121,
      "Ø§ÙĩØ´": 1122,
      "Ø¨ÙĪ": 1123,
      "ĠØ¢Ø±": 1124,
      "ĠÙ¾Ø§Ø±": 1125,
      "Ø¹Ø¯Ø§Ø¯": 1126,
      "ent": 1127,
      "Ø²Ùĩ": 1128,
      "ĠÙħÙĨØ·": 1129,
      "Ø§Ø¦Ùĩ": 1130,
      "ĠØ¬Ø§ÛĮ": 1131,
      "ĠÙĪØ§Ø±Ø¯": 1132,
      "Ú¯Ø±Ø¯": 1133,
      "ag": 1134,
      "Ġ+": 1135,
      "ĠÙĪØ²": 1136,
      "ĠØ¬Ø§ÙĨ": 1137,
      "Ø±ÙģÛĮ": 1138,
      "ÙĪØ¯Ùĩ": 1139,
      "ĠØ®Øµ": 1140,
      "ĠÙħØ¯ÛĮØ±ÛĮ": 1141,
      "Ø¶ÛĮ": 1142,
      "ĠÙĨØ´Ø§ÙĨ": 1143,
      "ĠØ´Ø±Ø§ÛĮØ·": 1144,
      "ĠØ³Ø§ÛĮ": 1145,
      "ĠØ¯Ùģ": 1146,
      "ĠÚ©ÙĨÛĮÙħ": 1147,
      "ĠÙĪÙĦÛĮ": 1148,
      "ÙħÙĪÙĨ": 1149,
      "ĠØ¢Ø²Ø§Ø¯": 1150,
      "Ġm": 1151,
      "Ø§ÙĦØ§Øª": 1152,
      "Ø¶Ø§ÛĮ": 1153,
      "ĠÙĨÙĪØ¹": 1154,
      "ĠØµÙģØŃÙĩ": 1155,
      "ĠÙħØ¯ÛĮØ±": 1156,
      "ÛĮÙħÛĮ": 1157,
      "ĠØ®Ø¯ÙħØ§Øª": 1158,
      "ĠÙĩÛĮÚĨ": 1159,
      "ĠØ³ÛĮØ³ØªÙħ": 1160,
      "ĠØ®ØµÙĪØµ": 1161,
      "ĠØ§ÛĮØ±Ø§ÙĨÛĮ": 1162,
      "Ø§Ø«": 1163,
      "ĠØ§Ø±Ø§Ø¦Ùĩ": 1164,
      "ĠØ§ØµÙĦÛĮ": 1165,
      "ĠØ·Ø±Ø§ØŃÛĮ": 1166,
      "ĠØºØ°": 1167,
      "ww": 1168,
      "ÛĮÛĮØ±": 1169,
      "ĠØ§Ø¬ØªÙħØ§Ø¹ÛĮ": 1170,
      "id": 1171,
      "ĠÙģØ§Ø±Ø³ÛĮ": 1172,
      "ĠØªÙĪÙħØ§ÙĨ": 1173,
      "ĠØ§ÙģØ±Ø§Ø¯": 1174,
      "ĠÚĺ": 1175,
      "Ùĳ": 1176,
      "ĠØ§Ø´Ø§Ø±Ùĩ": 1177,
      "Ø¬Ø§": 1178,
      "ĠØªÚ©": 1179,
      "Ø±ÛĮÙĤ": 1180,
      "ĠØ¯ÙĩØ¯": 1181,
      "ĠâĢ¦": 1182,
      "Ø³Ø±": 1183,
      "il": 1184,
      "Ø¯Ø§Ø±ÛĮ": 1185,
      "ĠÙĤØ§Ø¨ÙĦ": 1186,
      "ĠÙģÙĤ": 1187,
      "Ú©ÙĨÙĨØ¯": 1188,
      "ĠÙħØ³Ø¦": 1189,
      "ĠØªÙģ": 1190,
      "ĠÙĩØ¯": 1191,
      "Ø¨Ø§Ø³": 1192,
      "ĠÙ¾Ø²Ø´": 1193,
      "ĠÙ¾Ø§Ø³Ø®": 1194,
      "ĠÙħÙĩØ±": 1195,
      "ĠÙĨÙģØ±": 1196,
      "ĠN": 1197,
      "ÙĨØªÛĮ": 1198,
      "ĠÙģØ±Ø¯": 1199,
      "ĠØ¢ÙħØ±ÛĮÚ©Ø§": 1200,
      "ĀĀĀĀ": 1201,
      "Ø¯Ø§Ø´Øª": 1202,
      "ĠØµØ¯": 1203,
      "os": 1204,
      "ĠÛĮØ§Ø¯": 1205,
      "ĠÚ¯Ø°Ø´ØªÙĩ": 1206,
      "ĠØ¯Ø±ÛĮØ§": 1207,
      "ĠØ´ÛĮ": 1208,
      "ĠØ¨Ø§Ø²Ø¯ÛĮØ¯": 1209,
      "and": 1210,
      "ĠØ¯Ø±ØµØ¯": 1211,
      "ĠØ³ÙĦØ§Ùħ": 1212,
      "ĠÙ¾ÙĨØ¬": 1213,
      "ĠØ§ÛĮÙĨØªØ±": 1214,
      "ĠÙĤØ§ÙĨ": 1215,
      "12": 1216,
      "ĠØ´Ú©": 1217,
      "tp": 1218,
      "ĠØªØºÛĮÛĮØ±": 1219,
      "ap": 1220,
      "ĠØ¨Ø¹": 1221,
      "of": 1222,
      "ĠÙĨØ³Ø¨Øª": 1223,
      "ÙĦÙħ": 1224,
      "ĠØ¨ÙĩØªØ±ÛĮÙĨ": 1225,
      "ĠØ§ÙĨÙĪØ§Ø¹": 1226,
      "Ø§ÙģÛĮ": 1227,
      "ĠØ®Ø§ÙĨÙĩ": 1228,
      "ÙĪØ²ÛĮ": 1229,
      "Ġ)": 1230,
      "ĠÚ©Ø§ÙĩØ´": 1231,
      "ĠØ¯ÙĪØ±Ùĩ": 1232,
      "ØªØ¨Ø§Ø·": 1233,
      "ĠÙĨÙĪØ±": 1234,
      "ĠÙħØ¯ÛĮØ±ÛĮØª": 1235,
      "ĠØªÙĨÙĩØ§": 1236,
      "ÛĨ": 1237,
      "Ø§Ø¨Ø±": 1238,
      "ĠÚ¯ÙĪ": 1239,
      "ĠØ³Øª": 1240,
      "ĠØ´Ø¨Ú©Ùĩ": 1241,
      "ĠØµØŃ": 1242,
      "ĠØ¬ÙĪ": 1243,
      "ĠØ§ÙĨØªØ´Ø§Ø±": 1244,
      "âĢ¦âĢ¦âĢ¦âĢ¦": 1245,
      "//": 1246,
      "Û°Û°Û°": 1247,
      "ĠØ¨Ø§ÙĨÚ©": 1248,
      "ĠØ§ÙĬ": 1249,
      "ĠØ¯Ø§Ø±Ø§ÛĮ": 1250,
      "ĠØ¨Ø±Ø®ÛĮ": 1251,
      "ĠÙħÙħ": 1252,
      "ĠØ²Ø¨Ø§ÙĨ": 1253,
      "ĠØ§Ø«": 1254,
      "ÙĪÙ¾": 1255,
      "ĠØ§ÙħÚ©Ø§ÙĨ": 1256,
      "ĠØ³Ø·": 1257,
      "ÛĮØ´Ùĩ": 1258,
      "ĠÙħÙĨØ·ÙĤÙĩ": 1259,
      "ĠØ´ÛĮØ±": 1260,
      "ĠÚ©ÙħÚ©": 1261,
      "ÙĪØ³Øª": 1262,
      "ÙģÙĤ": 1263,
      "ĠØ¬ÙħÙĩ": 1264,
      "ot": 1265,
      "Ø³Ø§Ø²ÛĮ": 1266,
      "Ø®ØµØµ": 1267,
      "ou": 1268,
      "ĠØ¢Ø®Ø±": 1269,
      "ĠØ¨ÛĮØ§ÙĨ": 1270,
      "ĠÙ¾Ø±Ø³": 1271,
      "ÙħØ¹": 1272,
      "ĠØ§ÙĨÚ¯": 1273,
      "Ø¨Ø§Ø²": 1274,
      "ÙħØ±": 1275,
      "ÙĩÙĨ": 1276,
      "Ú¯ÙĪÙĨÙĩ": 1277,
      "ĠÚ©Ø§ÙĨ": 1278,
      "ĠØ¯ÙĦÛĮÙĦ": 1279,
      "ØªÙĪØ±": 1280,
      "Ġ#": 1281,
      "ĠÚ©ÛĮÙģÛĮØª": 1282,
      "Ġf": 1283,
      "com": 1284,
      "ĠÙħØ´Ø®Øµ": 1285,
      "ĠÙħØ§Ø´": 1286,
      "ĠØ§Ø±ØªØ¨Ø§Ø·": 1287,
      "ĠØ³Ø±ÛĮØ§ÙĦ": 1288,
      "ÙĦØ§ØŃ": 1289,
      "ÙĦÙĬ": 1290,
      "ĠÙħØªÙĨ": 1291,
      "Ø¢Ùħ": 1292,
      "ĠW": 1293,
      "ÙħÙĨØ¯": 1294,
      "ÙĨØ§ÙĨ": 1295,
      "Ø§Ø¨Øª": 1296,
      "ĠÛµ": 1297,
      "ĠÛ´": 1298,
      "Ø¨Ø§Ø´": 1299,
      "ĠÙĩÙħØ§ÙĨ": 1300,
      "ĠØŃØ±Ùģ": 1301,
      "Û±Û³": 1302,
      "http": 1303,
      "ÙĦØ§ÛĮÙĨ": 1304,
      "ĠÚ¯ÙĪØ´ÛĮ": 1305,
      "ØªÙĤ": 1306,
      "ĠØ¬Ø²": 1307,
      "ĠÙħÙĪØ§Ø¯": 1308,
      "ĠÙħÙĨØ§Ø³Ø¨": 1309,
      "Ø±Ø®": 1310,
      "ÙĪÛĮØª": 1311,
      "ĠÙĪØ¨": 1312,
      "ÚĨØ³Ø¨": 1313,
      "ĠØ·Ø¨": 1314,
      "://": 1315,
      "ĠØªØ±ÛĮÙĨ": 1316,
      "ĠØ¨Ø®": 1317,
      "ØªØµ": 1318,
      "ĠÙħÛĮØ§ÙĨ": 1319,
      "âĢĮâĢĮ": 1320,
      "ĠØŃØ¬": 1321,
      "Ú©Ø¯": 1322,
      "ĠÙ¾ÙĦ": 1323,
      "ol": 1324,
      "Ùı": 1325,
      "ĠØ´ÙĪ": 1326,
      "ĠØ¢Ø³ÛĮ": 1327,
      "ĠØ±Ø§ÛĮÚ¯Ø§ÙĨ": 1328,
      "ĠØ§ÙĤØ¯Ø§Ùħ": 1329,
      "ĠØ¬ÙĦ": 1330,
      "ĠÙ¾Ø§ÛĮØ§ÙĨ": 1331,
      "ĠØ´ÙĪÙĨØ¯": 1332,
      "........": 1333,
      "ĠØ´Ø®Øµ": 1334,
      "ĠØªÙĪØ³Ø¹Ùĩ": 1335,
      "ĠØ§Ú©": 1336,
      "Ø§ÙĩÛĮ": 1337,
      "ĠØ¬ÙĪØ§ÙĨ": 1338,
      "201": 1339,
      "ĠÚ©ÙħÛĮ": 1340,
      "--": 1341,
      "ĠÙģØ§ÛĮÙĦ": 1342,
      "ĠØ§ÙĨÙĤÙĦ": 1343,
      "ĠØ®ÛĮÙĦÛĮ": 1344,
      "ow": 1345,
      "ĠØ§Ø±Ø¯": 1346,
      "Ø´ÙĨØ§Ø³": 1347,
      "ĠØ±Ø¦ÛĮØ³": 1348,
      "ØªÙĪØ§ÙĨØ¯": 1349,
      "ĠÙĨÛĮØ±": 1350,
      "ĠÙħØŃÙħØ¯": 1351,
      "Ø±ÛĮÙħ": 1352,
      "ĠØ³Ùģ": 1353,
      "ĠØ¯ÙĨÛĮ": 1354,
      "ĠÙĨØµ": 1355,
      "op": 1356,
      "Ø¯ÙĪ": 1357,
      "ĠØ²ÙħÛĮÙĨÙĩ": 1358,
      "ĠÙĪÛĮÚĺÙĩ": 1359,
      "em": 1360,
      "ĠÂ»": 1361,
      "Ġ12": 1362,
      "ĠØ³Ø§Ø²ÛĮ": 1363,
      "ĠØ¨Ø§ÙĦØ§": 1364,
      "ĠØ¨Ø§Ø¹": 1365,
      "ĠØ¨Ø§Ø´ÙĨØ¯": 1366,
      "ĠØ§ÙĤØªØµØ§Ø¯ÛĮ": 1367,
      "Ø±Ø¯Ùĩ": 1368,
      "Ø§Ø®ØªÙĩ": 1369,
      "Ġd": 1370,
      "Ø§ØªØ±": 1371,
      "Ú©Ø§Ø±ÛĮ": 1372,
      "ĠØŃÙĪØ²Ùĩ": 1373,
      "Ø§ÙĩØ¯Ùĩ": 1374,
      "ĠØ¨Ø§Ø¹Ø«": 1375,
      "ØªØ§ÙĨ": 1376,
      "ĠØ±Ø³ÛĮØ¯": 1377,
      "ĠÙħØ¬ÙĦØ³": 1378,
      "ÙĪØ§Ø±Ùĩ": 1379,
      "ĠÙģØ¹Ø§ÙĦÛĮØª": 1380,
      "ĠØ®ÙĪØ´": 1381,
      "ĠÙĨØ®": 1382,
      "ĠØªØ®": 1383,
      "ØªÙĪÙħØ§ÙĨ": 1384,
      "ĠØ¬Ø§ÙħØ¹Ùĩ": 1385,
      "ĠØ´Ú©ÙĨ": 1386,
      "ĠØ¢ÙĤ": 1387,
      "ĠÙĨØ§ÙħÙĩ": 1388,
      "ĠÛ°": 1389,
      "50": 1390,
      "ĠØ³Ø§Ùħ": 1391,
      "Ġ[": 1392,
      "ĠØ®Ø¯": 1393,
      "ĠÙĦÛĮÙĨÚ©": 1394,
      "ĠÙħØŃØµÙĪÙĦØ§Øª": 1395,
      "ĠÙĩÙģØªÙĩ": 1396,
      "ĠØ³ÛĮÙĨ": 1397,
      "âĢĿ": 1398,
      "ct": 1399,
      "ĠØ¢Ø°": 1400,
      "Ú©ÙĪØ±": 1401,
      "ĠÙĪÙĤ": 1402,
      "ĠÙħØµØ±Ùģ": 1403,
      "Ø¨Ø¯": 1404,
      "ĠÙĪØ§ÙĤØ¹": 1405,
      "ĠØ®Ø§ÙĨÙĪ": 1406,
      "ĠØ®ÙĦ": 1407,
      "ĠØ¯Ø±ÙħØ§ÙĨ": 1408,
      "ĠÛ²Û°": 1409,
      "ĠØ¨ØŃ": 1410,
      "ĠÙĩØ§ÙĬ": 1411,
      "ĠØ¹ÙħÙĪÙħÛĮ": 1412,
      "Ø³ÙĨ": 1413,
      "ĠØ¯Ø±ÛĮØ§ÙģØª": 1414,
      "ew": 1415,
      "ÙħÙĪØ¹Ùĩ": 1416,
      "ĠÙ¾Úĺ": 1417,
      "ÙĬÙĩ": 1418,
      "ĠÙģÙĪ": 1419,
      "ÛĮØ¯Ø§": 1420,
      "Ø¨Ø§ÙĨÛĮ": 1421,
      "Ø§ÙĪÙĨ": 1422,
      "ØªÙĪÙĨ": 1423,
      "ÙĩØ§Ø±": 1424,
      "ĠØªØ£": 1425,
      "Ġb": 1426,
      "Ø§Ø¨Ø¹": 1427,
      "ĠØ§Ø³Ø§Ø³": 1428,
      "ĠØ³Ø®": 1429,
      "Ø§ÙĪØª": 1430,
      "ÙħØŃ": 1431,
      "ĠÙħØ·Ø§ÙĦ": 1432,
      "ĠÙħØ¹Ùħ": 1433,
      "ĠÙħØ§ÙĦÛĮ": 1434,
      "ĠØ´ÙĩØ±ÛĮ": 1435,
      "11": 1436,
      "ĠÙĩØ§ÛĮÛĮ": 1437,
      "ĠÙģÙĤØ·": 1438,
      "ĠÙħØ§ÙĨÙĨØ¯": 1439,
      "ĠØ§ÙģØª": 1440,
      "ĠØªØ¹Ø¯Ø§Ø¯": 1441,
      "Ø§Ø±ÙĬ": 1442,
      "ch": 1443,
      "ĠÙħÙĪØ¬ÙĪØ¯": 1444,
      "ĠÛ±Û°": 1445,
      "ÙĩÙħ": 1446,
      "ĠØ¯Ø®": 1447,
      "ĠÙģØ±ÙĩÙĨÚ¯ÛĮ": 1448,
      "ØªÙĨ": 1449,
      "Ø§ÙħÛĮÙĨ": 1450,
      "ØµØ±": 1451,
      "ĠÙĤØ¯Ø±": 1452,
      "ĠÙħØ§Ø´ÛĮÙĨ": 1453,
      "ĠØ®Ø§Ø·": 1454,
      "ĠØ§Ø¨Øª": 1455,
      "ĠØ¬ÙĨÚ¯": 1456,
      "Ø·Ø±": 1457,
      "ĠÙĦÙĪØ§Ø²Ùħ": 1458,
      "ĠØ³Ø·ØŃ": 1459,
      "Ø§Ø¸": 1460,
      "ĠØ¨Ø±Ú¯Ø²Ø§Ø±": 1461,
      "ĠÙħØ³ØªÙĤ": 1462,
      "ĠÙħÙĪØ¨": 1463,
      "ĠÚ©ÙĪØ¯Ú©": 1464,
      "ÙĦÛĮØº": 1465,
      "Ġv": 1466,
      "ĠØ§ÙģØ²ÙĪØ¯": 1467,
      "ter": 1468,
      "ĠØŃØªÛĮ": 1469,
      "ĠØ®Ø§Øµ": 1470,
      "Ø¨Ø±Ø§ÙĨ": 1471,
      "ĠØ®Ø±Ø¯": 1472,
      "Ø¢ÙĨ": 1473,
      "Ø§ÙĦØª": 1474,
      "ĠÙħØ´Ø§ÙĩØ¯Ùĩ": 1475,
      "ĠØŃÙħ": 1476,
      "!!": 1477,
      "ÙħØ§ÛĮÙĩ": 1478,
      "ĠØ¹Ø¶": 1479,
      "ĠØ²ÛĮØ§Ø¯ÛĮ": 1480,
      "ĠÙĪØ²Ø§Ø±": 1481,
      "Ø³Ø§ÙĨÛĮ": 1482,
      "ĠÙĪØ§": 1483,
      "ĠØ®ÙĪØ¨": 1484,
      "ab": 1485,
      "ĠÙĨØ¯Ø§Ø±Ø¯": 1486,
      "ĠU": 1487,
      "ĠÚ©Ø±Ø¯ÙĨØ¯": 1488,
      "ĠØ§ÙĨÙĤÙĦØ§Ø¨": 1489,
      "ĠÙĪØ²Ø§Ø±Øª": 1490,
      "ĠØ§Ø®Ø¨Ø§Ø±": 1491,
      "ÙĪØ±Ø´": 1492,
      "Ø°ÛĮØ±": 1493,
      "Ø«Ø±": 1494,
      "Ġof": 1495,
      "ÂŃ": 1496,
      "ig": 1497,
      "ØºØ§Ø²": 1498,
      "ĠÙ¾ÛĮØ§Ùħ": 1499,
      "ĠØ´ÙĪØ±Ø§ÛĮ": 1500,
      "ĠØ¨Ø±Ø®": 1501,
      "ĠÙ¾Ø±Ø¯Ø§Ø®Øª": 1502,
      "ÙĨØ¯Ú¯Ø§ÙĨ": 1503,
      "ĠØ·ÙĪØ±": 1504,
      "ĠÙĨÙģØª": 1505,
      "ĠÙģÙĦ": 1506,
      "ĠÙĪØ¶": 1507,
      "Ø§Ø¨ÙĤ": 1508,
      "ĠÙħÚ©": 1509,
      "ĠØ¨Ø§Ø´ÛĮØ¯": 1510,
      "Ø³ÙĦ": 1511,
      "ĠÙĪØ§ØŃ": 1512,
      "ĠØ´Ø¹": 1513,
      "ĠØ§Ø¸": 1514,
      "ĠÙħÙħÚ©ÙĨ": 1515,
      "ÛĮØ·": 1516,
      "Ø¨Ø§Ø´Ø¯": 1517,
      "ĠØ¢ÙĨÙĦØ§ÛĮÙĨ": 1518,
      "ĠØ±Ø´ØªÙĩ": 1519,
      "im": 1520,
      "ĠÙħÛĮÙĦÛĮÙĪÙĨ": 1521,
      "ĠØ¬ÙĩØ§ÙĨÛĮ": 1522,
      "ay": 1523,
      "ĠÚ©Ø§ÙĦØ§": 1524,
      "ĠÙĤØ¨": 1525,
      "Ġ20": 1526,
      "ĠØ®ÙĪØ§ÙĨ": 1527,
      "un": 1528,
      "Ú¯Ø²Ø§Ø±ÛĮ": 1529,
      "ĠØ±Ùĩ": 1530,
      "Ø§Ú¯Ø±": 1531,
      "ĠÚ©Ø³Ø¨": 1532,
      "ĠØŃÙĦ": 1533,
      "ĠÙħÙĪØ¨Ø§ÛĮÙĦ": 1534,
      "Ø§ÙģÙĩ": 1535,
      "ĠØ§Ù¾": 1536,
      "ĠV": 1537,
      "Ø³ÙĦØ§Ùħ": 1538,
      "ĠÙ¾Ø±ÙĪÚĺÙĩ": 1539,
      "ĠØ¨ÙĪØ¯ÙĨ": 1540,
      "ĠÙħØ±Ú©Ø²": 1541,
      "Ø±ÙĪÛĮØ¯": 1542,
      "ĠØ®Ø§ÙĨÙĪØ§Ø¯Ùĩ": 1543,
      "Ø±Ø¨Ùĩ": 1544,
      "ĠØ§Ø¶": 1545,
      "ĠÙĨÙĤÙĦ": 1546,
      "Ø·ÙĪØ±": 1547,
      "ĠØªØ¨ÙĦÛĮØº": 1548,
      "ĠÙģØµÙĦ": 1549,
      ").": 1550,
      "ĠÙĩØ²ÛĮÙĨÙĩ": 1551,
      "Ø§ÛĮØ¹": 1552,
      "ĠÙħØ¹Ø±ÙģÛĮ": 1553,
      "ĠØ·ÙĪÙĦ": 1554,
      "ÙĪÛĮØ±": 1555,
      "Ø®Ùĩ": 1556,
      "ĠØ³Ø±ÙħØ§ÛĮÙĩ": 1557,
      "ĠÙħØ±Ø¨ÙĪ": 1558,
      "ĠÙĤØ§ÙĨÙĪÙĨ": 1559,
      "ĠØ§ÙĨØªÙĤ": 1560,
      "ĠÙħÙĪÙģÙĤ": 1561,
      "ĠØ§Ø¸ÙĩØ§Ø±": 1562,
      "ĠÛĮÙĩ": 1563,
      "ĠØ¯ÙĨ": 1564,
      "ĠÙĨÙĬ": 1565,
      "Ġïº": 1566,
      "Ø¨Ø¹": 1567,
      "ĠØ²ÛĮØ¨": 1568,
      "ĠØ·Ø±ÛĮÙĤ": 1569,
      "ĠÙĦØ§Ø²Ùħ": 1570,
      "ĠÙħÙĤØ§ÙĦÙĩ": 1571,
      "ĠÙĤØ¯": 1572,
      "ĠØ·Ø¨ÛĮ": 1573,
      "ĠØªØŃÙĤÛĮÙĤ": 1574,
      "ĠØ·Ø±Ùģ": 1575,
      "ĠÚĨÙĪÙĨ": 1576,
      "ÙĪÙĦÙĩ": 1577,
      "ĠØ´ÙĨØ¨Ùĩ": 1578,
      "Ú©ÙĪ": 1579,
      "Ø§Ø´ÛĮ": 1580,
      "Ø¬ÙĪ": 1581,
      "Ø³ØªØ±": 1582,
      "ĠÙĩØ¯Ùģ": 1583,
      "Ø§Ø¨Ø·": 1584,
      "ĠØ§ÙĦØ¨": 1585,
      "ĠØ´ÙĩØ±Ø³ØªØ§ÙĨ": 1586,
      "ĠØ¹ÙĦÙħÛĮ": 1587,
      "ĠØ¨Ø±Ø§ÙĬ": 1588,
      "ĠØŃÚ©": 1589,
      "ĠØ´Ú©ÙĦ": 1590,
      "ĠØŃØ³Ø§Ø¨": 1591,
      "Ø§Ø³Ùħ": 1592,
      "ĠÙħØ¬ÙħÙĪØ¹Ùĩ": 1593,
      "ĠÚ©Ø¯": 1594,
      "ĠÙ¾ÛĮØ¯Ø§": 1595,
      "Ø§ÙĪÛĮØ±": 1596,
      "ĠØ³ÛĮØ§Ø³ÛĮ": 1597,
      "ĠÙħØŃÛĮØ·": 1598,
      "iv": 1599,
      "ĠÙ¾ÙĪØ´": 1600,
      "ĠØ§Ø±Ø³Ø§ÙĦ": 1601,
      "od": 1602,
      "ÙĦÛĮØª": 1603,
      "Ù¾Ø±": 1604,
      "ĠÙħØ·ÙĦØ¨": 1605,
      "Ġ19": 1606,
      "ĠØ´ÙħØ§Ø±Ùĩ": 1607,
      "ĠØªÙĦÙģ": 1608,
      "ĠØ¦": 1609,
      "ĠÙ¾ÚĺÙĪÙĩ": 1610,
      "ĠØªØ¬Ùĩ": 1611,
      "ĠÙĨÙĤØ´": 1612,
      "ĠØ¹ÙĦÙĪÙħ": 1613,
      "ĠÙħÛĮØ²Ø§ÙĨ": 1614,
      "ÙĬØ´": 1615,
      "ĠØ±ÙĤ": 1616,
      "ĠØ¬ÙħÙĦÙĩ": 1617,
      "Ø§ÙĨØª": 1618,
      "ĠÛ¶": 1619,
      "ĠÚ¯ÙģØªÙĩ": 1620,
      "Ú¯Ø§ÙĩÛĮ": 1621,
      "ĠØŃÙĤÙĪÙĤ": 1622,
      "Ø¯ÙĩØ¯": 1623,
      "ĠØ¨ÙĨØ¯": 1624,
      "ĠÙħØŃÙĦ": 1625,
      "Ú¯ÙĦ": 1626,
      "ĠØ¢ØºØ§Ø²": 1627,
      "ĠØªÙĪØ§ÙĨØ¯": 1628,
      "ØªØŃ": 1629,
      "ĠÚĨØ´Ùħ": 1630,
      "ĠØ¨Ø³ÛĮØ§Ø±ÛĮ": 1631,
      "ĠØªÛĮ": 1632,
      "Ø§Ø¡": 1633,
      "ĠØ¯ÙĪØ³Øª": 1634,
      "ĠØ¨ÙĨØ¯ÛĮ": 1635,
      "ĠØµÙĨØ¹Øª": 1636,
      "Ø§Ø¶ÛĮ": 1637,
      "ĠØ¯Ú©ØªØ±": 1638,
      "ĠÙ¾ÛĮØ±": 1639,
      "ĠÙħÙĨØ¸": 1640,
      "ĠØ³ÙģØ±": 1641,
      "ĠØ¨Ø¯ÙĨ": 1642,
      "ĠØ¯Ø®ØªØ±": 1643,
      "Ø³Ùħ": 1644,
      "Ø§Ú¯": 1645,
      "ÛĮÙĨÚ¯": 1646,
      "Ø®ÙĪØ§Ùĩ": 1647,
      "Ø¹ØªÛĮ": 1648,
      "30": 1649,
      "ØªØ±ÙĦ": 1650,
      "Ġ15": 1651,
      "ĠØ§Ø±Ø²Ø´": 1652,
      "Ø§Ø³ØªØ§ÙĨ": 1653,
      "ÙĴ": 1654,
      "15": 1655,
      "ĠØ§Ø³ØªØ®": 1656,
      "Ġin": 1657,
      "ĠÙĦØ¨Ø§Ø³": 1658,
      "ÙĨÙħØ§ÛĮ": 1659,
      "ĠØªÙĦØ§Ø´": 1660,
      "ĠÙħØ°": 1661,
      "ĠØ¨Ø±Ø§Ø¨Ø±": 1662,
      "âĢİ": 1663,
      "ØªØ¨Ø§ÙĦ": 1664,
      "ĠÙħØ¯Øª": 1665,
      "ĠØ¨Ø±ÙĤ": 1666,
      "Ø²ÙĨ": 1667,
      "Ø§ÙģØª": 1668,
      "ÛĮØ±Ùĩ": 1669,
      "ĠØŃÙģ": 1670,
      "Ø³ÙĬ": 1671,
      "Ø§ÙģØ¸": 1672,
      "ĠÙĨØ²Ø¯": 1673,
      "ĠÙĪØ§ØŃØ¯": 1674,
      "ĠÙħØ³ØªÙĤÛĮÙħ": 1675,
      "ĠÙģØ±Ùħ": 1676,
      "ĠØ§ÙĦØ¨ØªÙĩ": 1677,
      "ur": 1678,
      "ĠØ±ÙĪØ§ÙĨ": 1679,
      "Ø¬Ø§ÙĨ": 1680,
      "Ø§ÙĩØ§ÛĮ": 1681,
      "Ø´ÙĨØ§Ø³ÛĮ": 1682,
      "ĠÚĨØ±Ø§": 1683,
      "Ø±Ø¨ÛĮ": 1684,
      "Ø§ÙĪÙĩ": 1685,
      "ĠØ¸Ø±Ùģ": 1686,
      "ĠO": 1687,
      "Ù¾ÛĮ": 1688,
      "Ġw": 1689,
      "Ø§ÙĪÛĮ": 1690,
      "ĠØ§Ø¬Ø±Ø§ÛĮ": 1691,
      "ĠØŃØ¯ÙĪØ¯": 1692,
      "ĠØ®Ø§Ø±Ø¬ÛĮ": 1693,
      "ĠØªÙĩÛĮÙĩ": 1694,
      "ĠØ§Ø«Ø±": 1695,
      "ĠÙĨÙħÙĪÙĨÙĩ": 1696,
      "ĠØ¹Ø¯": 1697,
      "ĠÙ¾Ø²Ø´Ú©ÛĮ": 1698,
      "ĠØªÙĪØ±": 1699,
      "ĠÙħØ´Ùĩ": 1700,
      "ĠÙĥÙĨ": 1701,
      "ĠK": 1702,
      "ĠØ±Ø´Ø¯": 1703,
      "ÙħØ§ÛĮÛĮ": 1704,
      "ĠØ³ÙĪÛĮ": 1705,
      "ĠÚ¯Ø±Ùħ": 1706,
      "ĠÙĨÛĮÙħ": 1707,
      "ĠØ§ÙĤØªØµØ§Ø¯": 1708,
      "ĠØ³ÙĨ": 1709,
      "ĠØ¨ÛĮÙħØ§Ø±ÛĮ": 1710,
      "ĠØ§ÙħÙĪØ±": 1711,
      "ĠØ¢ÙħÙĪØ²Ø´ÛĮ": 1712,
      "ĠØ¨ÙĩØªØ±": 1713,
      "Ø§ÛĮÙĩ": 1714,
      "Ø®ÙĪØ§Ø³Øª": 1715,
      "Ġand": 1716,
      "Ø¬ÙĪÛĮ": 1717,
      "ĠØªØ§Ø¨": 1718,
      "Ġï»": 1719,
      "ÙħÛĮØ±": 1720,
      "ÙħØ´": 1721,
      "ĠÙħÙĩÙĨØ¯": 1722,
      "Ġ16": 1723,
      "Ø±ÛĮÙģ": 1724,
      "Ø¹ÙĨÛĮ": 1725,
      "ĠØ¯Ø§Ø®ÙĦÛĮ": 1726,
      "ĠÙĨØµØ¨": 1727,
      "ĠØ¢Ø²ÙħÙĪÙĨ": 1728,
      "ĠÙĨÙĪØ´ØªÙĩ": 1729,
      "ĠÚ©ÙĨÙħ": 1730,
      "ĠÙĪÙĦ": 1731,
      "ĠÙ¾ÙĦÛĮ": 1732,
      "ØªØ§": 1733,
      "ĠØ§ÙĨØ¯Ø±ÙĪÛĮØ¯": 1734,
      "ĠØ¹Ø±Ø¶": 1735,
      "Ġ11": 1736,
      "Ø´ØªÛĮ": 1737,
      "Ø±ÛĮØ§ÙĨ": 1738,
      "ĠØ³Ø§ÛĮØ±": 1739,
      "ĠØ±ÙĪØŃ": 1740,
      "ĠØªØ¬ÙĩÛĮØ²": 1741,
      "ØªØ´Ø±": 1742,
      "Ø±ÛĮØŃ": 1743,
      "ÙĪØªØ±": 1744,
      "Ú©ÛĮÙĦ": 1745,
      "ĠØ§ÙĦÙĦÙĩ": 1746,
      "ĠÛ¸": 1747,
      "ÙĤÛĮÙħØª": 1748,
      "ĠØ§ÙĨØ³Ø§ÙĨ": 1749,
      "ĠÙħØ´Ú©ÙĦØ§Øª": 1750,
      "ĠÚ©Ø§ÙħÙ¾": 1751,
      "ĠØ¨ÙĪØ¯ÙĨØ¯": 1752,
      "ïºİ": 1753,
      "ĠØ³ÛĮÙħ": 1754,
      "ĠÚ©Ø§Ø±ÛĮ": 1755,
      "ÙĦÛĮÙĩ": 1756,
      "ĠØ¹Ø§ÙĦÛĮ": 1757,
      "ĠâĢĮ": 1758,
      "Ú©ÙĨÙĪÙĨ": 1759,
      "ÙħÛĮØª": 1760,
      "ÛĮØ¨": 1761,
      "Ġthe": 1762,
      "ĠÚ©ÙĪÚĨ": 1763,
      "Ø¨ÙĪØ¯": 1764,
      "ĠØ³Ø±ÙĪ": 1765,
      "ĠØ³ÙĪÙħ": 1766,
      "ĠØ§ÛĮÙĨØªØ±ÙĨØªÛĮ": 1767,
      "st": 1768,
      "ĠØ´Ø§ÙħÙĦ": 1769,
      "ĠØ¬Ø´ÙĨ": 1770,
      "ĠÛ·": 1771,
      "ĠÙĪØ²ÛĮØ±": 1772,
      "ĠØ¢Ù¾": 1773,
      "ĠØªÙħØ§Ø³": 1774,
      "ut": 1775,
      "ĠØŃØ§Ø¶": 1776,
      "ĠÙģÙĪØªØ¨Ø§ÙĦ": 1777,
      "Ø¤": 1778,
      "ĠØ¨ÙĩØ±Ùĩ": 1779,
      "ĠÙħØ¨": 1780,
      "Ø¨ÛĮØ±": 1781,
      "Ø±ÙĪØ¹": 1782,
      "ĠØ§ÙĪÙĦÛĮÙĨ": 1783,
      "Ø³Ø§Ø²": 1784,
      "ĠÚ©ÙĨØ§Ø±": 1785,
      "ÙĪÙħØª": 1786,
      "ĠÙĤØ·Ø¹": 1787,
      "80": 1788,
      "ÙģØ§ÙĤ": 1789,
      "ĠÙĨØ¸Ø§Ùħ": 1790,
      "ĠÙĨØ¯Ø§Ø±": 1791,
      "16": 1792,
      "ĠÙħØªØ±": 1793,
      "ĠØ±Ø³Ø§ÙĨÙĩ": 1794,
      "ÙħÛĮÙĦ": 1795,
      "ÙģØ§": 1796,
      "ĠÙħÙĪØ§Ø±Ø¯": 1797,
      "ĠØ²ÙħØ§ÙĨÛĮ": 1798,
      "ĠÙĨØ³Ø®Ùĩ": 1799,
      "ĠØ¨Ø³ØªÙĩ": 1800,
      "ĠØ¬Ø°": 1801,
      "ĠØªØ®ØµØµ": 1802,
      "ĠØ¬ÙħÙĩÙĪØ±ÛĮ": 1803,
      "ĠØ¯ÙĨØ¨Ø§ÙĦ": 1804,
      "Ø±ØŃ": 1805,
      "ĠÙħÙģ": 1806,
      "ĠÙĨØªÛĮ": 1807,
      "ĠÙĨØª": 1808,
      "ÙĪÛĮÙĨ": 1809,
      "ĠÙħØ¯Ø§Ø±": 1810,
      "ÙģØ¹": 1811,
      "ĠØ®ÙĪØ¨ÛĮ": 1812,
      "ÙĪÙĦÙĪ": 1813,
      "Ø¨Ø±ÚĨØ³Ø¨": 1814,
      "ĠÙħØ«ÙĦ": 1815,
      "ĠØªØŃØª": 1816,
      "Ú©ÛĮØ¯": 1817,
      "ĠÙĨÚ¯Ùĩ": 1818,
      "ĠÙģØ¶Ø§ÛĮ": 1819,
      "ĠØ¢ÛĮÙĨØ¯Ùĩ": 1820,
      "ĠØŃØ§Ø¶Ø±": 1821,
      "ĠÙħÙĨØªØ´Ø±": 1822,
      "ÙħÛĮÙħ": 1823,
      "ĠØµÙĨØ¹ØªÛĮ": 1824,
      "ĠØŃÙħØ§ÛĮ": 1825,
      "Ú¯Ø§Ø±": 1826,
      "ĠØªØ§Ø«": 1827,
      "ĠJ": 1828,
      "Ø§Ø¦ÛĮØ¯": 1829,
      "ĠÙĨØªÛĮØ¬Ùĩ": 1830,
      "ĠÙħØ±Ø¨ÙĪØ·": 1831,
      "ÙĶ": 1832,
      "Ġ14": 1833,
      "ĠØ§ÙħÛĮØ¯": 1834,
      "ĠÙħØ±ØŃ": 1835,
      "Ú¯ÙĪÛĮ": 1836,
      "ĠØ²ÛĮØ¨Ø§": 1837,
      "ĠØ¨ÙĪ": 1838,
      "19": 1839,
      "ĠÙĪÙĤØªÛĮ": 1840,
      "ĠÙĩÙĨÚ¯": 1841,
      "ĠØ®Ø§Ø·Ø±": 1842,
      "ĠÙĥØ±Ø¯": 1843,
      "ĠÙħØ³Ø¦ÙĪÙĦ": 1844,
      "ĠÚ©ÙĨØªØ±ÙĦ": 1845,
      "ĠÙħØº": 1846,
      "ĠØ®Ø¨Ø±ÛĮ": 1847,
      "ĠÙħØ´Ø§ÙĪØ±": 1848,
      "ĠØ¢Ø®Ø±ÛĮÙĨ": 1849,
      "ĠØ®ÙĪØ§Ø¨": 1850,
      "ĠØ³Ø§Ø®ØªÙħØ§ÙĨ": 1851,
      "Û±Û³Û¹": 1852,
      "ĠÙĪÛĮØ±": 1853,
      "ĠÛĮØ¹ÙĨÛĮ": 1854,
      "ĠØ¬Ø¯": 1855,
      "ĠÙħÙĨØ§Ø¨Ø¹": 1856,
      "ĠØ¢Ø´": 1857,
      "ĠØªÙĪØ§ÙĨÛĮØ¯": 1858,
      "ĠØ¨Ø±Ø®ÙĪØ±Ø¯": 1859,
      "14": 1860,
      "ĠØ±Ø§Ø¨": 1861,
      "ĠØ§Ø¨Ø²Ø§Ø±": 1862,
      "ĠÙĨØ®Ø³Øª": 1863,
      "ĠÙĨÚ©": 1864,
      "ĠØ³ÙĦØ§ÙħØª": 1865,
      "ation": 1866,
      "ÛĮØ´ÙĨ": 1867,
      "ÙĨØ´": 1868,
      "ĠÙ¾Ø°ÛĮØ±": 1869,
      "Ø§ÙĨØ³": 1870,
      "ĠÙĪÙĤØª": 1871,
      "ÙĬÙĦ": 1872,
      "ĠâĢľ": 1873,
      "ÙħÙĦÙĦÛĮ": 1874,
      "ØªØ§Ø±ÛĮØ®": 1875,
      "ÚĨÛĮ": 1876,
      "ĠØªØ¬ÙĩÛĮØ²Ø§Øª": 1877,
      "ĠÙ¾ÙĪØ³Øª": 1878,
      "Ø§Ø±Ø§ÙĨØªÛĮ": 1879,
      "ĠØ´Ø¯ÙĨØ¯": 1880,
      "Ø±Ø§ÙĨÛĮ": 1881,
      "ĠØ·ÛĮ": 1882,
      "ĠÙĦØŃ": 1883,
      "ĠÙģØ±ÙĪØ´Ú¯Ø§Ùĩ": 1884,
      "Ø´Ú©": 1885,
      "ĠØ¯Ø³ØªÙĩ": 1886,
      "ĠÙħØŃØ¯": 1887,
      "ĠÙĥØ§Ø±": 1888,
      "Ø¹Ú©Ø³": 1889,
      "ĠÙħÛĮØ¯": 1890,
      "ĠØ¢ÙĤØ§ÛĮ": 1891,
      "ĠÚ¯Ø±Ø¯Ø´": 1892,
      "ĠØ¹ÙĪ": 1893,
      "ÙģÙĨØ¯": 1894,
      "ĠÙĩÙĪØ´": 1895,
      "Ø¨Ø±Ø§ÛĮ": 1896,
      "ĠØªÛĮØ±": 1897,
      "ĠØ´ÙĨØ§Ø³": 1898,
      "Ø¬Ø±": 1899,
      "ĠÙħØ¨Ø§Ø±": 1900,
      "ĠÚ©Ø§Ø±Øª": 1901,
      "??": 1902,
      "Ø¬ÙħÙĩ": 1903,
      "ĠØµØ§Ø¯": 1904,
      "ĠØ±ÙĪØ³Øª": 1905,
      "ĠØ´Ø±ÙĪØ¹": 1906,
      "ĠØ§Ø³Ù¾": 1907,
      "ĠÚ©ÛĮ": 1908,
      "ĠØ¬ÙĦÙĪ": 1909,
      "Ø©": 1910,
      "ĠØ§ÙĨØªØ¸": 1911,
      "ĠØ¯ÛĮÚ¯Ø±ÛĮ": 1912,
      "ĠØ§ÙĨØ¯Ø§Ø²Ùĩ": 1913,
      "ĠÙħØ±Ø§Ø¬": 1914,
      "Ø¬Ø¨": 1915,
      "ĠØ¹ÙħÙĦÛĮ": 1916,
      "ĠØ¶Ø¯": 1917,
      "ĠØªØŃØµ": 1918,
      "ĠØ¯ÙĨÛĮØ§": 1919,
      "ul": 1920,
      "ĠØ§ÛĮÙħ": 1921,
      "Ø´ÙĨØ§ÙħÙĩ": 1922,
      "ĠØŃÛĮ": 1923,
      "Ø¢ÙħØ¯": 1924,
      "Ø§ÙĩÙħ": 1925,
      "ĠØ®Ø¨Ø±ÙĨÚ¯": 1926,
      "ĠØ§Ø³ØªØ§ÙĨØ¯": 1927,
      "ĠÙ¾Ø§ÛĮÙĩ": 1928,
      "ĠØ§ØªÙģØ§ÙĤ": 1929,
      "ĠØŃÙħØ§ÛĮØª": 1930,
      "ĠÙĪØ±ÙĪØ¯": 1931,
      "www": 1932,
      "Ú©Ø´": 1933,
      "ĠÛ±Û³Û¹Ûµ": 1934,
      "Û±Û°": 1935,
      "ĠØ¬ÙħØ¹": 1936,
      "ĠÙ¾ÛĮØ´ÙĨÙĩ": 1937,
      "ØµÙĩ": 1938,
      "Úµ": 1939,
      "Ø¯Ø§Ø¯": 1940,
      "ĠÚ©ÙĪØª": 1941,
      "ĠØ§Ø±ÙĪÙ¾": 1942,
      "ÙĤÛĮÙĤÙĩ": 1943,
      "ĠÚ©Ùģ": 1944,
      "ĠØ®Ø§Ø±Ø¬": 1945,
      "ĠØ±Ø¶": 1946,
      "ĠÙģÙĨÛĮ": 1947,
      "Ú¯Ø°Ø§Ø±": 1948,
      "ÙĨÙĪÛĮØ³": 1949,
      "ĠØ§ÙĪÙĨ": 1950,
      "ÙĪÙĩØ§ÛĮ": 1951,
      "Ø¨ÙĪØ±": 1952,
      "ĠÚ©Ø§ÙħÙ¾ÛĮ": 1953,
      "ĠØ³ÙĦ": 1954,
      "ĠÚĨÙĨÛĮÙĨ": 1955,
      "ĠØ²ÙĨØ§ÙĨ": 1956,
      "ĠÙĨÙħÙĪØ¯": 1957,
      "24": 1958,
      "Ø¶ÛĮØŃ": 1959,
      "ĠÙħÛĮÚ©ÙĨ": 1960,
      "ĠÙĩÙĨØ±": 1961,
      "Ø¸ÛĮÙħ": 1962,
      "ĠØ¯Ø§Ø¯ÙĨ": 1963,
      "Ø®ØµÙĪØµ": 1964,
      "ĠØ§ÙĨÚ¯ÙĦÛĮ": 1965,
      "ĠÙģØ±Ø²": 1966,
      "ĠÙģÙĪÙĤ": 1967,
      "ĠØ§Ø¶Ø§ÙģÙĩ": 1968,
      "Ø§Ø³ÛĮÙĪÙĨ": 1969,
      "ĠÙħØ´ØªØ±ÛĮ": 1970,
      "Ø³ÙĪÙĨ": 1971,
      "ĠÚ©ÙĪØ¯Ú©Ø§ÙĨ": 1972,
      "ĠÙħØŃÙħ": 1973,
      "ĠÙĪØ¶Ø¹ÛĮØª": 1974,
      "ĠÙĩÙħÚ©Ø§Ø±ÛĮ": 1975,
      "ĠØ¨Ø´": 1976,
      "Ø±ÙĪÙģ": 1977,
      "Ú¯Ø§ÙĨÛĮ": 1978,
      "ĠÙħÙĪØ³": 1979,
      "Ø§Ø¯Øª": 1980,
      "ĠÙĬÙĥ": 1981,
      "ĠØ¯ÙĦØ§Ø±": 1982,
      "ØªÙĪØ§ÙĨÛĮØ¯": 1983,
      "ĠØªØ¨Ø¯": 1984,
      "ĀĀĀĀĀĀĀĀ": 1985,
      "ĠØ§ØŃØªÙħ": 1986,
      "ĠÚ©Ø§Ø±Ø¨Ø±Ø¯": 1987,
      "ĠÛ±Û³Û¹Û¸": 1988,
      "Ġi": 1989,
      "ĠÙħØ§ÙĦ": 1990,
      ")ØĮ": 1991,
      "ĠØŃØ¶Ø±Øª": 1992,
      "ĠÙĩÙģØª": 1993,
      "ĠØ¨ÛĮÙħØ§Ø±": 1994,
      "ĠÙħØ·Ø§ÙĦØ¹Ùĩ": 1995,
      "Ø§ÙĦÙĦÙĩ": 1996,
      "Ġh": 1997,
      "ĠØ§ÙħÙĨ": 1998,
      "Ø¨ÙĩØ´Øª": 1999,
      "ĠØ¯ÙĩÙĨØ¯": 2000,
      "Ø§Ø¨Ùĩ": 2001,
      "ÙĦØ§Øª": 2002,
      "ĠØ¨Ø±Ø¯": 2003,
      "17": 2004,
      "Ġï¿½ï¿½ï¿½ï¿½": 2005,
      "Ú¯Ø°Ø§Ø±ÛĮ": 2006,
      "ĠØŃØ±ÙģÙĩ": 2007,
      "ĠØ¹Ø²ÛĮ": 2008,
      "ÙĪØ§": 2009,
      "ĠÙĤØ§Ø¨": 2010,
      "ĠØ·ÙĦ": 2011,
      "ÙģØ±ÙĪØ´": 2012,
      "ĠØ´ÙĩØ±Ø¯": 2013,
      "Ù¾Ø±Ø³": 2014,
      "ĠÙ¾ÙĪÙĦ": 2015,
      "ĠÙĤØ¯Ø±Øª": 2016,
      "ĠØ§ÙĨØªØ®Ø§Ø¨Ø§Øª": 2017,
      "ĠÚ¯ÛĮØ±ÛĮ": 2018,
      "ĠØ¯ÙĤÛĮÙĤÙĩ": 2019,
      "ĠØªØµÙĪÛĮØ±": 2020,
      "ĠØ¢ÙħØ§Ø¯Ùĩ": 2021,
      "ĠÙģÚ©Ø±": 2022,
      "Ø§Ø±Ø§Øª": 2023,
      "ĠØªØ§Ù¾": 2024,
      "ĠØ¯Ø§Ø®ÙĦ": 2025,
      "22": 2026,
      "ĠØ¶Ø±": 2027,
      "ĠØªØ§Ø«ÛĮØ±": 2028,
      "Ø±ÛĮÙĨ": 2029,
      "ÙĪÙĦØ§": 2030,
      "ÙĨØ§ÙĪØ±ÛĮ": 2031,
      "ĠÙħØ¹Ø§ÙĪÙĨ": 2032,
      "ess": 2033,
      "ĠÙĨÙģ": 2034,
      "ĠØ±Ø§Ø³Øª": 2035,
      "ĠÙħÙĪØ³ÛĮ": 2036,
      "ĠØ¯ÙĬ": 2037,
      "ĠÚ©Ø§Ø±Ø¨Ø±Ø§ÙĨ": 2038,
      "ĠØ´ÙĩÛĮØ¯": 2039,
      "Ġn": 2040,
      "ĠØ¯ÙĩÛĮØ¯": 2041,
      "ĠÙħØ¯Ø±": 2042,
      "ĠØ§ØµÙĦØ§ØŃ": 2043,
      "ĠØ§ØµÙģÙĩ": 2044,
      "ĠØ¢ÙĪØ±": 2045,
      "ĠØ¬ÙĦØ³Ùĩ": 2046,
      "ĠØ§Ø®ÛĮØ±": 2047,
      "ĠØ³ÛĮØ§Ø³Øª": 2048,
      "ĠÙĨÙĪÛĮØ³": 2049,
      "ĠØ®ÙĪÙĨ": 2050,
      "ĠÛ±Û²": 2051,
      "Ø«Ø§Ø±": 2052,
      "ĠÙĪØ³": 2053,
      "ĠØ¯Ø¹": 2054,
      "ĠØ¯ÙĪØ±Ø¨ÛĮÙĨ": 2055,
      "av": 2056,
      "ĠØ¹ÙħÙĦÚ©Ø±Ø¯": 2057,
      "ĠØªØµÙĪÛĮ": 2058,
      "Ġ18": 2059,
      "ĠÚ¯ÙĪÙĨÙĩ": 2060,
      "Ø§ØŃØª": 2061,
      "ĠØ³Ø±Ø¹Øª": 2062,
      "Ø¦ÛĮ": 2063,
      "ÙħÙ¾": 2064,
      "ĠØ±Ø§Ø¨Ø·Ùĩ": 2065,
      "139": 2066,
      "18": 2067,
      "Ø¨ØŃ": 2068,
      "ĠØ®Ø¨Ø±Ú¯Ø²Ø§Ø±ÛĮ": 2069,
      "ĠØ®Ø¯Ø§": 2070,
      "ĠØ¹ÙĦÛĮÙĩ": 2071,
      "ĠØ³Ø¹": 2072,
      "ĠØ±Ø¶Ø§": 2073,
      "ĠÛ±": 2074,
      "ĠÙħÙĤØ§Ùħ": 2075,
      "ĠÙ¾ÚĺÙĪÙĩØ´": 2076,
      "ĠØ±ÙĪØ§Ø¨Ø·": 2077,
      "ĠØªÙħØ§ÙħÛĮ": 2078,
      "ĠØªØ¨Ø¯ÛĮÙĦ": 2079,
      "Ú¯ÙĩÛĮ": 2080,
      "Ø¨Ø§Øª": 2081,
      "ĠØ®Ø±Ø¯Ø§Ø¯": 2082,
      "ĠÙħØ·Ø§ÙĦØ¨": 2083,
      "06": 2084,
      "ĠØªÙĦÙģÙĨ": 2085,
      "Ø§Ø³ØªÛĮ": 2086,
      "Ø´ÙĪÙĨØ¯": 2087,
      "ĠØªØµÙħÛĮÙħ": 2088,
      "ĠØ¢Ø°Ø±": 2089,
      "ĠÚ©ÛĮÙĦ": 2090,
      "ews": 2091,
      "ĠÙĪØ±Ø²Ø´ÛĮ": 2092,
      "ĠØ¨ÙĩÙħÙĨ": 2093,
      "Ø§Ø¦ÙĦ": 2094,
      "Ø±ÙĪØ³": 2095,
      "ĠÙĤØ§ÙĦØ¨": 2096,
      "ĠØ§Ø±Ø´Ø¯": 2097,
      "ĠÚ©Ø³ÛĮ": 2098,
      "ĠØŃØ³ÛĮÙĨ": 2099,
      "ĠÙħÙĤØ§Ø¨ÙĦ": 2100,
      "ĠÙħÙĨØ¸ÙĪØ±": 2101,
      "ĠÙģØ´Ø§Ø±": 2102,
      "ĠÙħÙĨØª": 2103,
      "ĠØ§ØŃØ³": 2104,
      "ĠØ§Ø±Ø²": 2105,
      "Ø±ÙĬ": 2106,
      "ĠØ¨ÛĮÙħÙĩ": 2107,
      "ĠØªØµØ§ÙĪÛĮØ±": 2108,
      "ĠÛ±Û³Û¹Û·": 2109,
      "ĠØªØ¬Ø±Ø¨Ùĩ": 2110,
      "ÙħÙĤ": 2111,
      "ĠÙħØ±ØŃÙĦÙĩ": 2112,
      "ĠØ¹Ø§Ø´": 2113,
      "ĠØ³Ø±ÙĪÛĮØ³": 2114,
      "Ø±ÙģØª": 2115,
      "ĠÙ¾Ø³Øª": 2116,
      "ĠÙĩÙĨÙĪØ²": 2117,
      "Ø²Ø§ÛĮ": 2118,
      "ĠØ¨Ø¯Ùĩ": 2119,
      "um": 2120,
      "Ø±ÚĺÛĮ": 2121,
      "ĠÙ¾ÙĨ": 2122,
      "ĠÛ±Û³Û¹Û¶": 2123,
      "**": 2124,
      "Ú¯ÛĮØ±Ø¯": 2125,
      "ÙĨÚ¯ÛĮ": 2126,
      "ÙĨØ¸": 2127,
      "ĠÙ¾Ø®Ø´": 2128,
      "ĠÙģÙĨØ§ÙĪØ±ÛĮ": 2129,
      "ĠØ¹Ø¯Ùħ": 2130,
      "ĠÙħØªÙģ": 2131,
      "ĠIn": 2132,
      "25": 2133,
      "ĠÙħÛĮØ²": 2134,
      "ĠÙĨÚ¯Ø§Ùĩ": 2135,
      "ĠØ¹Ø±Ø¶Ùĩ": 2136,
      "ĠÙħÛĮÙĦÛĮØ§Ø±Ø¯": 2137,
      "ÛĮØ¯ÙĨ": 2138,
      "ĠÙĨØŃ": 2139,
      "ĠÚ©Ø§ÙħÙ¾ÛĮÙĪØªØ±": 2140,
      "ĠØ³Ø±Ø¯": 2141,
      "ĠÙĨÛĮÙĪØ²": 2142,
      "Ø²ÙĦ": 2143,
      "ĠØ¯Ø±Ø³Øª": 2144,
      "ĠÚ¯Ø§Ø±Ø§ÙĨØªÛĮ": 2145,
      "ĠØ¨Ú¯ÛĮØ±": 2146,
      "Ø§Ø¨ÙĤÙĩ": 2147,
      "ĠØ§ÙĦØ¹": 2148,
      "ĠÙħÙĤØ§": 2149,
      "Ġ200": 2150,
      "ĠØ¢Ø¨Ø§ÙĨ": 2151,
      "ĠØ¹ÙĤ": 2152,
      "ØªÙĪØ§ÙĨÙĨØ¯": 2153,
      "ĠÚĨÛĮÙĨ": 2154,
      "ĠÙ¾Ø§ÛĮÚ¯Ø§Ùĩ": 2155,
      "ĠÚĨÚ¯ÙĪÙĨÙĩ": 2156,
      "Ø§ÙĬÙĬ": 2157,
      "ÛĮÛĮ": 2158,
      "ÙĨÙĪ": 2159,
      "ĠÙĩØªÙĦ": 2160,
      "ĠÙĨØ´Ø¯Ùĩ": 2161,
      "ÙħØ§ÙĦ": 2162,
      "ĠØ´Ø§Ùĩ": 2163,
      "ÙĪÙĨØ§": 2164,
      "Ø³ÛĮÙħ": 2165,
      "ĠØªØ®ØµØµÛĮ": 2166,
      "ĠØ§Ø¬Ø±": 2167,
      "ĠÙħÙī": 2168,
      "Û±Û²": 2169,
      "Ġ17": 2170,
      "ÙĩÛĮ": 2171,
      "ĠØ¹Ø§ÙħÙĦ": 2172,
      "ĠØªÙĪØ¶ÛĮØŃ": 2173,
      "ÙħØ§ÛĮØ´": 2174,
      "ĠØªØ´Ú©ÛĮÙĦ": 2175,
      "09": 2176,
      "ÙĪØ±ØªÛĮ": 2177,
      "ĠÙħØ´ÙĩØ¯": 2178,
      "ÙĥÙĩ": 2179,
      "ĠÙĨØ¨ÙĪØ¯": 2180,
      "ØºØ§ÙĦ": 2181,
      "ĠØ¢Ø´ÙĨ": 2182,
      "ÙĤØ¯Ø±": 2183,
      "ĠØ¢ÙĪØ±Ø¯": 2184,
      "Ø±Ø§Ø±": 2185,
      "Ø§Ø¨Ø§ÙĨ": 2186,
      "ĠØ¯Ø±Ø®ÙĪØ§Ø³Øª": 2187,
      "ĠØ±Ùħ": 2188,
      "ĠÙħØ§Ø±": 2189,
      "ĠØŃÙħÙĦ": 2190,
      "ĠÚ©ÙĪØªØ§Ùĩ": 2191,
      "ÙĢÙĢÙĢÙĢ": 2192,
      "Ú©ØªØ±ÛĮ": 2193,
      "ĠÙħÙĪØ²": 2194,
      "ĠÚĨØ§Ù¾": 2195,
      "ĠÙ¾Ø±ÙĪØ±Ø´": 2196,
      "ĠÙħØ±ØªØ¨": 2197,
      "ĠØ¨ÙĩØ¯Ø§Ø´Øª": 2198,
      "ĠÙĬØ§": 2199,
      "ĠØ§Ø³ØªÙĤÙĦ": 2200,
      "ÙĪÛĮØ²ÛĮ": 2201,
      "ĠØ·Ø¨ÛĮØ¹ÛĮ": 2202,
      "ØºØ§ÙĨ": 2203,
      "ĠÙħØ±Ø§Ø¬Ø¹Ùĩ": 2204,
      "ĠØ§ÙĦÚ©ØªØ±": 2205,
      "ĠÚĨÛĮØ³Øª": 2206,
      "ĠØ¯ÛĮØ¯Ú¯Ø§Ùĩ": 2207,
      "ĠØ¯Ø§Ø³ØªØ§ÙĨ": 2208,
      "ĠÙģØ±ÙħØ§ÙĨ": 2209,
      "ĠØ¢ÙħØ¯Ùĩ": 2210,
      "ĠØ§ØµÙģÙĩØ§ÙĨ": 2211,
      "ĠÙħÙĪØªÙĪØ±": 2212,
      "ÙĦÛĮÚ©": 2213,
      "ĠØ¯Ø§Ø±ÛĮÙħ": 2214,
      "ĠÙħØ·Ø±ØŃ": 2215,
      "ĠØ¯Ø±Ø¯": 2216,
      "ĠØ¢ÛĮØ§": 2217,
      "40": 2218,
      "Ø±ÛĮÙĩ": 2219,
      "ĠÙ¾Ø´Øª": 2220,
      "ĠØ¹Ø±Ø§ÙĤ": 2221,
      "ĠØ§Ø¯Ø§Ø±Ùĩ": 2222,
      "oo": 2223,
      "ĠÙģÙĪÙĦ": 2224,
      "ÙĪØ´ÙĨ": 2225,
      "ĠÙħØ±Ú©Ø²ÛĮ": 2226,
      "ĠÙħÛĮÙĦ": 2227,
      "ÚĺÚ¯ÛĮ": 2228,
      "ĠØ³ÙĪØ§ÙĦ": 2229,
      "Ø¦ÙĪ": 2230,
      "ĠØªØ§ÛĮ": 2231,
      "ĠØ³ÙĪØ¯": 2232,
      "Ú©ÙĨØ§ÙĨ": 2233,
      "ĠØ²ÛĮØ§Ø¯": 2234,
      "ĠÙĦØ·": 2235,
      "ĠÙħÛĮØ¨Ø§Ø´Ø¯": 2236,
      "ĠÚ©Ø±Ø¯Ùħ": 2237,
      "ĠØ¸Ø±ÙģÛĮØª": 2238,
      "Ø±Ø§ÛĮÙĨ": 2239,
      "ÛĮÙĦÛĮ": 2240,
      "ĠØ¯Ø³ØªÙĪØ±": 2241,
      "ĠØµÙĨØ¯": 2242,
      "ĠØ¹Ø¶ÙĪ": 2243,
      "ĠÚ©ÙĪÚĨÚ©": 2244,
      "ĠØ³ÙħØª": 2245,
      "Ø¹ÙĦ": 2246,
      "ĠØ³Ø§Ø®ØªÙĩ": 2247,
      "ĠØ²ÙĨØ§ÙĨÙĩ": 2248,
      "ĠØ³Ø§Ø¯Ùĩ": 2249,
      "ÙĪØ¨ÛĮ": 2250,
      "ĠÙ¾Ø§Ú©": 2251,
      "ĠÛ±Û¹": 2252,
      "ĠÙĤØ¶": 2253,
      "ĠØ¨Ø§Ø´Ú¯Ø§Ùĩ": 2254,
      "ĠØ¨ØŃØ«": 2255,
      "ĠØªØ§ÙħÛĮÙĨ": 2256,
      "ĠÚĨÛĮØ²ÛĮ": 2257,
      "ia": 2258,
      "ĠØ§ÙĨØªÙĤØ§ÙĦ": 2259,
      "ov": 2260,
      "ĠÚ©Ø´Ø§ÙĪØ±": 2261,
      "ĠØ§ØªØ§ÙĤ": 2262,
      "ĠÙħØ±Ø§Ø³Ùħ": 2263,
      "ĠÚ¯ÛĮØ±Ø¯": 2264,
      "ĠØ§Ø®ØªÙĦ": 2265,
      "ĠØ¬Ø±": 2266,
      "ĠØ¬Ø±ÛĮØ§ÙĨ": 2267,
      "ĠØ§Ø³ØªØ§Ø¯": 2268,
      "Ġâ": 2269,
      "Ú¯Ø±Ø§Ùħ": 2270,
      "ÙĪØ§ÙĨÛĮ": 2271,
      "top": 2272,
      "ĠØ±ÙĪØ´ÙĨ": 2273,
      "Ú¯ÙĬ": 2274,
      "Ø§ØµÙĦ": 2275,
      "ĠÚ©Ø§Ø±Ø´ÙĨØ§Ø³": 2276,
      "ĠØ±Ø³ÙħÛĮ": 2277,
      "ĠØ§Ø®ØªÛĮ": 2278,
      "ĠÙħØ±Ø¯Ø§Ø¯": 2279,
      "Ø¹ÙĦÛĮ": 2280,
      "ĠÙĦØ°": 2281,
      "ĠÙĨØ´Ø³Øª": 2282,
      "ĠØŁ": 2283,
      "ĠØŃØ§ÙĦØª": 2284,
      "ob": 2285,
      "ÛĮØ¨ÙĩØ´Øª": 2286,
      "Ø¨ÙĦÙĩ": 2287,
      "ĠÚ¯Ø§Ø²": 2288,
      "ĠØ§ÙĨØ¬": 2289,
      "ĠØ§Ø³ÙģÙĨØ¯": 2290,
      "ĠØ§ÙĨØ±ÚĺÛĮ": 2291,
      "ĠÙħØ§Ø¯Ø±": 2292,
      "ĠÙħØ³ÙĦ": 2293,
      "Ø²ÙħØ§ÙĨ": 2294,
      "ĠÙģØ§Ø±Ø³": 2295,
      "Ø§ÛĮØ¬": 2296,
      "Ø§Ø³Ùĩ": 2297,
      "Ø¹ÛĮÛĮÙĨ": 2298,
      "23": 2299,
      "ĠØ¹Ø´": 2300,
      "ĠÙĩÙĪØ§Ù¾": 2301,
      "Ø¯ÛĮÙĨ": 2302,
      "ĠÙħÙĪØ³ÛĮÙĤÛĮ": 2303,
      "ĠÙĩÙĨÚ¯Ø§Ùħ": 2304,
      "ĠØ§Ø³ØªÙĤÙĦØ§ÙĦ": 2305,
      "âĢ¦âĢ¦âĢ¦âĢ¦âĢ¦âĢ¦âĢ¦âĢ¦": 2306,
      "ÙĪØ·": 2307,
      "ĠÙĨØ²Ø¯ÛĮÚ©": 2308,
      "ĠÛĮØ§ÙģØª": 2309,
      "ĠØ¬Ø´ÙĨÙĪØ§Ø±Ùĩ": 2310,
      "Ú¯Ø²": 2311,
      "ĠØªØ§Ú©ÛĮØ¯": 2312,
      "ï¯": 2313,
      "Ø±ÛĮØ²": 2314,
      "27": 2315,
      "ĠÚ¯Ø±Ø¯Ø¯": 2316,
      "ĠØ¯ÙģØªØ±": 2317,
      "Ø¹Ùģ": 2318,
      "Ø¯ÙĩÙħ": 2319,
      "ĠÚ©Ø´ÙĪØ±ÙĩØ§ÛĮ": 2320,
      "ĠØ¯ÛĮØ¯Ø§Ø±": 2321,
      "ĠÛ±Ûµ": 2322,
      "ĠØ§ÙĦÚ©ØªØ±ÙĪÙĨ": 2323,
      "Ø§Ø·ÙĤ": 2324,
      "ĠThe": 2325,
      "ĠØ´Ø§Ø®": 2326,
      "ĠØªÙĦÙĪÛĮØ²ÛĮ": 2327,
      "ĠØ¯Ø´": 2328,
      "ĠØ§ØŃØªÙħØ§ÙĦ": 2329,
      "Ú¯ÙģØª": 2330,
      "ĠÙĪØŃ": 2331,
      "ĠÙħØ³ÛĮØ±": 2332,
      "Ø±ÙħØ²": 2333,
      "ĠØ§ØŃØ³Ø§Ø³": 2334,
      "Ùł": 2335,
      "ĠÙħØ¹Ø¯ÙĨ": 2336,
      "Ø®ÙĪØ§ÙĩØ¯": 2337,
      "Ù¾ÙĪÙĦÛĮ": 2338,
      "ĠØ³Ø§ÙĦÙĩ": 2339,
      "ĠØ§Ø¬Ø±Ø§": 2340,
      "ĠØ¨ÛĮØ±": 2341,
      "ĠØ±ÙĪØ¯": 2342,
      "ÙĬØ²": 2343,
      "ĠÙĦÙ¾": 2344,
      "ĠØ³Ø®Øª": 2345,
      "ĠØªÚ©ÙĨ": 2346,
      "Ġ2017": 2347,
      "ah": 2348,
      "ĠØ±Úĺ": 2349,
      "ĠØ¯Ø§Ø±ÛĮØ¯": 2350,
      "ĠØ¢Ú¯ÙĩÛĮ": 2351,
      "26": 2352,
      "ĠØ¯Ø§Ùħ": 2353,
      "ÙĨØ§Ùħ": 2354,
      "ĠØ§ÙħØ±": 2355,
      "Ø¬Ùħ": 2356,
      "th": 2357,
      "ĠØ¯Ø§Ø±Ùħ": 2358,
      "ĠØªØ³": 2359,
      "ĠÚ©ÙĨÚ©ÙĪØ±": 2360,
      "ĠØ¹ÙĦØ§ÙĪÙĩ": 2361,
      "Ø®Ø±ÛĮØ¯": 2362,
      "tr": 2363,
      "ers": 2364,
      "ĠÙĪÛĮÚ©ÛĮ": 2365,
      "ĠØ±ÙĪÙĨØ¯": 2366,
      "Ù«": 2367,
      "Úķ": 2368,
      "Ġon": 2369,
      "ĠØºØ°Ø§ÛĮÛĮ": 2370,
      "ĠØŃØ°": 2371,
      "ĠØ¨Ø±ÙĨØ¯": 2372,
      "ĠÙħÙĪÙĤ": 2373,
      "Ù¾Ø±Ø¯": 2374,
      "ØŁØŁ": 2375,
      "ĠÙ¾Ø§ÛĮÛĮÙĨ": 2376,
      "ĠØŃØ±Ú©Øª": 2377,
      "Ø³ÛĮÙĪÙĨ": 2378,
      "ex": 2379,
      "Ø§ÙĩØ§": 2380,
      "ÙĪØ±ÛĮÙĩ": 2381,
      "up": 2382,
      "ĠØªØ¹ÛĮÛĮÙĨ": 2383,
      "ak": 2384,
      "Ø§Ø¯Ø«": 2385,
      "ĠØ§Ø¹ØªØ¨": 2386,
      "ĠØ³Ø±Ø§Ø³": 2387,
      "ĠØ±Ø²": 2388,
      "Ø³ØªÚ¯ÛĮ": 2389,
      "ĠØµØ±Ùģ": 2390,
      "ĠÙĤÙĩØ±": 2391,
      "ÙĥÙĨ": 2392,
      "ĠØ¨Ø±Ú¯Ø²Ø§Ø±ÛĮ": 2393,
      "ĠØ§ÙĬØ±Ø§ÙĨ": 2394,
      "ĠÙģØ±Ø§": 2395,
      "Ø§Ø¯ÙĦ": 2396,
      "Ġg": 2397,
      "ĠØ²ÛĮØ³Øª": 2398,
      "ĠØŃÙģØ¸": 2399,
      "Ø§ÙħØ§": 2400,
      "ĠØ®ØµÙĪØµÛĮ": 2401,
      "ĠØ´ÙĩØ±ÛĮÙĪØ±": 2402,
      "ĠØªÙĪØµ": 2403,
      "ĠØ±Ø³Ø§ÙĨÛĮ": 2404,
      "Ø±Ø¶Ø§": 2405,
      "ard": 2406,
      "ĠØ³Ø®ÙĨ": 2407,
      "ĠÚ¯Ø°Ø§Ø±ÛĮ": 2408,
      "ĠØ³Ù¾Ø³": 2409,
      "ĠÙģØ¶": 2410,
      "ÙĪØ§ÙĦ": 2411,
      "ĠÚ¯ÛĮØ±": 2412,
      "ĠØ§ÛĮÙĨØ¬Ø§": 2413,
      "ĠØŃØª": 2414,
      "ÛĢ": 2415,
      "ĠØªØ¨ÙĦÛĮØºØ§Øª": 2416,
      "ĠÙ¾ÛĮØ´ÙĨÙĩØ§Ø¯": 2417,
      "Ú¯ÛĮÙĨ": 2418,
      "Ø§Ú©ÛĮ": 2419,
      "load": 2420,
      "Ø³ÛĮÙĩ": 2421,
      "Ø±ÙĪÛĮ": 2422,
      "ĠØ¨ÛĮÙĨÛĮ": 2423,
      "ĠØ¯Ø±Ø³": 2424,
      "ĠØ¯ÙĪØ±Ø§ÙĨ": 2425,
      "ĠÙĨØ±Ø®": 2426,
      "Ø§Ø¨Ø±Ø§ÛĮÙĨ": 2427,
      "ĠØ¹ÙĦÙħ": 2428,
      "ĠØ®ÙĪØ±Ø¯": 2429,
      "ĠÙĤØ§Ø¨ÙĦÛĮØª": 2430,
      "ĠÙĤØ±Ø§Ø±Ø¯": 2431,
      "ĠÚĨÛĮØ²": 2432,
      "ÙĪÛĮÙĩ": 2433,
      "ĠÚ©Ø§ÙħÙĦØ§": 2434,
      "ĠØªØ§Ø²Ùĩ": 2435,
      "ĠØ¨ÙĦÚ©Ùĩ": 2436,
      "ÙĪØ§Ø²": 2437,
      "ĠØ¨ÙĨÛĮ": 2438,
      "Ø¨Ø§Ø²Ø¯ÛĮØ¯": 2439,
      "ĠÙħÙĨØ§Ø·ÙĤ": 2440,
      "Ø¢ÙĪØ±": 2441,
      "Ù¾Ø³": 2442,
      "ĠØ¶ÙħÙĨ": 2443,
      "ĠØ²ÙĨØ¯": 2444,
      "ĠÙħÙĩÙĨØ¯Ø³ÛĮ": 2445,
      "Ø¢ÙħÙĪØ²Ø´": 2446,
      "ĠØ¬ÙħØ¹Ùĩ": 2447,
      "ĠØ¯ÙĤØª": 2448,
      "ĠØ¬Ø§ÙĨØ¨ÛĮ": 2449,
      "ĠØ§ÙħÙĨÛĮØª": 2450,
      "Ø¯Ø±ÛĮ": 2451,
      "ĠØŃØ§ÙĦÛĮ": 2452,
      "ĠÙĪÛĮÚĺÚ¯ÛĮ": 2453,
      "ĠØªÙĨØ¸ÛĮÙħ": 2454,
      "Ø¬Ø¯": 2455,
      "ĠØ¨Ø±ØªØ±": 2456,
      "ÙĨØ²": 2457,
      "ĠØ´Ø§ÛĮØ¯": 2458,
      "ĠÙģØ±ÙĪØ±Ø¯": 2459,
      "ĠÙĦÛĮÚ¯": 2460,
      "ĠØ®Ø§ÙĨÙħ": 2461,
      "pe": 2462,
      "ÙĪØªÛĮ": 2463,
      "ĠÚ©ÙħØªØ±": 2464,
      "las": 2465,
      "ÙħØ³": 2466,
      "ĠØŃØ¬Ùħ": 2467,
      "ÙĪÙĦÙĪÚĺÛĮ": 2468,
      "ÚĨØ§Ø±": 2469,
      "Ø§Ø§": 2470,
      "ĠÙħÙĩØ¯ÛĮ": 2471,
      "ĠØ³ÛĮØ¯": 2472,
      "ÙĤÙĤ": 2473,
      "ĠØ®ÙĪØ±": 2474,
      "ĠØ¹ÙĦØ§ÙĤ": 2475,
      "ĠÙħØ¹ÙĨ": 2476,
      "ĠÙĩÙĪØ§Ù¾ÛĮÙħ": 2477,
      "ĠØ®ÙĪØ§Ø³Øª": 2478,
      "ĠØ¨Ø¹Ø¯ÛĮ": 2479,
      "ĠØ³ÙĪØ§ÙĦØ§Øª": 2480,
      "ĠØªØ±Ú©ÛĮÙĩ": 2481,
      "Ø§ÙĤÙĦ": 2482,
      "ĠØµÙĨØ§ÛĮØ¹": 2483,
      "ce": 2484,
      "ĠÙħØ±ØªØ¨Ø·": 2485,
      "Ø§ØµÙĦÙĩ": 2486,
      "ĠÙĩÙħÛĮØ´Ùĩ": 2487,
      "ÙħØ§Ùĩ": 2488,
      "ĠÙħÙĪØ¬Ø¨": 2489,
      "ĠØ§Ø±Ø¯ÛĮØ¨ÙĩØ´Øª": 2490,
      "ĠÙĨÚ©Ø±Ø¯": 2491,
      "................": 2492,
      "ĠØ¨ÙĦÙĨØ¯": 2493,
      "ĠØ®ÙĪØ§ÙĩÙĨØ¯": 2494,
      ");": 2495,
      "ĠØ¨ÚĨÙĩ": 2496,
      "ĠÙģØ±Ø§ÙĩÙħ": 2497,
      "ÙĨÙĪØ´": 2498,
      "ĠØ¯ÙĤÛĮÙĤ": 2499,
      "ØŃØ³": 2500,
      "ĠØ¨ÛĮØ´ØªØ±ÛĮ": 2501,
      "ĠÙĤØ±Ø¢ÙĨ": 2502,
      "02": 2503,
      "ĠÙĨÙĪØ²": 2504,
      "ĠØ¹ÙĦØª": 2505,
      "Ø¬ÙĪÛĮØ§ÙĨ": 2506,
      "ĠØ§ÙĨØ¬ÙħÙĨ": 2507,
      "Ø§ØŃÙĦ": 2508,
      "ĠØ§ÙĨÚ¯ÙĦÛĮØ³ÛĮ": 2509,
      "ĠØ®Ø¯ÙħØª": 2510,
      "Ø³ØªØ§ÙĨÛĮ": 2511,
      "Ø¯ÛĮØ§": 2512,
      "ĠØ§Ø®ØªØµ": 2513,
      "ĠÙħØ´Ø®ØµØ§Øª": 2514,
      "ĠØµØ¨ØŃ": 2515,
      "ile": 2516,
      "GB": 2517,
      "ĠØ¯Ø³ØªÛĮ": 2518,
      "ØµÙĪØ±Øª": 2519,
      "ĠØ®ÙĪØ¯Ø´": 2520,
      "ĠÛ±Û³Û¹Û´": 2521,
      "ÙĦØ§ÙĤ": 2522,
      "ÙĪØ´ÙĨØ¨Ùĩ": 2523,
      "ĠØ§Ø³ØªØ®Ø¯Ø§Ùħ": 2524,
      "ĠØ¯Ø§Ø´ØªÙĨ": 2525,
      "Û±Û±": 2526,
      "ĠØ¬ÛĮ": 2527,
      "ĠØ¢Ø±Ø§Ùħ": 2528,
      "Ø®ÛĮØµ": 2529,
      "Û²Û°": 2530,
      "ĠÙ¾Ø±Ø³Ù¾ÙĪÙĦÛĮ": 2531,
      "ĠÙħØ§Ø¯Ùĩ": 2532,
      "ĠÙĩÙĨØ¯": 2533,
      "ĠØ§ÙĨØ³Ø§ÙĨÛĮ": 2534,
      "ĠÚ©ÙĦØ§Ø³": 2535,
      "Ġa": 2536,
      "ÙĪØ±Ùĩ": 2537,
      "ĠØ§ÙĦÙħÙĦÙĦÛĮ": 2538,
      "ĠØªØ¹ÙħÛĮØ±": 2539,
      "ĠÙĨÙħØ§ÛĮÛĮØ¯": 2540,
      "Ġ30": 2541,
      "ĠÙĦØ¨": 2542,
      "ĠØ³Ø±ÛĮØ¹": 2543,
      "aptop": 2544,
      "ĠØ´Ø®ØµÛĮ": 2545,
      "Ø§Ø¨Ø¯": 2546,
      "ĠØ¬ÙħÙĩÙĪØ±": 2547,
      "ĠØ§Ø®ØªÛĮØ§Ø±": 2548,
      "Ø§ÛĮØ±": 2549,
      "ĠÙħÙĪØ²ÛĮÚ©": 2550,
      "ĠØ¢ÙĨØ§ÙĨ": 2551,
      "ĠØ¯Ø±Ø¢ÙħØ¯": 2552,
      "ĠØ´ÙĩØ±Ø¯Ø§Ø±ÛĮ": 2553,
      "ĠÚ¯Ø±ÙģØªÙĨ": 2554,
      "Ø¨Ø®Ø´": 2555,
      "ĠÚĨØ±": 2556,
      "ĠØ§ÙħÛĮØ±": 2557,
      "ĠÙ¾Ø§ÙĪØ±": 2558,
      ".Â»": 2559,
      "ĠØ¯ÙĪØ¨ÙĦÙĩ": 2560,
      "ĠÙħÛĮØ´Ùĩ": 2561,
      "ĠÙħØ¨Øª": 2562,
      "ine": 2563,
      "ĠØªØŃÙĦÛĮÙĦ": 2564,
      "Ø§ÙģÙĤ": 2565,
      "ĠØ¨ÙĦÙĪ": 2566,
      "ÙĪØ±Ø³": 2567,
      "ĠØ§ÙĩØ¯": 2568,
      "ĠØ¯Ø§ÙĨØ´ÙĨØ§ÙħÙĩ": 2569,
      "ĠÙħÛĮØ±": 2570,
      "ĠÙħØªÙģØ§ÙĪØª": 2571,
      "ĠØ¢Ø«Ø§Ø±": 2572,
      "ĠØ¨Ø§Ø¨": 2573,
      "ĠØŃØ°Ùģ": 2574,
      "ĠØ²Ùħ": 2575,
      "ĠÙģØ±Øµ": 2576,
      "ĠØ§ÙĩÙħÛĮØª": 2577,
      "----": 2578,
      "28": 2579,
      "Ø§ÙĨÙĪ": 2580,
      "ĠØ³ÙĤ": 2581,
      "ÙĪÙĨØª": 2582,
      "ĠØ¢ÙħØ¯": 2583,
      "ĠÙ¾Ø¯Ø±": 2584,
      "Ø¸Ùĩ": 2585,
      "ĠÙĨÚ©ÙĨ": 2586,
      "ĠÙĪÛĮØ¯ÛĮ": 2587,
      "ĠØ¬Ø³Øª": 2588,
      "Ú©Ø³ÛĮ": 2589,
      "ĠÙĪØ§ÙĦ": 2590,
      "se": 2591,
      "Ø·Ø§ÙĨ": 2592,
      "ĠØ§Ø®ØªØµØ§Øµ": 2593,
      "ÙģÙĦ": 2594,
      "ĠÛ±Û´": 2595,
      "ĠØ¨ÙĬ": 2596,
      "ĠX": 2597,
      "Ø§Ø±Ø´": 2598,
      "60": 2599,
      "ĠØ²ÛĮØ¨Ø§ÛĮÛĮ": 2600,
      "Ø§Ø¯Ú¯ÛĮ": 2601,
      "ĠØ¯Ø±ÛĮ": 2602,
      "ÙħØ¬": 2603,
      "ĠØ¯ÛĮØ¯Ùĩ": 2604,
      "ĠØ§ÙĪØ±": 2605,
      "ØŃØ§ÙĦ": 2606,
      "if": 2607,
      "Ø´ÙĩØ±": 2608,
      "ĠØ³Ø¨Ú©": 2609,
      "ĠØ§Ø±Ø²Ø§ÙĨ": 2610,
      "Ø¯ÙĪØ§Ø¬": 2611,
      "ÙĪØ³Ø·": 2612,
      "ĠÙģØ±Ø§ÙĨ": 2613,
      "Ù¾Ø¯ÛĮØ§": 2614,
      "Ø±ÙĪÙħ": 2615,
      "ÙĪÛĮÙĨØª": 2616,
      "ĠØ§ÛĮØ±": 2617,
      "Ø§Úĺ": 2618,
      "ĠØ§Ø±ÙĪÙ¾Ø§": 2619,
      "ĠÙĩØ³ØªÛĮÙħ": 2620,
      "Ø¯Ø§ÛĮ": 2621,
      "ÛķÙĪ": 2622,
      "ĠâĢ¢": 2623,
      "ĠØ·ÙĦØ§": 2624,
      "ĠÛĮØ§ÙģØªÙĩ": 2625,
      "ĠØŃØ³ÙĨ": 2626,
      "ĠØ¢Ø³ÛĮØ¨": 2627,
      "ĠÙħØŃØ¯ÙĪØ¯": 2628,
      "ĠØµÙĪØ±ØªÛĮ": 2629,
      "ĠØ§ØµÙĦ": 2630,
      "ial": 2631,
      "ĠÙħØªØŃ": 2632,
      "ĠØ§ÛĮÙĨØªØ±ÙĨØª": 2633,
      "ĠØ®Ø·Ø±": 2634,
      "ĠÙħØ´ØªØ±": 2635,
      "Ø³ÙĪÙĨÚ¯": 2636,
      "Ø´ÙĪØ±": 2637,
      "ĠÙħØ³Ú©ÙĨ": 2638,
      "ĠÚ©ÙĦÛĮÚ©": 2639,
      "ment": 2640,
      "ĠØ±ÙģØªØ§Ø±": 2641,
      "ĠØ¯ÙģØ§Ø¹": 2642,
      "ĠÙĨØ§": 2643,
      "ĠØ´ÙĪÛĮØ¯": 2644,
      "Ġhttp": 2645,
      "ĠÙħØ§ÙĨØ¯": 2646,
      "ĠØ¢Ø³": 2647,
      "Ø§ÛĮÙħ": 2648,
      "Ø²Ø§Ø¯Ùĩ": 2649,
      "ĠØ¹Ø±Ø¨": 2650,
      "ĠØ¨ÙĨØ§Ø¨Ø±Ø§ÛĮÙĨ": 2651,
      "ĠÙĦÙĩ": 2652,
      "ĠÙģÙĨ": 2653,
      "ĠÙħØ´Ø§ÙĪØ±Ùĩ": 2654,
      "ĠØ·Ø¨ÙĤ": 2655,
      "ĠÙĤØ±Ø§Ø±Ø¯Ø§Ø¯": 2656,
      "ĠØºØ±Ø¨": 2657,
      "ĠÚ©Ø§ÙģÛĮ": 2658,
      "ĠÚ©Ø´Ø§ÙĪØ±Ø²ÛĮ": 2659,
      "ip": 2660,
      "ĠÙħØ³Ø§Ø¦ÙĦ": 2661,
      "ĠÙĨØ¬": 2662,
      "ĠÙĪØ²ÙĨ": 2663,
      "ĠÙħØ¨ÙĦ": 2664,
      "Ġ24": 2665,
      "ĠÙĨØªØ§ÛĮØ¬": 2666,
      "ĠØ³ÙĬ": 2667,
      "ĠØ¹Ø²ÛĮØ²": 2668,
      "ĠØ¨Ø±ÙĪØ²": 2669,
      "ĠÙħÙĦØª": 2670,
      "ĠÚ©Ø±ÙħØ§ÙĨ": 2671,
      "Ú©Ø±ÛĮ": 2672,
      "ĠØ¯ÙĪÙĦØªÛĮ": 2673,
      "ĠÙħØ¬Ø§Ø²ÛĮ": 2674,
      "Ø§Ø²ÙĨØ¯": 2675,
      "ĠØ¯Ø±Ø¬Ùĩ": 2676,
      "Ø§ÛĮØ§ÙĨ": 2677,
      "Ø±ÛĮØ¨": 2678,
      "ĠÙĨØŃÙĪÙĩ": 2679,
      "ĠØ¹Ø§Ø´ÙĤ": 2680,
      "ĠØªÙĦÚ¯Ø±Ø§Ùħ": 2681,
      "05": 2682,
      "ĠØ¢ØªØ´": 2683,
      "04": 2684,
      "ĠÙ¾Ø±Ø³Ù¾ÙĪÙĦÛĮØ³": 2685,
      "ĠÙĨØ¸Ø±Ø§Øª": 2686,
      "ĠØ®ÛĮØ§Ø¨Ø§ÙĨ": 2687,
      "Ġ25": 2688,
      "ĠÙħØ±Ø¯Ø§ÙĨÙĩ": 2689,
      "Ú©ÙĨØ´": 2690,
      "ĠÛ²Û°Û±Û": 2691,
      "ĠØ²Ø§Ø¯Ùĩ": 2692,
      "ĠÙħÙĨØ§Ø³": 2693,
      "¡Ù": 2694,
      "ĠØ§Ø¹Ø¶Ø§ÛĮ": 2695,
      "ĠØ¸Ø§Ùĩ": 2696,
      "ĠØªØ¬Ø§Ø±Øª": 2697,
      "ĠØ®Ø§Ú©": 2698,
      "Ø§ÛĮØ³Ùĩ": 2699,
      "ĠÙħÛĮØ´ÙĪØ¯": 2700,
      "ĠÙĨÙĩØ§Ø¯": 2701,
      "Ø®Ø¨Ø±": 2702,
      "ĠØ¬Ø§": 2703,
      "ÙĪÚ¯Ø±": 2704,
      "03": 2705,
      "ĠÙ¾ÙĬ": 2706,
      "ost": 2707,
      "ĠØ¨ÙĪØ¯Ø¬Ùĩ": 2708,
      "ĠØ´Ø§Ø±": 2709,
      "ĠØ±Ø§ÙĨ": 2710,
      "Ø¢ÛĮ": 2711,
      "Ø§ÙħØª": 2712,
      "ĠÙħØ³Ø§Ùģ": 2713,
      "ĠÙħØ±Ú¯": 2714,
      "Ġ'": 2715,
      "ĠÙĩÙĪØ´ÙħÙĨØ¯": 2716,
      "ĠØ±ÙĪØ²Ø§ÙĨÙĩ": 2717,
      "ÙħØ¯ÛĮ": 2718,
      "ĠØ´Ø§ÙĩØ¯": 2719,
      "ĠØ¹ÙĪØ§ÙħÙĦ": 2720,
      "Ø§Ø³Ø§ÙĨ": 2721,
      "29": 2722,
      "ĠÛ±Û±": 2723,
      "ĠØ¢ÙħØ§Ø±": 2724,
      "ĠÙħØ®ØµÙĪØµ": 2725,
      "Ø§Ø¦ÛĮ": 2726,
      "ĠÚ©Ø§Ø±Ø´ÙĨØ§Ø³ÛĮ": 2727,
      "ĠØ´Ø§Ø¯": 2728,
      "ĠØ³Ø¨Ø²": 2729,
      "Ø¯Ø³Øª": 2730,
      "ĠØ¨Ø±Ø³": 2731,
      "ĠØ¢Ø¨ÛĮ": 2732,
      "ĠØ§Ø²Ø¯ÙĪØ§Ø¬": 2733,
      "ĠÚ¯Ø²ÛĮÙĨÙĩ": 2734,
      "Ø¬ÛĮØª": 2735,
      "Ø¯Ø±Ø³": 2736,
      "ĠÙĤÙĦ": 2737,
      "ate": 2738,
      "ĠØ§ÙĨØªØ¸Ø§Ø±": 2739,
      "ĠØ¹Ø¨Ø§Ø±": 2740,
      "Ø§ØŃØªÛĮ": 2741,
      "ĠÙĪØ§ÙĤØ¹ÛĮ": 2742,
      "ĠØµØŃØ¨Øª": 2743,
      "ĠØ±ÙħØ§ÙĨ": 2744,
      "ĠØ§ÛĮØ´Ø§ÙĨ": 2745,
      "ÚĺÙĨ": 2746,
      "Ø§Ø¬Ùĩ": 2747,
      "eh": 2748,
      "ĠÙ¾Ø´ØªÛĮ": 2749,
      "ĠØ³Ø§ÙħØ³ÙĪÙĨÚ¯": 2750,
      "ĠØ¨Ø¯Ø§ÙĨ": 2751,
      "ĠØ¯ÙĨØ¯Ø§ÙĨ": 2752,
      "ĠØ§Ú©ÙĨÙĪÙĨ": 2753,
      "ĠØ¯ÙĪØ³ØªØ§ÙĨ": 2754,
      "ĠÙħØ¹ÙĦ": 2755,
      "Ø±Ø§ÙĨÙĩ": 2756,
      "ÙĪØ±Ø§ÙĨ": 2757,
      "ÙĪÙģ": 2758,
      "Ø§Ø¦Ùħ": 2759,
      "ĠØ¹Ø´ÙĤ": 2760,
      "ØªÙģ": 2761,
      "ÙĪØ²Ø§ÙĨ": 2762,
      "ĠÚ©ÙĦÛĮÙĩ": 2763,
      "ÙĬÙĥ": 2764,
      "ĠØ®Ø§ÙĨÚ¯ÛĮ": 2765,
      "ĠØ¹Ø¯Ø¯": 2766,
      "ĠÙħØ±Ø§Ú©": 2767,
      "Ġ2016": 2768,
      "ïº®": 2769,
      "ĠÙħØªØ®ØµØµ": 2770,
      "ØªÛĮØ§Ø²": 2771,
      "ĠÙħÙĤØ¯": 2772,
      "Ġto": 2773,
      "ĠØ¢ÙĩÙĨ": 2774,
      "ĠÙĪØ¸": 2775,
      "ĠØ²Ø¯": 2776,
      "ĠØ¢Ø±Ø§ÛĮ": 2777,
      "ĠØ±ÙĪØ³ÛĮÙĩ": 2778,
      "ĠØ±ÙĪÙĨ": 2779,
      "Ø¹Ø§Øª": 2780,
      "Ø§Ø¨ÙĤØ§Øª": 2781,
      "ØªØ¨Ùĩ": 2782,
      "ĠØ¨Ø§ÛĮ": 2783,
      "ĠØ²ÛĮØ±Ø§": 2784,
      "21": 2785,
      "ĠØ¯Ø§Ø±Ùĩ": 2786,
      "ĠØ§Ø±Ø²ÛĮ": 2787,
      "ĠØŃÙĪ": 2788,
      "Ġ>": 2789,
      "Ø§ÙĨÛĮÙĩ": 2790,
      "ĠÚ¯Ø±Ø¯Ø´Ú¯Ø±ÛĮ": 2791,
      "ont": 2792,
      "ĠØªØ¬Ø§Ø±ÛĮ": 2793,
      "ĠÚ©Ø±ÛĮ": 2794,
      "ĠØ¬Ø§ÙĦØ¨": 2795,
      "ĠØªØŃØ±ÛĮÙħ": 2796,
      "ĠÙħÙħÙĨ": 2797,
      "ĠÚ¯ÙĪÚ¯ÙĦ": 2798,
      "Ø¢ÙĪØ±ÛĮ": 2799,
      "ĠÙĨÙħØ§ÛĮØ´Ú¯Ø§Ùĩ": 2800,
      "Ø´ÙĪ": 2801,
      "ÛķÛĮ": 2802,
      "ĠÙĤÙħ": 2803,
      "ĠØ§Ø¬Ø±Ø§ÛĮÛĮ": 2804,
      "ĠØ¢ÙĦØ¨": 2805,
      "ÛĮÙĦØ§Øª": 2806,
      "Ø¢Ø¨": 2807,
      "07": 2808,
      "ĠØ§ÛĮØ³": 2809,
      "ĠÙĨØ¨Ø§Ø´": 2810,
      "Ù¾ÙĪÛĮÙĨØª": 2811,
      "ÙħÛĮÙĨÛĮ": 2812,
      "ĠÚ¯ÛĮØ§Ùĩ": 2813,
      "ĠØ³ÙģÛĮØ¯": 2814,
      "ĠØ¨Ø§Ø¯": 2815,
      "Ø²Ø§": 2816,
      "Ġ!": 2817,
      "ĠÙħØ±Øº": 2818,
      "ØºÙĨ": 2819,
      "ĠØ§ÙħØ³Ø§ÙĦ": 2820,
      "ĠØ±ÚĺÛĮÙħ": 2821,
      "Ø§ÙħØ¨Ø±": 2822,
      "ĠØŃØ§ÙģØ¸": 2823,
      "35": 2824,
      "own": 2825,
      "ĠØ§ÙģØºØ§ÙĨ": 2826,
      "ĠÙĨÙħØ§ÛĮÙĨØ¯Ùĩ": 2827,
      "ĠÙħÙĪÙģÙĤÛĮØª": 2828,
      "Ġ09": 2829,
      "ĠØ§ÙĪÙĦÛĮÙĩ": 2830,
      "45": 2831,
      "ÙĬØ³": 2832,
      "ĠØ§Ø³Ùħ": 2833,
      "ĠØŃØ§ÙĦØ§": 2834,
      "ord": 2835,
      "ĠÙħØ¯ÛĮØ±Ø§ÙĨ": 2836,
      "ĠØ±ÙĪØŃØ§ÙĨÛĮ": 2837,
      "ĠØ¨ÙĩØ¨ÙĪØ¯": 2838,
      "ĠØ§Ø³ØªØ§ÙĨØ¯Ø§Ø±Ø¯": 2839,
      "ĠÚ©Ø§Ùħ": 2840,
      "ĠØ¹ÙĦØ§ÙĤÙĩ": 2841,
      "ĠØ±ÙģØ¹": 2842,
      "ĠÙĨÛĮØ±ÙĪÛĮ": 2843,
      "ĠØŃØ§ØµÙĦ": 2844,
      "ĠØ±ÙĪØ²ÙĨØ§ÙħÙĩ": 2845,
      "Ġ2018": 2846,
      "08": 2847,
      "ĠÙĦÙĪÙĦÙĩ": 2848,
      "ĠÙģØ±ÙĪØ±Ø¯ÛĮÙĨ": 2849,
      "ĠÚ©Ø§Ø±Ø®Ø§ÙĨÙĩ": 2850,
      "ðŁ": 2851,
      "ÙģØ§ÙĨÙĩ": 2852,
      "ĠÙ¾ÙĪØ±": 2853,
      "Ø¦ÙĨ": 2854,
      "ĠØŃØ¯Ø§ÙĤÙĦ": 2855,
      "Ø§ÙħÙĪØ´": 2856,
      "ĠØ¬ÙĦÙĪÚ¯ÛĮØ±ÛĮ": 2857,
      "ĠÙĨØ¯Ø§Ø´Øª": 2858,
      "ĠØŃØªÙħØ§": 2859,
      "Ġ100": 2860,
      "ĠØ´Ú©Ø³Øª": 2861,
      "ÙĦÛĮØ·": 2862,
      "all": 2863,
      "Ø®ØªÙĩ": 2864,
      "ĠÙĩØ³ØªÙĩ": 2865,
      "ĠÙħØ¹Øª": 2866,
      "log": 2867,
      "ĠØªØ¨ÙĦ": 2868,
      "ĠØ¬Ø°Ø¨": 2869,
      "ĠØ¹ÙħÙĦÛĮØ§Øª": 2870,
      "ĠØ¢Ø²ÙħØ§ÛĮØ´": 2871,
      "ĠÙħØ¹ÙħÙĪÙĦØ§": 2872,
      "ÙħØ§Øª": 2873,
      "ĠØ¨Ø§Ø´ÛĮÙħ": 2874,
      "ĠÙĨÙĪØ²Ø§Ø¯": 2875,
      "Ġl": 2876,
      "ĠÙĨÛĮØ±ÙĪÙĩØ§ÛĮ": 2877,
      "ĠØ³ÙĪØ±ÛĮÙĩ": 2878,
      "ĠØ¨Ø®Ø´ÛĮ": 2879,
      "Â»ØĮ": 2880,
      "ĠØªØµÙĪÛĮØ±ÛĮ": 2881,
      "ĠÙĨÙħÙĪØ¯Ùĩ": 2882,
      "Ø±Ø§Ùģ": 2883,
      "ĠØ¯ÛĮØ¬ÛĮØª": 2884,
      "ĠÙģØ±ØµØª": 2885,
      "ĠØ®Ø¨Ø±ÙĨÚ¯Ø§Ø±": 2886,
      "ĠÙħØ³Ø§Ø¨ÙĤØ§Øª": 2887,
      "Ø³Ø§ÛĮØª": 2888,
      "ĠÙģÛĮ": 2889,
      "ĠÛ±Û¸": 2890,
      "SB": 2891,
      "ÚĺØ§Ø¯": 2892,
      "ĠÙħØ¹ÙħØ§Ø±ÛĮ": 2893,
      "ĠØ¯ÚĨØ§Ø±": 2894,
      "ĠØ±ÙģØªÙĩ": 2895,
      "ĠÙĨÙħØ§Ø¦ÛĮØ¯": 2896,
      "Ø¯Ø§Ø±Ø§ÙĨ": 2897,
      "Ø¨Ø§Ø²ÛĮ": 2898,
      "ÙĪÛĮÙĦ": 2899,
      "ack": 2900,
      "ĠØ±ÙĩØ¨Ø±ÛĮ": 2901,
      "ÙĨØ¯ÙĪØ²": 2902,
      "ĠÙĦÛĮØ³Øª": 2903,
      "Ġ1396": 2904,
      "ĠØ§ØªÙĪÙħ": 2905,
      "art": 2906,
      "ĠÙħØ±Ø§Ú©Ø²": 2907,
      "ĠÙħÙĤØ§ÛĮØ³Ùĩ": 2908,
      "ĠÛ³Û°": 2909,
      "ĠÙħÛĮØ¯Ø§ÙĨ": 2910,
      "Ø¹ÙĨ": 2911,
      "ĠØ¬ÙĪØ§ÙĨØ§ÙĨ": 2912,
      "ran": 2913,
      "ĠØªØ´Ø®ÛĮØµ": 2914,
      "ĠÙ¾Ø§": 2915,
      "ĠÙħØ§ÙĩÛĮ": 2916,
      "88": 2917,
      "ĠØ±ÙĤØ§Ø¨Øª": 2918,
      "ĠØ®Ø±ÙĪ": 2919,
      "ĠØ³Ø§ÙħØ§ÙĨÙĩ": 2920,
      "ĠØ²ÛĮØ±ÙĨÙĪÛĮØ³": 2921,
      "ĠPro": 2922,
      "ĠÙĪØ±Ø¯": 2923,
      "ØªÙħØ§Ø¯": 2924,
      "az": 2925,
      "Ø¨ÛĮÙĩ": 2926,
      "Ø±Ú©Ø²": 2927,
      "ĠÙħØ¤": 2928,
      "ĠØ§ÛĮØ³Øª": 2929,
      "ĠØ²ÙĨØ¯Ùĩ": 2930,
      "ÙĩØ±Ùĩ": 2931,
      "Ø§Ø´ØªÛĮ": 2932,
      "ĠØ¨ÛĮÙħØ§Ø±Ø³ØªØ§ÙĨ": 2933,
      "ĠØ¢Ø´Ù¾": 2934,
      "ĠÙĨØ§Ø±": 2935,
      "ĠÙ¾Ø±Ø¯Ø§Ø²": 2936,
      "one": 2937,
      "ĠØ¯Ø§ÙĨØ³Øª": 2938,
      "te": 2939,
      "iz": 2940,
      "ĠØ§Ø¨ØªØ¯Ø§": 2941,
      "Ġ23": 2942,
      "ĠÙĪØ³ÛĮ": 2943,
      "ĠÛ±Û¶": 2944,
      "Ø¨ÙĦØ§Ú¯": 2945,
      "ĠØªÙĦÙĪÛĮØ²ÛĮÙĪÙĨ": 2946,
      "ĠØŃØ±": 2947,
      "ĠØ§ÙĨÛĮÙħ": 2948,
      "ĠØ¹Ø¨Ø¯": 2949,
      "ĠÙħØŃØªÙĪ": 2950,
      "ĠØ¯Ø§Ø±ÙĪ": 2951,
      "Ù¾Ø§Ø³": 2952,
      "ÙģÛĮÙĦ": 2953,
      "ĠÙĨÙħØ§ÛĮØ¯": 2954,
      "ĠÙĨÙħØ§": 2955,
      "ĠÙĦÛķ": 2956,
      "ĠØªÙĪØ§ÙĨÙĨØ¯": 2957,
      "Ú¯Ø§Ø¨": 2958,
      "ĠØ¯Ø´ÙħÙĨ": 2959,
      "Ø¨ÛĮØª": 2960,
      "Ġ22": 2961,
      "ĠÙĩÙĪØ§": 2962,
      "ĠÚ¯Ø³Øª": 2963,
      "ĠÂ": 2964,
      "ĠÙĨÙĩØ§ÛĮÛĮ": 2965,
      "ĠØµØ¯Ø§ÛĮ": 2966,
      "âĢ¢": 2967,
      "ĠÚ©Ø±ÙĪÙĨØ§": 2968,
      "Ġ}": 2969,
      "ÙĤÙĬ": 2970,
      "ĠØ¯Ø§ÙĨØ´Ø¬ÙĪÛĮØ§ÙĨ": 2971,
      "ĠØ¢Ø¨Ø§Ø¯": 2972,
      "ĠØ§ÙĨÚ¯ÛĮ": 2973,
      "ĠØªØ§Ø±ÛĮØ®ÛĮ": 2974,
      "ive": 2975,
      "Ø¨ÙĨØ¯": 2976,
      "ĠÚ©Ø±Ùĩ": 2977,
      "ĠØ§Ø¯Ø§Ø±ÛĮ": 2978,
      "ÙĩØ§ÛĮØª": 2979,
      "ĠÙħØ¨Ø§Ø±Ø²Ùĩ": 2980,
      "Ø§Ø°": 2981,
      "oc": 2982,
      "ĠØ´Øº": 2983,
      "ĠÙħØ®Ø§Ø·": 2984,
      "ĠØ¢ÛĮØª": 2985,
      "ax": 2986,
      "ĠØ¨ÙĦÛĮØ·": 2987,
      "Ø´Ø§Ùĩ": 2988,
      "ĠÙħØ²": 2989,
      "ĠÙĨÙĪÛĮØ³ÙĨØ¯Ùĩ": 2990,
      "ĠØ¹ØµØ±": 2991,
      "ĠØ¨Ø¹Ø¶ÛĮ": 2992,
      "ĠÙħÙĤØ¯Ø§Ø±": 2993,
      "Ø¯ÙĩØ§": 2994,
      "Ġ=": 2995,
      "ĠØŃÙħÙĦÙĩ": 2996,
      "55": 2997,
      "ĠØ«Ø§Ø¨Øª": 2998,
      "ĠØ°Ú©Ø±": 2999,
      "ĠÙĨÚ©ØªÙĩ": 3000,
      "ĠÙĨØ¸Ø§ÙħÛĮ": 3001,
      "ĠØ´ÙĨØ§Ø³ÛĮ": 3002,
      "ĠÚĨÙĩØ§Ø±Ø´ÙĨØ¨Ùĩ": 3003,
      "ĠØ¢ÙĨÚĨÙĩ": 3004,
      "ĠØ¬Ø¯ÛĮ": 3005,
      "ĠØ¢ÙĦØ§Øª": 3006,
      "ĠØ¨Ø¨ÛĮÙĨ": 3007,
      "ĠÙħÙĩØ§Ø¬": 3008,
      "Ø§ÙĦÛĮØ§": 3009,
      "ĠØªÙħØ±ÛĮÙĨ": 3010,
      "Ġ1397": 3011,
      "ĠØ¨Ø±ÚĨØ³Ø¨": 3012,
      "ĠØ§ÙħØªÛĮØ§Ø²": 3013,
      "ĠØ§Ø¹ØªØ±": 3014,
      "ĠØ²ÙĨØ¬": 3015,
      "ĠÙħØ«Ø§ÙĦ": 3016,
      "ĠØºØ°Ø§": 3017,
      "Ø§ÙĦØŃ": 3018,
      "Ú©ÙĦÛĮ": 3019,
      "ĠØ¯Ø¨ÛĮØ±": 3020,
      "ĠØ´Ø§Ø®Øµ": 3021,
      "Ø¨ÛĮÙĦ": 3022,
      "ĠÙĩØ³ØªÛĮØ¯": 3023,
      "ÙĨÙħ": 3024,
      "ĠÙħØ¹Ø±ÙĪÙģ": 3025,
      "ĠÙĨØ¨Ø§ÛĮØ¯": 3026,
      "Ġ::": 3027,
      "ĠØ¨Ø§Øº": 3028,
      "ØµÙģ": 3029,
      "ĠÙĩØ´": 3030,
      "ĠØ§ÙĩÙĨÚ¯": 3031,
      "ĠÙ¾ÛĮÚ©": 3032,
      "ĠØ¬Ø§ÙħØ¹": 3033,
      "37": 3034,
      "ĠØ¢ÙĦØ¨ÙĪÙħ": 3035,
      "Ú©Ø§Ø±Ø§ÙĨ": 3036,
      "ï®": 3037,
      "ĠÙĩØ§Ø´": 3038,
      "ĠØªØ±Ø§ÙħÙ¾": 3039,
      "ĠØ´ÛĮÙħÛĮ": 3040,
      "Ø¹ÙĪØ¯": 3041,
      "Ø±ÙĪØ¯": 3042,
      "ĠØ³ÙĩØ§Ùħ": 3043,
      "ØªØ±Ø§Ú©": 3044,
      "ĠØ¯ÛĮÙĨ": 3045,
      "ĠØªØ±Ø¬ÙħÙĩ": 3046,
      "ĠØ¯ÙĪØ¨Ø§Ø±Ùĩ": 3047,
      "Ø§Ø³ØªÙĩ": 3048,
      "ĠÙ¾Ø±ÙĪØ§Ø²": 3049,
      "ĠØ°Ø®": 3050,
      "ĠÙĨÛĮÙħÙĩ": 3051,
      "ĠÙħÙĤØ§ÙĪÙħØª": 3052,
      "Ø§ÙĬØª": 3053,
      "ÙĥØª": 3054,
      "ĠØ§Ø¬Ø§Ø²Ùĩ": 3055,
      "ĠÛ±Û·": 3056,
      "ĠÙģÙĦØ³": 3057,
      "ĠØ±ØŃ": 3058,
      "ĠØ¨Ø³": 3059,
      "ĠØ¯ÛĮÚ¯Ùĩ": 3060,
      "ĠØ±Ø³ÛĮØ¯Ùĩ": 3061,
      "ĠØ¨Ûķ": 3062,
      "ĠØ¨Ø§ÙĦØ§ÛĮ": 3063,
      "ĠÙĢ": 3064,
      "Ø¬Ø¹": 3065,
      "Ø§ÙģÛĮÚ©": 3066,
      "ction": 3067,
      "ĠØµØ§Ø¯Ø±": 3068,
      "ĠØ§ÙħÙĨÛĮ": 3069,
      "ĠØ§Ø¹ØªÙħØ§Ø¯": 3070,
      "ĠØ¹Ø¨Ø§Ø±Øª": 3071,
      "ĠÙĨØ§Ø®": 3072,
      "ĠØ¬Ø§Ø±ÛĮ": 3073,
      "ĠÙ¾Ø±ÙĪÙĨØ¯Ùĩ": 3074,
      "ĠÙĤØµØ¯": 3075,
      "ĠÚ©Ø¯Ø§Ùħ": 3076,
      "ĠØ¯Ø±ÙĪ": 3077,
      "sh": 3078,
      "ĠØ¨Ø±ÙĤÛĮ": 3079,
      "ĠØ³ÙĨØ¬": 3080,
      "ĠØ´ÙħØ§ÙĦ": 3081,
      "ĠÙħØŃØ³": 3082,
      "ĠØ¨Ø§ÙĦØ§ØªØ±": 3083,
      "ĠØ§ØŃÙħØ¯": 3084,
      "Ú©ÙĨÙĨØ¯Ùĩ": 3085,
      "ĠØ³Ø¹ÛĮ": 3086,
      "ÙĦÛĮÙĦÛĮ": 3087,
      "ĠÙĪÛĮØ¯ÛĮÙĪ": 3088,
      "ĠØ¨Ø§Ø´Ùĩ": 3089,
      "ĠÚ¯Ø±Ø§ÙĨ": 3090,
      "ĠÚ¯Ø°Ø§Ø´Øª": 3091,
      "Ú¯ÙĪÛĮØ¯": 3092,
      "ĠØµØ¯Ø§": 3093,
      "ĠÚ©Ø§ÙĨØ§ÙĦ": 3094,
      "ÙĨÙĪØ¹": 3095,
      "Ġ97": 3096,
      "ĠÙĨÙĤØ¯": 3097,
      "ĠØ±ÛĮÛĮØ³": 3098,
      "ĠÙħÙĪÙĦ": 3099,
      "âĢĵ": 3100,
      "Ú¯Ø§ÙĨÙĩ": 3101,
      "ĠÙĪÛĮÙĨØ¯ÙĪØ²": 3102,
      "ĠØ§Ø¯Ø¨ÛĮ": 3103,
      "Ġ$": 3104,
      "Ú©Ùħ": 3105,
      "ĠØ¢ÙģØª": 3106,
      "ĠØ³Ù¾Ø§Ùĩ": 3107,
      "Ø¯ÙĨÛĮ": 3108,
      "Ø§ØªÛĮÚ©": 3109,
      "ĠÙĩÙħØ³Ø±": 3110,
      "ĠØ¨Ø±Ø¬": 3111,
      "our": 3112,
      "Ø¨Ø§Ø¨": 3113,
      "ÙĨØ§Ø¯": 3114,
      "ÙĪØ³ÛĮ": 3115,
      "85": 3116,
      "ĠÙĨÚ¯Ø±Ø§ÙĨ": 3117,
      "Ġ1395": 3118,
      "ĠÙĩÙĨØ±ÛĮ": 3119,
      "Ú©Ø§": 3120,
      "ĠÙħÚ©Ø§ÙĨÛĮ": 3121,
      "ÙĬØ§": 3122,
      "ĠØ¯ÙĩÙĩ": 3123,
      "ĠØ¯ÛĮØ±": 3124,
      "ĠØ¹Ùĩ": 3125,
      "ĠØ¯Ø±ÙĪÙĨ": 3126,
      "ĠØ¬Ø¯Ø§": 3127,
      "ram": 3128,
      "ĠÚ©ÙĪÙĩ": 3129,
      "ÛĮØŃ": 3130,
      "ĠÙħØ´ØªØ±ÛĮØ§ÙĨ": 3131,
      "Ú¯Ø±Ø¯Ø§ÙĨ": 3132,
      "ĠÚ¯Ø³ØªØ±": 3133,
      "ĠÙĨÛĮØ§Ø²Ùħ": 3134,
      "ÙĪØ¯Ø±": 3135,
      "ĠÙĨØ¯Ø§Ø±ÙĨØ¯": 3136,
      "ĠØªØ¨Ø±ÛĮØ²": 3137,
      "ĠÙħØ´ØªØ±Ú©": 3138,
      "ĠÙħÙĪØ§Ø¬Ùĩ": 3139,
      "ĠØ§ØªØŃ": 3140,
      "Ø¬ÙĪØ§ÙĨ": 3141,
      "Ø´Ø¯Ùĩ": 3142,
      "ĠØ¯Ø±ÙħØ§ÙĨÛĮ": 3143,
      "ĠÚ©ÙģØ´": 3144,
      "ĠØ¯ÙĩÙĨØ¯Ùĩ": 3145,
      "est": 3146,
      "Ġ21": 3147,
      "Û°Ûµ": 3148,
      "ĠÙħØŃØ³ÙĨ": 3149,
      "ĠØ§ÙħÚ©Ø§ÙĨØ§Øª": 3150,
      "Ø§ØµÙĩ": 3151,
      "ĠÙĤØ¯ÛĮÙħÛĮ": 3152,
      "ĠÙĨØ¯Ø§Ø´ØªÙĩ": 3153,
      "ĠØ§ÙħØªØŃ": 3154,
      "ÙĦØª": 3155,
      "age": 3156,
      "ÙĪØ¬Ùĩ": 3157,
      "ÙħÛĮØ²": 3158,
      "Ø§ØµØ±": 3159,
      "ĠÙħØ°Ø§Ú©": 3160,
      "ĠÚ©Ø³Ø§ÙĨÛĮ": 3161,
      "ĠÙĨØ§Ø¨": 3162,
      "ĠÙħØ¯Ø±Ø³Ùĩ": 3163,
      "ĠØ§Ø®ÙĦØ§ÙĤ": 3164,
      "ĠÙħØ¬ÙĦÙĩ": 3165,
      "ĠÙģØ§ØµÙĦÙĩ": 3166,
      "ĠØ±ÙĪØºÙĨ": 3167,
      "ĠÚ©Ø§Ø±Ø¨Ø±Ø¯ÛĮ": 3168,
      "ĠØ§ÙĩØ¯Ø§Ùģ": 3169,
      "ĠØ§ÙħÙĨÛĮØªÛĮ": 3170,
      "ÙħØ¯ÛĮØ±": 3171,
      "ĠÙħØ³Ø¦ÙĦÙĩ": 3172,
      "ĠÙĦØ·ÙģØ§": 3173,
      "ĠØ±ØªØ¨Ùĩ": 3174,
      "ĠÙģØ±ÙĪ": 3175,
      "ĠÙ¾ÙĦÛĮØ³": 3176,
      "ĠØ±Ø®": 3177,
      "ĠÙģØ±Ø´": 3178,
      "ĠØ±Ø¹": 3179,
      "ĠØ¨Ø§Øª": 3180,
      "ĠÙħÙĨØ²ÙĦ": 3181,
      "Ø¯Ø§Ø´ØªÛĮ": 3182,
      "ĠÙĪÛĮØ±ÙĪØ³": 3183,
      "89": 3184,
      "ĠØ¬ÙĨÙĪØ¨ÛĮ": 3185,
      "ÙĪÙĦÛĮØª": 3186,
      "ĠØªÙģØ§ÙĪØª": 3187,
      "44": 3188,
      "ĠØ´ÙĩØ±ÙĪ": 3189,
      "Ġk": 3190,
      "ight": 3191,
      "ĠÙ¾ÙĪØ´Ø´": 3192,
      "ĠØ§ÙģØºØ§ÙĨØ³ØªØ§ÙĨ": 3193,
      "ĠØ¨Ø§Ø²Ú¯": 3194,
      "ĠØ¨ÙĪØ±Ø³": 3195,
      "ĠØ´ÙĨØ§Ø³Ø§ÛĮÛĮ": 3196,
      "ÙĪØ¬": 3197,
      "Ġr": 3198,
      "ÙĤÛĮÙĩ": 3199,
      "ĠØ§ØµÙĪÙĦ": 3200,
      "ĠÙĤÙĪØ§ÙĨ": 3201,
      "Ù¾Ø§Ø±": 3202,
      "ĠØ²ÙĬ": 3203,
      "Ø²Ø¨": 3204,
      "ĠØ®Ø±Ø§Ø³Ø§ÙĨ": 3205,
      "ĠÙħØ§Ø¯": 3206,
      "ĠØªØ²": 3207,
      "ĠØªÙĤÙĪÛĮØª": 3208,
      "ĠØªØ³Øª": 3209,
      "ĠØ§ÙĤØ¯Ø§ÙħØ§Øª": 3210,
      "ĠØ¢ÙĦÙħØ§ÙĨ": 3211,
      "ĠØ¨Ø§ÙģØª": 3212,
      "ĠØ¬ÙĪØ§Ø¨": 3213,
      "ĠÙĦØº": 3214,
      "ĠÚĨÙĩØ§Ø±Ùħ": 3215,
      "ĠØ¨Ø±Ø®ÙĪØ±Ø¯Ø§Ø±": 3216,
      "Ġ96": 3217,
      "Û³Û°": 3218,
      "ĠÚĨØ±Ø®": 3219,
      "ĠÙĨØ¸Ø§Ø±Øª": 3220,
      "Ġ*": 3221,
      "ÙĪÙĪ": 3222,
      "ĠÚ©ÙħÙ¾": 3223,
      "ort": 3224,
      "ĠØ¯ÙĨÛĮØ§ÛĮ": 3225,
      "eb": 3226,
      "ĠØ³Ø§ÙĨ": 3227,
      "86": 3228,
      "Ù¾ÙĪØ±": 3229,
      "36": 3230,
      "200": 3231,
      "ĠØ¯Ø³ØªØ±Ø³ÛĮ": 3232,
      "ĠØ¢Ø²Ø§Ø¯ÛĮ": 3233,
      "ĠØ§ÛĮÙĨØ³Øª": 3234,
      "ĠØ±ÛĮØ²ÛĮ": 3235,
      "Ø¡": 3236,
      "ĠÙĨÙĤØ´Ùĩ": 3237,
      "ĠâĢı": 3238,
      "ĠÙĤØ§ÙĨÙĪÙĨÛĮ": 3239,
      "ĠØ§ÛĮØ¯Ùĩ": 3240,
      "ĠØ§Ø´Øª": 3241,
      "ĠØ´Ø§ÙĨ": 3242,
      "ÙĨÚ©": 3243,
      "ĠÙ¾ÙĪ": 3244,
      "ĠØ³Ø§ÙĦÙħ": 3245,
      "ĠÙĬÚ©": 3246,
      "ĠÚ©ÙĨÙĨØ¯Ú¯Ø§ÙĨ": 3247,
      "ĠØ·Ø¨ÙĤÙĩ": 3248,
      "ĠÙĨØ®ÙĪØ§ÙĩØ¯": 3249,
      "Ø¸Ùħ": 3250,
      "Ġre": 3251,
      "ĠØªØŃÙĤÛĮÙĤØ§Øª": 3252,
      "ĠØ±ÛĮØ§ÙĦ": 3253,
      "ĠÙħÙĨØ¨Ø¹": 3254,
      "ÙĪØ§Ø±ÛĮ": 3255,
      "ĀĀĀĀĀĀĀĀĀĀĀĀĀĀĀĀ": 3256,
      "ĠÙ¾ÛĮØ´Ø±ÙģØª": 3257,
      "Ú¯Ø±ÙĪÙĩ": 3258,
      "ÙħØ·": 3259,
      "Ø¯ÙĩÛĮ": 3260,
      "ĠÙĪÛĮØ¯": 3261,
      "ĠÙħØ®Ø§ÙĦ": 3262,
      "ĠØ´Ø®ØµÛĮØª": 3263,
      "ĠÙĪØ§Ú©ÙĨØ´": 3264,
      "ĠØªØµØ±ÛĮØŃ": 3265,
      "qu": 3266,
      "ĠØ³ØªØ§Ø±Ùĩ": 3267,
      "ĠØ®Ø´Ú©": 3268,
      "ĠØ¯Ø§Ø´ØªÙĨØ¯": 3269,
      "ï»®": 3270,
      "ownload": 3271,
      "ÙĪÛĮØ³ÛĮ": 3272,
      "ĠØ±ÛĮØ§Ø³Øª": 3273,
      "ÙĪÙĤÛĮ": 3274,
      "Ø«ÛĮØ±": 3275,
      "ĠØ¯ÛĮØ¬ÛĮØªØ§ÙĦ": 3276,
      "ph": 3277,
      "ĠØªÙĪÛĮ": 3278,
      "ÙħØ§ÙĨØ§ÙĨ": 3279,
      "pl": 3280,
      "ĠØ§Ø³Ø§Ø³ÛĮ": 3281,
      "ec": 3282,
      "ĠØ§ÙģØ±Ø§Ø¯ÛĮ": 3283,
      "Ø¹Ø§ÙħÙĦ": 3284,
      "ĠÙħØŃÙĪØ±": 3285,
      "ĠÚ©ÙħÛĮØ³ÛĮÙĪÙĨ": 3286,
      "ĠÙħØ³Ø¦ÙĪÙĦØ§ÙĨ": 3287,
      "ĠØªÙĪØµÛĮÙĩ": 3288,
      "Ø§ÙĦØ´": 3289,
      "ĠÙĤØ¨ÙĦÛĮ": 3290,
      "ĠÙĨÙĤØ·Ùĩ": 3291,
      "Û°Û´": 3292,
      "ĠØ§ÙĦØ§ÙĨ": 3293,
      "ĠÃ": 3294,
      "Ø²Ø§Ø¯": 3295,
      "ĠØ§Ø³ØªØ±Ø§Øª": 3296,
      "Ø¦Øª": 3297,
      "ower": 3298,
      "ĠØ¬Ø°Ø§Ø¨": 3299,
      "ĠØ§Ø´ØªØ¨": 3300,
      "AT": 3301,
      "Ø¨ÙĨØ¯ÛĮ": 3302,
      "Ø±ÙģÙĩ": 3303,
      "ĠØ³ÛĮÙĨÙħØ§": 3304,
      "Ø§Ø³Ø§Ø³": 3305,
      "ĠÙĨÙĪØ´Øª": 3306,
      "ĠØ¯ÙĬÚ¯Ø±": 3307,
      "Ø±Ø¦ÛĮØ³": 3308,
      "ĠÙĦØ±": 3309,
      "Ø¨ÙĪØ¨": 3310,
      "ĠÙĩØ´Øª": 3311,
      "Û±Ûµ": 3312,
      "ĠØ§ÙĨÛĮÙħÛĮØ´ÙĨ": 3313,
      "ĠÚ¯Ø§Ùħ": 3314,
      "ĠØ¨Ø²ÙĨ": 3315,
      "ĠØ¨ØŃØ±Ø§ÙĨ": 3316,
      "87": 3317,
      "Û°Û²": 3318,
      "ĠØµØ§ØŃ": 3319,
      "ĠØµØ§Ø¯Ø±Ø§Øª": 3320,
      "39": 3321,
      "ĠÙģÛĮØ²": 3322,
      "Ø§Ø´Ø§": 3323,
      "ĠØ§Ø¨Ø±": 3324,
      "ĠÙ¾Ø§Ø±Ú©": 3325,
      "Ġ95": 3326,
      "ĠÙħØ¯Ø§Ø±Ø³": 3327,
      "ide": 3328,
      "af": 3329,
      "Ø§Ø³ÙĦØ§Ùħ": 3330,
      "ĠØ±ÙģØªÙĨ": 3331,
      "Ù¢": 3332,
      "ĠØŃÙĤÛĮ": 3333,
      "ĠØªÙĪØ§ÙģÙĤ": 3334,
      "ĠÙħØ´Ø§Ø±": 3335,
      "Ø±Ø³Ø¯": 3336,
      "ĠÛ²Û²": 3337,
      "Û°Û¹": 3338,
      "ĠØ§Ø³ØªØ®Ø±": 3339,
      "ĠØ²Ø¯Ùĩ": 3340,
      "ÙĪÙĬ": 3341,
      "ĠØ®ÙĪØ§ÙĩÛĮØ¯": 3342,
      "ĠØ®ÙĪØ§ÙĩÛĮÙħ": 3343,
      "ĠØ³ÛĮØ§Ùĩ": 3344,
      "ĠØ§Ø³ØªÙĤ": 3345,
      "ĠÙĩÙĨØ±Ùħ": 3346,
      "ĠÙĤÙĦØ¨": 3347,
      "ÙĦØŃ": 3348,
      "are": 3349,
      "Ġ1398": 3350,
      "ĠÙħØ´Ø§Ø¨Ùĩ": 3351,
      "ĠÙĦØ§ÛĮ": 3352,
      "ÙħØªØ±": 3353,
      "ĠØ¯Ø§ÙĪ": 3354,
      "ĠØ²ÙĪØ¯": 3355,
      "Ø¯ÛĮÚ¯Ø±": 3356,
      "ĠØ¨Ø§ÙĪØ±": 3357,
      "ÙĬÙĨÙĩ": 3358,
      "ĠØ¨Ø§Ø±Ø¯": 3359,
      "nd": 3360,
      "ĠÙĪØ¨ÙĦØ§Ú¯": 3361,
      "ĠÙĩÙħØ§Ùĩ": 3362,
      "ÙĨØ¸Ø±": 3363,
      "ĠÙĨÙĩØ§ÛĮØª": 3364,
      "ĠØ±ÛĮØ§Ø¶ÛĮ": 3365,
      "ĠØ±Ùģ": 3366,
      "ind": 3367,
      "ĠÙħØ§Ùħ": 3368,
      "ev": 3369,
      "ĠØ´ÛĮØ±Ø§Ø²": 3370,
      "ĠÙĨÙħØ§Ø²": 3371,
      "Ø§Ø±ØªÙħØ§ÙĨ": 3372,
      "ĠÚ¯ÙĪÛĮ": 3373,
      "ĠØ§Ø±Ø²ÛĮØ§Ø¨ÛĮ": 3374,
      "io": 3375,
      "ĠÚ¯Ø³ØªØ±Ø´": 3376,
      "ĠÙĨÙĬØ²": 3377,
      "ĠØ¨Ø³Øª": 3378,
      "Ú¯ÙĨ": 3379,
      "ĠØªØºÛĮÛĮØ±Ø§Øª": 3380,
      "ĠØªØ±Ú©ÛĮØ¨": 3381,
      "ud": 3382,
      "ĠØªØ±ÛĮ": 3383,
      "ĠØ´Ø¯ÛĮØ¯": 3384,
      "ÛķØ±": 3385,
      "ĠØ´Ø¹Ø±": 3386,
      "Ø¹Ùħ": 3387,
      "Ø§ØºØ°": 3388,
      "ĠØ±ÙĩØ¨Ø±": 3389,
      "Ø§ÙģØ¹": 3390,
      "ÙĨØ§Ú©": 3391,
      "Ø§Ø¯ÙĨ": 3392,
      "ĠØªØ¨ÙĦØª": 3393,
      "ĠØ¯ÙĩÙħ": 3394,
      "ĠÙĩÙħÚĨÙĨØ§ÙĨ": 3395,
      "Ø¯ÛĮØ±": 3396,
      "ĠØ´ÙħØ§Ø±": 3397,
      "ĠÚ©Ø§Ø±Ø¨Ø±": 3398,
      "ĠÙħØ±Ø²": 3399,
      "ĠØ®Ø³": 3400,
      "ĠØ¯ÙĪØ´ÙĨØ¨Ùĩ": 3401,
      "ian": 3402,
      "ĠØ§Øº": 3403,
      "ĠØ±Ø§Ø¯ÛĮ": 3404,
      "ĠØ§ÙĦØ¹Ø§Ø¯Ùĩ": 3405,
      "ĠØ¨ÛĮØª": 3406,
      "ĠÙħÙĩØ§Ø±Øª": 3407,
      "ĠØ±Ø§ØŃØªÛĮ": 3408,
      "ĠØ³ÙĨØªÛĮ": 3409,
      "ĠØ§Ø¹ØªØ¨Ø§Ø±": 3410,
      "ĠØ§ÙĨØ¯Ø§Ø²ÛĮ": 3411,
      "ĠØ²Ø¯ÙĨ": 3412,
      "ĠÙħÙĤØ±": 3413,
      "ÙĬØ§ÙĨ": 3414,
      "ĠÙ¾Ø§ÙĪØ±Ù¾ÙĪÛĮÙĨØª": 3415,
      "Û±Û¹": 3416,
      "ĠÙĨØ®Ø³ØªÛĮÙĨ": 3417,
      "ĠØ±Ø³ÛĮØ¯ÙĨ": 3418,
      "Ø¹ÙĩØ¯": 3419,
      "ĠÚ©Ø±Ø¯ÛĮÙħ": 3420,
      "Ù¾Ø§Ø³Ø®": 3421,
      "ĠÙħÚ©Ø§ÙĨ": 3422,
      "ĠØ§Ø±ØªÙĤ": 3423,
      "ĠØ¢Ø°Ø±Ø¨": 3424,
      "),": 3425,
      "ĠÙħÙĪØ«Ø±": 3426,
      "ĠØ§Ø³ØªØ±": 3427,
      "Ú¯Ø§Ø¨Ø§ÛĮØª": 3428,
      "ĠØ´ÛĮØ´Ùĩ": 3429,
      "ĠÙħØ§Ø³": 3430,
      "ĠØ³ÙĨØ¯": 3431,
      "ĠØ¢ÙħØ±ÛĮÚ©Ø§ÛĮÛĮ": 3432,
      "57": 3433,
      "ĠØ³Ø¨Ø¨": 3434,
      "ĠØ¹Øµ": 3435,
      "ĠÙħØŃØ³ÙĪØ¨": 3436,
      "Ġth": 3437,
      "ĠÙ¾Ø´ØªÛĮØ¨Ø§ÙĨÛĮ": 3438,
      "Ø§Ú¯Ø±Ø§Ùħ": 3439,
      "ĠØ¢Ø³ÛĮØ§Ø¨": 3440,
      "ĠÙĤØ·Ø¹Ø§Øª": 3441,
      "ĠØ®ÙĨØ¯Ùĩ": 3442,
      "ĠØ¬ÙĨÙĪØ¨": 3443,
      "ĠØ¯Ú©ØªØ±ÛĮ": 3444,
      "ĠØ¢ÙĦÙĪØ¯": 3445,
      "ĠÙħØ¬Ø§Ø²": 3446,
      "ĠÚĨÙĩØ±Ùĩ": 3447,
      "ĠØŃÛĮÙĪØ§ÙĨ": 3448,
      "ĠØ§ØªØµ": 3449,
      "ĠÙĩÙħØ³": 3450,
      "ĠØĽ": 3451,
      "ĠÙĦØ§ÛĮÙĩ": 3452,
      "Ø§ÙĦÙħ": 3453,
      "Û±Û¶": 3454,
      "ĠÚ©ÙħÛĮØªÙĩ": 3455,
      "ĠÙħÙģÛĮØ¯": 3456,
      "ĠÙĦØŃØ¸Ùĩ": 3457,
      "ÙĩØ§Ùħ": 3458,
      "ĠØ¨ÙĩØ¯Ø§Ø´ØªÛĮ": 3459,
      "ĠØªØ¹Ø±ÛĮÙģ": 3460,
      "ÙĥØ§ÙĨ": 3461,
      "34": 3462,
      "ĠØ§Ø´ØªØ±Ø§Ú©": 3463,
      "ib": 3464,
      "ØªØ¹": 3465,
      "ĠØ¨Ú¯ÛĮØ±ÛĮØ¯": 3466,
      "ÙĪÚ©": 3467,
      "ĠØ¨Ø§ÙĬØ¯": 3468,
      "Ø°ÛĮÙĩ": 3469,
      "ĠÙħØªÙĤ": 3470,
      "ĠÙģØ±Ø²ÙĨØ¯": 3471,
      "Ø³ÙĪØ±": 3472,
      "ory": 3473,
      "ĠØ´Ø´": 3474,
      "ĠÙĥÙĨØ¯": 3475,
      "ĠØ¨Ø§Ø²Ø§Ø±ÛĮ": 3476,
      "ĠØªØ³Ùĩ": 3477,
      "ĠØªØ±ÙĪØ±ÛĮ": 3478,
      "ĠØ¯Ø§Ø¯ÙĨØ¯": 3479,
      "ĠÚ©Ø±Ùħ": 3480,
      "ĠØŃØ§Ø¬": 3481,
      "ĠØ§ÙħÛĮØ¯ÙĪØ§Ø±": 3482,
      "ĠØªØ¹Ø·": 3483,
      "Ġ{": 3484,
      "ĠØªØ¦": 3485,
      "ite": 3486,
      "Ø²Ùħ": 3487,
      "ĠØ±ÙĪØ²ÙĩØ§ÛĮ": 3488,
      "ĠÙĨÙħØ§ÛĮÙĨØ¯Ú¯ÛĮ": 3489,
      "ĠÛ±Û³Û¹Û³": 3490,
      "ĠØªØŃØµÛĮÙĦÛĮ": 3491,
      "ĠØ¢Ø³Ø§ÙĨ": 3492,
      "ĠØ¹Ø±ÙĪØ³": 3493,
      "Ġfor": 3494,
      "ĠÙ¾ÛĮÚĨ": 3495,
      "ity": 3496,
      "ĠØ°ÙĩÙĨ": 3497,
      "ĠØ§ÙĩÙĦ": 3498,
      "ĠØ²ÛĮØ¨Ø§ÛĮ": 3499,
      "ĠÙħØ¹ØªØ¨Ø±": 3500,
      "Ġ27": 3501,
      "ÙĪØ²ÛĮØ¹": 3502,
      "Ø§Ùĥ": 3503,
      "Ø§Ùī": 3504,
      "ĠØªØ±ØªÛĮ": 3505,
      "ĠÙĩÛĮØ§Øª": 3506,
      "og": 3507,
      "ĠØ³Ø±Ø§Ø³Ø±": 3508,
      "Ù¾ÙĪØ´": 3509,
      "ĠØ±Ø¹Ø§ÛĮØª": 3510,
      "ĠÛ²Ûµ": 3511,
      "ĠÙħØ³ÛĮ": 3512,
      "Û°Û³": 3513,
      "ĠØ§ÛĮØ¯": 3514,
      "Ú¯ÙĪÙĨ": 3515,
      "Û±Û´": 3516,
      "Ú©ÙĨÛĮÙħ": 3517,
      "ĠZ": 3518,
      "ĠØ§ÛĮÙħÛĮÙĦ": 3519,
      "Ø§Ø·ÛĮ": 3520,
      "ĠØ±Ú©": 3521,
      "Ø¦ÛĮÙĨ": 3522,
      "ĠØ¹ÙħØ¯Ùĩ": 3523,
      "ÙģØ±Ø§ÙĨ": 3524,
      "ĠØ§Ø¹ÙħØ§ÙĦ": 3525,
      "ÙħØŃÙħØ¯": 3526,
      "ĠØ¹Ø±Ø¨Ø³ØªØ§ÙĨ": 3527,
      "ĠØ®ÙĪØ²": 3528,
      "ĠØ®Ø§ØµÛĮ": 3529,
      "Ø¢Ø®Ø±": 3530,
      "ĠØ¯Ø±Ø¨": 3531,
      "ĠÚ©Ø§Ø±Ø´ÙĨØ§Ø³Ø§ÙĨ": 3532,
      "Ø±Ø¶": 3533,
      "ĠØ³ÛĮÙĨÙħØ§ÛĮÛĮ": 3534,
      "ÙħØ¯ÙĦ": 3535,
      "Ġ2019": 3536,
      "ĠÙħØ§ÛĮ": 3537,
      "Ø§ÙĦØ¹": 3538,
      "ĠÙħÛĮÚ©": 3539,
      "ĠØŃÚ©ÙĪÙħØª": 3540,
      "ĠØ§Ú©Ø³": 3541,
      "ĠÙĩØ³ØªÙħ": 3542,
      "Ø´Ø±Ú©Øª": 3543,
      "ist": 3544,
      "Û²Ûµ": 3545,
      "Ø¢ÛĮÙĨØ¯": 3546,
      "ĠØŃØ§ÙģØ¸Ùĩ": 3547,
      "ey": 3548,
      "ĠØ¬Ø§ÛĮÚ¯Ø§Ùĩ": 3549,
      "ØªÙĤØ¯": 3550,
      "ĠÙĨÙħØ§ÛĮÙĨØ¯": 3551,
      "Û±Û¸": 3552,
      "ĠÙĪØ§ÙĤØ¹Ø§": 3553,
      "ĠØ¢Ø´ÙĨØ§": 3554,
      "ĠØ¢ÛĮØ¯": 3555,
      "Ø§ÛĮØ¬Ø§ÙĨ": 3556,
      "Ø§Ø³ÙģØ§ÙĨÙĩ": 3557,
      "ĠØ®ÙĪØ¯Ùħ": 3558,
      "ÛĮÙħØ§ÙĨ": 3559,
      "ĠØŃÙĤÙĪÙĤÛĮ": 3560,
      "ĠÙħØ«Ø¨Øª": 3561,
      "ĠØ§Ø´ØªØ¨Ø§Ùĩ": 3562,
      "ĠØ´Ø§Ø±Úĺ": 3563,
      "ĠÙĤÙĪØ§ÙĨÛĮÙĨ": 3564,
      "Ø§ÛĮÙĨØ¯": 3565,
      "ĠÚ©ÙĦÛĮØ¯ÛĮ": 3566,
      "ĠÙĨÙĪØ¬ÙĪØ§ÙĨ": 3567,
      "Û±Û·": 3568,
      "ĠØ¹ÙħØ±": 3569,
      "Ø§ÙĪÙĦ": 3570,
      "Ø¨ÙĨ": 3571,
      "Ø§ÚĨ": 3572,
      "ĠØ¯ÛĮÚ¯Ø±Ø§ÙĨ": 3573,
      "ÙģÛĮÙĦÙħ": 3574,
      "ĠØ¢ÛĮÙģ": 3575,
      "ÙħÙĬ": 3576,
      "ĠBl": 3577,
      "Ġ2015": 3578,
      "ĠÙ¾ÙĬØ´": 3579,
      "ĠÚ¯ÛĮÙĦ": 3580,
      "Ø§ÙĬØ´": 3581,
      "ore": 3582,
      "Ø¯ÙĩÙĨØ¯": 3583,
      "Û°Û¶": 3584,
      "ĠØ¬Ø±Ø§ØŃÛĮ": 3585,
      "ĠÙħØ«ÙĦØ§": 3586,
      "ĠØ¬Ø³ØªØ¬ÙĪ": 3587,
      "ĠÚ¯Ø³ØªØ±Ø¯Ùĩ": 3588,
      "ĠÙħØ§Ø¬": 3589,
      "ĠØªØ¶": 3590,
      "ĠØµÙĪØªÛĮ": 3591,
      "ĠØµÙĨØ¯ÙĪÙĤ": 3592,
      "ĠØ³ÙĦÛĮ": 3593,
      "ĠÙĨØ§Ø´ÛĮ": 3594,
      "ÙĨØ³": 3595,
      "33": 3596,
      "ĠÙĤÙĩ": 3597,
      "ĠØµØŃÙĨÙĩ": 3598,
      "ØŃØ§Øª": 3599,
      "ĠØ¨ÛĮØ±ÙĪÙĨ": 3600,
      "ĠÙħÛĮØ¯Ùĩ": 3601,
      "ĠÙĥØ´ÙĪØ±": 3602,
      "Ø§Ø¯ÛĮÙĩ": 3603,
      "ĠÙĨÙħØ§ÛĮÙĨØ¯Ú¯Ø§ÙĨ": 3604,
      "ith": 3605,
      "Ø®ÙĪØ§ÙĨ": 3606,
      "ĠØŃØ²Ø¨": 3607,
      "ĠØ¹Ø±ØµÙĩ": 3608,
      "Ø·ÙĦ": 3609,
      "Ø§ÙĪÙĨØ¯": 3610,
      "ĠÚ©ÙĨØ³": 3611,
      "ĠØ¯ÛĮÙĪØ§Ø±": 3612,
      "ĠØ¨ØµÙĪØ±Øª": 3613,
      "ĠØ®Ø´": 3614,
      "ĠÚĨÚ©": 3615,
      "ĠØªØ§ÙĨ": 3616,
      "47": 3617,
      "Ù¾ÛĮØ´": 3618,
      "ÙĥØ±": 3619,
      "ĠÙħØŃØ§ÙģØ¸": 3620,
      "ĠØ§ÙĦÙħ": 3621,
      "Ø´Ø¨": 3622,
      "ĠØ³Ø§Ø®ØªØ§Ø±": 3623,
      "Ø§ØŃØ¨Ùĩ": 3624,
      "ĠØªØ±Ú©ÛĮ": 3625,
      "ĠÙħÙĪØ³Ø³Ùĩ": 3626,
      "ĠØ§ÙħØªØŃØ§ÙĨ": 3627,
      "ÙĨØ±Ùħ": 3628,
      "ĠØ¬ÙĪØ´": 3629,
      "ĠØªØ§ÛĮÛĮØ¯": 3630,
      "Ġ26": 3631,
      "ĠØ°Ø®ÛĮØ±Ùĩ": 3632,
      "ĠØ±Ø§ÙĩÙĨ": 3633,
      "Ø§Ø¯Ø«Ùĩ": 3634,
      "ĠSt": 3635,
      "ĠØ³ÙĪØ®Øª": 3636,
      "ĠÙĦØŃØ§Ø¸": 3637,
      "Ø³Ø§Øª": 3638,
      "ĠÙħÙĨØ¬Ø±": 3639,
      "ĠØ¨ÙĬÙĨ": 3640,
      "ĠØ¬Ø§ÛĮÛĮ": 3641,
      "Ġïºĳ": 3642,
      "ĠÙĨÚ¯ÙĩØ¯Ø§Ø±ÛĮ": 3643,
      "ĠÙģØ±ÙħØ§Ø¦ÛĮØ¯": 3644,
      "ĠØ³ÛĮÙĦ": 3645,
      "ØªØ¹Ø¯Ø§Ø¯": 3646,
      "ĠÙ¾Ø§Ø±Ø³": 3647,
      "Ø²ÙĪ": 3648,
      "ĠØ±Ø³Øª": 3649,
      "Ú©Ø§ÙĦ": 3650,
      "ĠØ¨ÙĪØ¯Ùħ": 3651,
      "ĠØ´Ø¯Øª": 3652,
      "ĠÙ¾Ø³Ø±": 3653,
      "ÙĪØŃ": 3654,
      "ĠÙĦØ°Ø§": 3655,
      "ĠØ±Ø¯": 3656,
      "ĠØªØ±ØªÛĮØ¨": 3657,
      "ĠØ²ÙĨØ¯Ø§ÙĨ": 3658,
      "ĠØ¯Ø¹ÙĪØª": 3659,
      "Ø¯ÛĮØ¯Ùĩ": 3660,
      "ĠØªÙĪÙĨ": 3661,
      "ĠÙģØ±Ø§ÙĨØ³Ùĩ": 3662,
      "ĠØ®ÙĪØ²Ø³ØªØ§ÙĨ": 3663,
      "ĠØ³ÙģØ§Ø±Ø´": 3664,
      "ĠØªÙĪØ²ÛĮØ¹": 3665,
      "Ø±ÛĮØ¨Ø§": 3666,
      "ĠÙħØ³Ø§Ø¨ÙĤÙĩ": 3667,
      "ĠØ§Ø±ØªØ¨Ø§Ø·Ø§Øª": 3668,
      "ĠØ¹Ø¨ÙĪØ±": 3669,
      "ØµÙģØŃÙĩ": 3670,
      "Ú¯Ø§Ø±ÛĮ": 3671,
      "ÙĤØ§Øª": 3672,
      "ĠÙĩÛĮØ¦Øª": 3673,
      "Ø§Ø¨ÙĦÙĩ": 3674,
      "ĠÙĤÙĦÙħ": 3675,
      "ÙĦÛĮÚ©ÛĮØ´ÙĨ": 3676,
      "ĠY": 3677,
      "ĠÙħØ±Ø§ÙĤ": 3678,
      "ĠØ³ØªØ§Ø¯": 3679,
      "Û°Û·": 3680,
      "ĠÙĨÛĮØ±ÙĪ": 3681,
      "ÙĦØ§ÙĦ": 3682,
      "ĠØªØ¯Ø±ÛĮ": 3683,
      "Ø§Ø²Ø¯ÙĩÙħ": 3684,
      "end": 3685,
      "ef": 3686,
      "ĠØ¢ÙĨØ¬Ø§": 3687,
      "ĠÙĨØ³ÙĦ": 3688,
      "ĠÙħØ±Ø§ØŃÙĦ": 3689,
      "ĠØ¬Ø²Ø¦ÛĮ": 3690,
      "Ġ29": 3691,
      "ĠØ¢Ø¯Ùħ": 3692,
      "ĠØ®Ø¨Ø±ÙĨÚ¯Ø§Ø±Ø§ÙĨ": 3693,
      "ÙĪÛĮØ¯": 3694,
      "ØªØµØ§ÙĪÛĮØ±": 3695,
      "ĠØµØŃÛĮØŃ": 3696,
      "ĠØªØ¨ÙĦÛĮØºØ§ØªÛĮ": 3697,
      "ĠØ¢Ø´Ù¾Ø²": 3698,
      "ĠØ¯ÙĩÛĮÙħ": 3699,
      "ĠØ¹ÙĩØ¯Ùĩ": 3700,
      "ĠÚ©Ø§ØºØ°": 3701,
      "ĠÙĪØ±Ø¯Ù¾Ø±Ø³": 3702,
      "ÛĮØ§Ø±": 3703,
      "ĠØ§Ø¬Ø§Ø±Ùĩ": 3704,
      "ĠÚ©ÙĦÛĮØ¯": 3705,
      "ĠÙ¾Ø²Ø´Ú©": 3706,
      "ĠØ¨Ø±Ø¯Ø§Ø±ÛĮ": 3707,
      "ĠØ¬Ø¹": 3708,
      "ĠØ¨ÙĪØ´": 3709,
      "ÛĮÙģÙĩ": 3710,
      "ĠCh": 3711,
      "ĠÙħØ§Ø²ÙĨØ¯": 3712,
      "ĠÚ©ÙĦÛĮÙ¾": 3713,
      "Ø§Ø±Ùģ": 3714,
      "ang": 3715,
      "ĠØ§ÛĮÙħÙĨÛĮ": 3716,
      "Ø§Ø´ÛĮÙĩ": 3717,
      "Ø´ÙħØ§": 3718,
      "ï»¿": 3719,
      "ĠÙģØ±Ø¯ÛĮ": 3720,
      "ĠØªÚ©ÙħÛĮÙĦ": 3721,
      "ĠÙĨÙĤØ§Ø·": 3722,
      "ĠÙħÙĤØ§ÙĦØ§Øª": 3723,
      "ĠØ³ÙĩÙħ": 3724,
      "Ġ50": 3725,
      "ĠÂ·": 3726,
      "ĠÙħØ±Ø¬Ø¹": 3727,
      "ĠØ§ÛĮÙĨØ³ØªØ§Ú¯Ø±Ø§Ùħ": 3728,
      "ÙħØ±Ø¯": 3729,
      "ĠÙ¾Ø°ÛĮØ±Ø´": 3730,
      "ĠÙħØ¬Ø¯": 3731,
      "46": 3732,
      "Ø²ÙĪÙħ": 3733,
      "ĠØ³Ø±Ø·Ø§ÙĨ": 3734,
      "ĠØ´Ø±ØŃ": 3735,
      "ĠØ¬Ø§Ø¯Ùĩ": 3736,
      "ĠÙħØ´Ø§Ø±Ú©Øª": 3737,
      "ĠÙ¾Ø§ÙĨ": 3738,
      "Ø§ÛĮØ±Ø§ÙĨ": 3739,
      "Ú©ÙĨÙĨØ¯Ú¯Ø§ÙĨ": 3740,
      "ØªØ§ØŃ": 3741,
      "ĠØ¨ÙĬØ´": 3742,
      "ĠØªÚ©ÙĨÙĪÙĦÙĪÚĺÛĮ": 3743,
      "ÙħÙĨØ¯Ø§ÙĨ": 3744,
      "ĠØªØ±Ùħ": 3745,
      "ïºª": 3746,
      "ÙĪØ´ÛĮ": 3747,
      "ĠØ®Ø§Ø±Ø¬Ùĩ": 3748,
      "ĠØ¯Ø§Ø±ÛĮ": 3749,
      "ĠØªØ¹Ø¯": 3750,
      "ĠÙ¾Ø¯": 3751,
      "ĠØ¨Ø§Ø²ÛĮÚ©ÙĨ": 3752,
      "ĠØŃÙģØ§Ø¸": 3753,
      "ĠØ¬ÙħØ¹ÛĮØª": 3754,
      "ĠØ³Ú©": 3755,
      "ÚĨÙĩØ§Ø±": 3756,
      "Ø¨Ø±Ø¯Ø§Ø±ÛĮ": 3757,
      "ĠØªØŃÙĪÛĮÙĦ": 3758,
      "ĠÙħØ·Ùħ": 3759,
      "ĠØŃØ§Ø¯Ø«Ùĩ": 3760,
      "ĠÙĩÙħÚĨÙĪÙĨ": 3761,
      "ĠØªØ§Ú©ÙĨÙĪÙĨ": 3762,
      "ÙĨÙĤ": 3763,
      "Ù©": 3764,
      "ĠØ¨Ø§ÙĤÛĮ": 3765,
      "49": 3766,
      "ĠÙĤØ±ÙħØ²": 3767,
      "ub": 3768,
      "ÙħØ§ÙĨØ¯": 3769,
      "ĠÛĮØ®": 3770,
      "ÙĬØ±ÙĬ": 3771,
      "ĠØ¹Ø¬ÛĮ": 3772,
      "Ø§Ú©Ø³": 3773,
      "ĠØ§Ú¯Ùĩ": 3774,
      "ĠØªØºØ°ÛĮÙĩ": 3775,
      "ĠÚ©Ø§ÙĨÙĪÙĨ": 3776,
      "ĠÙħÛĮÙĪÙĩ": 3777,
      "ï»ª": 3778,
      "ĠØ¢Ø±Ø§ÛĮØ´": 3779,
      "Ø±ÛĮØª": 3780,
      "ĠØ±Ø³Ø¯": 3781,
      "ĠØ§ØµÙĦØ§": 3782,
      "ĠÙħØ³ØªØ±": 3783,
      "ĠØ´ÙĩØ§Ø¯Øª": 3784,
      "ĠÙħØ°Ùĩ": 3785,
      "ĠÙħÙĤØ§Ø¨ÙĦÙĩ": 3786,
      "ik": 3787,
      "ĠÙĤØ¨ÙĪÙĦ": 3788,
      "ÚĨÙĨÛĮÙĨ": 3789,
      "ĠÙĤØ§Ø¯Ø±": 3790,
      "ĠØ§ÛĮØ³ÙĨØ§": 3791,
      "Ø§ÙĨÛĮØ§": 3792,
      "ĠÙĩÙħÙĪØ§Ø±Ùĩ": 3793,
      "ĠØ³Ø§ÙĦÙĨ": 3794,
      "ĠÙħÙĤØ¯Ø³": 3795,
      "ĠØ§Ø¹ØªØ±Ø§Ø¶": 3796,
      "ĠØ¢Ø°Ø±Ø¨Ø§ÛĮØ¬Ø§ÙĨ": 3797,
      "ĠÚ©Ø§Ø±ÙĩØ§ÛĮ": 3798,
      "ell": 3799,
      "ĠØ§Ø®ØªÙĦØ§Ùģ": 3800,
      "ĠØ§ÙĦØ³ÙĦØ§Ùħ": 3801,
      "ĠÙĩÙĪØ§Ù¾ÛĮÙħØ§": 3802,
      "ĠØ²ÙĨÛĮ": 3803,
      "ĠØ´ÙħØ§ÙĦÛĮ": 3804,
      "ĠÙĨÚĺØ§Ø¯": 3805,
      "Ø·ÛĮ": 3806,
      "ÙĪÙħØªØ±": 3807,
      "ĠØ¨Ú¯Ø°Ø§Ø±": 3808,
      "ĠÛ²Û´": 3809,
      "Ø±ÙģØªÙĩ": 3810,
      "ĠØ¨Ø§Ø²Ø±": 3811,
      "ĠØ³ÙĨØª": 3812,
      "ĠØ¨Ø§ÙĨÚ©ÛĮ": 3813,
      "ĠØ¯Ùħ": 3814,
      "ĠØ¯Ø±Ø§ÛĮ": 3815,
      "Ú¯Ø±Ø¯Ø¯": 3816,
      "ĠØ¢Ø³ÛĮØ§": 3817,
      "ra": 3818,
      "ĠØ¢ÙĪØ±Ø¯Ùĩ": 3819,
      "ØµØ¯ÛĮ": 3820,
      "ĠØ¬Ø¯ÛĮØ¯ÛĮ": 3821,
      "ĠÛ²Û³": 3822,
      "ep": 3823,
      "ÙĳÙİ": 3824,
      "ĠØ±Ø§ØŃØª": 3825,
      "Ù¾Ø±ÙĪ": 3826,
      "ĠØ§Ø¨Ø±Ø§Ùĩ": 3827,
      "https": 3828,
      "ÙħÛĮÙĦÛĮ": 3829,
      "ĠÙħØ±ÙĪØ±": 3830,
      "ĠØ¢Ø¯Ø±Ø³": 3831,
      "ĠÙģØ¯Ø±": 3832,
      "ĠÙģÙĪÙĦØ§Ø¯": 3833,
      "ĠØ¹Ø¨Ø§Ø³": 3834,
      "ĠÛĮØ§Ø±": 3835,
      "ĠHD": 3836,
      "Û°Û¸": 3837,
      "Ø±ÛĮÚ©Ø§": 3838,
      "eg": 3839,
      "ĠÚ¯ÙĨ": 3840,
      "Ø¨ÛĮÙĨÛĮ": 3841,
      "ĠØ¯Ø²Ø¯": 3842,
      "ĠØ´ÛĮÙĪÙĩ": 3843,
      "ÙĨÙĪØ´ØªÙĩ": 3844,
      "ĠÙħØ¹Ø§ÙħÙĦ": 3845,
      "32": 3846,
      "ĠØ¢Ùģ": 3847,
      "Û°Û±": 3848,
      "ĠÙĪØ³Ø§ÛĮÙĦ": 3849,
      "Ø³Ø§Ø®Øª": 3850,
      "ĠÙĨØ¸ÛĮØ±": 3851,
      "ĠØ§ÙģØ³": 3852,
      "Ø±ÙĤ": 3853,
      "Ø³ÙĨØ¬": 3854,
      "ĠØ§Ø´ØªØºØ§ÙĦ": 3855,
      "ĠØ¢ÛĮÙģÙĪÙĨ": 3856,
      "ĠØ´Ø¨ÛĮÙĩ": 3857,
      "ĠØ¯Ø§Ø¹": 3858,
      "ĠUSB": 3859,
      "ĠØ§ÙĦÚ©ØªØ±ÙĪÙĨÛĮÚ©": 3860,
      "ĠÚ©Ø§Ø±Ø¨Ø±ÛĮ": 3861,
      "ĠØ§ÛĮØª": 3862,
      "ĠØªØ´Ú©Ø±": 3863,
      "Ø¹Ø§Ø¯": 3864,
      "Ø·Ø±Ùģ": 3865,
      "ĠØªÙĪÙĦØ¯": 3866,
      "ĠÙĪÛĮÙĦ": 3867,
      "Û²Û³": 3868,
      "ĠØºØ±Ø¨ÛĮ": 3869,
      "Ø§Ø®Ø¨Ø§Ø±": 3870,
      "ĠÙĪØ³ÛĮÙĦÙĩ": 3871,
      "ĠØ¨Ø¨Ø±": 3872,
      "Ø²ÛĮÙĨ": 3873,
      "ĠØªÙĪØ¶ÛĮØŃØ§Øª": 3874,
      "ĠÚĨØ§Ø±": 3875,
      "ĠØŃÚ©Ùħ": 3876,
      "ĠØ¨Ø®ÙĪØ§ÙĨ": 3877,
      "ĠØªØŃÙĪÙĦ": 3878,
      "ØªÙħÙĨØ¯": 3879,
      "Ù¾Ø±Ø¯Ø§Ø²": 3880,
      "ĠÙĪØ§Ø¨": 3881,
      "ĠÙĩÙħØ§ÛĮØ´": 3882,
      "Û²Û´": 3883,
      "ĠÛ²Û±": 3884,
      "ĠØªØ£Ø«ÛĮØ±": 3885,
      "Ġï»£": 3886,
      "ĠÙħØµØ§ØŃØ¨Ùĩ": 3887,
      "ĠÙĤÙĩÙĪÙĩ": 3888,
      "Laptop": 3889,
      "ĠÙ¾Ùĩ": 3890,
      "ĠØ¨Ø±ÛĮ": 3891,
      "ĠÙħØ¨ÙĦØº": 3892,
      "ĠÙĨØ§Ø²": 3893,
      "ĠØ®ÙĦØ§ØµÙĩ": 3894,
      "ĠØ§Ù¾ÙĦÛĮÚ©ÛĮØ´ÙĨ": 3895,
      "ĠØ¢Ø´Ù¾Ø²Ø®Ø§ÙĨÙĩ": 3896,
      "Ø³ÙĪ": 3897,
      "Ø§ÛĮÙĤ": 3898,
      "Ø¨ÙĪÙĦ": 3899,
      "ĠÚ©Ø§Ø¨": 3900,
      "Ø²ÙħÛĮÙĨ": 3901,
      "ĠØ®ÙĪØ±Ø´": 3902,
      "ĠØŃÛĮÙĪØ§ÙĨØ§Øª": 3903,
      "ĠØ´Ùģ": 3904,
      "Ø²Ø§Ùħ": 3905,
      "ĠÙĪÛĮØ±Ø§ÛĮØ´": 3906,
      "ĠØ¯Ø±Ú©": 3907,
      "ĠÙ¾Ø§Ø¯": 3908,
      "ĠÙħØŃÙĤÙĤ": 3909,
      "ĠØ¹ÛĮØ¯": 3910,
      "ĠÙ¾ÛĮØ±ÙĪØ²ÛĮ": 3911,
      "ĠØŃØ§Ú©": 3912,
      "ĠÙħØ¹ÙĨÛĮ": 3913,
      "ĠÛĮØ²Ø¯": 3914,
      "Ø§ÙģØ²": 3915,
      "ÙĬØ§Øª": 3916,
      "Ù¾Ø§": 3917,
      "ÙĩØ±Ø³Øª": 3918,
      "ĠÛ¹Ûµ": 3919,
      "Ø¯Ø§ÛĮÛĮ": 3920,
      "ÛĮÙĨØª": 3921,
      "ĠÙħØªÙĪØ¬Ùĩ": 3922,
      "Ø³Ú©": 3923,
      "Ø´ÙĪÙĨ": 3924,
      "ĠÙģÙĬ": 3925,
      "ĠØ§Ø±ØªØ´": 3926,
      "ÚĺØ§ÙĨØ³": 3927,
      "ĠÙģØª": 3928,
      "ĠÙĩÙĪØ§ÛĮÛĮ": 3929,
      "ÛĮØ§ÙĨ": 3930,
      "Ø¬Ø§ÛĮÛĮ": 3931,
      "ĠÙħÛĮØªÙĪØ§ÙĨÛĮØ¯": 3932,
      "ĠØ¨ÛĮØ³Øª": 3933,
      "Ú©Ø¯Ùĩ": 3934,
      "ĠØŃØ§Ø´ÛĮÙĩ": 3935,
      "ĠØ³Ø±ÙĪØ±": 3936,
      "ĠÚ¯Ø§ÙĩÛĮ": 3937,
      "ĠÙħØ±Øª": 3938,
      "ĠÛ±Û³Û¸": 3939,
      "ĠØ³Ø±Ú¯Ø±": 3940,
      "ĠÙĨÛĮØ§Ø²ÙħÙĨØ¯": 3941,
      "Ø¨Ø§ÛĮ": 3942,
      "ĠÙĨÙĪØ±ÙĪØ²": 3943,
      "ĠÙħØ³Ø¬Ø¯": 3944,
      "ĠÙħØ³ØªÙĨØ¯": 3945,
      "Ú©ÙĨÙħ": 3946,
      "ĠØŃØ³Ø§Ø³": 3947,
      "ĠØ¨Ø±Ø§Ø³Ø§Ø³": 3948,
      "ÚĨÙĨØ¯": 3949,
      "ĠØ´ÙĨØ§Ø®ØªÙĩ": 3950,
      "ĠÙ¾Ø§ÙĬ": 3951,
      "ĠÙħØ·Ø§ÙĦØ¹Ø§Øª": 3952,
      "ĠØ®ÛĮØ±": 3953,
      "ĠÛĮØ§Ø¨Ø¯": 3954,
      "ĠÚ¯Ø§ÙĦ": 3955,
      "ĠÙħØ¬ÙĪØ²": 3956,
      "ĠØªÚ©Ø±": 3957,
      "Ø´ÙĪÛĮÛĮ": 3958,
      "ĠÚĨØ´": 3959,
      "ĠØ¬ÙĨØ³": 3960,
      "ĠØ³Ø±Ø®": 3961,
      "ĠØ¢Ù¾Ø§Ø±ØªÙħØ§ÙĨ": 3962,
      "Ø§ØªÙĪ": 3963,
      "ĠØ³Ø§Ø¨ÙĤ": 3964,
      "ĠØªØŃØµÛĮÙĦ": 3965,
      "ĠÙĤÙĪÛĮ": 3966,
      "ĠÙģØ±Ø§ÙħÙĪØ´": 3967,
      "31": 3968,
      "ect": 3969,
      "ĠÚĨÙĤØ¯Ø±": 3970,
      "ĠÙģØ±ÙĪØ¯": 3971,
      "obile": 3972,
      "ĠÚ©Ø´ØªÛĮ": 3973,
      "ĠÙģØ³": 3974,
      "ĠÙħÙĪØ±": 3975,
      "Ø³ÙĨÚ¯": 3976,
      "ĠÙģØ§Ø·": 3977,
      "Ġ....": 3978,
      "('": 3979,
      "ĠÙħØ¹ØªÙĤØ¯": 3980,
      "ĠØ³Ø§Ø®ØªÙħØ§ÙĨÛĮ": 3981,
      "99": 3982,
      "ĠØ¬Ø¯ÛĮØ¯ØªØ±ÛĮÙĨ": 3983,
      "ĠØªÙĪØ§ÙĨØ§ÛĮÛĮ": 3984,
      "ĠØ§Ø¯Ø¹": 3985,
      "ĠÙħØŃØ¨ÙĪØ¨": 3986,
      "ĠÙĨÙĪØ³": 3987,
      "ĠØµÙģØ±": 3988,
      "ĠØ±Ø§ÙĩÙĨÙħØ§ÛĮ": 3989,
      "ml": 3990,
      "ĠØ³Ø§Ø¨ÙĤÙĩ": 3991,
      "ĠØ¨Ø§Ø²ÛĮÚ©ÙĨØ§ÙĨ": 3992,
      "ĠÙħØ®ØªÙĦÙģÛĮ": 3993,
      "ĠÙ¾Øª": 3994,
      "ĠÙĨÙģØ³": 3995,
      "ĠØ¯ÛĮÙĨÛĮ": 3996,
      "Û²Û²": 3997,
      "Ġy": 3998,
      "ØºÙĩ": 3999,
      "Ø³Ø§Ø¹Øª": 4000,
      "ĠÙĪÛĮØª": 4001,
      "ĠÚ¯ÙĪÙĨ": 4002,
      "ÙĪØ±ÛĮØª": 4003,
      "ĠØ®Ø¯Ø§ÙĪÙĨØ¯": 4004,
      "ĠØ¸Ø§ÙĩØ±": 4005,
      "Ø§ÙĦÙħÙĦÙĦÛĮ": 4006,
      "ĠÙĨØ´Ø§ÙĨÙĩ": 4007,
      "ĠØ¹ÙħÙĪÙħ": 4008,
      "Ø¯Ø§ÙħÛĮ": 4009,
      "ĠØ¯Ú©ÙĪØ±": 4010,
      "ĠØ®Ø§Ùħ": 4011,
      "Ø§Ú©ØªÙĪØ±": 4012,
      "news": 4013,
      "ĠØ¨Ø§Ø²Ú¯Ø´Øª": 4014,
      "Ø¬ÙĪÛĮÛĮ": 4015,
      "ink": 4016,
      "ice": 4017,
      "ĠØ¨ØªÙĪØ§ÙĨ": 4018,
      "ĠÚ©ÙĪÙĦ": 4019,
      "ÙĪÙĨÙħ": 4020,
      "ÙĦØ§Ú©": 4021,
      "ĠØ¨Ø±Ø¯Ø§Ø´Øª": 4022,
      "ÙħÙĦÙĦ": 4023,
      "Ġ..": 4024,
      "ÙĪÙħÙĩ": 4025,
      "ĠÙħØ¹Ø¸Ùħ": 4026,
      "ĠÚ¯Ø°Ø§Ø´ØªÙĩ": 4027,
      "ÙģÛĮÙģ": 4028,
      "ØŃØ³ÛĮÙĨ": 4029,
      "ĠÚ©Ø´Ùģ": 4030,
      "ÙĥÛĮ": 4031,
      "Ġ--": 4032,
      "ĠØ¯Ø§ÙĨØ´Ø¬ÙĪ": 4033,
      "ĠØªÙĪØ§ÙĨØ³Øª": 4034,
      "ĠØªÙĩØ¯ÛĮØ¯": 4035,
      "ĠØªØ±Ø¨ÛĮØª": 4036,
      "Ġ]": 4037,
      "ĠÙĩÙħØ²ÙħØ§ÙĨ": 4038,
      "Ġ&": 4039,
      "ĠØ¨Ú¯ÛĮØ±Ø¯": 4040,
      "ĠÚĨØ§ÙĦØ´": 4041,
      "ĠØ§ÙĦÛĮ": 4042,
      "Ġ1394": 4043,
      "Ø±ÛĮØ²ÛĮ": 4044,
      "Ġ98": 4045,
      "ĠÙ¾Ø°": 4046,
      "ĠØ¹Ø§Ø´ÙĤØ§ÙĨÙĩ": 4047,
      "ÙĪÚ¯Ø±Ø§ÙģÛĮ": 4048,
      "pp": 4049,
      "ĠØ§ÙĨØªÙĤØ§Ø¯": 4050,
      "ĠØ§Ø¯Ø¨ÛĮØ§Øª": 4051,
      "ØªØ±Ùħ": 4052,
      "ĠÚĨÙĨØ§ÙĨ": 4053,
      "ĠÙ¾ÛĮÚ¯ÛĮØ±ÛĮ": 4054,
      "Ø¶Ø§ÙĨ": 4055,
      "ĠÛĮÙĪÙĨ": 4056,
      "Û²Û¶": 4057,
      "ĠØºÙĦ": 4058,
      "ĠAr": 4059,
      "ĠØ¨ÙĩØ§Ø±": 4060,
      "ĠØ§Ø³ÙĨØ§Ø¯": 4061,
      "ĠÙħØ¯Ø±ÙĨ": 4062,
      "ĠØ´Ø¯Ùħ": 4063,
      "Ø§ÙħØ¯": 4064,
      "ĠØŃÙħÛĮØ¯": 4065,
      "Â».": 4066,
      "ĠÙħØ§Ø²ÙĨØ¯Ø±Ø§ÙĨ": 4067,
      "ĠØªÙĤØ±ÛĮØ¨Ø§": 4068,
      "ĠÙħÙĩÙĨØ¯Ø³": 4069,
      "Ġ28": 4070,
      "ĠÙħØ±Ø¯Ø§ÙĨ": 4071,
      "ĠÙ¾ÙĨØ¬Ùħ": 4072,
      "ĠØ¨Ø§Ø²ÛĮÚ¯Ø±": 4073,
      "Ø§Ø±ÙĬØ®": 4074,
      "ĠØ§ØªØŃØ§Ø¯ÛĮÙĩ": 4075,
      "ĠØ£": 4076,
      "Ø¢ÙĪØ±Ø¯": 4077,
      "ĠØ¯ÛĮØ¯ÙĨ": 4078,
      "ĠÙħÙĨØªØ¸": 4079,
      "Ġ32": 4080,
      "ĠÙ¾ÙĦØ§Ø³": 4081,
      "ĠÛĮÚ©Ø´ÙĨØ¨Ùĩ": 4082,
      "ĠØ§Ø¨Ø¹Ø§Ø¯": 4083,
      "ĠØ³Ø§Ø¹": 4084,
      "ĠÙĤØ¶Ø§ÛĮÛĮ": 4085,
      "Ø¯ÙĬØ¯": 4086,
      "ĠÚ¯Ø°Ø´Øª": 4087,
      "ĠÚĨÙĨØ¯ÛĮÙĨ": 4088,
      "ĠÚ¯ÙģØªÚ¯ÙĪ": 4089,
      "ĠÚ¯ÙĪØ´Øª": 4090,
      "48": 4091,
      "ĠÚ¯Ø±Ø¯ÛĮØ¯": 4092,
      "ĠÙħØ§ÙĨØ¯Ùĩ": 4093,
      "Ø§Ø±ÙĪ": 4094,
      "ĠÙħÙĩÙħØªØ±ÛĮÙĨ": 4095,
      "ÙĨÙĦ": 4096,
      "ĠÙĩÙĪØ§ÛĮ": 4097,
      "ĠØ§ØºÙĦØ¨": 4098,
      "ĠØ¹Ú©": 4099,
      "ĠÙĨØ¸Ø±ÛĮ": 4100,
      "ĠÙ¡Ù": 4101,
      "ĠAl": 4102,
      "ĠØ·ÙĪÙĦØ§ÙĨÛĮ": 4103,
      "ĠÙħÙģÙĩ": 4104,
      "ĠÙĤÙĪÙĦ": 4105,
      "ĠÙħØªØ¹Ø¯": 4106,
      "ØªÙĪÙħØ§ÙĨLaptop": 4107,
      "ĠØ¢ÙħÙĪØ²Ø§ÙĨ": 4108,
      "Ø¢ÙģØ±": 4109,
      "ÙĬÙĨÙĬ": 4110,
      "ast": 4111,
      "ĠÙĪØ§Ø±Ø¯Ø§Øª": 4112,
      "Ø®Ø§ÙĨ": 4113,
      "ĠØ¨Ø±Ø¬Ø§Ùħ": 4114,
      "ØºØ±": 4115,
      "38": 4116,
      "Û²Û¸": 4117,
      "ĠÙĨÙĬØ³Øª": 4118,
      "ÙĪØ§ÛĮ": 4119,
      "77": 4120,
      "ĠØ´Ø´Ùħ": 4121,
      "ĠØŃØ³ÛĮÙĨÛĮ": 4122,
      "ĠØ¬Ø¯ÙĪÙĦ": 4123,
      "ĠØ´Ø±ÙĤ": 4124,
      "ĠØ§ÙĦÚ©ØªØ±ÙĪÙĨÛĮÚ©ÛĮ": 4125,
      "Ø®ØµØ§Øª": 4126,
      "ĠÙĦØ°Øª": 4127,
      "Ø¯Ø±Ø¶Ø§": 4128,
      "Ġ2014": 4129,
      "Ġ1393": 4130,
      "__": 4131,
      "Û²Û±": 4132,
      "ĠØµØ§ØŃØ¨": 4133,
      "Û²Û¹": 4134,
      "ĠØ±Ø§Ø³ØªØ§ÛĮ": 4135,
      "ĠØ§ÙģØªØªØ§ØŃ": 4136,
      "ĠØ´Ø³Øª": 4137,
      "ĠØ±ÙĪØ²ÛĮ": 4138,
      "ĠSh": 4139,
      "ĠØ±ÙĪØ²Ùĩ": 4140,
      "ĠØ·Ø±Ø§ØŃ": 4141,
      "ĠÙĪØ±ÙĪØ¯ÛĮ": 4142,
      "ĠØ±Ø¶Ø§ÛĮØª": 4143,
      "ĠÛ±Û³Û¹Û²": 4144,
      "ĠÙħØ§Ø³Ùĩ": 4145,
      "ĠØ§Ø³ÙĦ": 4146,
      "ÙĨØ¯Ø±": 4147,
      "ĠØ¹ÙĤØ¨": 4148,
      "ĠØ¨ÙĨØ§": 4149,
      "ies": 4150,
      "ĠØ¢ÙĪØ±ÛĮ": 4151,
      "ĠÙĤØ²": 4152,
      "ĠÚ©Ø§Ø±Ú©ÙĨØ§ÙĨ": 4153,
      "ĠØ§Ù¾ÙĦ": 4154,
      "ĠÛĮÚ©Ø¯ÛĮÚ¯Ø±": 4155,
      "SU": 4156,
      "ĠâĢ¬": 4157,
      "ĠÚ¯Ùħ": 4158,
      "59": 4159,
      "Ù¾ÙĨØ¬": 4160,
      "ÙĦÙĪØ¨": 4161,
      "âĢĮâĢĮâĢĮâĢĮ": 4162,
      "ĠØ§Ø³Ø±": 4163,
      "ĠØ¨ÙĨØ§Ùħ": 4164,
      "Ø²ÙĦÙĩ": 4165,
      "ĠØ¯Ø²Ø¯Ú¯ÛĮØ±": 4166,
      "ĠØ®ÙħÛĮÙĨÛĮ": 4167,
      "ĠÚ©ÙĨÙĩ": 4168,
      "ĠÚ©Ø§Ø¨ÙĦ": 4169,
      "ĠÙĨÚ¯Ø§Ø±": 4170,
      "ĠÙĩØ§Ø´ÙħÛĮ": 4171,
      "ĠÙģÛĮÙĦØªØ±": 4172,
      "ĠÚ©ØªØ§Ø¨Ø®Ø§ÙĨÙĩ": 4173,
      "ĠØªØ®Ùħ": 4174,
      "Ø§Ø±Ø³Ø§ÙĦ": 4175,
      "ĠØ¢Ø´ÙĨØ§ÛĮÛĮ": 4176,
      "ĠØ´ÙĨØ§Ø®Øª": 4177,
      "ĠØ¨ÛĨ": 4178,
      "Ø³Ø±ÛĮ": 4179,
      "ĠØ¯Ø§Ø¹Ø´": 4180,
      "ĠÙĪØ¹": 4181,
      "ĠØ³ÛĮØ±": 4182,
      "ĠØ¬ÙĩØ§Ø¯": 4183,
      "ĠØ¦Ùĩ": 4184,
      "ØªÙĬ": 4185,
      "Û²Û·": 4186,
      "Ġx": 4187,
      "Ø´ÛĮÙĨ": 4188,
      "ĠÙĨÚ©Ø±Ø¯Ùĩ": 4189,
      "Ø´Ø§Ø¯": 4190,
      "ÙĤØ§ÙĨ": 4191,
      "Ø®ÙĪØ¯": 4192,
      "ĠÙ¾ÛĮØ§Ø¯Ùĩ": 4193,
      "ĠÙħØªÙĪØ³Ø·": 4194,
      "ĠØ¨Ú©": 4195,
      "Ø§ÙħÙĦÙĩ": 4196,
      "Ø§Ø¯Ø§Ø±": 4197,
      "ĠÙĥØ±Ø¯Ùĩ": 4198,
      "ĠØ¹Ø±Ø¨ÛĮ": 4199,
      "act": 4200,
      "ank": 4201,
      "ĠÙģÙĦØ²ÛĮ": 4202,
      "Ù£": 4203,
      "Ú©ØªØ§Ø¨": 4204,
      "Ø´ÙĩØ±ÛĮ": 4205,
      "ÙħØ¹Ø§ÙĪÙĨ": 4206,
      "ĠÙĤØ±ÙĨ": 4207,
      "ĠØ¨ÙĨØ¯Ø±": 4208,
      "ĠÚ©Ø´ÛĮ": 4209,
      "ĠÙĪØ§ÙĤØ¹ÛĮØª": 4210,
      "Ø¹ÙĨÙĪØ§ÙĨ": 4211,
      "Ø§Ø´ÙĨ": 4212,
      "ĠÙĪØ¸ÛĮÙģÙĩ": 4213,
      "Ø¯Ú©ØªØ±": 4214,
      "ĠØ¨Ø³ÙĬ": 4215,
      "Ø§ÙĦÙĪ": 4216,
      "ĠØ¹Ø¬ÛĮØ¨": 4217,
      "ĠÙĪÙĬ": 4218,
      "ĠÙħØŃÙĦÛĮ": 4219,
      "ĠØ¶Ø±ÙĪØ±ÛĮ": 4220,
      "ĠØ®ÙĦØ§ÙĤ": 4221,
      "sp": 4222,
      "ĠØ¹Ùģ": 4223,
      "ext": 4224,
      "AM": 4225,
      "ĠÙĨÙĤØ§Ø´ÛĮ": 4226,
      "Ġ2013": 4227,
      "ĠØ¨Ø§Ø²Ø§Ø±ÛĮØ§Ø¨ÛĮ": 4228,
      "56": 4229,
      "Ø´Ø§": 4230,
      "ĠÙħÙĨØµ": 4231,
      "ĠØ¶Ø±Ø¨Ùĩ": 4232,
      "ill": 4233,
      "min": 4234,
      "ĠÙĪØ§ÙĨ": 4235,
      "ÙĦÛĮÙħ": 4236,
      "Ġ40": 4237,
      "Ø§Ø³ØªÛĮÚ©": 4238,
      "ĠØ¹Ø¨": 4239,
      "ĠÙħÙĤØ§ÙĪÙħ": 4240,
      "ĠØªØµÙĪÛĮØ¨": 4241,
      "ĠÙħÛĮÚ©ÙĨØ¯": 4242,
      "ata": 4243,
      "Ġ1392": 4244,
      "ĠØµØ¯ÙĪØ±": 4245,
      "ĠØªØ§Ø³ÛĮ": 4246,
      "ĠÛ±Û³Û¹Û¹": 4247,
      "ĠÚĺØ§Ù¾": 4248,
      "ÙĨØ´Ø§ÙĨ": 4249,
      "ÙĤØ±": 4250,
      "ÙĪÛĮØ´": 4251,
      "ÛİØª": 4252,
      "ĠØ¨Ø²Ø±Ú¯ØªØ±ÛĮÙĨ": 4253,
      "ĠÙĨÚ¯Ø±": 4254,
      "Ø§Ø¯Ø§": 4255,
      "Ø§ÙħÙĪÙĨ": 4256,
      "ĠØµÙĨØ¯ÙĦÛĮ": 4257,
      "ÙħÙħ": 4258,
      "ĠÙ¾ÙĪØ¯Ø±": 4259,
      "ĠÙĨÙħÙĬ": 4260,
      "ÙĪØ§Ø±Ø¶": 4261,
      "ĠÙħÙĪÙĤØ¹ÛĮØª": 4262,
      "ĠÙĦÙĨØ¯": 4263,
      "ÙĢÙĢÙĢ": 4264,
      "ĠPl": 4265,
      "ĠÙ¾Ø§Ø´": 4266,
      "ue": 4267,
      "ÙĬÙģ": 4268,
      "ĠØªÙĪÙ¾": 4269,
      "âĢ¦]": 4270,
      "ĠÙħÙĨÙģÛĮ": 4271,
      "ĠØ¨Ø§ÙĦØ§ÛĮÛĮ": 4272,
      "ĠØ§Ø·Ø±Ø§Ùģ": 4273,
      "ĠØ¬ÙĨØ³ÛĮ": 4274,
      "tern": 4275,
      "Ø¯ÙĦ": 4276,
      "ÙħÙĨØ¯ÛĮ": 4277,
      "ĠPh": 4278,
      "ĠØ¢ÙģØªØ§Ø¨": 4279,
      "ĠÙħÙĨØŃ": 4280,
      "Ø¢ÛĮØ§": 4281,
      "Ø±ÙĨÚ¯": 4282,
      "ĠØ´Ø±ÙĤÛĮ": 4283,
      "Ø¢Ø®Ø±ÛĮÙĨ": 4284,
      "Ø§Ú¯ÙĪÙĨ": 4285,
      "ÙĩØ§Ùī": 4286,
      "ĠØ¹Ø¶ÙĪÛĮØª": 4287,
      "ĠØ³ÙĦÙĪÙĦ": 4288,
      "man": 4289,
      "ĠØªØ¬Ø±Ø¨ÛĮ": 4290,
      "ĠÙħØ·ÙħØ¦ÙĨ": 4291,
      "ng": 4292,
      "ĠÙĨÙĪØ¹ÛĮ": 4293,
      "ĠØ®ÙĪØ±Ø¯ÙĨ": 4294,
      "Ø³ØªØ±ÛĮ": 4295,
      "Ø°Ø±": 4296,
      "ĠÙĨÛĮØ³ØªÙĨØ¯": 4297,
      "Ġ60": 4298,
      "Ø§ÙĨÙĬ": 4299,
      "ĠÚĨØ±Ø¨ÛĮ": 4300,
      "ĠÚ¯ÛĮÙĦØ§ÙĨ": 4301,
      "ĠÙħØªØ§Ø³ÙģØ§ÙĨÙĩ": 4302,
      "ĠÙħØºØ²": 4303,
      "âĢĮØĮ": 4304,
      "ÙĩØ±Ø§": 4305,
      "ĠØ§Ø®Ø°": 4306,
      "Ù¾Ø±Ø³Øª": 4307,
      "ĠÚ©Ø±Ø¬": 4308,
      "ĠØ±ÙĤÙħ": 4309,
      "ÙĪØ±ÙĪ": 4310,
      "ĠÙħÙĨØ§Ø³Ø¨ÛĮ": 4311,
      "Ú©Ø§Ùħ": 4312,
      "Ø§Ø®ØªÛĮ": 4313,
      "Ø³Ø§": 4314,
      "ĠÙ¾Ø§ÛĮØ¯": 4315,
      "97": 4316,
      "ĠÚ©Ø§Ø´": 4317,
      "ĠÙħØ±Ø¨ÛĮ": 4318,
      "lash": 4319,
      "ĠØ¹Ø¯Ø§ÙĦØª": 4320,
      "ĠØ¯Ø±Ø¬": 4321,
      "ant": 4322,
      "Ø¢ÛĮØ¯": 4323,
      "Ø²ÙĨØ¯": 4324,
      "Ġ[âĢ¦]": 4325,
      "ĠØªÙĪÙĦÛĮØ¯ÛĮ": 4326,
      "ĠÙħØ³Ø¦ÙĪÙĦÛĮØª": 4327,
      "ĠØ¨Ø´Ø±": 4328,
      "ĠÙ¾Ø±ÙĪØª": 4329,
      "ĠØ´ÛĮÙħÛĮØ§ÛĮÛĮ": 4330,
      "ĠÙĨØ§ÙĨ": 4331,
      "ĠØ³ÙĨÚ¯ÛĮÙĨ": 4332,
      "ĠÙĤØ·Ø¹Ùĩ": 4333,
      "ĠÙħÛĮÚ©ÙĨÙħ": 4334,
      "ĠØ´ÙĩØ±ÙĪÙĨØ¯Ø§ÙĨ": 4335,
      "ead": 4336,
      "ĠØ¯Ø±Ø®Øª": 4337,
      "ĠØ¢ÙĨÚ©Ùĩ": 4338,
      "ĠÙģÙĩØ±Ø³Øª": 4339,
      "ÙĪØ±Ø¯ÛĮ": 4340,
      "ĠÚ©Ø´Øª": 4341,
      "ĠÙħØ·ÙĦ": 4342,
      "ĠÙħØŃÙħÙĪØ¯": 4343,
      "ÙĥØ±Ø¯": 4344,
      "per": 4345,
      "Ø·Ø¨": 4346,
      "ĠØ¯Ø§Ø¯Ú¯Ø§Ùĩ": 4347,
      "ĠØ¨ÛĮØ´ØªØ±ÛĮÙĨ": 4348,
      "Ø²ÛĮÙĩ": 4349,
      "ĠÙĨØ´Ø¯": 4350,
      "ame": 4351,
      "ĠÙĨÙĪÛĮØ³ÛĮ": 4352,
      "ĠÚ©ÙĦÙħÙĩ": 4353,
      "ĠÙģØ±Ø²ÙĨØ¯Ø§ÙĨ": 4354,
      "ĠØ·Ø¨ÛĮØ¹Øª": 4355,
      "ØºÙħ": 4356,
      "ĠØªÙħØ§ÛĮ": 4357,
      "ĠÙħØŃØªØ±Ùħ": 4358,
      "Ø¯ÙĪØ¯": 4359,
      "ÛĮØ¯Ø§ÙĨ": 4360,
      "ĠØ¯Ø§ÙĨØ´Ú¯Ø§ÙĩÛĮ": 4361,
      "ĠÙģØ¯Ø±Ø§Ø³ÛĮÙĪÙĨ": 4362,
      "ĠØ¹Ø±ÙĪ": 4363,
      "Ø¯ÛĮÙĩ": 4364,
      "ĠØªØ£ÙħÛĮÙĨ": 4365,
      "Ø¨Ø´": 4366,
      "ĠØ§ÙĪÙĦÙĪÛĮØª": 4367,
      "ĠØ¨Ø²Ø±Ú¯ÛĮ": 4368,
      "ĠØ¨Ø§Ø±Ø¯Ø§Ø±ÛĮ": 4369,
      "ĠØ¨Ø´Ùĩ": 4370,
      "ĠØ¹Ø³ÙĦ": 4371,
      "ialis": 4372,
      "ĠØªØ®Øª": 4373,
      "ÚĺÛĮÚ©": 4374,
      "ĠØ®ÙĪØ¯Ø±ÙĪÙĩØ§ÛĮ": 4375,
      "ĠØ¯Ø§": 4376,
      "ĠØ¨Ø§Ø²Ø±Ú¯Ø§ÙĨÛĮ": 4377,
      "Ø¯Ùģ": 4378,
      "ĠØ¨ÙĦÚ©": 4379,
      "ĠÚ¯ÙĪÛĮØ¯": 4380,
      "ĠØ¨ØªÙĪØ§ÙĨØ¯": 4381,
      "ĠØ¨Ø§Ø²ÛĮÚ¯Ø±Ø§ÙĨ": 4382,
      "Ø®Ø§Ø±": 4383,
      "Ø§ØªÙĪØ±": 4384,
      "ĠØ¨ÛĮÙħØ§Ø±Ø§ÙĨ": 4385,
      "ĠØ¯ÙĦØ§ÛĮÙĦ": 4386,
      "ÙĬÙĬ": 4387,
      "ail": 4388,
      "ØªÙĪÙĦ": 4389,
      "ĠÙģØ±Ø¢ÛĮÙĨØ¯": 4390,
      "ĠØºÙħ": 4391,
      "ĠØ³Ø¹ÛĮØ¯": 4392,
      "ĠØ§ØªØµØ§ÙĦ": 4393,
      "ÙħØ´Ø®ØµØ§Øª": 4394,
      "ĠÙħØ´Øº": 4395,
      "ĠØªØ§Ø¨Ø³ØªØ§ÙĨ": 4396,
      "ĠØ¯Ûķ": 4397,
      "Ø§Ú©Ø«Ø±": 4398,
      "ĠÙĨØ´ÙĪØ¯": 4399,
      "ĠØªØµØ§Ø¯": 4400,
      "ÙĨØ¯Ùħ": 4401,
      "ĠÛ²Û°Û°": 4402,
      "ĠØ³Ø§Ø²Ùĩ": 4403,
      "ĠÙħÙĩÙħÛĮ": 4404,
      "ÛµÛ°": 4405,
      "ÙģØ±Ø§ÙĨØ³": 4406,
      "ĠØ´Ø§ÛĮ": 4407,
      "ĠØªØ±Ø¯": 4408,
      "âĢį": 4409,
      "ĠÙĤÙĪÙĩ": 4410,
      "Ø±ÛĮØŃÛĮ": 4411,
      "ĠØ³Ø¦ÙĪ": 4412,
      "ÙĬØ¯Ùĩ": 4413,
      "ĠØ¯Ø±ØµØ¯ÛĮ": 4414,
      "ER": 4415,
      "line": 4416,
      "ĠØ³Ú©Ùĩ": 4417,
      "ĠØ±ÙĪÛĮÚ©Ø±Ø¯": 4418,
      "ĠLaptop": 4419,
      "Ù¥": 4420,
      "ÙħØ§Ø±": 4421,
      "ĠÛĮÙĪ": 4422,
      "ĠÙħØ¬ÙħØ¹": 4423,
      "ĠØ¢Ú¯Ø§ÙĩÛĮ": 4424,
      "ĠØŃØ±Ùħ": 4425,
      "ĠÙ¾Ø±Ø³Øª": 4426,
      "ĠØ¬Ø§ÛĮØ²Ùĩ": 4427,
      "ĠØ¨Ø§ÙĨÙĪØ§ÙĨ": 4428,
      "ĠØ®ÙĪØ§ÙĨØ¯ÙĨ": 4429,
      "=\"": 4430,
      "ĠØ±ÙĪØ¨": 4431,
      "Ú©ÙĨÛĮØ¯": 4432,
      "ĠÙĪØ¬Ùĩ": 4433,
      "uc": 4434,
      "able": 4435,
      "ĠØ¨Ø§Ø±Ùĩ": 4436,
      "Ú¯ÙĪÛĮÛĮ": 4437,
      "ĠÙħÙĪÙĤØ¹": 4438,
      "ĠÙĤÛĮ": 4439,
      "Ø¬Ø§ÛĮ": 4440,
      "Ø§Ø³Ø¨Ùĩ": 4441,
      "ĠØ§ØŃÙħØ¯ÛĮ": 4442,
      "Ø±Ø³Ø§ÙĨÛĮ": 4443,
      "ĠØµØ§Ø¯ÙĤ": 4444,
      "ure": 4445,
      "ars": 4446,
      "ĠØªÙĤØ³ÛĮÙħ": 4447,
      "ĠØ³Ú¯": 4448,
      "ĠÙ¾ÛĮØ´Ú¯ÛĮØ±ÛĮ": 4449,
      "ĠÙ¾ÛĮØ´Ø±ÙģØªÙĩ": 4450,
      "ĠØ§Ø¨ØªØ¯Ø§ÛĮÛĮ": 4451,
      "ĠØ®ÙĪØ§Ø³ØªÙĩ": 4452,
      "Ø¬ÙĨ": 4453,
      "ĠÚ©Ø§Ø±ØªÙĪÙĨ": 4454,
      "ult": 4455,
      "ĠØ¨ÙĨÛĮØ§Ø¯": 4456,
      "Ø§ÙĪØ±Ø¯": 4457,
      "ĠØ³Ø§": 4458,
      "ïºİï»": 4459,
      "ĠÙģÙĪØª": 4460,
      "ĠÚ¯Ø°Ø§Ø±": 4461,
      "ĠÚ©ÛĮØ´": 4462,
      "ĠØ±ÛĮØ²": 4463,
      "ĠØ¬Ø²Ø¦ÛĮØ§Øª": 4464,
      "Ġ??": 4465,
      "ÙħÙĪØ¹": 4466,
      "ÚĨÛĮÙĨ": 4467,
      "Ø¢Ø±": 4468,
      "ÙĪØ°": 4469,
      "ĠØ¨ÙĩÛĮÙĨÙĩ": 4470,
      "ĠØ¯ÙĪÙħÛĮÙĨ": 4471,
      "ĠØ´ÛĮØ±ÛĮÙĨ": 4472,
      "100": 4473,
      "ĠÙħØ²Ø§ÛĮ": 4474,
      "ĠÙ¾Ø§ÙĦ": 4475,
      "ĠØ§Ø¨ØªØ¯Ø§ÛĮ": 4476,
      "ĠØ®Ø±ÙĪØ¬": 4477,
      "ĠØ±Ø¶ÙĪÛĮ": 4478,
      "ĠØ¨Ø§ØªØ±ÛĮ": 4479,
      "ĠÙħØ¨ØªÙĦØ§": 4480,
      "ĠÙ¾ÙĨØ¬Ø±Ùĩ": 4481,
      "ĠÙħØ¹Ø§ÙĪÙĨØª": 4482,
      "ain": 4483,
      "ĠÙħØ®Ø§ÙĦÙģ": 4484,
      "ook": 4485,
      "ĠÚĨØ±Ø§Øº": 4486,
      "ĠØªØ¦Ø§ØªØ±": 4487,
      "ass": 4488,
      "ĠØ§Ø¬ØªÙħØ§Ø¹": 4489,
      "ĠØ¬Ø¯ÙĬØ¯": 4490,
      "ĠÙħÙĨØ§Ø³Ø¨Øª": 4491,
      "ype": 4492,
      "ĠÚĨØ§ÛĮ": 4493,
      "OS": 4494,
      "ØªÙĪØ³Ø·": 4495,
      "Ù¾Ø²Ø´": 4496,
      "ĠØ«Ø§ÙĨÛĮÙĩ": 4497,
      "ĠÙ¾Ø±Ø³Ø´": 4498,
      "lass": 4499,
      "ÙħØ§Ùħ": 4500,
      "ĠÙħØ¬ÙħÙĪØ¹": 4501,
      "ĠØŃÙĤÛĮÙĤØª": 4502,
      "her": 4503,
      "Ø§ÙĨØ¯ÙĨ": 4504,
      "ÛĮÙĨØ§ÙĦ": 4505,
      "ĠØ§ÛĮØ±ÙĨØ§": 4506,
      "ĠØ¨Ø¯ÛĮÙĨ": 4507,
      "ÙĨÙĬÙĨ": 4508,
      "ĠÙħØ±Ø§ÙĤØ¨Øª": 4509,
      "Ø¯Øª": 4510,
      "ĠØ¢Ø³Øª": 4511,
      "ĠÙģØ±Ø¯Ø§": 4512,
      "Ġvi": 4513,
      "ĠØ¨Ú¯": 4514,
      "Ø¯Ø§ÙĨØ´": 4515,
      "ĠØ¸ÙĩØ±": 4516,
      "ĠØ²ÙĦ": 4517,
      "ĠØ§Ø·ÙĦØ§Ø¹Ø§ØªÛĮ": 4518,
      "ĠØ³Ø®ÙĨØ±Ø§ÙĨÛĮ": 4519,
      "Ø·ÙĦØ¨Ø§ÙĨ": 4520,
      "ĠÙ¾Ø§ÛĮØª": 4521,
      "ĠØªØŃÙĦÛĮÙĦÛĮ": 4522,
      "ĠØªØ¯": 4523,
      "ĠÚĨÛĮÙĨÛĮ": 4524,
      "ĠØªØ¹ÙĩØ¯": 4525,
      "ĠÙĪØ¶Ø¹": 4526,
      "ÙĤØ³ÙħØª": 4527,
      "ĠØ§Ø³Ú©": 4528,
      "ĠØ§ÚĨ": 4529,
      "Ø¨ÙĩÙĩ": 4530,
      "In": 4531,
      "ĠØ¢ÙĤØ§": 4532,
      "ĠØªÙĤØ§Ø¶": 4533,
      "ĠØŃØ¬Øª": 4534,
      "ĠÙĪØ§Ùħ": 4535,
      "unction": 4536,
      "ĠØ®Ø§ÙĦ": 4537,
      "ÙĥÙĦ": 4538,
      "ÙĥØ§Ø±": 4539,
      "ĠÛ°Û¹": 4540,
      "ĠÚ¯Ø§Ùĩ": 4541,
      "html": 4542,
      "ĠÙĪÛĮØ¯Ø¦ÙĪ": 4543,
      "ĠØ§Ø³ØªÙĤØ¨Ø§ÙĦ": 4544,
      "ĠÚ¯Ø±ÛĮ": 4545,
      "ĠØ²Ø®": 4546,
      "Ġst": 4547,
      "ĠÙħØ¹Ø§ÙħÙĦÙĩ": 4548,
      "--------": 4549,
      "ĠØ¹ÙĪØ§Ø±Ø¶": 4550,
      "Ø¨Ø·": 4551,
      "ĠØ±Ø¯Ùĩ": 4552,
      "ĠØ§Ø®ØªØµØ§ØµÛĮ": 4553,
      "ĠÙħØ°ÙĩØ¨ÛĮ": 4554,
      "43": 4555,
      "(\"": 4556,
      "ÙĤØ§ÛĮ": 4557,
      "Ø¨Ø±ÙĨØ§ÙħÙĩ": 4558,
      "ĠØ±ÙĬ": 4559,
      "ĠØµÙģØŃØ§Øª": 4560,
      "ĠÙĩÙħØ§ÙĩÙĨÚ¯ÛĮ": 4561,
      "ĠÙĦØºÙĪ": 4562,
      "ĠÙĩÙģØªÙħ": 4563,
      "ontent": 4564,
      "ĠØ¬Ø§ÛĮÚ¯Ø²": 4565,
      "Ù¾ÙĦ": 4566,
      "ĠÙħÙĤØ¯Ùħ": 4567,
      "ĠØŃÙħØ§Ùħ": 4568,
      "Ġï¿½ï¿½ï¿½ï¿½ï¿½ï¿½ï¿½ï¿½": 4569,
      "ber": 4570,
      "ĠÙħØŃÚ©": 4571,
      "ĠØ±ÙĨÚ¯ÛĮ": 4572,
      "ĠÙĤØ²ÙĪÛĮÙĨ": 4573,
      "ry": 4574,
      "ĠØªØ§ÙĦ": 4575,
      "Ø·Ø¹": 4576,
      "ĠÙħØ¹ÙĦÙħ": 4577,
      "ÙĥÙĬ": 4578,
      "Ø§Ø§Ø§Ø§": 4579,
      "ĠÙħØªÙĩ": 4580,
      "ĠØ®Ø§ÙĦÛĮ": 4581,
      "ĠØ±Ø§ÙĩÛĮ": 4582,
      "Ø¨Ø¹Ø¯": 4583,
      "!!!!": 4584,
      "ĠØ¹ÛĮÙĨ": 4585,
      "Ġpro": 4586,
      "ĠØ³Ø±Ø§Ø³Ø±ÛĮ": 4587,
      "ÛĮØ¯Ø§Ø¯": 4588,
      "66": 4589,
      "ĠÚ©Ø§Ø±Ú¯Ø±Ø§ÙĨ": 4590,
      "ĠØªØ¹Ø¯Ø§Ø¯ÛĮ": 4591,
      "ĠÙĨØ§ØŃ": 4592,
      "ĠØ§Ø³ØªØ®Ø±Ø§Ø¬": 4593,
      "ĠØ§Ú©Ø«Ø±": 4594,
      "Ø¨Ø±Ø²": 4595,
      "ĠØ®ÙĦÛĮ": 4596,
      "ÙĪÙĦØ§ÙĨ": 4597,
      "Ø§Ú©Øª": 4598,
      "ÙĦÛĮÙĨÚ©": 4599,
      "Ø¬Øª": 4600,
      "ĠØµØ¯Ø±": 4601,
      "Ø§ØºÙĦ": 4602,
      "ĠÙĩØ¯Ø§ÛĮØª": 4603,
      "ĠÛĮØ§Ø¯Ú¯ÛĮØ±ÛĮ": 4604,
      "ÙĪØ¦": 4605,
      "Ù¡Ù": 4606,
      "ÙĬÚ©": 4607,
      "ĠÙĨØ§Ø®ÙĨ": 4608,
      "ĠÚĨØ³Ø¨": 4609,
      "ĠÙħØ´ØºÙĪÙĦ": 4610,
      "Ø²ÙĨÛĮ": 4611,
      "ĠØ´ÙĦÙĪ": 4612,
      "ĠÙ¾ÛĮÙĪÙĨØ¯": 4613,
      "ĠØ¨Ùħ": 4614,
      "ĠØ¨Ø±Ø¯ÙĨ": 4615,
      "ĠØµÙĦØŃ": 4616,
      "Ø®ÙĪØ§ÙĩÛĮØ¯": 4617,
      "Ø²Ø¯Ùĩ": 4618,
      "Ø¬Ø§Øª": 4619,
      "Ø§ÙħÛĮØ¯": 4620,
      "Ø§ÙħØ±ÙĪØ²": 4621,
      "ÙĪØ²ÙĨ": 4622,
      "\",": 4623,
      "âĢ¦âĢ¦âĢ¦âĢ¦âĢ¦âĢ¦âĢ¦âĢ¦âĢ¦âĢ¦âĢ¦âĢ¦âĢ¦âĢ¦âĢ¦âĢ¦": 4624,
      "Ø§ÙĤØµÙĩ": 4625,
      "ĠØ¹ÙĦÛĮØ±Ø¶Ø§": 4626,
      "ĠÙ¾ÙĨØ¬Ø´ÙĨØ¨Ùĩ": 4627,
      "ĠØ¨Ø§Ø²ÙĨØ´": 4628,
      "ĠÚ©ÙĨÚ¯": 4629,
      "ĠØ§ÙĨØŃ": 4630,
      "ĠÙħØ³Ø§ÙģØ±": 4631,
      "ĠÚ©Ø±ÙħØ§ÙĨØ´Ø§Ùĩ": 4632,
      "pr": 4633,
      "ĠØ¨Ø¯Ø§ÙĨÛĮØ¯": 4634,
      "ĠÚ¯ÛĮØ§ÙĩØ§ÙĨ": 4635,
      "ĠØ§ÙĦØŃ": 4636,
      "ĠØ§ÙĦØ§Ø³ÙĦØ§Ùħ": 4637,
      "ĠØ¬ÙħØ¹ÛĮ": 4638,
      "Ġï¿½ï¿½ï¿½ï¿½ï¿½ï¿½": 4639,
      "ĠÙħØŃØ§Ø³Ø¨Ùĩ": 4640,
      "ĠÙĨÚ©ÙĨÛĮØ¯": 4641,
      "Ú©Ø§ÙĨÛĮ": 4642,
      "ĠÃĹ": 4643,
      "ĠØ¯Ú©ÙĪØ±Ø§Ø³ÛĮÙĪÙĨ": 4644,
      "ĠØ±ÛĮØ³": 4645,
      "ÙĪÛĮÙħ": 4646,
      "ĠÙĨØ§Ù¾": 4647,
      "ÙĪÚ¯ÙĪ": 4648,
      "ĠØ¢Ø±Ø§ÙħØ´": 4649,
      "ĠØªÙĪØ¬": 4650,
      "ĠØ±ÙħØ¶Ø§ÙĨ": 4651,
      "Ø¨Ø±Ø±Ø³ÛĮ": 4652,
      "ĠØ±Ø§ÙĩÚ©Ø§Ø±": 4653,
      "ug": 4654,
      "ĠÙģØ±ÙħØª": 4655,
      "ĠÚ©Ø´ÙĪØ±ÛĮ": 4656,
      "ĠØ²ÙĨÚ¯": 4657,
      "ĠØ´ÙĬ": 4658,
      "ĠÚ¯ÛĮÚ¯Ø§Ø¨Ø§ÛĮØª": 4659,
      "ĠÙĨØ¨Ø§Ø´Ø¯": 4660,
      "ĠØ±ÙħØ²": 4661,
      "ĠÙĥÙĨÙĨØ¯": 4662,
      "ĠÙħØªØŃØ¯Ùĩ": 4663,
      "ĠØ¯Ú©": 4664,
      "ĠÚ©Ø§Ø±Ú¯Ø§Ùĩ": 4665,
      "ĠÙħØ¹Ø¯ÙĨÛĮ": 4666,
      "ĠØ´ØºÙĦ": 4667,
      "ous": 4668,
      "ÙĤØ¨": 4669,
      "ĠÙĨÙĪÛĮÙĨ": 4670,
      "ĠØ§Ø³Ø±Ø§Ø¦": 4671,
      "42": 4672,
      "ĠÙħØ¹ÙĨØ§ÛĮ": 4673,
      "ly": 4674,
      "ĠØ´ÛĮÚ©": 4675,
      "ĠÙģØ¹ÙĦÛĮ": 4676,
      "Ø·Ø±Ø§ØŃÛĮ": 4677,
      "ĠØ¯Ø¨ÛĮ": 4678,
      "ĠÙ¾ÙħÙ¾": 4679,
      "ams": 4680,
      "ĠÙĪÙĦØ§ÛĮØª": 4681,
      "Ø´ÛĮÙĪ": 4682,
      "ĠÙħØ¨ÙĨÛĮ": 4683,
      "Ú¯Ø§Ùħ": 4684,
      "ĠØªØ£Ú©ÛĮØ¯": 4685,
      "Power": 4686,
      "ÙħØ±Ú©Ø²": 4687,
      "ĠÙĥÙħ": 4688,
      "ĠØ±Ø³ØªÙĪØ±Ø§ÙĨ": 4689,
      "ĠØ¢ÙģØ±": 4690,
      "ÛĮÚ©Ùĩ": 4691,
      "ĠØ§ÙĩÙĪØ§Ø²": 4692,
      "ĠÙħØ¹Ø§ÙħÙĦØ§Øª": 4693,
      "ĠØ´ÙĩØ±ÙĩØ§ÛĮ": 4694,
      "ĠÙĤÙĩØ±ÙħØ§ÙĨÛĮ": 4695,
      "ĠØ¨Ø³ÛĮØ¬": 4696,
      "ĠÙģØ±ÙħØ§ÙĨØ¯Ùĩ": 4697,
      "ĠÚĨÙĪØ¨": 4698,
      "ĠÙħØ³Ø§ÙĦÙĩ": 4699,
      "ĠØ³Ø§Ø²ÙĨØ¯Ùĩ": 4700,
      "ÛķÙĪÛķ": 4701,
      "):": 4702,
      "ĠØ¢Ùĩ": 4703,
      "ĠÙħØŃØ¯ÙĪØ¯Ùĩ": 4704,
      "ĠØ²ÙĦØ²ÙĦÙĩ": 4705,
      "Ø±Ø³ÙĬ": 4706,
      "ĠØ§Ø±ØªÙģ": 4707,
      "ÙĩÙħÚĨÙĨÛĮÙĨ": 4708,
      "ĠÙħØ¶": 4709,
      "emory": 4710,
      "Ø¹ÛĮÙģ": 4711,
      "ĠØªØ¯ÙĪ": 4712,
      "ĠÚ©Ø´ØªÙĩ": 4713,
      "ĠØŃÙģØ§Ø¸Øª": 4714,
      "ĠÙĪØ¹Ø¯Ùĩ": 4715,
      "ĠØ¯Ø¨": 4716,
      "ĠØ§Ø¹ØªÙĤ": 4717,
      "Ġis": 4718,
      "ĠÙĩÙĬ": 4719,
      "rom": 4720,
      "Ø§Ø³ØªÙģØ§Ø¯Ùĩ": 4721,
      "ĠØ§ÙħØ±ÙĪØ²Ùĩ": 4722,
      "ĠØ§Ø°": 4723,
      "ÙĪÙĦØª": 4724,
      "ĠØŃÙĪØ§Ø¯Ø«": 4725,
      "ĠÙģØ§Ø²": 4726,
      "ĠÚ©ÛĮÙĦÙĪÙħØªØ±": 4727,
      "ĠØ¨Øº": 4728,
      "ĠØ®ÙĦÙĤ": 4729,
      "ĠØ¬Ø±Ùħ": 4730,
      "ĠØ±ÙĪØ§ÙĨÛĮ": 4731,
      "ĠØªØ³ÙĩÛĮÙĦØ§Øª": 4732,
      "ong": 4733,
      "ĠØªØ®ÙģÛĮÙģ": 4734,
      "ĠÙ¾Ø§Ø±ÚĨÙĩ": 4735,
      "ĠÙĤØªÙĦ": 4736,
      "ĠÙĨÙģÙĪØ°": 4737,
      "Ø¢Ø¨Ø§Ø¯": 4738,
      "oh": 4739,
      "Ġ94": 4740,
      "ĠØŃØ³Ø§Ø¨Ø¯Ø§Ø±ÛĮ": 4741,
      "ĠØ´ÙģØ§Ùģ": 4742,
      "orm": 4743,
      "ĠÙħØ¸": 4744,
      "ĠØ³ÙĤÙģ": 4745,
      "ĠÚķ": 4746,
      "ĠØ®ÙĪØ¯Ø´Ø§ÙĨ": 4747,
      "ĠØ¢Ø³ÙħØ§ÙĨ": 4748,
      "ĠØ¨Ø±Ø³Ø¯": 4749,
      "Ø§ÙĤÛĮ": 4750,
      "Ø´Ø±": 4751,
      "Ø³ÛĮØ±": 4752,
      "ĠÚ©Ø§ÙĦØ§ÛĮ": 4753,
      "Ù¾Ø°ÛĮØ±": 4754,
      "Ú©ØªÙĪØ±": 4755,
      "ĠØ¬Ø³": 4756,
      "out": 4757,
      "ÙĩÙħØ§ÙĨ": 4758,
      "ĠÛĮØ§Ø³": 4759,
      "ĠÚĨØª": 4760,
      "mA": 4761,
      "ĠÙĪØ§Ø³": 4762,
      "ĠÚ¯Ø±ÙĪÙĩÛĮ": 4763,
      "ĠÙħÙĨØªÙĤÙĦ": 4764,
      "ĠÙħÙĦÙĦ": 4765,
      "ĠÙħÙħÙĨÙĪØ¹": 4766,
      "))": 4767,
      "ÙģØ§ÛĮÙĦ": 4768,
      "ĠÛ²Û·": 4769,
      "Ø§ÙĤØ¹": 4770,
      "ĠØªØŃÙĤÙĤ": 4771,
      "Ġwith": 4772,
      "96": 4773,
      "ĠØ²Ø±Ø¯": 4774,
      "ĠØ§Ø±ÙĪÙ¾Ø§ÛĮÛĮ": 4775,
      "::": 4776,
      "ÙĦØ³ÛĮ": 4777,
      "ĠØ§ÙĨØ¨": 4778,
      "ĠØ³ÙĪÙĨÛĮ": 4779,
      "ĠPM": 4780,
      "ĠØªØ¹ÙĪÛĮ": 4781,
      "ÙĦØ§Øº": 4782,
      "ĠÚ©ÙĨÙģØ±Ø§ÙĨØ³": 4783,
      "ĠÙħØ±Ø¨ÙĪØ·Ùĩ": 4784,
      "Ø§Ø³ØªØ®": 4785,
      "ĠÙħØªÙĨÙĪØ¹": 4786,
      "ĠØ¨ÙĬØ´ØªØ±": 4787,
      "ĠÙĨØ¬Ø§Øª": 4788,
      "ĠØ³Ø§ÙħØ§ÙĨ": 4789,
      "ĠØ¬ÙĦØ¨": 4790,
      "Ø§Ø¯Ø§ÙħÙĩ": 4791,
      "ĠØ¨ÙĪØ´ÙĩØ±": 4792,
      "ĠØ³Ø±Ú¯Ø±ÙħÛĮ": 4793,
      "ĠØ³Ø±Ú©": 4794,
      "ĠÙĤØ¯Ùħ": 4795,
      "ĠØ´Ø±Ø·": 4796,
      "ung": 4797,
      "ĠØ¢ÙĦÙĪØ¯Ú¯ÛĮ": 4798,
      "ØªÙħØ¹": 4799,
      "ĠÙħÙģÙĩÙĪÙħ": 4800,
      "Ø³ÛĮÙĨ": 4801,
      "Ù¤": 4802,
      "ĠØ¹Ø§Ø¯ÛĮ": 4803,
      "Ù¾Ø§ÛĮ": 4804,
      "ĠÙĩÙħØ¯Ø§ÙĨ": 4805,
      "usic": 4806,
      "ĠØ±ÙĪØ³ØªØ§ÛĮÛĮ": 4807,
      "ÙħÛĮÙĨØ§ÙĨ": 4808,
      "ED": 4809,
      "ĠØªØµÙĪØ±": 4810,
      "ĠØ²ÙħÛĮÙĨÛĮ": 4811,
      "ĠÙħØŃØªÙĪØ§ÛĮ": 4812,
      "ĠØ®ÙĪØ¯Ú©Ø§Ø±": 4813,
      "ĠÙĨÚ©Ø§Øª": 4814,
      "ĠØ±ÛĮØ´Ùĩ": 4815,
      "ĠÙĤÙĬ": 4816,
      "ĠÛ²Û¶": 4817,
      "ÙĪØ±Ø§": 4818,
      "ĠØ§ÙĦÙħÙ¾": 4819,
      "ĠÙĥÙĦ": 4820,
      "Ø®ÙĪØ§ÙĩÙĨØ¯": 4821,
      "ĠØ®Ø§Ø·Ø±ÙĨØ´Ø§ÙĨ": 4822,
      "ĠØ´Ø±ÙĥØª": 4823,
      "................................": 4824,
      "ĠØ¹ÙħØ±Ø§ÙĨ": 4825,
      "ĠÙĨØ¨ÙĪØ¯Ùĩ": 4826,
      "ĠØªÚ©Ø±Ø§Ø±": 4827,
      "ĠØ¹ÛĮÙĨÚ©": 4828,
      "ĠÙģØ±Ø§ÛĮÙĨØ¯": 4829,
      "ĠÚ©Ø±Ø¯Ø³ØªØ§ÙĨ": 4830,
      "ĠÙħÛĮÙĦØ§Ø¯ÛĮ": 4831,
      "Ø±Ø§Ø¬": 4832,
      "ĠØ¢Ú¯Ø§Ùĩ": 4833,
      "ĠÙģØ±ÛĮ": 4834,
      "Ġ90": 4835,
      "ĠØ¨ÛĮÚ©": 4836,
      "ĠØ¢ÙĨØªÛĮ": 4837,
      "ĠØ¯Ø±Ø®Ø´": 4838,
      "ÚĨØ±Ø§": 4839,
      "ĠÚĨØ·ÙĪØ±": 4840,
      "ĠØ¢ÙħØ§Ø¯Ú¯ÛĮ": 4841,
      "ĠÙĩÙĨØ±ÙħÙĨØ¯Ø§ÙĨ": 4842,
      "ary": 4843,
      "ï»¨": 4844,
      "ĠÙħÙĪØ¶ÙĪØ¹Ø§Øª": 4845,
      "ÙģÛĮÙĩ": 4846,
      "ĠØ¶Ø±ÙĪØ±Øª": 4847,
      "ox": 4848,
      "ĠØ¯Ø§Øº": 4849,
      "ĠØ¢Ø¯": 4850,
      "ĠÙ¾ÛĮÙħØ§ÙĨ": 4851,
      "ĠÙħØªÙĤØ§Ø¶ÛĮ": 4852,
      "ĠØ§Ø³ØªØ¹": 4853,
      "ĠØ³Ø§Ø²ÙħØ§ÙĨÛĮ": 4854,
      "ĠØ§Ø±ØªÙģØ§Ø¹": 4855,
      "ĠÙĪØ§Ø¬": 4856,
      "ĠÙ¾Ø§ÛĮØªØ®Øª": 4857,
      "CO": 4858,
      "ĠMobile": 4859,
      "Ø®Ø¨Ø±Ú¯Ø²Ø§Ø±ÛĮ": 4860,
      "ĠØ²ÙĬØ±": 4861,
      "2017": 4862,
      "ĠØ§ÙħØ±ÛĮÚ©Ø§": 4863,
      "ĠÙħÙĩØ§Ø¬Ø±Øª": 4864,
      "ĠØªÙĨØ¯": 4865,
      "ï¯¿": 4866,
      "ĠÙĤØ§ÚĨ": 4867,
      "AN": 4868,
      "ĠÙĨÙĩÙħ": 4869,
      "pt": 4870,
      "ĠØ¨Ø¯Ø³Øª": 4871,
      "ĠÙħÛĮØ±Ø§Ø«": 4872,
      "ĠÙĪØ§ÚĺÙĩ": 4873,
      "ÙĨÙħØ§ÛĮØ´": 4874,
      "ĠØ§Ø¨Ø±Ø§ÙĩÛĮÙħ": 4875,
      "Ù¾Ø§ÙĪØ±": 4876,
      "ĠØ±Ø³ÛĮØ¯Ú¯ÛĮ": 4877,
      "ĠÙģØ§Ø·ÙħÙĩ": 4878,
      "54": 4879,
      "ĠÙħØ§ÙĩÙĩ": 4880,
      "ĠÙģØ±Ø¶": 4881,
      "ĠÙħØŃÛĮØ·ÛĮ": 4882,
      "ĠÙģØ´": 4883,
      "ĠÙħØ±Ø¯ÙħÛĮ": 4884,
      "ïºĺ": 4885,
      "ĠØªØ¯Ø±ÛĮØ³": 4886,
      "ĠĠ": 4887,
      "ĠÙĲ": 4888,
      "ĠÚ©Ù¾ÛĮ": 4889,
      "500": 4890,
      "ĠØ§Ø·ÙħÛĮÙĨØ§ÙĨ": 4891,
      "ĠØ®ÙĪØ¯ØªØ§ÙĨ": 4892,
      "ĠØ¯Ø§ÙĨØ´Ø¬ÙĪÛĮÛĮ": 4893,
      "ĠØ§ÙģØªØ§Ø¯": 4894,
      "ĠØ¯Ø®ØªØ±Ø§ÙĨÙĩ": 4895,
      "Ġad": 4896,
      "ĠØ§ÙĨÚ¯ÙĦÛĮØ³": 4897,
      "ĠÙħØ¨Ø§Ø±Ú©": 4898,
      "ĠØ§ÙĦÙħÙĦÙĦ": 4899,
      "ĠØ¯Ø§Ø´ØªÙħ": 4900,
      "ÙĩÙħÙĩ": 4901,
      "ĠÙ¾Ø¯ÛĮØ¯Ùĩ": 4902,
      "ĠØ¹Ø·Ø±": 4903,
      "Ø«ÛĮ": 4904,
      "ne": 4905,
      "Ú¯Ø²Ø§Ø±Ø´": 4906,
      "ĠâĢĿ": 4907,
      "ĠØ§ÙĤØ§ÙħØª": 4908,
      "Ø§ÙĦØ¨ØªÙĩ": 4909,
      "ĠØ±ÙĪÙĨÙħØ§ÛĮÛĮ": 4910,
      "sc": 4911,
      "ĠÙĨØ§ÙĨÙĪ": 4912,
      "ĠØ§ÛĮÚ©Ø³": 4913,
      "ĠØªÙĪÙĦÙĬØ¯": 4914,
      "ĠØ§ØŃØªØ±": 4915,
      "ĠÙħØ³Ú©": 4916,
      "Ø¬Ø§ÙĨÛĮ": 4917,
      "ÚĨØ±": 4918,
      "ĠØ±ÙĪÙĬ": 4919,
      "Ú¯Ø±Ø¯Ø§ÙĨÛĮ": 4920,
      "ĠØ¨Ø§ÙĨØ¯": 4921,
      "ĠØ®ÙĪØ§Øµ": 4922,
      "ĠØ¨Ø±Ø¯Ùĩ": 4923,
      "ĠØ·ÙĪØ±ÛĮ": 4924,
      "ĠØªØ¨Ø±ÛĮÚ©": 4925,
      "ĠÙħØ·Ø¨": 4926,
      "ĠÙħØ°Ø§Ú©Ø±Ùĩ": 4927,
      "ĠÙħØ¬Ø¯Ø¯": 4928,
      "ÚĨÙĩØ§Ø±Ø´ÙĨØ¨Ùĩ": 4929,
      "ÙĩØ§Ø¯": 4930,
      "ĠØ¯Ø§ÙĨØ´Ú©Ø¯Ùĩ": 4931,
      "ĠÙ¾Ø±Ø¯Ùĩ": 4932,
      "ĠÙģÙĦØ´": 4933,
      "ĠØ§ÙĨØªØ¸Ø§ÙħÛĮ": 4934,
      "ĠØ³Ø®ÙĨØ§ÙĨ": 4935,
      "ĠØ³ÙĨØ¬Ø´": 4936,
      "ĠØ§ÙĦÙĩÛĮ": 4937,
      "ØŁ!": 4938,
      "ĠØ§ÙĨÚ¯ÛĮØ²": 4939,
      "ĠÙĩØ´ØªÙħ": 4940,
      "ØºÛĮØ±": 4941,
      "ĠØ±Ø§ÙĩÙĨÙħØ§ÛĮÛĮ": 4942,
      "ĠÙħØŃØ±Ùħ": 4943,
      "ĠØ³Ø®ØªÛĮ": 4944,
      "ĠØ§ÙĨØ¯ÛĮØ´Ùĩ": 4945,
      "Ġj": 4946,
      "alax": 4947,
      "ĠØ¨ØªÙĨ": 4948,
      "ĠÚ©ÙĦØ§ÙĨ": 4949,
      "ĠÙĤÙĩØ±ÙħØ§ÙĨ": 4950,
      "ĠÙĨÚ¯Ø±Ø§ÙĨÛĮ": 4951,
      "ĠÙħÙĨØªØ¸Ø±": 4952,
      "mAh": 4953,
      "ĠØªØ§Ø±ÙĬØ®": 4954,
      "ĠÙħØ´ÙĩÙĪØ±": 4955,
      "ĠÙħØŃÙħØ¯ÛĮ": 4956,
      "alaxy": 4957,
      "ĠÙĩØ§Ø³Øª": 4958,
      "58": 4959,
      "ĠÙħÛĮÙĨ": 4960,
      "ĠÙħÙĦÚ©": 4961,
      "ĠØ§Ø³ØªØ§ÙĨØ¯Ø§Ø±": 4962,
      "ĠØŃØ¯ÛĮ": 4963,
      "ĠÙħØªØ±ÛĮ": 4964,
      "Ø³Ø§Ùħ": 4965,
      "ĠÚ¯ÙĦØ³ØªØ§ÙĨ": 4966,
      "ĠÚ©ÙĦØ§Ùħ": 4967,
      "ĠØ§ÙĪÙħ": 4968,
      "ĠØ±ÙĪÛĮØ¯Ø§Ø¯": 4969,
      "ĠÙĨØ¸Ø±ÛĮÙĩ": 4970,
      "ĠØ§ØµØ·": 4971,
      "ĠÙ¾ÛĮØ´ÙĨÙĩØ§Ø¯ÛĮ": 4972,
      "ĠØ§ØŃØªÙħØ§ÙĦØ§": 4973,
      "ĠÙ¾Ûİ": 4974,
      "ĠAd": 4975,
      "ĠØ§ØŃØ¯": 4976,
      "ĠØ¨Ø§Ø±Ø§ÙĨ": 4977,
      "ĠØ§Ø³ØªØ±Ø§ØªÚĺÛĮ": 4978,
      "ĠÙģØ±ÙĪØ¯Ú¯Ø§Ùĩ": 4979,
      "ÙħÙĩØ±": 4980,
      "ĠÛ²Û¸": 4981,
      "90": 4982,
      "ĠÚ¯ÛĮØ§ÙĩÛĮ": 4983,
      "ĠÙħØŃØ¯ÙĪØ¯ÛĮØª": 4984,
      "ĠÙĦØ§Øº": 4985,
      "53": 4986,
      "Ø§Ù¾ÛĮ": 4987,
      "ĠØŃØ¯Ø§Ú©Ø«Ø±": 4988,
      "ĠÙģØ¶Ø§ÛĮÛĮ": 4989,
      "ver": 4990,
      "Ù¾ÙĦÙħ": 4991,
      "ĠØ·ÙĨØ²": 4992,
      "ĠÚ©Ø¬Ø§": 4993,
      "ĠØ·Ø±Ø²": 4994,
      "ĠÙĩÙĩ": 4995,
      "ĠÚ¯Ø´Øª": 4996,
      "ĠØ§Ø¨ÙĦØ§Øº": 4997,
      "ĠÚ¯Ø±Ø§ÙħÛĮ": 4998,
      "ase": 4999,
      "Ø§Ø³ØªØ®Ø¯Ø§Ùħ": 5000,
      "ss": 5001,
      "ÚĨØ±Ø®": 5002,
      "Ø¯ÛĮØª": 5003,
      "ĠÙħØ´Ú©ÙĦÛĮ": 5004,
      "ĠÙĪÛĮØªØ§ÙħÛĮÙĨ": 5005,
      "ĠÙħØ¯ÛĮØ±Ø¹Ø§ÙħÙĦ": 5006,
      "ĠÚ©Ø´ÙĪØ±ÙĩØ§": 5007,
      "ĠÙģÛĮØ²ÛĮÚ©": 5008,
      "ĠØ®ÙĪØ§ÙĨÙĨØ¯Ùĩ": 5009,
      "ï¯¾": 5010,
      "Ø²ÙĬ": 5011,
      "Ø¶Ùĩ": 5012,
      "ĠØ¯Ø§Ø±ÙĪÛĮÛĮ": 5013,
      "ick": 5014,
      "ĠØ¢ÛĮÛĮÙĨ": 5015,
      "ĠØ±Ø§Ø¯ÛĮÙĪ": 5016,
      "ĠØ¨ÙĪÛĮ": 5017,
      "ĠÙħØ¬Ø¨ÙĪØ±": 5018,
      "ĠØ·ÙĦØ§ÛĮÛĮ": 5019,
      "ĠÙĤØ§ÚĨØ§ÙĤ": 5020,
      "ĠâĢİ": 5021,
      "ĠØ´Ø¹Ø§Ø±": 5022,
      "ĠØ¯Ø±ÛĮØ§ÛĮÛĮ": 5023,
      "ear": 5024,
      "ĠÙ¢": 5025,
      "ĠÙ¾ÛĮØ´ÙĪØ§Ø²": 5026,
      "ĠØ³Ø§ÛĮØ²": 5027,
      "ĠÙħØªØ¹": 5028,
      "ark": 5029,
      "ĠØ¬Ø²ÙĪ": 5030,
      "ĠÙģÙĬÙĦÙħ": 5031,
      "ĠØ¨ÙĨØ¯Ùĩ": 5032,
      "ĠÙħØ§ÙĨÛĮ": 5033,
      "ĠÚ¯ÙģØªÙħ": 5034,
      "ÙĪØ²ÛĮØ±": 5035,
      "ĠÙħØµÙĨÙĪØ¹": 5036,
      "âĢŃ": 5037,
      "ĠØ¯Ø§ÙĨÙĩ": 5038,
      "ĠÙĨØ´Ø±": 5039,
      "ĠÙĪØ¨Ø³Ø§ÛĮØª": 5040,
      "ĠÙ¾ÛĮØ§ÙħØ¨Ø±": 5041,
      "ĠÛĮÙĥ": 5042,
      "ÙĨÙĪÛĮØ³ÙĨØ¯Ùĩ": 5043,
      "ĠÙħØ§ÙĦÚ©": 5044,
      "ĠÙĥØ±Ø¯ÙĨ": 5045,
      "ĠØ§ÛĮØ³ØªÚ¯Ø§Ùĩ": 5046,
      "ĠØ¬Ø¹Ø¨Ùĩ": 5047,
      "ote": 5048,
      "ÙĨØ§ÛĮ": 5049,
      "org": 5050,
      "Ø´ÛĮØ±": 5051,
      ".,": 5052,
      "ĠØ¨ÙĩÙħ": 5053,
      "ĠØ²Ø§Ø¦": 5054,
      "Ġby": 5055,
      "ĠØ®Ø±ÙĪØ¬ÛĮ": 5056,
      "ĠÙħØ§ÛĮÚ©": 5057,
      "ĠÚ¯ÛĮÙħ": 5058,
      "ĠÙħØŃÙħØ¯Ø±Ø¶Ø§": 5059,
      "Ø±Ø§Ùħ": 5060,
      "ÙħØ§ÙĨÙĩ": 5061,
      "ĠØªØ±Ø³": 5062,
      "Ø³Ø§ÛĮ": 5063,
      "ĠÚ©Ø§Ø±Ø¯": 5064,
      "ĠÚ©ÙħØ¨ÙĪØ¯": 5065,
      "ĠÙĪØ§Ø¨Ø³ØªÙĩ": 5066,
      "Ġat": 5067,
      "ĠØ¨Ú¯ÙĪ": 5068,
      "ĠØ±ÙĪØ³ØªØ§ÛĮ": 5069,
      "ĠØ¨ÙĪØ¯ÛĮÙħ": 5070,
      "ĠØªÙħØ±Ú©Ø²": 5071,
      "ĠØ§ÛĮØ±Ø§ÙĨÛĮØ§ÙĨ": 5072,
      "ĠØ¨Ø¨ÛĮÙĨÛĮØ¯": 5073,
      "ĠÚ¯ÙĪÙĨØ§Ú¯ÙĪÙĨ": 5074,
      "SI": 5075,
      "ĠØ´Ú¯ÙģØª": 5076,
      "ĠÙģÚ©Ø±ÛĮ": 5077,
      "ĠØ§ÙĦÙĩ": 5078,
      "ĠØ³ÙĪØ±": 5079,
      "ĠØªØ¹ÙħÛĮØ±Ø§Øª": 5080,
      "41": 5081,
      "2019": 5082,
      "ĠØ¨Ø±ÙĨØ¬": 5083,
      "Ú¯ÙĪÛĮÙĨØ¯": 5084,
      "ĠÚ¯Ø±Ø¯ÙĨ": 5085,
      "ĠØ«Ø±ÙĪ": 5086,
      "ĠØ´ÛĮØ®": 5087,
      "ĠÚ©Ø±ÛĮÙħÛĮ": 5088,
      "ĠÙĤØ¯Ø±ØªÙħÙĨØ¯": 5089,
      "ĠØ±ÙĪØ²ÙĩØ§": 5090,
      "ĠØ´Ø±Ø§ÛĮØ·ÛĮ": 5091,
      "ĠÚ©ÙĨÛĮ": 5092,
      "2018": 5093,
      "Ø¨ÙĬ": 5094,
      "ĠÙħÙĪØ¬": 5095,
      "ĠÛµÛ°": 5096,
      "ĠÚ©ÙĦØ§Ùĩ": 5097,
      "ĠÙħØ¯ÛĮØ±Ùĩ": 5098,
      "ĠØ³Ø±Ø§ÙĨ": 5099,
      "ĠÙħÙĩØ¯": 5100,
      "ĠÙĨÙģØªÛĮ": 5101,
      "ĠÙ¾ÙĪØ´Ø§Ú©": 5102,
      "****": 5103,
      "ĠÙĨØ§ØŃÛĮÙĩ": 5104,
      "ash": 5105,
      "ĠØªØµÙģÛĮÙĩ": 5106,
      "ĠÙħØ®ÙĦÙĪ": 5107,
      "51": 5108,
      "ĠØ¨ØªÙĪØ§ÙĨÙĨØ¯": 5109,
      "ĠÙģØ¬Ø±": 5110,
      "ĠØ§Ø³ØªØ®Ø¯Ø§ÙħÛĮ": 5111,
      "ĠØ®Ø·ÙĪØ·": 5112,
      "ĠÙģØ¶Ø§": 5113,
      "ĠÚ©Ø´ÙĪØ±ÙħØ§ÙĨ": 5114,
      "ĠÙ¾ÚĺÙĪÙĩØ´ÛĮ": 5115,
      "ĠØªØ±Ø§ÙĨÙĩ": 5116,
      "ĠÙģØ§ÛĮ": 5117,
      "ĠØŃØ§ÙĪÛĮ": 5118,
      "ĠÛ²Û¹": 5119,
      "amp": 5120,
      "Ø¯Ø³ØªÙĩ": 5121,
      "ĠÛĮØ§Ø²Ø¯ÙĩÙħ": 5122,
      "ĠØ¨Ø§Ø²Ø¯Ø§Ø´Øª": 5123,
      "arg": 5124,
      "ĠØ±Ø³Ø§ÙĨ": 5125,
      "icro": 5126,
      "67": 5127,
      "ÚĨØ§ÙĦ": 5128,
      "ÙĨÚ¯ÙĪÛĮ": 5129,
      "Ø¨ÙĩØªØ±ÛĮÙĨ": 5130,
      "ĠØ¨Ø§Ø²ÙĬ": 5131,
      "ĠÙħØ§ÙĨØ¹": 5132,
      "ish": 5133,
      "Ġ02": 5134,
      "ĠØ¬ÙĪØ±": 5135,
      "ĠÙħØ³ØªÙĤÙĦ": 5136,
      "Ø¬Ø²": 5137,
      "ØªÛĮÚ©": 5138,
      "ÙħØªØ±ÛĮ": 5139,
      "ÙħØµ": 5140,
      "Ø¬Ø§Ø±": 5141,
      "ÙħÛĮÙĩ": 5142,
      "Ġ()": 5143,
      "ĠØ®ÙĪØ¯Ø±ÙĪÛĮ": 5144,
      "ĠØ¬ÙĪØ§Ø¯": 5145,
      "fa": 5146,
      "ĠÙħÙĪØ²Ùĩ": 5147,
      "ĠØ±Ø§Ùħ": 5148,
      "ĠØ´ØºÙĦÛĮ": 5149,
      "ĠÙħÚ¯": 5150,
      "ĠÙĤØ·Ø¹Ø§": 5151,
      "ĠØ²ÙĨØ¯Ø§ÙĨÛĮ": 5152,
      "Ø§ÙĨÚ¯": 5153,
      "ĠÙĪØ§Ø±": 5154,
      "ĠÙĩØ¯ÛĮÙĩ": 5155,
      "ĠØ§Ø³ØªØ±Ø³": 5156,
      "Ø£Øª": 5157,
      "98": 5158,
      "ĠØ§ÙĨÙģ": 5159,
      "ĠØ¶Ø¹Ùģ": 5160,
      "Ù¨": 5161,
      "ĠØ¨Ø¯ÙĨÙĩ": 5162,
      "ĠÙģØ±ÙħÙĪØ¯": 5163,
      "ĀĀĀĀĀĀĀĀĀĀĀĀĀĀĀĀĀĀĀĀĀĀĀĀĀĀĀĀĀĀĀĀ": 5164,
      "Ø§Ø·Ø±": 5165,
      "ĠÙĩØ±Ú¯Ø²": 5166,
      "ĠÙħØ§ÙĨØªÙĪ": 5167,
      "ĠØªÙĪØ¬ÛĮÙĩ": 5168,
      "ĠØ¨Ø®ÙĪØ§ÙĨÛĮØ¯": 5169,
      "ĠØ§Ø¨Ø±Ø§Ø²": 5170,
      "res": 5171,
      "ĠÙĩÛĮØ¯": 5172,
      "ĠÙħØ¯ÙĬØ±": 5173,
      "ĠÙħØ³Ú©ÙĪÙĨÛĮ": 5174,
      "ĠÙģÙĩÙħ": 5175,
      "ĠØºØ°Ø§ÛĮ": 5176,
      "ĠÙģÙĦØ³Ø·": 5177,
      "ĠÙĩÙħÚ©Ø§Ø±Ø§ÙĨ": 5178,
      "ĠØ¯ÛĮÙĪØ§ÙĨ": 5179,
      "ĠØ³ÛĮÙĨÙħØ§ÛĮ": 5180,
      "ĠÙĩØ´Ø¯Ø§Ø±": 5181,
      "ĠÚ¯Ø±Ø¯ÛĮØ¯Ùĩ": 5182,
      "ĠØªÚ©ÙĨÛĮÚ©": 5183,
      "ĠÙħØ¬ØªÙħØ¹": 5184,
      "ĠØªØ§Ø¬": 5185,
      "ĠØªØ¯ÙĪÛĮÙĨ": 5186,
      "93": 5187,
      "ÛĮØ¯Ùħ": 5188,
      "ĠÚ¯ÙĨØ¬": 5189,
      "ĠØ¨Ø§Ùħ": 5190,
      "ĠØµÙĦØ§ØŃ": 5191,
      "Ø®ÙĪØ§ÙĩÛĮÙħ": 5192,
      "ĠÚ¯Ø±Ø§ÙģÛĮÚ©": 5193,
      "ie": 5194,
      "wn": 5195,
      "ĠØ¯ÙĩØ§ÙĨ": 5196,
      "Ø¯ÙĪØ´ÙĨØ¨Ùĩ": 5197,
      "ĠÙĪØ§ØŃØ¯ÙĩØ§ÛĮ": 5198,
      "Ø§Ø°Ø¨Ùĩ": 5199,
      "pg": 5200,
      "Ø®ÙĦ": 5201,
      "Ġcom": 5202,
      ";&": 5203,
      "ÙĩØ²Ø§Ø±": 5204,
      "Ù¾Ø§ÛĮØ§ÙĨ": 5205,
      "ĠØ³Ø§ÙĦØ§ÙĨÙĩ": 5206,
      "ĠÙĤØ¨ÛĮÙĦ": 5207,
      "âĢĻ": 5208,
      "Ø§Ø¯ÙĬ": 5209,
      "ĠÙħÛĮÙĦØ§Ø¯": 5210,
      "ÙĤÙģ": 5211,
      "ĠØ±Ø¨Ø§Øª": 5212,
      "ĠÙħØ³ÙĪ": 5213,
      "ĠØ®Ø±ÛĮØ¯Ø§Ø±ÛĮ": 5214,
      "ĠØ¬Ø¨ÙĩÙĩ": 5215,
      "ĠØ¹ÙĦØ§Ø¦Ùħ": 5216,
      "Ú¯Ø°Ø´Øª": 5217,
      "ĠØ±Ø§ÛĮØ§ÙĨÙĩ": 5218,
      "RE": 5219,
      "ĠÙĨØ±": 5220,
      "ÙĪÛĮØ²": 5221,
      "ĠØ³ÙĤÙĪØ·": 5222,
      "ĠØ¢ÚĺØ§ÙĨØ³": 5223,
      "ĠÙģØ±Ø§Ø±": 5224,
      "ok": 5225,
      "ĠØ±ÙĪÙħ": 5226,
      "Ø³ÙĨÛĮÙħ": 5227,
      "ĠÙħØ¬Ùĩ": 5228,
      "ĠØ§ÙĨØ¹": 5229,
      "ĠÙĤØ·Ø±": 5230,
      "ĠÙħÛĮØ®": 5231,
      "ĠØ±ÙĪØ§ÛĮØª": 5232,
      "Ø¯Ø³ØªÚ¯Ø§Ùĩ": 5233,
      "ĠÚ©Øª": 5234,
      "ĠØ±Ø§ÙĩØ¨Ø±Ø¯": 5235,
      "ĠÙĨÙĪØ¬ÙĪØ§ÙĨØ§ÙĨ": 5236,
      "ĠØ§ØŃØ¯Ø§Ø«": 5237,
      "ĠÚ©Ø±Ø¨": 5238,
      "Ø§Ø¨ÙĪÙĨ": 5239,
      "ØªØ±ÙĬÙĨ": 5240,
      "ĠÙĪØŃØ¯Øª": 5241,
      "ÙĦØ±": 5242,
      "ĠØ²ÙĩØ±Ø§": 5243,
      "ÙħÙĨØ§ÙĨ": 5244,
      "ical": 5245,
      "ĠÛ¹Û¸": 5246,
      "ĠÙħÛĮÚ©Ø±ÙĪ": 5247,
      "gle": 5248,
      "ĠÙģØ±Ø³Øª": 5249,
      "ĠØ§Ø¶Ø·Ø±": 5250,
      "ĠØ§Ø¦": 5251,
      "ĠØ¨Ø±Ø§ÙĨ": 5252,
      "ĠØºÛĮ": 5253,
      "Ġal": 5254,
      "ĠØ¯Ø§ÙĪØ±": 5255,
      "ĠÙħØ·Ø§Ø¨ÙĤ": 5256,
      "ĠÙĨÙĪØ±ÛĮ": 5257,
      "ĠØªÙĪØ¬ÙĩÛĮ": 5258,
      "ĠÙĤØ±Øµ": 5259,
      "ĠÙħÙĤØ±Ø±Ø§Øª": 5260,
      "Ġ<": 5261,
      "Ø§ÛĮÙģ": 5262,
      "ĠÙħÙĨÙĪ": 5263,
      "ÛĮØ¯ÙĨÛĮ": 5264,
      "Ø¢ÙĩÙĨÚ¯": 5265,
      "ĠÛ±Û°Û°": 5266,
      "ĠØ³Ùħ": 5267,
      "ĠØ§ÙĦØ¨Ø±Ø²": 5268,
      "ĠØ¨Ø±Ø¬Ø³ØªÙĩ": 5269,
      "ĠÙ¾ÙĨÙĩ": 5270,
      "ĠØ²Ø±": 5271,
      "SUS": 5272,
      "ĠØ¨Ø±Ø§Ø¯Ø±": 5273,
      "ÙħÙĤØ§ÙĦÙĩ": 5274,
      "ĠØ¯ÙħÙĪ": 5275,
      "ĠØ§ÙĨØ¯Ø§Ø²": 5276,
      "ĠÙħÛĮØ®ÙĪ": 5277,
      "ĠAn": 5278,
      "ĠÙħÙħÙĨÙĪÙĨ": 5279,
      "ĠØ¬Ø§ÛĮÚ¯Ø²ÛĮÙĨ": 5280,
      "aj": 5281,
      "Ø¨ÛĮØ´": 5282,
      "ĠØµØ±ÙģØ§": 5283,
      "ĠÚ©ÙĪÙĦØ±": 5284,
      "ĠØ¹Ú©Ø§Ø³ÛĮ": 5285,
      "ÙħØ±Ø¨ÛĮ": 5286,
      "ĠÙĦØ²ÙĪÙħ": 5287,
      "ĠÙħØ³Ø¹ÙĪØ¯": 5288,
      "ĠØ¨Ø±Ø§Ùī": 5289,
      "ĠÙħÙĪØ§Ø±Ø¯ÛĮ": 5290,
      "ĠØ³Ø±Ø¯Ø§Ø±": 5291,
      "ele": 5292,
      "ĠØ³Ø±Ø²ÙħÛĮÙĨ": 5293,
      "Ø§ÙĬÙĨ": 5294,
      "ĠÙħÙĤØ·Ø¹": 5295,
      "ĠØ±Ø¨": 5296,
      "ĠØ§Ø±Ø´Ø§Ø¯": 5297,
      "Ú¯Ø²Ø§Ø±": 5298,
      "!!!": 5299,
      "ĠØ¯Ø§ÙħÙĨÙĩ": 5300,
      "ĠØ§ÛĮØ§Ùħ": 5301,
      "ĠØ¹Ø·": 5302,
      "ĠÙĪÙĦØª": 5303,
      "ĠÙħØ®Ø§Ø·Ø¨": 5304,
      "ĠÙ¾ÙĪÛĮ": 5305,
      "ÙĥØªØ±": 5306,
      "ari": 5307,
      "ĠMemory": 5308,
      "ĠØ§Ø³ØªØ®ÙĪØ§ÙĨ": 5309,
      "Ø§ÙĨØ§": 5310,
      "ĠØ¯ÙĪÙĨ": 5311,
      "ĠØ¢ÙħÙĪØ²": 5312,
      "ïº³": 5313,
      "ĠØ²ÙĨØ¬Ø§ÙĨ": 5314,
      "ÙĨØ§ÙĦ": 5315,
      "ĠÚ©Ø§ÙĨØ§Ø¯Ø§": 5316,
      "ĠØ³Ø¯": 5317,
      "UR": 5318,
      "ĠØ§Ø³Ùģ": 5319,
      "ĠØªÙħØ§ÛĮÙĦ": 5320,
      "95": 5321,
      "Ø¬ÙĦ": 5322,
      "Ġsh": 5323,
      "ĠØ§ÛĮØªØ§ÙĦÛĮØ§": 5324,
      "Ġï®": 5325,
      "ĠÙ¾Ø±Ø¯Ø§Ø®ØªÙĩ": 5326,
      "Ġch": 5327,
      "ĠÚ©ÙĪØ±": 5328,
      "ĠÙħØ¹Ø§Ø¯ÙĨ": 5329,
      "ĠØ³ÙĦØ§ÙħØªÛĮ": 5330,
      "ĠØ¦Ûķ": 5331,
      "ID": 5332,
      "ĠÙ¾ÙĪÙĦÛĮ": 5333,
      "ÙĥÙĨØ¯": 5334,
      "Ù¾Ø°": 5335,
      "ĠØ¯ÙĩÛĮ": 5336,
      "Ø§ÙĨØ¯Ø§Ø²ÛĮ": 5337,
      "ĠØ§ØªÙĪÙħØ§ØªÛĮÚ©": 5338,
      "ĠÙħØ°Ø§Ú©Ø±Ø§Øª": 5339,
      "ĠØ§ÛĮØ§ÙĦØ§Øª": 5340,
      "ĠÚĨÙ¾": 5341,
      "ĠÙħØ±Ø§": 5342,
      "ĠØ§ÙģØ²ÙĪÙĨÙĩ": 5343,
      "ĠÙħØªØ¹ÙĦ": 5344,
      "ĠApp": 5345,
      "ØĮâĢĮ": 5346,
      "ĠØ§Ø¹ØªÙĤØ§Ø¯": 5347,
      "ï¯½": 5348,
      "Ġwww": 5349,
      "ĠÙħÙĨØ§ÙģØ¹": 5350,
      "ĠØªÙĪØ±Ùħ": 5351,
      "Ġ2012": 5352,
      "Ø§ÙĪØªÛĮ": 5353,
      "ĠÙħÛĮÚ©ÙĨÙĩ": 5354,
      "ign": 5355,
      "ĠØ¯ÛĮØ¯ÙĨÛĮ": 5356,
      "ĠÚ©Ø§ÙĦØ§ÙĩØ§ÛĮ": 5357,
      "ĠÚ¯Ø§ÙĦØ±ÛĮ": 5358,
      "ĠØ±Ø£": 5359,
      "Ø§ÙĩØ±": 5360,
      "ĠØ²ØŃ": 5361,
      "ĠÙĨÙħØ§Ø¯": 5362,
      "ĠÙħÙĤØ§ÙħØ§Øª": 5363,
      "ĠÙ¾Ø§ÛĮÛĮ": 5364,
      "ĠØ¯ÛĮÙĪØ§Ø±ÛĮ": 5365,
      "ÙĩØ§Ø³Øª": 5366,
      "Ø§Ø´ÙĤ": 5367,
      "Ø§ÙģØ²Ø§Ø±": 5368,
      "ĠASUS": 5369,
      "ĠØ¬ÙĦØ³": 5370,
      "ĠØ¨Ø·ÙĪØ±": 5371,
      "ĠØ¨ÙĤÛĮÙĩ": 5372,
      "Ø±Ø¯Ø§Ø¯": 5373,
      "ĠØ¨Øª": 5374,
      "ĠØ®Ø³ØªÙĩ": 5375,
      "ĠAM": 5376,
      "Ú©ÙĨÛĮ": 5377,
      "70": 5378,
      "IN": 5379,
      "Ø§ÙħØ§Ùħ": 5380,
      "ÙĦÙĪØ§Ø²Ùħ": 5381,
      "Û±Û³Û¹Ûµ": 5382,
      "ĠØ¨Ú¯Ø°Ø§Ø±ÛĮØ¯": 5383,
      "ĠÙĩØ¬": 5384,
      "ĠØ³Ø¨Ø²ÛĮ": 5385,
      "agram": 5386,
      "ĠØ³Ø§ÙĨØªÛĮ": 5387,
      "df": 5388,
      "ĠÙħØ¹Øµ": 5389,
      "ÙĪØ¨Ùĩ": 5390,
      "ĠØ´Ú©Ø±": 5391,
      "ĠÙħÙĪÙĩØ§ÛĮ": 5392,
      "ØªÙĪØ§ÙĨØ³Øª": 5393,
      "ĠÚ©Ø§Ø±Ú©Ø±Ø¯": 5394,
      "ĠØ§ÙħÙĦØ§Ú©": 5395,
      "Ø§Ø·ÙĦØ§Ø¹": 5396,
      "ĠÙħØ¯Ø§Ø±Ú©": 5397,
      "Ġ500": 5398,
      "ĠØ¯ÛĮØ±ÙĪØ²": 5399,
      "ĠÙģØ³Ø§Ø¯": 5400,
      "ĠØ®ÙĦÛĮØ¬": 5401,
      "ĠAD": 5402,
      "ĠTh": 5403,
      "content": 5404,
      "Ø§ÙħÙĦÛĮ": 5405,
      "ĠÙĦÛĮØ²Ø±": 5406,
      "Ú¯ÙĪÙĨÚ¯ÛĮ": 5407,
      "Â¬": 5408,
      "ĠØªÙħØ§Ø´Ø§": 5409,
      "ĠØ§Ø³ÛĮØ¯": 5410,
      "84": 5411,
      "Ø²Ø¯ÛĮ": 5412,
      "ĠÙĨÙĪØ¨Øª": 5413,
      "ØªØ§Úĺ": 5414,
      "ĠÙĪÙĤÙĪØ¹": 5415,
      "ĠØ³ÛĮÙĨÙĩ": 5416,
      "ÚĨÙĪØ¨": 5417,
      "Ø·Ø±ØŃ": 5418,
      "ĠØ¨Ø§Ø·": 5419,
      "ÙĩØ§ÙĬÙĬ": 5420,
      "ĠØ®Ø§Øª": 5421,
      "ĠÚĨØ§Ùĩ": 5422,
      "ĠÙħØ§ÙĦÛĮØ§ØªÛĮ": 5423,
      "ĠÚ©ÙħÙ¾Ø§ÙĨÛĮ": 5424,
      "ĠØŃØ±Ú©": 5425,
      "ĠØ±ÙĪØ§ÙĨØ´ÙĨØ§Ø³ÛĮ": 5426,
      "Flash": 5427,
      "ĠÙģÙĪØ±ÛĮ": 5428,
      "ĠÙħØ¯ØªÛĮ": 5429,
      "ĠÙħØ¬ÛĮØ¯": 5430,
      "ĠØ±Ø³ÙĪÙĦ": 5431,
      "ust": 5432,
      "ĠÙħØ³ÙĦØŃ": 5433,
      "ĠÚĺØ§Ù¾ÙĨ": 5434,
      "ĠÚ©ÛĮÚ©": 5435,
      "ĠÙħØ§ÙĦÛĮØ§Øª": 5436,
      "ĠØ¯Ø±ÙĪØº": 5437,
      "ÛĮØ¯Ø±": 5438,
      "ĠØ¨Ø±ÙĨØ¯Ùĩ": 5439,
      "ĠØ¹Ø¯Ùĩ": 5440,
      "ĠÚ¯ÙĦÚ©Ø³ÛĮ": 5441,
      "Ø§Ø±Ø§": 5442,
      "ĠØ¨Ø§Ø²Ø³Ø§Ø²ÛĮ": 5443,
      "ĠØªÙĨÙĪØ¹": 5444,
      "ÙĢÙĢÙĢÙĢÙĢÙĢÙĢÙĢ": 5445,
      "ĠØ§ØµØ·ÙĦØ§ØŃ": 5446,
      "ĠSc": 5447,
      "Ú¯Ø°Ø§Ø±Ø¯": 5448,
      "ĠÙĩØ§Ø±Ø¯": 5449,
      "ØªÙĩØ±Ø§ÙĨ": 5450,
      "ĠØ¨ÙĪÙħÛĮ": 5451,
      "ĠÙĥØªØ§Ø¨": 5452,
      "ĠØºÙĦØ§Ùħ": 5453,
      "ĠÙģØ±Ø§ÙĪØ§ÙĨ": 5454,
      "Ø§Ø®Ø±": 5455,
      "Ø®ØªÛĮ": 5456,
      "ĠÙĨØ¯Ø§Ø±Ùĩ": 5457,
      "ree": 5458,
      "76": 5459,
      "ĠØ§ØªÙĪ": 5460,
      "ĠÙĩÙħØ§ÙĨÙĨØ¯": 5461,
      "ĠØ¹ÙĪØ¶": 5462,
      "ĠÙĪØ§ÛĮ": 5463,
      "ĠØ´Ø±ÛĮ": 5464,
      "Ø¶ÙĦ": 5465,
      "ÙĬØ³Øª": 5466,
      "ÛĮØªØ§": 5467,
      "ĠØ³ÛĮØ¨": 5468,
      "ĠØ¨ÛĮØ¯": 5469,
      "ĠØµØ§ÙĦØŃ": 5470,
      "ĠØ·Ø§ÙĦ": 5471,
      "ĠØ°Ùĩ": 5472,
      "stagram": 5473,
      "ĠÚ©Ø§Ø±Ø¢ÙģØ±": 5474,
      "ĠÙħØµÙĨÙĪØ¹ÛĮ": 5475,
      "Ø§ÙĪÙĦÛĮÙĨ": 5476,
      "ĠQ": 5477,
      "ĠØ±Ø¦": 5478,
      "Ù¾ÙĪÙĦ": 5479,
      "ĠØ§ÙģØªØ§Ø¯Ùĩ": 5480,
      "ON": 5481,
      "ĠÚ©ÙĨÙĪÙĨÛĮ": 5482,
      "Ġcialis": 5483,
      "ÙħØ¹Ø±ÙģÛĮ": 5484,
      "ĠØ¯Ú©ÙħÙĩ": 5485,
      "ĠÙħÙĪÛĮ": 5486,
      "ĠØ±ÙĨØ¬": 5487,
      "ĠÙĩÙĪÛĮØª": 5488,
      "ĠCom": 5489,
      "old": 5490,
      "ĠØ§Ø±Ø¯Ø¨ÛĮÙĦ": 5491,
      "ĠØ³ÛĮÙħØ§ÙĨ": 5492,
      "ĠÚ¯ÛĮØ±ÙĨØ¯": 5493,
      "ĠØªØ²Ø±ÛĮÙĤ": 5494,
      "ÙģØµÙĦ": 5495,
      "Ù¾Øª": 5496,
      "ĠÙ¾Ø±Øª": 5497,
      "ĠÙĩØ±Ú¯ÙĪÙĨÙĩ": 5498,
      "ĠÙĨØ§ÙĪ": 5499,
      "Ø®Ø§Øµ": 5500,
      "ĠØªÙĦÙĪÛĮØ²ÛĮÙĪÙĨÛĮ": 5501,
      "ĠØ§ÙĪÙĤØ§Øª": 5502,
      "ĠÙħØ®Ø¯Ø±": 5503,
      "ĠØ¯Ø§ÙĪØ·ÙĦØ¨Ø§ÙĨ": 5504,
      "ĠØ¬ÙĨØ¨Ø´": 5505,
      "ĠFor": 5506,
      "ĠÛ¹Û¶": 5507,
      "Ġviews": 5508,
      "ix": 5509,
      "ĠÙĩÙĦ": 5510,
      "ĠØ²Ø¨": 5511,
      "ĠÙģØ±ÙĨÚ¯ÛĮ": 5512,
      "ĠÙħØ¯Ø±Ú©": 5513,
      "ĠØ¢ÙĪØ±Ø¯ÙĨ": 5514,
      "ĠØ¹Ø¨Ø¯Ø§ÙĦ": 5515,
      "ĠÙĨØ´Ø§ÙĨÛĮ": 5516,
      "Ú©ÛĮÙģ": 5517,
      "Ú¯ÛĮÙĦ": 5518,
      "ÙħÙĪÙĦÛĮ": 5519,
      "ĠÚĺØ§ÙĨ": 5520,
      "oft": 5521,
      "ĠØ§ØŃØªØ±Ø§Ùħ": 5522,
      "][": 5523,
      "ĠØ®ÙĪÛĮØ´": 5524,
      "ĠØ·ÙĦØ¨": 5525,
      "ĠØªØ§Ø¨ÙĦÙĪ": 5526,
      "ĠØ³Ø¹ÙĪØ¯ÛĮ": 5527,
      "Ø§Ø³ÙĬ": 5528,
      "ĠØ§ÙĨØµ": 5529,
      "ĠÙĤÙĬÙħØª": 5530,
      "Ø¯ÙĪÙħ": 5531,
      "ÙĦÛĮÙģ": 5532,
      "ĠÙ¾Ø±ÚĨ": 5533,
      "ĠØ´ÙĪÛĮÙħ": 5534,
      "ĠØ¨ÙĬÙħ": 5535,
      "ĠØ³Ø§ÙĬØª": 5536,
      "ĠÚ©Ø§Ø±Ú¯Ø±Ø¯Ø§ÙĨÛĮ": 5537,
      "ĠÙĨÙħÚ©": 5538,
      "ĠÛ¹Û·": 5539,
      "ĠÙħØ·ÙĦÙĪØ¨": 5540,
      "ĠØ§ÙĦÙħÙ¾ÛĮÚ©": 5541,
      "ĠØªÙģÚ©Ø±": 5542,
      "ĠØ§Ø±ØªØ¨Ø§Ø·ÛĮ": 5543,
      "ĠÙģØ§Ø¶": 5544,
      "Ø·ÙĦØ¨": 5545,
      "ØªÛĮØ§Ø¯": 5546,
      "ĠÙħØ®Ø§Ø¨": 5547,
      "ĠÙĩØ±ÙħØ²": 5548,
      "52": 5549,
      "Ø´Ø¹": 5550,
      "ĠØªØ³ÙĨÛĮÙħ": 5551,
      "ĠÙĨØ¯Ø§Ø±Ùħ": 5552,
      "ĠÙĪØ§ÙĦÛĮ": 5553,
      "ĠØ¯Ø³ØªØ±Ø³": 5554,
      "ØºØ¯": 5555,
      "ĠØ¨ÛĮØ§ÙĨÛĮÙĩ": 5556,
      "ĠØªØ®ÙĦÙģ": 5557,
      "ÙĨÙĬ": 5558,
      "ĠØ¯Ø§ÛĮ": 5559,
      "ĠÙ¾ÙĪØ±Øª": 5560,
      "Ø®Ø®": 5561,
      "ĠÙĤØ¯Ø³": 5562,
      "ĠÙħØ¬ÙĩØ²": 5563,
      "ÙĥØ³": 5564,
      "ĠÙħÙĩÙħØ§ÙĨ": 5565,
      "aw": 5566,
      "ĠØªÙħÛĮØ²": 5567,
      "ĠØ±Ø§ÙĨÙĨØ¯Ú¯ÛĮ": 5568,
      "blog": 5569,
      "Ø§ÙĦØ¯": 5570,
      "ĠØ³Ø±ÙħØ§": 5571,
      "ÛµÛµ": 5572,
      "ĠDis": 5573,
      "ĠÙħÙĪÙĨ": 5574,
      "ĠÙħØ£": 5575,
      "ĠÙĪØ§Øª": 5576,
      "ÙĬÙĤ": 5577,
      "Ø§ÙĬØ¯": 5578,
      "ĠØ¬ÙĪÛĮ": 5579,
      "ÙģØ´": 5580,
      "ĠÙĩÙĪØ±": 5581,
      "ĠØ²Ø§ÛĮ": 5582,
      "Ġ92": 5583,
      "Ġ93": 5584,
      "ĠØªØ¹Ø§ÙħÙĦ": 5585,
      "Ø¨Ø§Ø±ÛĮ": 5586,
      "Ø±ÙĪØ³Ø§ÙģØª": 5587,
      "ĠÙ¾Ø±ÙĪØ§ÙĨÙĩ": 5588,
      "ĠØŃØ±Ø§Ø±Øª": 5589,
      "ĠØ´ÙĩØ±Ú©": 5590,
      "ĠØ§ÙĨÙĤÙĦØ§Ø¨ÛĮ": 5591,
      "ĠØ³Ø§ÛĮÙĩ": 5592,
      "ĠÙĨØ§Ø¯Ø±": 5593,
      "ĠØ³Ø¨Ø¯": 5594,
      "ĠØ±ÙĪØ¨Ø±ÙĪ": 5595,
      "ĠÙħÙĨØ¯": 5596,
      "ÙħÙĨØ¨Ø¹": 5597,
      "Ø®ÙĪØ±Ø¯": 5598,
      "ony": 5599,
      "ĠÙħØ¨ØªÙĨÛĮ": 5600,
      "ATA": 5601,
      "ĠØ³Ø§ÙĦÚ¯ÛĮ": 5602,
      "ĠÚ©ÙĦÛĮÙĨ": 5603,
      "ĠØªÙĨÚ¯": 5604,
      "ĠØ±Ø¯ÛĮ": 5605,
      "ĠÛĮÙĪØ³": 5606,
      "Ø§ÙĪØ§": 5607,
      "ĠÙħØ¨Ø§ØŃ": 5608,
      "ĠØ§ÙĦÚ©ØªØ±ÛĮ": 5609,
      "ĠØ¯Ø³": 5610,
      "ĠØ§Ø³Ú©ÙĨ": 5611,
      "Ù§": 5612,
      "ĠØ¯ÛĮÙ¾ÙĦÙħ": 5613,
      "ĠÙĨÛĮØ§Ø²ÙĩØ§ÛĮ": 5614,
      "Ø¬ÙħÙĩÙĪØ±": 5615,
      "ĠØ§Ø³Ø±Ø§Ø¦ÛĮÙĦ": 5616,
      "ae": 5617,
      "ĠÙĩÙĪØ§Ø¯": 5618,
      "ĠÙģÛĮØ²ÛĮÚ©ÛĮ": 5619,
      "ĠÙĪÙģ": 5620,
      "ĠÙħØ®ÙĦÙĪØ·": 5621,
      "Ú©Ø±Ø¯ÙĨØ¯": 5622,
      "ĠÙ¾ÛĮØ±Ø§ÙħÙĪÙĨ": 5623,
      "ual": 5624,
      "ĠØ¨Ø³ØªØ±": 5625,
      "ï»´": 5626,
      "iran": 5627,
      "ĠØ°ÙĪØ¨": 5628,
      "ace": 5629,
      "ĠÙħØ°Ú©ÙĪØ±": 5630,
      "ĠØ§Ø®ÙĦØ§ÙĤÛĮ": 5631,
      "ĠØ¯ÙħØ§ÛĮ": 5632,
      "ÙħØ¬ÙħÙĪØ¹Ùĩ": 5633,
      "ÙĪØ´Ø§Ù¾": 5634,
      "Ø§ÙĬÙĦ": 5635,
      "2016": 5636,
      "ĠÙħØªØ¹ÙĦÙĤ": 5637,
      "ĠØ³Ø¤": 5638,
      "ÙĬÙĨØ¯": 5639,
      "ĠØ³Ø±ÙħØ±Ø¨ÛĮ": 5640,
      "ĠÚ©Ø±Ø¨ÙĦ": 5641,
      "ĠØ¨Ø³ÙĬØ§Ø±": 5642,
      "AR": 5643,
      "ĠØ¬ÙĨØ§Ø¨": 5644,
      "Ġ2020": 5645,
      "Ø¹Ø¨Ø§Ø³": 5646,
      "ĠGalaxy": 5647,
      "ÛĮÙĨÙĪ": 5648,
      "ÙĦÛĮØ³": 5649,
      "ĠØ´Ø¨Ø§ÙĨÙĩ": 5650,
      "ĠØ§Ø®ØªÙĦØ§ÙĦ": 5651,
      "wp": 5652,
      "ĠØ´ÙĩØ¯Ø§ÛĮ": 5653,
      "ĠBank": 5654,
      "Ø²Ø§ÛĮÛĮ": 5655,
      "ĠØ®Ø§ÙĪØ±": 5656,
      "ĠØ¢Ù¾Ø§Ø±Ø§Øª": 5657,
      "ĠØ¨Ø±Ø´": 5658,
      "ĠØ¬Ø²ÛĮØ±Ùĩ": 5659,
      "ĠØ¬ÙĨÚ¯ÙĦ": 5660,
      "ĠØ´Ø¬": 5661,
      "ĠØªÙĨØ´": 5662,
      "ĠÙħØµÙĪØ¨": 5663,
      "Ġ01": 5664,
      "ĠØ³Ø·ÙĪØŃ": 5665,
      "ĠØ³ÛĮÙħØ§": 5666,
      "ĠÙ¾ÙĨØ§Ùĩ": 5667,
      "ĠØªØ¹ÙĪÛĮØ¶": 5668,
      "ĠÙĤØ¨ÙĦØ§": 5669,
      "ĠØ´ÛĮØ±ÛĮÙĨÛĮ": 5670,
      "ĠÙħØªÙĩÙħ": 5671,
      "ĠØ¨Ø±Ø¯Ø§Ø±": 5672,
      "Ġ1391": 5673,
      "ĠÙĪØ§ÙĦØ¯ÛĮÙĨ": 5674,
      "ĠÙħØ§Ú©": 5675,
      "ĠÙģØ±ÙĪØ´ÙĨØ¯Ùĩ": 5676,
      "ĠÙ¾ÙĨÙĦ": 5677,
      "Ø¨Ø®Øª": 5678,
      "ĠØ®ÙĪØ§Ø³ØªØ§Ø±": 5679,
      "Ø´Ú©ÙĦ": 5680,
      "ĠÙĤÙĨØ¯": 5681,
      "ĠØ®ÙĪØ±Ø§Ú©ÛĮ": 5682,
      "ĠÙ¾Ø³ØªÛĮ": 5683,
      "ĠØ§ÙģØ²Ø§ÙĬØ´": 5684,
      "ĠØ¨Ø²ÙĨÛĮØ¯": 5685,
      "ĠÙħÙĨØŃØµØ±": 5686,
      "ool": 5687,
      "ĠØ§ÙĨÚ¯Ø´Øª": 5688,
      "Ġï¿½ï¿½": 5689,
      "ØŃØ¶": 5690,
      "ĠØµÙĩÛĮ": 5691,
      "ĠÙĨÙĪØ§Ø±": 5692,
      "ĠØ®Ø±Ùħ": 5693,
      "Ø®Ø¨": 5694,
      "Ú¯Ø§": 5695,
      "ĠÙ¾Ø®Øª": 5696,
      "ÙģÙĪ": 5697,
      "ĠØ¨Ø±Ø·Ø±Ùģ": 5698,
      "ĠÚ¯ÙĬ": 5699,
      "ĠØ±ÙĪØ³ØªØ§": 5700,
      "ĠÙĪØ§Ø³Ø·Ùĩ": 5701,
      "ĠAc": 5702,
      "ĠNew": 5703,
      "upload": 5704,
      "Ø§Ø²Ø¯Ùĩ": 5705,
      "Ú©Ø§Øª": 5706,
      "Ø§ÙĨÙĪØ§Ø¹": 5707,
      "ĠØ¹Ø²": 5708,
      "ÙĪÙĤÙģ": 5709,
      "ĠÙĨÙĪØ´ØªÙĨ": 5710,
      "ĠØ¯ÙĬØ¯": 5711,
      "ĠØ¯Ø±Ø³ÛĮ": 5712,
      "Ø§ÙģØ±": 5713,
      "ĠÙħØ¬ÙĦØ³ÛĮ": 5714,
      "ÙħØªÙĨ": 5715,
      "ĠØ§ÙģØ²ÙĪØ¯Ùĩ": 5716,
      "ĠÙħØ§ÛĮØ¹": 5717,
      "ĠØ²ÙĪØ¬": 5718,
      "ĠÙħØ¹Ø±Ø¶": 5719,
      "ĠØ±Ø³Ø§ÙĨØ¯": 5720,
      "Ú©ÛĮØ¬": 5721,
      "ĠÙģØ§Ø±Ú©Ø³": 5722,
      "Ù¦": 5723,
      "ĠØ¨Ø±Ú¯Ø´Øª": 5724,
      "Ø§ØŃÙħØ¯": 5725,
      "ĠØ¨Ú©Ø§Ø±": 5726,
      "ĠÙģÛĮØ³": 5727,
      "ĠØ¨ÙĨØ²ÛĮÙĨ": 5728,
      "ĠÚ©Ø§Ø´Øª": 5729,
      "ĠØ§ÙĦÚ¯ÙĪ": 5730,
      "ĠÙĨØ¹": 5731,
      "Ù¬": 5732,
      "ĠØ¨Ø±ØªØ±ÛĮÙĨ": 5733,
      "ĠÚ©ÙĨÚ¯Ø±Ùĩ": 5734,
      "ÙħÙĪØ±Ø¯": 5735,
      "ĠØ¬Ø§Ø°Ø¨Ùĩ": 5736,
      "ÙĪÙĦØ¯": 5737,
      "ĠØ±Ø´Øª": 5738,
      "ĠØ¶Ø¹ÛĮÙģ": 5739,
      "ĠEx": 5740,
      "ĠØŃÙĦÙĤÙĩ": 5741,
      "ĠØ±ÛĮØ³Ú©": 5742,
      "Ġ_": 5743,
      "ĠÙĪÙĩ": 5744,
      "ØŃØ±": 5745,
      "Ġ31": 5746,
      "ĠPhot": 5747,
      "Ø³Ùģ": 5748,
      "ĠØ§Ø³ÙĦØ§ÙħÙĬ": 5749,
      "ĠÙ¾Ø§ÛĮØ¯Ø§Ø±": 5750,
      "ĠÙħØ¨Ø§ÙĨÛĮ": 5751,
      "Ø§Ø·Ø¹": 5752,
      "ĠØŃØ§Ú©Ùħ": 5753,
      "ÙĤØ¯": 5754,
      "ĠØ®ÙĬ": 5755,
      "Ø³ÛĮØ³ØªÙħ": 5756,
      "oogle": 5757,
      "ĠØ´Ø§ÙĨÙĩ": 5758,
      "ond": 5759,
      "ĠØ³Ø§Ø²Ø¯": 5760,
      "ØªÙĪÙĦÛĮØ¯": 5761,
      "ĠØ¢ÙħØ¯ÙĨ": 5762,
      "ÙħØ§ÛĮÛĮØ¯": 5763,
      "ĠØªØ±Ø§ÙģÛĮÚ©": 5764,
      "ĠÚĨÙĨØ¯Ø§ÙĨ": 5765,
      "ĠØ®Ø³Ø§Ø±Øª": 5766,
      "ĠØªØ±ÙĪØ±ÛĮØ³ØªÛĮ": 5767,
      "ĠØ¯Ø±Ø§ÛĮÙĪØ±": 5768,
      "ĠØ´ÙĩØ¯Ø§": 5769,
      "ĠØ¹Ø²ÛĮØ²Ø§ÙĨ": 5770,
      "ĠÙĩÛĮØ¬Ø§ÙĨ": 5771,
      "ĠØªÙĪØµÛĮÙģ": 5772,
      "ĠØ³Ø±Ø¨Ø§Ø²": 5773,
      "ĠÙĨÚ¯Ø§ÙĩÛĮ": 5774,
      "ĠØ¬Ø¨Ø±Ø§ÙĨ": 5775,
      "ĠØ¨Ø±ÙĤØ±Ø§Ø±": 5776,
      "Ø±Ø¯Ú¯ÛĮ": 5777,
      "ĠÙ¾ÙĨÙĩØ§ÙĨ": 5778,
      "ĠØ§Ø¹ØªÛĮØ§Ø¯": 5779,
      "Û´Û°": 5780,
      "ĠÙģØ±ÙĪØ´ÛĮ": 5781,
      "ĠØ¨Ú¯ÛĮØ±ÙĨØ¯": 5782,
      "ĠÙħÛĮÚ©ÙĨÙĨØ¯": 5783,
      "ĠØ§ÙģÚ©Ø§Ø±": 5784,
      "ĠØªÙģØ±ÛĮØŃÛĮ": 5785,
      "ĠØ¯Ø§Ø±Ø§ÛĮÛĮ": 5786,
      "ÙħÛĮÙĤ": 5787,
      "ĠÚ©Ø§Ø±Ú¯Ø±Ø¯Ø§ÙĨ": 5788,
      "ĠÙħØ¹Ø§Ø¯ÙĦ": 5789,
      "ĠØ¯Ø´ÙħÙĨØ§ÙĨ": 5790,
      "ĠØ§Ø³Ø¨": 5791,
      "Ø¬ÙħØ¹Ùĩ": 5792,
      "Ġ80": 5793,
      "ĠØ´Ø±Ú©": 5794,
      "ĠØ§ÙĪØ¬": 5795,
      "ÙĨÙĪØ§ÙĨ": 5796,
      "Ø²ÛĮØ±": 5797,
      "ï»§": 5798,
      "ĠÙĩØ±Ú©": 5799,
      "ĠÚ©ÙħØªØ±ÛĮÙĨ": 5800,
      "ĠÙħØµØ±": 5801,
      "ÛĮÛĮÛĮÛĮ": 5802,
      "ire": 5803,
      "ĠØ¨Ø§Ø±ÛĮ": 5804,
      "Ø¨Ú©": 5805,
      "ĠÙĤØ·Ø§Ø±": 5806,
      "ĠØ´Ø§Ø¹": 5807,
      "ïºĸ": 5808,
      "ĠÙħÚ¯Ø±": 5809,
      "ĠÛĮØ§Ø¨": 5810,
      "ĠÙ¾ÛĮÙĪØ³Øª": 5811,
      "Ø¢ÙĪØ±Ø¯Ùĩ": 5812,
      "amsung": 5813,
      "Ø¬Ø¯ÛĮØ¯": 5814,
      "ĠÙĩØ±ÚĨÙĩ": 5815,
      "ĠØ´ÙĩØ±ÙĩØ§": 5816,
      "osh": 5817,
      "ĠØ§ÙħØ¯Ø§Ø¯": 5818,
      "ĠØªÙĪØ§ÙĨØ³ØªÙĩ": 5819,
      "ÙģØ³": 5820,
      "ĠÙħØ¹ÙħÙĪÙĦÛĮ": 5821,
      "Ġ36": 5822,
      "ĠØ¬ÙĨØ¨Ùĩ": 5823,
      "Ú¯ÛĮØ±ÙĨØ¯": 5824,
      "ĠØ®Ø§Ø·Ø±Ø§Øª": 5825,
      "ĠÙ¾Ø§Øª": 5826,
      "ĠÙ¾ØªØ±ÙĪØ´": 5827,
      "ÙħØ«": 5828,
      "ĠÛĮÙĪØ±ÙĪ": 5829,
      "ÙħÙĪØ¶ÙĪØ¹": 5830,
      "ĠØ¯Ø®ØªØ±Ø§ÙĨ": 5831,
      "ĠØ³ÙĨØ³ÙĪØ±": 5832,
      "ĠÙĨØ¯Ø§Ø±ÛĮÙħ": 5833,
      "ĠÛĮØ®ÚĨØ§ÙĦ": 5834,
      "ĠÙĨØ§Ø¯": 5835,
      "Ø±ÛĮØ§": 5836,
      "ĠÙħØŃÙĦÙĩ": 5837,
      "Û³Û±": 5838,
      "ĠÛĮØ§Ø±Ø§ÙĨÙĩ": 5839,
      "ĠØ¬ÙĦØ³Ø§Øª": 5840,
      "ÙĬØ¹": 5841,
      "ĠØ§ÙħÛĮÙĨ": 5842,
      "ĠÙĨÚ¯ÙĩØ¨Ø§ÙĨ": 5843,
      "Ġ70": 5844,
      "ÙħÙĪØ³": 5845,
      "ĠÙĤØ±Ø¨Ø§ÙĨÛĮ": 5846,
      "Ú¯ÙĬØ±ÙĬ": 5847,
      "ĠÚ¯Ø§Ø²ÛĮ": 5848,
      "ĠÙĨÙĪØ±ÙĪØ²ÛĮ": 5849,
      "ĠØ®ÙĪØ±Ø´ÛĮØ¯": 5850,
      "ÚĨÚ¯ÙĪÙĨÙĩ": 5851,
      "ĠØ§ÙģØªØ®Ø§Ø±": 5852,
      "ĠØ§ÙĪØ±Ø§ÙĤ": 5853,
      "ĠØ§ØªÙĪÙħØ¨ÛĮÙĦ": 5854,
      "ĠØ¨Ø§Ø¨Øª": 5855,
      "ĠØµØ§Ø¨ÙĪÙĨ": 5856,
      "ĠØªÙĪØ±ÛĮ": 5857,
      "ĠØ§ÙħÙĪØ²Ø´": 5858,
      "ĠØªÙħØ§Ø´": 5859,
      "ĠØªØ¨ÛĮ": 5860,
      "int": 5861,
      "Û³Û·": 5862,
      "ÙĨØ¬ÛĮ": 5863,
      "ĠØ¯Ø±Ú¯ÛĮØ±": 5864,
      "ÙħÛĮØ²ÛĮ": 5865,
      "ØŁØŁØŁØŁ": 5866,
      "cl": 5867,
      "ĠÙħØªÙĪÙĤÙģ": 5868,
      "Ø®ÛĮÙĦÛĮ": 5869,
      "ÙĨØ´ÛĮÙĨ": 5870,
      "Û³Û¶": 5871,
      "low": 5872,
      "ĠÙħØªØ¹Ø¯Ø¯": 5873,
      "ĠÙģØ§Ø¶ÙĦ": 5874,
      "ĠÙħØ§Ø³Øª": 5875,
      "ics": 5876,
      "ĠØ´Ú©Ùħ": 5877,
      "ĠÙħØ³Ø¦ÙĪÙĦÛĮÙĨ": 5878,
      "ĠÙĩÙĪØ§Ø¯Ø§Ø±Ø§ÙĨ": 5879,
      "ĠØ³ÙĪØ²": 5880,
      "ĠØ¨ÙĨÙĪÛĮØ³": 5881,
      "ĠÙ¾Ø±Ø¯Ø§Ø²Ø´": 5882,
      "ĠØ§ÙĨÚ¯ÛĮØ²Ùĩ": 5883,
      "ĠØ¯Ø±ÙĪØ§Ø²Ùĩ": 5884,
      "ĠÙħÙĪØ¯": 5885,
      "ĠÙģÛĮØ´": 5886,
      "ge": 5887,
      "ĠÙĤÙĦØ¨ÛĮ": 5888,
      "ĠÙģÙĦØ³ÙģÙĩ": 5889,
      "Ø§ÙĨØ§Øª": 5890,
      "âĢ¬": 5891,
      "ĠØ¯ÛĮØ¬ÛĮ": 5892,
      "ĠÙ¾Ø§Ø±Ø³ÛĮ": 5893,
      "ĠØ®Ø§ÙħÙĪØ´": 5894,
      "ĠÙħØ´Ø±ÙĪ": 5895,
      "ĠMan": 5896,
      "ĠØ·ÙĦØ§ÙĤ": 5897,
      "Ø®ÙĪØ±": 5898,
      "ĠÙĨÙĤØ±Ùĩ": 5899,
      "ĠÙĤØ·Ø¹ÛĮ": 5900,
      "ĠÙ¾Ø²Ø´Ú©Ø§ÙĨ": 5901,
      "ĠÚ©Ø§Ø±Ú¯Ø±": 5902,
      "ĠÚĺÙĨ": 5903,
      "ĠØ¨Ø¯ÛĮ": 5904,
      "ĠÙĩÙħØª": 5905,
      "ÙģØ±Ø¯": 5906,
      "ĠØ§ÙĨØ¯Ø§Ùħ": 5907,
      "ĠÙħØ±ÛĮÙħ": 5908,
      "odel": 5909,
      "ÙĨÙĪØ´Øª": 5910,
      "ĠØªØµØ§Ø¯Ùģ": 5911,
      "ĠØªØ§Ùħ": 5912,
      "ĠØ®ÙĦØ§Ùģ": 5913,
      "ÙģØ§Ø±": 5914,
      "ĠÚĨÚ¯ÙĪÙĨÚ¯ÛĮ": 5915,
      "ĠØ§Ø³ØªØ§ÙĨØ¨ÙĪÙĦ": 5916,
      "ĠØ¬ÙĦÙĪÛĮ": 5917,
      "ÙĬØ²ÙĬ": 5918,
      "ĠØ¨Ø±ÙĪØ¯": 5919,
      "ÙĪÙĨÛĮÚ©": 5920,
      "Ø·ÙģÛĮ": 5921,
      "ĠÙģÙĦØ²": 5922,
      "-%": 5923,
      "ĠØ¨Ø§Ø´Ùħ": 5924,
      "ĠÛĮÙħÙĨ": 5925,
      "ĠØ§ÛĮÙĦ": 5926,
      "ĠÚ©ÛĮÙĦÙĪÚ¯Ø±": 5927,
      "ĠØ¯ÙħØ§": 5928,
      "ĠÙĪØ§Ø³Ùĩ": 5929,
      "ĠØ±Ø²Ø±ÙĪ": 5930,
      "ĠØ±Ø§Ø²": 5931,
      "ØŃÙĤ": 5932,
      "ĠØ§ÛĮÙĨÚĨ": 5933,
      "Ø³ÛĮÙĦ": 5934,
      "cess": 5935,
      "ĠØ§ÛĮÙħØ§ÙĨ": 5936,
      "ĠÙ¾Ø§ÛĮØ§ÙĨÛĮ": 5937,
      "ĠØªÙĨÙĩØ§ÛĮÛĮ": 5938,
      "ach": 5939,
      "ĠØ®ÙĪØ´ØŃØ§ÙĦ": 5940,
      "ĠÙĤÙĦØ¹Ùĩ": 5941,
      "Ø³ÛĮØ¯": 5942,
      "Ú¯Ø±ÙģØª": 5943,
      "ĠØ´Ø§ÛĮØ¹": 5944,
      "ĠØªØ®Ø±ÛĮØ¨": 5945,
      "ĠØ®ÙĪØ±Ø¯Ùĩ": 5946,
      "ÙĪØ¦ÙĨ": 5947,
      "ĠØ¹ÙĤÙĦ": 5948,
      "Ø§ÙģÙĦ": 5949,
      "ĠVide": 5950,
      "ĠØ¢ÙģØ±ÛĮÙĤ": 5951,
      "ĠÙģØªÙĪØ´Ø§Ù¾": 5952,
      "uct": 5953,
      "ĠÚ©ÛĮØ³": 5954,
      "Ø²ÛĮØª": 5955,
      "ÛĮÙĨØ§": 5956,
      "reat": 5957,
      "ĠØ§ÙĦÚ©ØªØ±ÛĮÚ©ÛĮ": 5958,
      "ĠØ±ÛĮÙħ": 5959,
      "ĠØªØŃÙħÙĦ": 5960,
      "ĠØºØ°Ø§ÙĩØ§ÛĮ": 5961,
      "ÙĩÙĪØ±": 5962,
      "Ø¹Ø¶": 5963,
      "ĠØ¬Ú©": 5964,
      "ĠÛ´Û°": 5965,
      "ĠØ¨Ø®ÙĪØ±": 5966,
      "Ø§Ø¨ÙĬ": 5967,
      "ence": 5968,
      "âĻ": 5969,
      "ĠØ®Ùħ": 5970,
      "Û³Ûµ": 5971,
      "ĠØ¨Ø±Ú¯Ø±Ø¯": 5972,
      "jpg": 5973,
      "ÙĬÙħÙĬ": 5974,
      "za": 5975,
      "ĠÙĤØ§Ø¹": 5976,
      "ĠÚ©Ø±ÛĮÙħ": 5977,
      "ĠØ§ÛĮÙĨÙĩØ§": 5978,
      "ĠØ³Ø±Ù¾Ø±Ø³Øª": 5979,
      "Ġ300": 5980,
      "ĠØ¨Ø¨Ø±ÛĮØ¯": 5981,
      "ÙĪØ§Øª": 5982,
      "ĠÙĩÙħÙĪÙĨ": 5983,
      "ĠØ¨ÙĨÛĮØ§ÙĨ": 5984,
      "ØªØ³": 5985,
      "ĠÙĪÚ©ÛĮÙĦ": 5986,
      "ĠÚ©ÛĮÙħ": 5987,
      "Ù¡": 5988,
      "Ø¬Ø³ØªØ§ÙĨ": 5989,
      "94": 5990,
      "ĠÙħØ³ÙĦÙħØ§ÙĨØ§ÙĨ": 5991,
      "ĠÙħÛĮØ§Ø¯": 5992,
      "ĠÚ©ÙĨØ³Ø±Øª": 5993,
      "Ø§ÛĮØ§": 5994,
      "ØµØ§Ø¨": 5995,
      "Ø¦Ùĩ": 5996,
      "ĠÙĨÙħØ§Ø´Ø§": 5997,
      "ĠØµÙĩÛĮÙĪÙĨÛĮ": 5998,
      "ĠØ´Ø§Ù¾": 5999,
      "ĠÚ©ÙĦÙħØ§Øª": 6000,
      "ĠØ§ÙĨØªØ´Ø§Ø±Ø§Øª": 6001,
      "ĠÙħØ¹ÙħÙĪÙĦ": 6002,
      "ĠÙħØ¹ÙĨØ§": 6003,
      "Ø¢ÙħÙĪØ²ÛĮ": 6004,
      "64": 6005,
      "ĠØ³ÙĨÛĮ": 6006,
      "ĠØ¨Ø±Ø²": 6007,
      "ĠÙħÙĨØ§ÙĤØµÙĩ": 6008,
      "ĠØªÙĤØ¯": 6009,
      "ĠØªØ§Ø³ÛĮØ³": 6010,
      "ĠØ¨Ø§Ø¯ÛĮ": 6011,
      "Ø®ØµÛĮ": 6012,
      "ĠÙħØ¨Ø§ØŃØ«": 6013,
      "ØªÙĪÙħØ§ÙĨFlash": 6014,
      "ĠÙħØ§Ø³Ø§Úĺ": 6015,
      "ĠÙħØ·Ø¨ÙĪØ¹": 6016,
      "ĠØ±ÙĪÙĨÙĤ": 6017,
      "Ġe": 6018,
      "ÙħÙĪÙĦ": 6019,
      "ĠØ²ÙħØ³ØªØ§ÙĨ": 6020,
      "ĠØ³ÙĪØ¡": 6021,
      "Ø¢Ø²": 6022,
      "ĠÙģØ¹Ø§ÙĦØ§ÙĨ": 6023,
      "ĠØ§Ú©Ø¨Ø±": 6024,
      "ime": 6025,
      "ĠÙĩÛĮØ¯Ø±ÙĪ": 6026,
      "ÙĦØ§Ùģ": 6027,
      "ÛķÙĥ": 6028,
      "Û³Û¹": 6029,
      "ĠØ´ÙĦÙĪØ§Ø±": 6030,
      "SD": 6031,
      "Ø±Ø²": 6032,
      "ĠØ®ÙĪÙĨÙĩ": 6033,
      "ĠÙħÙĪØ¶": 6034,
      "ĠÙħÙĪÙĤØª": 6035,
      "und": 6036,
      "NA": 6037,
      "ĠØ¬Ø±ÛĮ": 6038,
      "ĠØ¨Ø®ØªÛĮ": 6039,
      "net": 6040,
      "Ø§ÙĦÙĬ": 6041,
      "ĠÙĩÙħÙĬÙĨ": 6042,
      "ĠØ¯Ø§Ø´ØªÛĮÙħ": 6043,
      "ĠØªÙĦØ®": 6044,
      "ĠØ³Ù¾Ø±Ø¯Ùĩ": 6045,
      "Ġhas": 6046,
      "ĠØ´ÙĩØ±Ø¯Ø§Ø±": 6047,
      "Ø±Ø§ÙĩÙĨÙħØ§ÛĮ": 6048,
      "ÙĪÙĤØªÛĮ": 6049,
      "Ø§Ú©Ùĩ": 6050,
      "Ø¨Ø¯ÙĪÙĨ": 6051,
      "ĠÙ¾ÚĺÙĪ": 6052,
      "ĠØ²Ø®Ùħ": 6053,
      "DF": 6054,
      "ĠØ¯ÙĪØ´": 6055,
      "ĠÙĨÛĮØ§Ø²ÛĮ": 6056,
      "ĠÙħØªØµÙĦ": 6057,
      "ĠÚ¯Ø±ÙģØªÙĨØ¯": 6058,
      "ĠÙħØªÙĨØ§Ø³Ø¨": 6059,
      "ĠÙħÚ©ÙħÙĦ": 6060,
      "ĠÚ¯ÙĨØ¯Ùħ": 6061,
      "ÛķÚµ": 6062,
      "Û´Ûµ": 6063,
      "ĠÙĪÙĨ": 6064,
      "ĠØ¢Ú©": 6065,
      "ĠØŃÛĮØ§Øª": 6066,
      "ĠØ³ÙĦØ§ØŃ": 6067,
      "Ø·ÙĪ": 6068,
      "ĠÙħÛĮÚ©ÙĨÛĮÙħ": 6069,
      "ĠÚ©Ø´ÛĮØ¯Ùĩ": 6070,
      "ens": 6071,
      "ĠØ¢ÙĦÙĪÙħ": 6072,
      "ĠØ®Ø§Ø·Ø±Ùĩ": 6073,
      "DR": 6074,
      "ĠÙħÙĪØ´": 6075,
      "ĠØ¨Ø¹ÙĨÙĪØ§ÙĨ": 6076,
      "ĠÙĪØ¸Ø§ÛĮÙģ": 6077,
      "ĠØ¹Ø¨Ø¯Ø§ÙĦÙĦÙĩ": 6078,
      "ĠÙĩØ§Ø¯ÛĮ": 6079,
      "ĠØ³ÙĪØ¦": 6080,
      "Ø³ÙĪÛĮ": 6081,
      "ĠØ±ÙģØ§Ùĩ": 6082,
      "ĠØ§Ø³Ø¨Ø§Ø¨": 6083,
      "ĠÙħÛĮØªÙĪÙĨ": 6084,
      "ĠØ¨Ø¯ÙĩØ¯": 6085,
      "ĠÙĪØ§Ø±ÛĮ": 6086,
      "ØºØ¯ØºÙĩ": 6087,
      "ĠØ´Ø§Ùħ": 6088,
      "Ù¾ÙĨÙĦ": 6089,
      "ĠØ§Ø¨Ø±ÙĪ": 6090,
      "ĠØ§ÙĬØ¬Ø§Ø¯": 6091,
      "ĠÙģØ§ÙĨØª": 6092,
      "ĠÙĨÛĮÚ©": 6093,
      "ĠÚ¯ÙģØªÙĨØ¯": 6094,
      "ĠØ±Ø§ÙĨÙĨØ¯Ùĩ": 6095,
      "Ġ64": 6096,
      "ĠÙ¾ÛĮÚĨÛĮØ¯Ùĩ": 6097,
      "ĠØ¯ÙħÙĪÚ©Ø±": 6098,
      "Ø³ÙĦÛĮ": 6099,
      "Ø§ÙĦØ²": 6100,
      "ÛĮÙĨØªØ±": 6101,
      "ÙħÙĩØ¯ÛĮ": 6102,
      "ĠÙĨÙģØ±Ùĩ": 6103,
      "Ø§Ø²ÙĦ": 6104,
      "ĠØ±Ø§Ø³ØªØ§": 6105,
      "TE": 6106,
      "ĠÛĮØ¯": 6107,
      "ĠØºÙĬØ±": 6108,
      "Ãĺ": 6109,
      "ØªÙĪÙħØ§ÙĨM": 6110,
      "ĠÙħØ±ØªØ¶ÛĮ": 6111,
      "ĠÙ¾ØªØ±ÙĪØ´ÛĮÙħÛĮ": 6112,
      "kh": 6113,
      "Ù¾Ùĩ": 6114,
      "ĠÙĦØ§Ú©": 6115,
      "ĠØ´ÛĮØ¹Ùĩ": 6116,
      "ĠÙħØ§Ø³Ú©": 6117,
      "ĠØ¶Ø¨Ø·": 6118,
      "ĠÙħØ±ÙĪØ±Ú¯Ø±": 6119,
      "ĠÚ¯Ø±Ø§ÛĮØ´": 6120,
      "ÙħØ§ÙĨØª": 6121,
      "ĠÙħØŃÚ©ÙĪÙħ": 6122,
      "ĠØ¢Ø³ØªØ§ÙĨÙĩ": 6123,
      "ØªÙĪÙħØ§ÙĨPower": 6124,
      "ĠÙĩÙĨÚ¯Ø§ÙħÛĮ": 6125,
      "ĠØ´ÛĮÙĪØ¹": 6126,
      "ĠØ³ÙĬØ³ØªÙħ": 6127,
      "ĠØ¨ÙĦØ§": 6128,
      "Ø§ÛĮØªÛĮ": 6129,
      "ØŃÙħ": 6130,
      "ĠØ³Ø§ÛĮØªÙĩØ§ÛĮ": 6131,
      "ØªÚ©": 6132,
      "ĠØ¨Ø±ÙĪ": 6133,
      "ĠÙĥØ´": 6134,
      "Ġ35": 6135,
      "ĠÙ¾ÛĮØ§ÙħÚ©": 6136,
      "ÙģÙĦØ´": 6137,
      "ĠØ§Ø±Ø§ÛĮÙĩ": 6138,
      "ome": 6139,
      "ÛĮØ§Ø¯": 6140,
      "Ø§Ø¨Ø±ÛĮ": 6141,
      "ĠÙĤÛĮÙħ": 6142,
      "ĠÙĨÙĤØ¯ÛĮ": 6143,
      "ĠØ±Ú©ÙĪØ±Ø¯": 6144,
      "ÙĪØ±Ú©": 6145,
      "ĠDownload": 6146,
      "ĠÙħØ§ÛĮÚ©Ø±ÙĪØ³Ø§ÙģØª": 6147,
      "URL": 6148,
      "75": 6149,
      "pro": 6150,
      "ĠØ§ÙĦÚ©Øª": 6151,
      "ÙĪÙħÛĮØª": 6152,
      "Ø³Ø®": 6153,
      "ĠØ§ÙĦÚ¯ÙĪÛĮ": 6154,
      "ĠØ§ÙĨØ¯ÛĮØ´": 6155,
      "ĠÙħØ¯Ø¹ÛĮ": 6156,
      "ĠØ´ÙĩØ±Ø³Ø§Ø²ÛĮ": 6157,
      "ĠØ§Ø¹ØªØ¨Ø§Ø±ÛĮ": 6158,
      "ĠØµØ±ÙģÙĩ": 6159,
      "ld": 6160,
      "ĠÙĩÛĮØ£Øª": 6161,
      "ĠØªÙĤØ¯ÛĮØ±": 6162,
      "ĠÙ¾ÙĦØ§Ú©": 6163,
      "ĠTr": 6164,
      "ĠÙĨÙħÙĪØ¯Ø§Ø±": 6165,
      "Ø§Ø³ØªÛĮÚ©ÛĮ": 6166,
      "enov": 6167,
      "ĠÙħØ³ÙĦÙħØ§ÙĨ": 6168,
      "81": 6169,
      "Ø§ÙħÙĨ": 6170,
      "ĠØ§Ø³ØªØ¹Ø¯Ø§Ø¯": 6171,
      "Ø«Ø¨Øª": 6172,
      "ĠÙĪØ±ÚĺÙĨ": 6173,
      "ĠØ¨Ø§Ø²Ø§Ø±ÙĩØ§ÛĮ": 6174,
      "82": 6175,
      "Ġan": 6176,
      "ÙĤØ§": 6177,
      "Ú¯ÛĮØ±ÛĮÙħ": 6178,
      "ĠØ®ÙĪØ´Ùħ": 6179,
      "ĠØ§Ø³Ø§Øª": 6180,
      "ØŃÛĮ": 6181,
      "Ø§Ø³ØªØ§ÙĨÛĮ": 6182,
      "ĠØ¨Ø®Ø§Ø±": 6183,
      "ĠÙħØŃØªÙĪØ§": 6184,
      "ÙĦØ·": 6185,
      "Ø§ÙĨÙĦÙĪØ¯": 6186,
      "ĠØ³Ø±ÙĤØª": 6187,
      "ĠØ¯ÙĦÙħ": 6188,
      "ĠÙĪØ§ÙĦÛĮØ¨Ø§ÙĦ": 6189,
      "ÙĪÙħÛĮÙĩ": 6190,
      "ĠÙģØ±Ø§ÙĪØ§ÙĨÛĮ": 6191,
      "ĠÙĨØ§Ø¸": 6192,
      "ĠÙħÛĮØ²Ø¨Ø§ÙĨ": 6193,
      "ĠØ¯Ø±Ú¯ÛĮØ±ÛĮ": 6194,
      "ÛİÙĨ": 6195,
      "ff": 6196,
      "Ú¯Ø§Ø±Ø§ÙĨØªÛĮ": 6197,
      "ĠØ±ÙĩØ§": 6198,
      "ĠØ§Ø³ØªÛĮÙĦ": 6199,
      "ĠØ§ÙĦÙģ": 6200,
      "uploads": 6201,
      "Ø¬Ø§Ø³Øª": 6202,
      "ĠØ¹ÙħÛĮÙĤ": 6203,
      "ĠØ¹ÙĦÙĬÙĩ": 6204,
      "/?": 6205,
      "ÙĤØ§Ø¨": 6206,
      "ĠØ¨Ø±Ú¯Ø²": 6207,
      "ØªØ¬": 6208,
      "Ġ//": 6209,
      "enovo": 6210,
      "ĠÙĨØ§Ø´": 6211,
      "Ú©ÙĪÙ¾": 6212,
      "ĠØ¯ÙĪØ¯": 6213,
      "ork": 6214,
      "ĠØ§Ø´Ú©": 6215,
      "ĠÚ©ÛĮÙĦÙĪÚ¯Ø±Ùħ": 6216,
      "300": 6217,
      "ĠÙ¾ÛĮØ´ÛĮÙĨ": 6218,
      "ĠØ´Ø±ÛĮÙģ": 6219,
      "ĠÙħØ¯ÙĨÛĮ": 6220,
      "ĠØªØ±Ø§Ú©ØªÙĪØ±": 6221,
      "ĠØ§ØªÙĪØ¨": 6222,
      "ĠØ§Ø¨ØªÙĦØ§": 6223,
      "ĠØ¨Ø²": 6224,
      "Ú©Ø§ÙĨØ³": 6225,
      "Ø±Ø§ØªÙĪØ±": 6226,
      "Ø®ÙĪØ§ÙĨÛĮ": 6227,
      "92": 6228,
      "oot": 6229,
      "ÛĮÚ©Ø±": 6230,
      "ĠØ§Ø¹Ø²Ø§Ùħ": 6231,
      "ĠÙħÙģØ§Ùĩ": 6232,
      "ĠÙĨÙĪØ¯": 6233,
      "ĠØ§Ø±Ø¨Ø¹": 6234,
      "ĠÙĩÙħØ³Ø±Ø´": 6235,
      "ØªÛĮÙħ": 6236,
      "ĠØ¯ØºØ¯ØºÙĩ": 6237,
      "ĠØ¨Ø§ÛĮÚ¯Ø§ÙĨÛĮ": 6238,
      "âĸ": 6239,
      "ĠØ§Ø«Ø±Ø§Øª": 6240,
      "ĠØŃØ¬Ø§Ø¨": 6241,
      "ĠØ®Ø´ÙĪÙĨØª": 6242,
      "ĠØ³Ø±Ø§Øº": 6243,
      "ĠïºĹ": 6244,
      "ĠÙģØ§ÙĦ": 6245,
      "ĠØ§ÙĦÙĨ": 6246,
      "ĠÙħØ®Ø§Ø·Ø¨Ø§ÙĨ": 6247,
      "ĠÙĦØ§ØºØ±ÛĮ": 6248,
      "ĠØªØ±Ø§ÙĨ": 6249,
      "ĠØ¢ØªÛĮ": 6250,
      "Ú©ÛĮØ§": 6251,
      "ĠÙħØµØ§ÙĦØŃ": 6252,
      "Ġpl": 6253,
      "ĠÙĦØ§ÛĮØŃÙĩ": 6254,
      "ĠØ¢ÙĨØ¯": 6255,
      "ĠÙ¾Ú©ÛĮØ¬": 6256,
      "ĠÙģÙĤÛĮÙĩ": 6257,
      "Ø§ÙģÛĮÚ©ÛĮ": 6258,
      "ĠØªØ¬Ø²ÛĮÙĩ": 6259,
      "ĠâĨ": 6260,
      "Ø¨Ø³ØªÙĩ": 6261,
      "ĠØ¯Ø§Ø¯Ùħ": 6262,
      "ĠHP": 6263,
      "ĠØ²Ø§Ø±": 6264,
      "ĠÙħØ´Ø§ØºÙĦ": 6265,
      "Com": 6266,
      "ĠÚ©Ø§ÙģÙĩ": 6267,
      "ÛĮÚ©Ø´ÙĨØ¨Ùĩ": 6268,
      "ication": 6269,
      "ĠÙħØ¤Ø«Ø±": 6270,
      "ĠØ¨Ø§Ø±Ø´": 6271,
      "ÚĨØ±Ø®Ùĩ": 6272,
      "ĠÚĨÙĩÙĦ": 6273,
      "ĠÙ¾Ø§Ú©Ø³ØªØ§ÙĨ": 6274,
      "ĠØ¨Ù¾Ø±Ø¯Ø§Ø²": 6275,
      "ĠØ±Ø§Ø¯": 6276,
      "ĠØ¹Ø¸ÛĮÙħ": 6277,
      "ĠØ³Ø§ÙĦÛĮ": 6278,
      "ĠØ¨Ø§Ø±ÙĩØ§": 6279,
      "ĠÙĨÙĬØ§Ø²": 6280,
      "ĠÙĦØ¨ÙĨØ§ÙĨ": 6281,
      "ĠØªÙĪÙħØ§ÙĨÛĮ": 6282,
      "ĠÙ¾Ø±Ø¯ÛĮØ³": 6283,
      "ĠØ§Ú©Ø´ÙĨ": 6284,
      "ĠØ´Ø¹Ø¨Ùĩ": 6285,
      "ĠØªÙĦÙģÙĨÛĮ": 6286,
      "ĠÙħØ±ØŃÙĪÙħ": 6287,
      "ĠÙħØ¤Ø³": 6288,
      "Hz": 6289,
      "ĠØ¨Ø±Ùĩ": 6290,
      "ĠØ¹Ø±Ùģ": 6291,
      "Ø·ÙĪØ¨": 6292,
      "ĠØ²ÙĪØ¯ÛĮ": 6293,
      "ĠÙĪØ±ÙĤ": 6294,
      "Ġ2011": 6295,
      "ĠÛĮØ§Ø¯Ø¯Ø§Ø´Øª": 6296,
      "ĠÚĺÙĦ": 6297,
      "ÙĨÙħØ§ÛĮÙĨØ¯Ùĩ": 6298,
      "ĠÙĩØ§Øª": 6299,
      "AD": 6300,
      "ØŃØ§ÙĦÛĮ": 6301,
      "ĠØºÙĨÛĮ": 6302,
      "ĠØ¢Ù¾Ø¯ÛĮØª": 6303,
      "ĠØ¹ÙħÙĦÛĮØ§ØªÛĮ": 6304,
      "ĠÙĩÙĨØ±ÙħÙĨØ¯": 6305,
      "Ø§ÙħØ¹": 6306,
      "ĠØ¯ÛĮØ¯Ùħ": 6307,
      "ĠØ¨ÙĪÚ©": 6308,
      "ĠÙħØ¹ÙĨÙĪÛĮ": 6309,
      "ĠØ¨Ø§ÙĦØ§ØªØ±ÛĮÙĨ": 6310,
      "Ø§ÙĤØ¯": 6311,
      "Ø§ÛĮØ§Øª": 6312,
      "ĠØ§ÙĨØ¨Ø§Ø±": 6313,
      "Ø§ÙĤØªØµ": 6314,
      "Û³Û¸": 6315,
      "ĠØ¯Ø§Ø¯Ú¯": 6316,
      "enc": 6317,
      "ĠØ¶Ø±Ø¨": 6318,
      "ĠÙĤÙĩØ±ÙħØ§ÙĨØ§ÙĨ": 6319,
      "Ø¸Ø±Ùģ": 6320,
      "ĠØ¥": 6321,
      "Ø±ÙĪØŃ": 6322,
      "ĠÙĪÛĮÙĦØ§": 6323,
      "ĠØ¹ÙģÙĪÙĨØª": 6324,
      "Ø¯ÙĪØ±Ùĩ": 6325,
      "ĠØ®Ø·Ø±ÙĨØ§Ú©": 6326,
      "ĠØªØ§Ø²": 6327,
      "ĠØ§Ø´Ø®Ø§Øµ": 6328,
      "ĠØ¯ÙĤÛĮÙĤØ§": 6329,
      "ĠÙĦØ±Ø³ØªØ§ÙĨ": 6330,
      "mp": 6331,
      "ØªÙĦÙģ": 6332,
      "ĠMB": 6333,
      "ĠØ¬ÙĦØ¯": 6334,
      "ĠÙħØ¹ÙĦÙħØ§ÙĨ": 6335,
      "ĠØªØ¹Ø·ÛĮÙĦ": 6336,
      "Ø§ÙĪÙħ": 6337,
      "ĠØ¨Ø§Ùĩ": 6338,
      "ĠØ¸Ø±ÛĮÙģ": 6339,
      "Ø¨ØªÛĮ": 6340,
      "ĠØ¨ÙĩØ§ÙĨÙĩ": 6341,
      "PS": 6342,
      "ĠÛĮØ§Ø¯Ø¢ÙĪØ±": 6343,
      "ser": 6344,
      "Ø§ÛĮØ¨": 6345,
      "Ø§Ø±Ø³ØªØ§ÙĨ": 6346,
      "zwn": 6347,
      "Ú©ÙĪÙĦ": 6348,
      "Ø¨Ø±Ú¯": 6349,
      "ĠØ³ÙħÙĨØ§ÙĨ": 6350,
      "ĠÙĩÙħØ¯": 6351,
      "ĠInstagram": 6352,
      "Ø¶Ø±": 6353,
      "ĠØ¹ÙĨØ§ØµØ±": 6354,
      "ĠØªØ±Ú©ÛĮØ¨ÛĮ": 6355,
      "ys": 6356,
      "âĢĮ.": 6357,
      "ĠÙģÙĤÙĩ": 6358,
      "Û¹Û¹": 6359,
      "ĠÛ¹Û´": 6360,
      "ĠØ±ÙĪØ¯Ø®Ø§ÙĨÙĩ": 6361,
      "ĠØ¹Ø§ÙĦÙħ": 6362,
      "ĠØ¸ÙĩÙĪØ±": 6363,
      "ĠÚ¯ÙĪÛĮÙĨØ¯": 6364,
      "Ø¨Ø§ÛĮÚ¯Ø§ÙĨÛĮ": 6365,
      "ĠØªØ§ÙĦØ§Ø±": 6366,
      "ĠØªØ§Ø±": 6367,
      "ÛĮØ¯Ú¯ÛĮ": 6368,
      "Ø´ÙħØ§Ø±Ùĩ": 6369,
      "ĠÙ¾Ø±ÛĮ": 6370,
      "ĠÙħØ®Ø§ÙĦÙģØª": 6371,
      "ĠÙħØ¯ÙĬØ±ÙĬØª": 6372,
      "pon": 6373,
      "ĠÙĤØµÙĩ": 6374,
      "ĠØ§Ø¨ÙĨ": 6375,
      "ĠEd": 6376,
      "Ġhttps": 6377,
      "ĠÙĨØ±Ø³": 6378,
      "ĠØ´Ú©Ø§ÛĮØª": 6379,
      "ĠØ§ØŃØªÙħØ§ÙĦÛĮ": 6380,
      "ĠÙħØ¯Ø±Ø³": 6381,
      "ĠÚ©ÙĪÛĮÙĨ": 6382,
      "ĠØ§ÙĨÙģØ¬Ø§Ø±": 6383,
      "zwnj": 6384,
      "Ø§ÙĦÙģ": 6385,
      "word": 6386,
      "ÙģØ±ÛĮ": 6387,
      "ĠØ¯Ø³ØªÚ¯ÛĮØ±": 6388,
      "ĠÙħØªØºÛĮØ±": 6389,
      "ÙĥØ§": 6390,
      "ĠØ®ÙĪØ§ÙĨØ¯": 6391,
      "Ġï¿½ï¿½ï¿½ï¿½ï¿½": 6392,
      "Ø¨ÛĮÙħ": 6393,
      "ØŃØ³ÙĨ": 6394,
      "Ġthis": 6395,
      "ĠØ§Ø±Ø¨Ø¹ÛĮÙĨ": 6396,
      "ĠØ¨Ú¯ÙĪÛĮ": 6397,
      "ĠØ¨Ø®Ø§Ø·Ø±": 6398,
      "ĠÙ¾Ø°ÛĮØ±ÙģØªÙĩ": 6399,
      "ĠÙħÛĮØªÙĪØ§ÙĨ": 6400,
      "ĠÚ¯Ø§ÙĨÙĩ": 6401,
      "ĠÙĪÛĮØ²Ø§ÛĮ": 6402,
      "rap": 6403,
      "Ø±Ø¯ÛĮ": 6404,
      "ĠÙĤØ§Ø±": 6405,
      "ĠØ´ÙĪØ±Ø§": 6406,
      "ĠØ¢Ø±Ø´ÛĮÙĪ": 6407,
      "ĠðŁ": 6408,
      "ĠÙĤØ§Ø³Ùħ": 6409,
      "Û³Û´": 6410,
      "ĠØ´ÙĪÙħ": 6411,
      "ave": 6412,
      "ĠÙĨÙĩØ§Ø¯ÙĩØ§ÛĮ": 6413,
      "Ø§Ø±ØªÛĮ": 6414,
      "Ø®Ø·": 6415,
      "ÙħØ§ÙĨØ¯Ùĩ": 6416,
      "Ø§Ø¬ÛĮ": 6417,
      "ĠÙĨØ§ÙħØ²Ø¯": 6418,
      "ĠØ¯Ø±Ú¯Ø°Ø´Øª": 6419,
      "ĠØŃÛĮÙĨ": 6420,
      "ĠØ§ÙĨØ³": 6421,
      "ĠÚ©Ø±Ø¯ÛĮ": 6422,
      "ĠÚ©Ø§Ø±ÙĩØ§": 6423,
      "ĠÙħØŃØ±ÙĪÙħ": 6424,
      "ĠÙģØ±Ø³": 6425,
      "Ø§ÙĦØ¹ÙħÙĦ": 6426,
      "ĠÚ©Ø§Ù¾": 6427,
      "ĠÙħØ¯Ø§ÙģØ¹": 6428,
      "ana": 6429,
      "ØªÙħØ§Ùħ": 6430,
      "ĠØ§Ø´Ú©Ø§ÙĦ": 6431,
      "ĠØ§Ú©Ø±Ø§ÙĨ": 6432,
      "ĠÙħØ±Ø§Øª": 6433,
      "ĠÙħØ¯Ø§ÙĦ": 6434,
      "Ø§ÙģÙĤØª": 6435,
      "ÙĢÙĩ": 6436,
      "ĠØµØ§Ø¯ÙĤÛĮ": 6437,
      "iew": 6438,
      "Ø²ÙĬÙĨÙĩ": 6439,
      "ĠØ§ØªÙħØ§Ùħ": 6440,
      "ĠØŃÙħÙĦØ§Øª": 6441,
      "ĠÙħØŃÙĪ": 6442,
      "ĠØ³ÙģØ§Ø±Øª": 6443,
      "Ø±Ø§Ø±ÛĮ": 6444,
      "ĠØ¯Ø±Ø³ØªÛĮ": 6445,
      "ĠØ§ÙħØ¶Ø§": 6446,
      "ĠØ§Ø¸ÙĩØ§Ø±Ø§Øª": 6447,
      "ĠØ¨Ø±Ùģ": 6448,
      "ĠÙĥÙĪØ¯": 6449,
      "ery": 6450,
      "ĠÙħÛĮØ§ÙĨÚ¯ÛĮÙĨ": 6451,
      "ĠÙĪØ±Ø²Ø´Ú¯Ø§Ùĩ": 6452,
      "ĠØªÛĮØªØ±": 6453,
      "Ú©Ø´ÛĮ": 6454,
      "ĠÙĤØ³Ùħ": 6455,
      "ĠÛ¶Û°": 6456,
      "ĠØ§Ø³ØªØ§ÙĨÛĮ": 6457,
      "ĠÚ©Ø±Ø¯ÛĮØ¯": 6458,
      "indow": 6459,
      "ÙĬØ¨": 6460,
      "Ø±ÙĪØ²ÙĨØ§ÙħÙĩ": 6461,
      "ĠØ§Ø«Ø¨Ø§Øª": 6462,
      "ĠØ§ÙĨÚ¯ÙĦ": 6463,
      "Ø¢ÙĨÙĦØ§ÛĮÙĨ": 6464,
      "ĠØ§ØªÙĪØ¨ÙĪØ³": 6465,
      "ÙħØ¯Øª": 6466,
      "ĠØ§ÙħÛĮØ¯ÙĪØ§Ø±Ùħ": 6467,
      "ĠÙħÙĤØ§ÙĪÙħØªÛĮ": 6468,
      "ĠØµÙĪØ±ØªÛĮÚ©Ùĩ": 6469,
      "ĠÚĨÙĨØ§ÙĨÚĨÙĩ": 6470,
      "ĠØ¹Ø±ÙĪØ³ÛĮ": 6471,
      "\").": 6472,
      "IT": 6473,
      "ĠØ¨ÛĮÙĦ": 6474,
      "ØµØ¨": 6475,
      "Ø§ÙģØ²Ø§ÛĮØ´": 6476,
      "ĠØ®ÙĪØ¯ÙħØ§ÙĨ": 6477,
      "ĠØ®Ø±Ø§Ø¨": 6478,
      "Ø§Ø¨Ø¹Ø§Ø¯": 6479,
      "83": 6480,
      "ĠâĹ": 6481,
      "ĠÙĩÙħØ§ÙĩÙĨÚ¯": 6482,
      "ØªÛĮÙĨ": 6483,
      "ĠÚ©Ø§Ø®": 6484,
      "ĠØŃØ§ÙħØ¯": 6485,
      "ÙĩØ§ÛĮØ´": 6486,
      "ĠØ§Ø±Ø¯ÙĪ": 6487,
      "ĠØ¨ÙĨÚ¯": 6488,
      "Ø§Ø±Ùħ": 6489,
      "ĠÙĪØ¬": 6490,
      "Ú¯Ùħ": 6491,
      "Ø§Ø¨ØªÛĮ": 6492,
      "ĠØ¨Ø§Ø²Ø±Ø³ÛĮ": 6493,
      "ener": 6494,
      "Ġï": 6495,
      "ÙĤØ§Ø¨ÙĦ": 6496,
      "ĠÙĦÙĬÙĨ": 6497,
      "ĠÙĩÙħØ§ÙĨØ·ÙĪØ±": 6498,
      "ĠÚ©Ø±Ú©": 6499,
      "ĠÚ¯ÙĪØ´Ùĩ": 6500,
      "ĠØªÙĥ": 6501,
      "ĠØªØ±Ùģ": 6502,
      "ĠØ³Ø±Ùħ": 6503,
      "ĠÙ¾Ø±Ùĩ": 6504,
      "ĠØªØ´Ø±ÛĮØŃ": 6505,
      "ĠPr": 6506,
      "ĠØªØ®ÙĦÛĮÙĩ": 6507,
      "ĠÙĪØ§Ø´": 6508,
      "ĠÙĨØ²": 6509,
      "ĠÙ¾Ø°ÛĮØ±ÛĮ": 6510,
      "Ø¨Ø§ÛĮØ¯": 6511,
      "ĠØ¨Ø§ÙĤ": 6512,
      "Ø±ÙĪÙĨØ¯": 6513,
      "ition": 6514,
      "Ġ08": 6515,
      "ĠÙĩÙħØ±Ø§ÙĩÛĮ": 6516,
      "Ġ????": 6517,
      "ĠÙħØ²Ø§ÛĮØ§ÛĮ": 6518,
      "65": 6519,
      "ĠÙħØ±Ø¨Ø¹": 6520,
      "ĠÙģØ§Ø¶ÙĦØ§Ø¨": 6521,
      "').": 6522,
      "Ø§ÙĦØ§ÙĨ": 6523,
      "ĠØ¬Ø§ÙĬ": 6524,
      "ĠØ§ÙĦØ²": 6525,
      "ÙĤÛĮØ¨": 6526,
      "ĠÙĩØ±ÚĨÙĨØ¯": 6527,
      "ĠÙģØ¹Ø§ÙĦÙĬØª": 6528,
      "ĠÙĤÙģÙĦ": 6529,
      "ĠÛĮØ§Ø±ÛĮ": 6530,
      "ĠÚĨØ§ÙĤ": 6531,
      "ĠØ§Ø¹Ùħ": 6532,
      "ĠØ®ÙĪØ§ÙĨØ¯Ùĩ": 6533,
      "ĠØ§Ø±Ø²Ø´ÙħÙĨØ¯": 6534,
      "ĠØ¬Ø§Ø¨": 6535,
      "ĠØ§Ø³Ù¾Ø§ÙĨÛĮØ§": 6536,
      "ĠØ§Ú©Øª": 6537,
      "ĠØ§Ø±ÙĪÙħÛĮÙĩ": 6538,
      "ï»¤": 6539,
      "ĠÙĤÛĮÙħØªÛĮ": 6540,
      "SE": 6541,
      "ÙģØ§ÙĦ": 6542,
      "ĠÙħÙĬÙĦÙĬ": 6543,
      "ĠÙĤØ¯ÛĮÙħ": 6544,
      "ÙĦØ§ÙĨ": 6545,
      "ĠØ´Ø§": 6546,
      "ĠØ¢ÙĦÙħØ§ÙĨÛĮ": 6547,
      "ĠØ§ÛĮØ³ÙĪØ³": 6548,
      "ÙĦÙħØ§ÙĨ": 6549,
      "ĠÛ±Û³Û¹Û±": 6550,
      "ĠÙģØ§Ø±Øº": 6551,
      "ĠØ³ÙĦØ·": 6552,
      "ĠØ±Ø¬": 6553,
      "ĠØ´Ø§ÙĨØ³": 6554,
      "Ø·Ø¨ÛĮ": 6555,
      "ÙĪØ§ÙĨÙĩ": 6556,
      "reen": 6557,
      "ïºİïº": 6558,
      "ÙĬÙĨØ¯Ùĩ": 6559,
      "Ø¬ÙĩØª": 6560,
      "icon": 6561,
      "ĠÙĦÛĮØªØ±": 6562,
      "ĠØ³ØªÙĪÙĨ": 6563,
      "ĠÙĦØ·Ùģ": 6564,
      "ĠÙĨÚ¯Ø§Ø±Ø´": 6565,
      "ĠØ¨ÙĩØªØ±ÛĮ": 6566,
      "Ø¯Ø±Ø¨Ø§Ø±Ùĩ": 6567,
      "ÙĦØ§ÙħØª": 6568,
      "ĠSamsung": 6569,
      "ĠÙĨÙħÛĮØ´Ùĩ": 6570,
      "ĠØ¹Ø¨Ø§Ø±ØªÙĨØ¯": 6571,
      "ĠÚ¯ÙħØ±Ú©": 6572,
      "ĠØ§ÙĨØªØ®Ø§Ø¨Ø§ØªÛĮ": 6573,
      "ull": 6574,
      "ĠØ²ÛĮÙĨ": 6575,
      "ĠÙĨØ²Ø¯ÛĮÚ©ÛĮ": 6576,
      "ĠÚ©Ø§ÙħÛĮ": 6577,
      "ĠØªØ§Ø±ÛĮ": 6578,
      "ĠØ´Ùĥ": 6579,
      "ĠØ³ÛĮÙĨØ§": 6580,
      "Ø¬Ø¯ÙĪÙĦ": 6581,
      "ĠÙ¾Ø±Ø¯Ø§Ø²ÙĨØ¯Ùĩ": 6582,
      "ĠÚ©ÙĪØ´": 6583,
      "ĠØªÙģØ³ÛĮØ±": 6584,
      "ĠÚ©ÙĨØ³ÙĪÙĦ": 6585,
      "ĠØ²Ø§ÛĮÙħØ§ÙĨ": 6586,
      "ĠØ¨ÙģØ±": 6587,
      "ĠÚ©Ø§Øª": 6588,
      "ĠÛ±Û±Û": 6589,
      "ĠØ§ØªÙģØ§ÙĤÛĮ": 6590,
      "ÙĨÚĺØ§Ø¯": 6591,
      "ĠØ¨Ø±ÙħÛĮ": 6592,
      "Ġ1399": 6593,
      "ĠÙĪØ§Ú¯Ø°Ø§Ø±ÛĮ": 6594,
      "Ú©ÙĪÙĩ": 6595,
      "ĠØ³ÙĪÙĨ": 6596,
      "ĠÙģØ§ÙĤØ¯": 6597,
      "ĠÚ¯ÛĮØª": 6598,
      "ĠÙħØ±ÛĮ": 6599,
      "ĠÚ©Ø§Ø¯Ø±": 6600,
      "ĠØ¨ÛĮÙĪÚ¯Ø±Ø§ÙģÛĮ": 6601,
      "ĠØªÙħØ±ÛĮÙĨØ§Øª": 6602,
      "ĠØ¨ØªÙĪØ§ÙĨÛĮÙħ": 6603,
      "ĠÙħØ³Ø§ÙģØ±ØªÛĮ": 6604,
      "Ú¯Ø±Ø§ÛĮÛĮ": 6605,
      "ÙĪØ³ØªÙĩ": 6606,
      "ĠØ³ÙĪØ§Ø±": 6607,
      "Ú©ÙĦÙĨ": 6608,
      "ĠØ´ÙĪÙĩØ±": 6609,
      "Ú©ÛĮÚ©": 6610,
      "ĠÙĪÙĦÙĬ": 6611,
      "ĠØªØ¶ÙħÛĮÙĨ": 6612,
      "Ù¾Ø²Ø´Ú©ÛĮ": 6613,
      "ĠØ¨Ø®ØªÛĮØ§Ø±ÛĮ": 6614,
      "Ø¸Ø±ÙģÛĮØª": 6615,
      "esh": 6616,
      "ĠÙĨÙĪØ§ÙħØ¨Ø±": 6617,
      "ĠÙħØ¹ÛĮØ§Ø±": 6618,
      "ĠÙĤØ´": 6619,
      "Ú©ÛĮÙģÛĮØª": 6620,
      "ee": 6621,
      "ÙĪØ±Ø²Ø´": 6622,
      "ĠØªØ±Ø§Ø´": 6623,
      "ĠØ¯ÙģØ§ØªØ±": 6624,
      "ĠÙĨØ§Ú©": 6625,
      "ĠØ§ÛĮØ«Ø§Ø±": 6626,
      "ĠØ´ÙĩØ±ÙĬ": 6627,
      "Ø´ÙĨØ§Ø³Ùĩ": 6628,
      "72": 6629,
      "ÙħÙĨÛĮ": 6630,
      "ĠØ®ÙĨÚ©": 6631,
      "ĠØ§ØªÙĩØ§Ùħ": 6632,
      "ĠÚ¯Ø°Ø±": 6633,
      "ĠØ§Ø¨Ø²Ø§Ø±ÙĩØ§ÛĮ": 6634,
      "ĠÙħÙĪØ§ÙģÙĤØª": 6635,
      "ĠØ³Ø®ÙĨÚ¯ÙĪÛĮ": 6636,
      "ĠØ¬ÙĪÙĨ": 6637,
      "ĠÙħØ¯Ø§ØŃÛĮ": 6638,
      "ann": 6639,
      "Û´Û¸": 6640,
      "ĠØºÛĮØ±Ùĩ": 6641,
      "ĠÙħØ¯ÛĮØ±Ú©ÙĦ": 6642,
      "ĠØ³ÙĦÛĮÙħØ§ÙĨÛĮ": 6643,
      "ĠÙħØŃÙĤÙĤØ§ÙĨ": 6644,
      "ĠØ¨Øµ": 6645,
      "Ø¹Ø¨": 6646,
      "MB": 6647,
      "ĠØ§Ø¨ÙĪØ§ÙĦ": 6648,
      "Ø§ØªØ±ÛĮÙĨ": 6649,
      "Ġvar": 6650,
      "Ú©ÛĮÙĨ": 6651,
      "ĠØ§Ø±Ø¬": 6652,
      "Ø¢ÙĤØ§ÛĮ": 6653,
      "Ġ06": 6654,
      "ĠØ§Ø³Ø§ØªÛĮØ¯": 6655,
      "ri": 6656,
      "ĠÙħØ¹Ø¯Ùĩ": 6657,
      "ÙģÙĪÙĨ": 6658,
      "ĠÚĨÙĪØ¨ÛĮ": 6659,
      "ÛµÛ¶": 6660,
      "Ø³Ø§Ø²Ø§ÙĨ": 6661,
      "ĠÙģÙĦØ³Ø·ÛĮÙĨ": 6662,
      "ĠØ¢ÙħØ±ÙĬ": 6663,
      "Ø±ÙĪØ²ÛĮ": 6664,
      "ĠØ§ÙĨØ¯Ø§Ø®Øª": 6665,
      "rem": 6666,
      "oun": 6667,
      "ode": 6668,
      "ĠØ¯Ø¹Ø§": 6669,
      "ĠÙħØ¹ÙĦÙĪÙħ": 6670,
      "ĠØºÙħÚ¯ÛĮÙĨ": 6671,
      "ĠØ±Ø£ÛĮ": 6672,
      "Ø´ØªØ±": 6673,
      "Ø§Ø±Ú¯Ø§ÙĨ": 6674,
      "Ú¯ÙĪØ´": 6675,
      "ĠÚ©ÙĨÙĪÙĨ": 6676,
      "ĠØ§ØŃØªÛĮ": 6677,
      "ĠÙħØ§ÙĨÛĮØªÙĪØ±": 6678,
      "Ø¹Ø§Ø±": 6679,
      "ÛĮÙĦØ§": 6680,
      "Ø§ÙĪÛĮÙĩ": 6681,
      "ĠØ¢Ø´Ú©Ø§Ø±": 6682,
      "ĠÙħÛĮØª": 6683,
      "ĠØ®ÙĪØ§ÙĩÙħ": 6684,
      "ĠÚ©ÛĮÙģÛĮ": 6685,
      "ĠÙħØ±Ø§Ø¬Ø¹": 6686,
      "ĠÚ©ÛĮÙĦÙĪ": 6687,
      "ĠÛĮØ§ÙģØªÙĨ": 6688,
      "Ø¹Ø¬": 6689,
      "ĠØ§ÛĮÙĦØ§Ùħ": 6690,
      "ĠØ±Ø§Ø¬": 6691,
      "ĠÙħØ¬Ø±ÛĮ": 6692,
      "ĠLenovo": 6693,
      "ĠØªÙĨØ¸ÛĮÙħØ§Øª": 6694,
      "ĠÙĩÙĬÚĨ": 6695,
      "Ø¨Ø³": 6696,
      "Ú¯Ø±Ùħ": 6697,
      "ĠØ´ÙĪÛĮ": 6698,
      "Ø³Ø±Ø¹Øª": 6699,
      "âĨ": 6700,
      "Ġï»§": 6701,
      "ĠØªØ±ÙģÙĨØ¯": 6702,
      "ĠÚĨØ±Ùħ": 6703,
      "Ġbe": 6704,
      "Ø§ÙħÛĮÚ©": 6705,
      "ĠØ¯Ø³ØªØ§ÙĪØ±Ø¯": 6706,
      "ĠØ±Ø§ÛĮØ¬": 6707,
      "ĠØ¢Ø±ÙħØ§ÙĨ": 6708,
      "ØªØŃÙĤÛĮÙĤ": 6709,
      "Ø§Ø¢": 6710,
      "ĠØ³ÙĪØ±Ùĩ": 6711,
      "Û´Û·": 6712,
      "Ø¨Ø§ÙĨÚ©": 6713,
      "post": 6714,
      "ron": 6715,
      "ĠØ¨ÙĪØª": 6716,
      "ĠÙħÛĮØªÙĪØ§ÙĨØ¯": 6717,
      "ĠÙħÙĩÙĦØª": 6718,
      "Ø¨ÙĪÚ©": 6719,
      "oz": 6720,
      "ĠÚ¯Ø§ÙĪ": 6721,
      "ĠÙħØ±Ø·ÙĪØ¨": 6722,
      "ĠØ¯Ø§Ø±Ø§": 6723,
      "ĠØ§Ú¯Ø±ÚĨÙĩ": 6724,
      "ĠØ¨Ø¯ÙĩÛĮØ¯": 6725,
      "ĠØ¯ÙģØªØ±ÚĨÙĩ": 6726,
      "ØºØ±Ø§ÙģÛĮ": 6727,
      "px": 6728,
      "ĠÙħÚ¯Ø§Ø¨Ø§ÛĮØª": 6729,
      "ĠØ³Ø§ÙĬ": 6730,
      "ÙħÛĮØ§ÙĨÙĩ": 6731,
      "ÛµÛ¸": 6732,
      "Ġ2010": 6733,
      "ĠØ¨ÙĦÙĪÚĨ": 6734,
      "ĠØ¯Ø§Ø¦": 6735,
      "Ø¢Ø¯Ø±Ø³": 6736,
      "ĠØ¸Ø±ÙĪÙģ": 6737,
      "ĠWir": 6738,
      "ĠØ¢Ø´Ù¾Ø²ÛĮ": 6739,
      "Ġres": 6740,
      "rip": 6741,
      "Ġfunction": 6742,
      "Ġle": 6743,
      "Ø§Ø±ÛĮØ³": 6744,
      "ÛĮØ²Ùĩ": 6745,
      "Ø¢ÙħÙĪØ²Ø§ÙĨ": 6746,
      "Ø§ÙĨØªØ®Ø§Ø¨": 6747,
      "ĠØªØŃÙĪÙĦØ§Øª": 6748,
      "ĠÙĩØ±ÙħØ²Ú¯Ø§ÙĨ": 6749,
      "ĠØ¨ÙĦÙĩ": 6750,
      "ĠØªØ±Ø§Ø²": 6751,
      "ĠÚ¯Ø±Ø¬Ø³ØªØ§ÙĨ": 6752,
      "ÙģØ±ÙĩÙĨÚ¯": 6753,
      "arm": 6754,
      "ĠØ³Ø§ÛĮÙ¾Ø§": 6755,
      "ĠØ¨Ø¯ÙĩÛĮ": 6756,
      "ĠØ§Ø±ØªÙĤØ§Ø¡": 6757,
      "91": 6758,
      "Ġus": 6759,
      "ĠÙħÙĬØ§ÙĨ": 6760,
      "ĠØ«Ø¨Ø§Øª": 6761,
      "ĠØ¸Ø§ÙĩØ±ÛĮ": 6762,
      "',": 6763,
      "ÙĪØ§ÛĮÛĮ": 6764,
      "Ø§ÙĩØ±Ø§Øª": 6765,
      "ĠØ¹Ø¸": 6766,
      "Û´Û¶": 6767,
      "ØªÙĪØ¬Ùĩ": 6768,
      "ĠØ¨ÙħØ¨": 6769,
      "ÙĪÚĨ": 6770,
      "ĠUn": 6771,
      "ĠÚĨØ±Ø§Ú©Ùĩ": 6772,
      "ĠØ¢ÙĦÙĪÙħÛĮÙĨÛĮ": 6773,
      "Ø±Ø§ÙģÛĮ": 6774,
      "ĠØ¯Ø§Ø¯Ú¯Ø³ØªØ±ÛĮ": 6775,
      "ĠØ¨Ø³Ø§Ø²": 6776,
      "Ø§ÙĩÙĪ": 6777,
      "Ø§Ø®Ø±Ùĩ": 6778,
      "ĠÙ¾ÙĩÙĦ": 6779,
      "ĠØ¯Ø²": 6780,
      "ÙĨÛĮÙĪØ²": 6781,
      "ĠÙħØ¯ÛĮØ±ÛĮØªÛĮ": 6782,
      "ĠÙħØºØ§Ø²Ùĩ": 6783,
      "ÙħØ·Ø§ÙĦØ¨": 6784,
      "Ġcon": 6785,
      "ĠÚ¯ÙĨØ§Ùĩ": 6786,
      "ps": 6787,
      "ĠØ¨ÙĪØ±": 6788,
      "ĠØ¨Ø§Ø²Ø¯ÙĬØ¯": 6789,
      "ĠØ±ÛĮØ²Ø´": 6790,
      "ĠØ§ÙĬÙĨÙĥÙĩ": 6791,
      "ÙĪØ§Ùħ": 6792,
      "Ø®ÛĮØ±": 6793,
      "ĠØ§Ø³ØªØ«": 6794,
      "ĠØªØ¹ÙĦ": 6795,
      "ĠÙħÙĤØµØ¯": 6796,
      "ÙħØ¯Ø§Ø±": 6797,
      "ĠAnd": 6798,
      "ĠÙĥÙĨÙĬØ¯": 6799,
      "Ø³Ø§Ø²ÙħØ§ÙĨ": 6800,
      "Ø¢ÙĦØ§Øª": 6801,
      "ØªÙĪØ§ÙĨÛĮÙħ": 6802,
      "ĠÚ¯Ø±Ø¯Ø´Ú¯Ø±Ø§ÙĨ": 6803,
      "ÙĩØ±ÛĮ": 6804,
      "ĠØªØ±Ø¬ÛĮ": 6805,
      "ĠÛ°Û¸": 6806,
      "ĠÚ©ÙĦØ§Ø³ÛĮÚ©": 6807,
      "ĠÙħØŃØ§ÙģØ¸Øª": 6808,
      "Ø±ÙĪÙĨ": 6809,
      "ÙĬØ·": 6810,
      "ES": 6811,
      "Ø®ÙĪØ´": 6812,
      "ĠÙĪÛĮØ¯Ø¦": 6813,
      "ĠØ±ÙģØ³ÙĨØ¬": 6814,
      "ÙĨÛĮØ§": 6815,
      "ĠÙĩÙĨØ¯ÛĮ": 6816,
      "Ø±ÛĮÛĮØ³": 6817,
      "ĠÚ¯Ø±Ø¨Ùĩ": 6818,
      "eng": 6819,
      "ĠÙħÙħÙĪØ±ÛĮ": 6820,
      "ÙĬØŃ": 6821,
      "ÙĪÙĦÛĮÙĨ": 6822,
      "Û´Û¹": 6823,
      "ĠØ§ÙģØ²Ø§Ø±ÛĮ": 6824,
      "ĠØ¯Ø±Ø§ÛĮÙĪ": 6825,
      "ĠØ¯Ø¨Ø³ØªØ§ÙĨ": 6826,
      "ĠÚ©ÙħØ§ÙĦ": 6827,
      "ĠØ´Ø§Ø®Ùĩ": 6828,
      "ĠÚĨØ§Ø±ÚĨÙĪØ¨": 6829,
      "ĠÙĨØ§Øª": 6830,
      "Ø§ÙħÚ©Ø§ÙĨ": 6831,
      "ĠØªØ´ÙĪÛĮ": 6832,
      "USB": 6833,
      "ĠØ¨Ø§Ú©Ø³": 6834,
      "ĠØ§ÙħØ§Ø±Ø§Øª": 6835,
      "ĠCon": 6836,
      "ĠÙħÛĮØ¯ÙĩØ¯": 6837,
      ".[": 6838,
      "ĠØ¨Ø§Ø³ØªØ§ÙĨ": 6839,
      "Ø¯Ø±ØµØ¯": 6840,
      "ÛµÛ·": 6841,
      "ĠØ¶Ø±Ø±": 6842,
      "==": 6843,
      "ĠØ¨Ø®ÙĪ": 6844,
      "Ø¨Ø³ÛĮ": 6845,
      "ÙħØ§ÛĮØ´ÛĮ": 6846,
      "ĠÙħØ¨ÙĦÙħØ§ÙĨ": 6847,
      "ĠØŃØ³Ø§Ø³ÛĮØª": 6848,
      "Ġï®Ĳ": 6849,
      "port": 6850,
      "tion": 6851,
      "ĠÙĤØ§Ø´ÙĤ": 6852,
      "Ø§Ø·ÙĦØ§Ø¹Ø§Øª": 6853,
      ".\"": 6854,
      "ood": 6855,
      "ĠØªØ¬ÙħØ¹": 6856,
      "ĠØªÙĤÙĦ": 6857,
      "ĠØŃÙĥ": 6858,
      "ĠØ¯Ø§Øª": 6859,
      "ĠØ¨ÙĩØ´Øª": 6860,
      "ĠÙħØµÙĪØ¨Ùĩ": 6861,
      "ĠØ¬Ø²Ø¡": 6862,
      "ĠØ±Ø§ÙĩÙĨÙħØ§": 6863,
      "ĠÙģØªØŃ": 6864,
      "ĠÙħÛĮÚ©Ø±Ø¯": 6865,
      "ĠØ¬Ø§Ø¯": 6866,
      "ĠÚĨØ±Ø¨": 6867,
      "Ú¾": 6868,
      "ĠØ§Ø¨Ø±ÛĮ": 6869,
      "Ø¨ÛĮØ§": 6870,
      "ĠØ¯Ø¨ÛĮØ±Ø³ØªØ§ÙĨ": 6871,
      "ÙĩØ¯Ùģ": 6872,
      "ĠØ§ÙħÛĮØ¯ÙĪØ§Ø±ÛĮÙħ": 6873,
      "sl": 6874,
      "ĠØ³ÛĮÚ¯Ø§Ø±": 6875,
      "ĠØªØŃÙĤÙĬ": 6876,
      "ĠÚĺÙĪØ¦ÙĨ": 6877,
      "IC": 6878,
      "ÙĬÙĬÙĨ": 6879,
      "ĠØ³Ø±ÙĨÙĪØ´Øª": 6880,
      "Ġ1390": 6881,
      "ĠÙħØ¬Ø§Ø²Ø§Øª": 6882,
      "no": 6883,
      "âĿ": 6884,
      "Ú©Ø§Ø±Øª": 6885,
      "ĠØ¨Ø§Ø®Øª": 6886,
      "ĠØ¬ØºØ±Ø§ÙģÛĮ": 6887,
      "Ø§ÙĨØ¯Ø§Ø²": 6888,
      "Ø·ÙĪØ¨Øª": 6889,
      "ØªØº": 6890,
      "ĠØªØ±ÙĪÛĮ": 6891,
      "ĠØ´Ø¨Ùĩ": 6892,
      "ÙĪÙħØªØ±ÛĮ": 6893,
      "ĠØ³Ù¾Øª": 6894,
      "ĠØ³ÙĪÙħÛĮÙĨ": 6895,
      "].": 6896,
      "Ġap": 6897,
      "ĠØ¯Ø§ÙħÙ¾": 6898,
      "Ø³ÛĮØ³": 6899,
      "ÛµÛ¹": 6900,
      "ĠÙĦÙĪÚ©Ø³": 6901,
      "ĠØ°ÙĩÙĨÛĮ": 6902,
      "ÛķÚ©": 6903,
      "ĠØ§ØªÙģØ§ÙĤØ§Øª": 6904,
      "ĠØ¯Ø´ÙĪØ§Ø±": 6905,
      "roid": 6906,
      "eless": 6907,
      "ĠÙ¾Ø§ÛĮÛĮØ²": 6908,
      "ĠÙģØ§Ú©ØªÙĪØ±": 6909,
      "ĠØ¹Ø§Ø¯Øª": 6910,
      "ĠØ¯Ø§Ø±ÙĪÙĩØ§ÛĮ": 6911,
      "ĠØ¢ÙĤØ§ÛĮØ§ÙĨ": 6912,
      "ĠØ§Ø±ØªÙĤØ§ÛĮ": 6913,
      "ĠØ¯ÙĪÚĨØ±Ø®Ùĩ": 6914,
      "ĠØ§ÙĨØªÙĩØ§ÛĮ": 6915,
      "Ø§ÙĬØ·": 6916,
      "ĠÙħØµØ±ÙģÛĮ": 6917,
      "ouse": 6918,
      "¸ı": 6919,
      "ĠEn": 6920,
      "ĠØ¢ÙĨØª": 6921,
      "ĠØªØ¹Ø±ÙģÙĩ": 6922,
      "Ġ07": 6923,
      "ĠØ§ØªØŃØ§Ø¯": 6924,
      "form": 6925,
      "Ġ\\": 6926,
      "Ø§ÛĮÙĦÛĮ": 6927,
      "ĠSony": 6928,
      "ĠØ¬Ø³ØªØ¬ÙĪÛĮ": 6929,
      "ck": 6930,
      "ÙĬØ¨ÙĩØ´Øª": 6931,
      "ĠØ¹Ø¶ÙĦØ§Øª": 6932,
      "Ø³ÙĦÙħÛĮÙĨ": 6933,
      "Ø¨Ø§ÛĮÛĮ": 6934,
      "ĠÙħØ´Ú©ÙĦØ§ØªÛĮ": 6935,
      "ĠÚ©ÙĪÚĨÙĩ": 6936,
      "ĠÙħØ§Ø±Ú©Øª": 6937,
      "ade": 6938,
      "Ø§ÙĦØªÛĮ": 6939,
      "Ø§ÙĦÛĮØ²": 6940,
      "Ġ03": 6941,
      "Ø´ÛĮØ¯": 6942,
      "ĠØ§ÛĮÙĨÚ¯ÙĪÙĨÙĩ": 6943,
      "ĠØ¯Ø±ÛĮØ§ÚĨÙĩ": 6944,
      "ĠØ®Ø§ÙĨÙĪØ§Ø¯Ú¯ÛĮ": 6945,
      "ĠØ¨Ø§Ø³": 6946,
      "ĠØ¹ÙĦØ§ÙħØª": 6947,
      "Ø°Ú©Ø±": 6948,
      "ĠØ±ØŃÙħ": 6949,
      "ÙģØ±Ùħ": 6950,
      "ĠÙħØ³Ø§ÙģØ±Ø§ÙĨ": 6951,
      "ĠØ¨Ø±Ø§Øª": 6952,
      "ĠÙĤÙĨ": 6953,
      "ĠØ²ÙĨØ¯Ú¯ÙĬ": 6954,
      "ĠØ§Ø³ØªØ±Ø§ÙĦÛĮØ§": 6955,
      "ĠØ´Ø³ØªØ´ÙĪ": 6956,
      "ĠØ¨Ø§Ú©ØªØ±ÛĮ": 6957,
      "Ø²Ø±Ú¯": 6958,
      "ĠÙħÙĪØ³ÙĪÛĮ": 6959,
      "ĠÚ©ÙĦÛĮÙĨÛĮÚ©": 6960,
      "Ú©ÙĨÙĩ": 6961,
      "Ø³Ù¾": 6962,
      "ĠÙĩÚ©": 6963,
      "ĠØ¯Ø³ØªÙħ": 6964,
      "ĠÙ¾Ø³ÙĨØ¯": 6965,
      "ĠØ²ÛĮØ±Ø³Ø§Ø®Øª": 6966,
      "ĠÙĬØ§Ø¯": 6967,
      "ĠÙ¾ÙĦØ§Ø³ØªÛĮÚ©": 6968,
      "ÙħØ´Ø§ÙĪØ±": 6969,
      "ĠÙĨØ§Ùĩ": 6970,
      "ĠØ¢ÙħÙĪ": 6971,
      "Ø¶Ø§Ø¹": 6972,
      "ĠØ®Ø§ÙĪØ±ÙħÛĮØ§ÙĨÙĩ": 6973,
      "ĠØ³Ù¾ØªØ§ÙħØ¨Ø±": 6974,
      "ĠÚ©Ø´ÛĮØ¯": 6975,
      "Ġ55": 6976,
      "ĠØ¯Ø±ÙĪØ³": 6977,
      "ĠØ¨Ø±Ø§Ø¯": 6978,
      "Ø§Ø²ÙĨ": 6979,
      "ĠÙħØ±Ùĥ": 6980,
      "Ġ45": 6981,
      "ĠØ¨Ø±Ø±Ø³ÙĬ": 6982,
      "ĠÙħØµØ·ÙģÛĮ": 6983,
      "ÚĺÙĬ": 6984,
      "Ù¾ÛĮØ§Ùħ": 6985,
      "ĠØ¬ÙĨÛĮÙĨ": 6986,
      "ĠØ²ØºØ§ÙĦ": 6987,
      "Ø¢ÙĨÛĮ": 6988,
      "ĠÚ©ÙĪØ¨": 6989,
      "Ø¹ØµØ±": 6990,
      "Ø§ØªÙĦ": 6991,
      "Ø¹ÙģØ±ÛĮ": 6992,
      "ĠÙģØ´Ø±Ø¯Ùĩ": 6993,
      "Ġ128": 6994,
      "ÙĨÙħÙĪÙĨÙĩ": 6995,
      "ÙģÙĪÙĦ": 6996,
      "ĠØµØ¹ÙĪØ¯": 6997,
      "ï»¦": 6998,
      "Ġ05": 6999,
      "ĠØ¢Ø²ÙħØ§ÛĮØ´Ú¯Ø§Ùĩ": 7000,
      "ĠØªÙĪØ¬ÛĮÙĩÛĮ": 7001,
      "ĠÙħØŃØ§Ø³Ø¨": 7002,
      "ĠØ§ÛĮØ±Ø§ÙĨØ³ÙĦ": 7003,
      "ĠÙĨØ¨Ø§Ø´ÛĮØ¯": 7004,
      "ĠØªÙĤØ¯ÛĮÙħ": 7005,
      "();": 7006,
      "ĠØ§Ø³ØªØ§Ø±Øª": 7007,
      "ĠÛĮÚ©Ø¨Ø§Ø±": 7008,
      "ĠÙħÙĦØ§ÙĤ": 7009,
      "ĠØµÙĦØ§ØŃÛĮØª": 7010,
      "ĠØ´Ú©Ø§Ø±": 7011,
      "ĠÙħØªÙĤØ§Ø¶ÛĮØ§ÙĨ": 7012,
      "Ø±ÙĩØ§ÛĮ": 7013,
      "Ø±Ø¯Ø§Ø±": 7014,
      "ĠÙĦØ§": 7015,
      "ĠØªÙĪÙĤÙģ": 7016,
      "ĠÚ©Ø´ÛĮØ¯ÙĨ": 7017,
      "ĠØ³ÛĮØ³ØªØ§ÙĨ": 7018,
      "ĠÙħÙĩØ±Ø§ÙĨ": 7019,
      "ÙģØ¹Ø§ÙĦ": 7020,
      "ĠÙħÙĤØ¯ÙħÙĩ": 7021,
      "ĠÙ¾Ø±ÛĮÙĨØªØ±": 7022,
      "Ġ720": 7023,
      "Ø§ÙĦØ¯ÛĮÙĨ": 7024,
      "ĠØ±ÙĪØ¨Ùĩ": 7025,
      "ĠØ¢ÛĮÙĩ": 7026,
      "ÙĪØ±ÙĬ": 7027,
      "ĠÙģÛĮØ±": 7028,
      "ĠØ¬Ø§Ø³": 7029,
      "Û³Û²": 7030,
      "ĠRe": 7031,
      "Ø¹Ø¶ÙĪ": 7032,
      "ØªØ¨ÛĮ": 7033,
      "ĠØ¨ØªÙĪØ§ÙĨÛĮØ¯": 7034,
      "ØŃØ¯": 7035,
      "ĠÙ¾Ø±Ø³Ø´ÙĨØ§ÙħÙĩ": 7036,
      "ĠØ§Ø³ØªØ±Ø§ØªÚĺÛĮÚ©": 7037,
      "ĠØ®Ø§ÙħÙĨÙĩ": 7038,
      "ĠPhotos": 7039,
      "Ġex": 7040,
      "ĠØ¯ÛĮØ³Ú©": 7041,
      "ĠÙĨÙħØ§ÛĮØ´Ú¯Ø±": 7042,
      "ĠÚ©ÛĮÙħÛĮØ§": 7043,
      "Ú¯Ø±ÙģØªÙĩ": 7044,
      "ïºį": 7045,
      "ĠØ¬ÙĦÙĪÙĩ": 7046,
      "ĠØ§Ø±Ø¯ÙĬØ¨ÙĩØ´Øª": 7047,
      "Ø¹ÙģØ±Ø§ÙĨ": 7048,
      "ĠÙħÙģØ§ÙĩÛĮÙħ": 7049,
      "ĠØ¨Ø¯ÙĨÛĮ": 7050,
      "ĠØ§ÙĪØ§Ø®Ø±": 7051,
      "TA": 7052,
      "ll": 7053,
      "Ø³Ø±ÙĪ": 7054,
      "ĠØ³ÙĪØ§Ø±ÛĮ": 7055,
      "ĠØ¢Ø±Ø²": 7056,
      "Id": 7057,
      "son": 7058,
      "Ġim": 7059,
      "ĠØ§ÙģØ³Ø±Ø¯Ú¯ÛĮ": 7060,
      "ĠØªØ§Ø²Ú¯ÛĮ": 7061,
      "78": 7062,
      "Ú¯ÙĪØ´ÛĮ": 7063,
      "ĠÚ¯ÙģØªÙĨ": 7064,
      "ĠÙĨÙģØ¹": 7065,
      "Ø·Ø§Ùģ": 7066,
      "Ø¯Ø§ÙĨÙĨØ¯": 7067,
      "Ø±Ø§Ø±ØªÛĮ": 7068,
      "ĠØ§Ø¯Ø¹Ø§": 7069,
      "ĠØ±ÙĪÙĦ": 7070,
      "ĠØ¨ÙĩÙĨØ§Ùħ": 7071,
      "ĠØ®Ø±ÙĬØ¯": 7072,
      "ĠØ§ØŃØ³Ø§ÙĨ": 7073,
      "ĠØ¨ÙħØ§ÙĨØ¯": 7074,
      "Ø§Ø¯ÙħÛĮ": 7075,
      "ĠØ¯ÙģØ§Ø¹ÛĮ": 7076,
      "ĠØ¯Ø±ÙĬ": 7077,
      "ĠØ´Ø¯ÛĮÙħ": 7078,
      "ĠSer": 7079,
      "ĠÙĨÙĪØ§Ø²": 7080,
      "ĠØªÙĤÙĪÛĮÙħ": 7081,
      "put": 7082,
      "ï¸ı": 7083,
      "ĠÚ©ÙĨÙĨ": 7084,
      "ÛķØª": 7085,
      "edia": 7086,
      "Ù¾ÙĨØ¬Ø´ÙĨØ¨Ùĩ": 7087,
      "ÙħÙĪØ±": 7088,
      "Ø¨Ø³Øª": 7089,
      "ÙĬØ±Ùĩ": 7090,
      "ĠÙ¾ÙĦØ§Ø³ØªÛĮÚ©ÛĮ": 7091,
      "Ġas": 7092,
      "ĠÙĨÙĪØª": 7093,
      "ĠÚ©Ø§Ø±Ø§ÛĮÛĮ": 7094,
      "Û±Û³Û¹Û¶": 7095,
      "ĠÙĪØ³Ø·": 7096,
      "Ġ});": 7097,
      "ĠØ²ÙĪØ¯ØªØ±": 7098,
      "Ø±Ø¯ÙĨ": 7099,
      "ĠÙĨÙĪØ´ÛĮØ¯ÙĨÛĮ": 7100,
      "ĠØªØ§ÛĮÙĦ": 7101,
      "ĠØ³Ø§ØŃ": 7102,
      "Ø¦ÛĮÙĨÛĮ": 7103,
      "ĠÚ¯Ø±ÛĮÙĩ": 7104,
      "Ú¯Ø±Ø¯ÛĮ": 7105,
      "ĠÚ¯ÚĨ": 7106,
      "Ú©ÙĦÛĮØ¯": 7107,
      "ĠÙħØ®ÙģÛĮ": 7108,
      "Ù¾Ø§ÛĮÚ¯Ø§Ùĩ": 7109,
      "ĠÙħØ±Ø²ÛĮ": 7110,
      "ani": 7111,
      "ĠÙ¾ÛĮØ´ÛĮÙĨÙĩ": 7112,
      "ĠØªÙħØ¯ÙĨ": 7113,
      "ĠGoogle": 7114,
      "ĠÚ©ÙĪØ¯Ú©ÛĮ": 7115,
      "ĠÛĮÙĪØ³Ùģ": 7116,
      "ÙħÙĪØ¯": 7117,
      "ÙĥØ§Øª": 7118,
      "ĠÚ©Ø§ÙĨØ¯ÛĮØ¯": 7119,
      "ÙĨØ±": 7120,
      "ĠØ³Ø§Ø®ØªÙĨ": 7121,
      "ĠØ®ÙĪØ§ÙĩØ§ÙĨ": 7122,
      "ĠØŃØ±Ø§Ø±ØªÛĮ": 7123,
      "ĠÙģØ±ÙĩØ§Ø¯": 7124,
      "ĠÙħØµØ¯": 7125,
      "ound": 7126,
      "Ø¨Ø®Ø´ÛĮ": 7127,
      "ĠÙ¾Ø§ÙĦØ§ÛĮØ´": 7128,
      "IS": 7129,
      "Ø·ÙĪØ±ÛĮ": 7130,
      "ĠØ¢ÙħÙ¾Ø±": 7131,
      "Ø£ÙĦÙĩ": 7132,
      "ĠÙĩÙĦØ§ÙĦ": 7133,
      "ĠÙ¾Ø¯ÛĮØ¯": 7134,
      "ĠØ¹Ø¬": 7135,
      "ĠØªÙħØ¯ÛĮØ¯": 7136,
      "ĠTP": 7137,
      "ĠÙ¾Ø±ÙĪÙģØ§ÛĮÙĦ": 7138,
      "ĠÙħØ®Ø²ÙĨ": 7139,
      "ĠÙħØªÙģØ§ÙĪØªÛĮ": 7140,
      "ĠØ²Ø¨Ø§ÙĦÙĩ": 7141,
      "Ø®Ø¯ÙħØ§Øª": 7142,
      "Ø²ÛĮØ³ØªÛĮ": 7143,
      "Ø¯Ø±ÙħØ§ÙĨ": 7144,
      "ĠÙħØªÙĪÙĦØ¯": 7145,
      "Ġ320": 7146,
      "Ø¯Ø§ÙĪÙħ": 7147,
      "Ġif": 7148,
      "ĠØ§ØµÙĦØ§ØŃØ§Øª": 7149,
      "Ø´Ø§ÛĮØ¯": 7150,
      "ĠØ³Ø§ÙĨØª": 7151,
      "Ġ1080": 7152,
      "ĠÙħÙĪØ±Ø®": 7153,
      "yst": 7154,
      "ĠÙĩØ§Ùī": 7155,
      "Ġ400": 7156,
      "ĠÚ©Ø±Ø¨ÙĨ": 7157,
      "ØªÙĦÙģÙĨ": 7158,
      "Ø¨Ø±ÙĨØ¯": 7159,
      "ĠÙģØ±Ø§Ø®": 7160,
      "Ġ91": 7161,
      "ØªØŃØµ": 7162,
      "ĠÙ¾Ø±ÙĪØªØ¦ÛĮÙĨ": 7163,
      "ĠÙħÛĮÙĨÛĮ": 7164,
      "Ø¹ÛĮØ¯": 7165,
      "ĠÙģÚ©ÛĮ": 7166,
      "ĠØ§Ø³ØªÛĮ": 7167,
      "ĠMK": 7168,
      "ĠØ¶ÙħØ§ÙĨØª": 7169,
      "ĠØªØ¹Ø§Ø¯ÙĦ": 7170,
      "ĠØªÚ©ÙĦÛĮÙģ": 7171,
      "EN": 7172,
      "ĠØ³Ø§Ø±": 7173,
      "ator": 7174,
      "ĠÙħØªØ¹Ø¯Ø¯ÛĮ": 7175,
      "mad": 7176,
      "ĠØªØ²ÛĮ": 7177,
      "ĠØ¹Ø§Ø·": 7178,
      "ĠØ§ÙĦÚ¯": 7179,
      "Ø¢ØºØ§Ø²": 7180,
      "ĠØ¯ÛĮØ§Ø¨Øª": 7181,
      "ĠÙĨÙĪØ¢ÙĪØ±ÛĮ": 7182,
      "ĠØ¹ÙĤØ¯": 7183,
      "ĠØ¯Ø³ØªÛĮØ§Ø¨ÛĮ": 7184,
      "Ù¾Ø§Ø±ÚĨÙĩ": 7185,
      "ĠØ¬Ø¹ÙģØ±": 7186,
      "ĠØ§Ø³ØªØ¹ÙĦØ§Ùħ": 7187,
      "ĠØ³ØŃØ±": 7188,
      "ĠØªÙĤØ§Ø¶Ø§": 7189,
      "ĠØ·Ø§ÙĦØ¨Ø§ÙĨ": 7190,
      "TM": 7191,
      "ĠMusic": 7192,
      "ĠØ´Ø±Ø§ÙĬØ·": 7193,
      "ĠØ§ÛĮÙħØ§ÙĦØ²": 7194,
      "Ø§Ø±ÛĮØ¬Ø§ÙĨÛĮ": 7195,
      "ĠØµØ¨Ø±": 7196,
      "ØºØ§Ùħ": 7197,
      "ĠPower": 7198,
      "ital": 7199,
      "Ø¯ÙĬ": 7200,
      "Ù¾Ø§ÛĮÛĮ": 7201,
      "ĠØ®ÙĪØ´Ø¨Ø®Øª": 7202,
      "ĠÙħØªØŃØ¯": 7203,
      "Ù¾Ø§ÙĪØ±Ù¾ÙĪÛĮÙĨØª": 7204,
      "ĠÙĤØ¨Ø§ÙĦ": 7205,
      "ĠÙħØ§Ø¬Ø±Ø§ÛĮ": 7206,
      "ĠÚ©Ø§Ø±Ø¢ÙģØ±ÛĮÙĨÛĮ": 7207,
      "ĠØ¯Ø±ÙħÙĪØ±Ø¯": 7208,
      "ĠØŃØ§ÙħÛĮ": 7209,
      "ĠÚ¯Ø²Ø§Ø±Ø´ÛĮ": 7210,
      "ĠÛ¹Û°": 7211,
      "ĠÙħØ¨ÙĨØ§ÛĮ": 7212,
      "ĠØŃÙĤÛĮÙĤÛĮ": 7213,
      "ĠØ³Ø±ÙĬ": 7214,
      "ĠØ¹ÙħØ±Ø§ÙĨÛĮ": 7215,
      "ĠÙĨØ§Ú¯Ùĩ": 7216,
      "ĠÚ¯Ø°Ø§Ø´ØªÙĨ": 7217,
      "ĠØºÙĦØ·": 7218,
      "ĠØ§ÙĨÚ¯ÙĦØ³ØªØ§ÙĨ": 7219,
      "ĠØ®Ø¨": 7220,
      "Ø¯ÙĩÙĨØ¯Ùĩ": 7221,
      "ĠÙĨØ¨Ø±Ø¯": 7222,
      "Ø¨ÛĮØ´ØªØ±": 7223,
      "ĠÙĤØ±Ø¢ÙĨÛĮ": 7224,
      "Û´Û´": 7225,
      "ĠPC": 7226,
      "Ø³Ø§ÙĦÙĩ": 7227,
      "ĠØ±Ø¶Ø§ÛĮÛĮ": 7228,
      "ĠØ¨Ø§ÛĮØ³Øª": 7229,
      "IM": 7230,
      "ĠØ¨Ø²Ø±Ú¯Ø³Ø§ÙĦ": 7231,
      "79": 7232,
      "ĠÚ¯Ø±ÙħØ§": 7233,
      "ĠMot": 7234,
      "Ø¯Ø§Ø±ÙĬ": 7235,
      "ĠØ°ÛĮÙĦ": 7236,
      "Û±Û³Û¹Û¸": 7237,
      "ĠÙĩØ²ÙĬÙĨÙĩ": 7238,
      "Ø§Ø³Ù¾": 7239,
      "ĠØ§Ø¬ØªÙħØ§Ø¹ÙĬ": 7240,
      "ĠØ±ÙĩÙĨ": 7241,
      "ĠØ´ÛĮØ¹ÛĮ": 7242,
      "ĠVideos": 7243,
      "ÙħÙħÙĨ": 7244,
      "ÙģØ§ÛĮ": 7245,
      "ØŃÙĦ": 7246,
      "ini": 7247,
      "ĠØ¯ÙĦÙĬÙĦ": 7248,
      "ĠÙĨØ³Ø¨ØªØ§": 7249,
      "ĠØªØ±ÙĪÛĮØ¬": 7250,
      "RO": 7251,
      "Ø®ÙĨØ¯": 7252,
      "ĠÙħØ¹Ø§ØµØ±": 7253,
      "ĠØªØ±Ø´": 7254,
      "ĠØ§ÙĪØ¶Ø§Ø¹": 7255,
      "ĠÙģØ±Ø§ÙĨØ³ÙĪÛĮ": 7256,
      "ÙħØ¯ÛĮØ±Ú©ÙĦ": 7257,
      "ĠØ¨Ø³ØªÚ¯ÛĮ": 7258,
      "Ø§Ø¬Ø¯": 7259,
      "ÛİÙĥ": 7260,
      "ech": 7261,
      "ĠÙ¾Ø±Ùģ": 7262,
      "61": 7263,
      "gh": 7264,
      "ÙĪØ¬ÙĪØ¯": 7265,
      "Ø±ÙĪØ§ÙĨ": 7266,
      "ĠÙħÙĨØ¹": 7267,
      "0000": 7268,
      "ĠÙ¾Ø§Ø³Ø®Ú¯ÙĪÛĮ": 7269,
      "ĠØ±Ø·ÙĪØ¨Øª": 7270,
      "ĠÙĦÙĨØ²": 7271,
      "ÙģØ±ÙĪØ´Ú¯Ø§Ùĩ": 7272,
      "ĠØ¨ÛĮÚ©Ø§Ø±ÛĮ": 7273,
      "ĠÙħÙĪØ¶ÙĪØ¹ÛĮ": 7274,
      "Ġadmin": 7275,
      "ĠÚ©ÛĮØ³Ùĩ": 7276,
      "oard": 7277,
      "Ø¨Ø±Ø®ÛĮ": 7278,
      "ĠÙģØ±ÛĮØ¯": 7279,
      "Ø¨Ø§Ø´ÙĨØ¯": 7280,
      "ĠØªØ§Ø¨ÙĨØ§Ú©": 7281,
      "Û±Û³Û¹Û·": 7282,
      "ĠØ®Ø¯Ùħ": 7283,
      "ĠÙħÙĪØ³Ø³Ø§Øª": 7284,
      "ĠØ³Ø¤Ø§ÙĦ": 7285,
      "The": 7286,
      "âľ": 7287,
      "ĠÙĨØ§ØµØ±": 7288,
      "ĠØ¨Ø±ÙĪÛĮØ¯": 7289,
      "Ø±ÛĮØ´": 7290,
      "ance": 7291,
      "ĠÙĩÙħÚĨÛĮÙĨ": 7292,
      "ĠØ·Ø±ÙģØ¯Ø§Ø±Ø§ÙĨ": 7293,
      "ĠØ³ÙģØ±Ùĩ": 7294,
      "TB": 7295,
      "Ġhe": 7296,
      "ĠØ¨Ø±ÙĪÙĨ": 7297,
      "ĠØªØ¬Ø¯ÛĮØ¯": 7298,
      "ĠØ®ÛĨ": 7299,
      "ĠÙĩÙħÚĨÙĨÙĬÙĨ": 7300,
      "ĠØ²ÙħÙĬÙĨÙĩ": 7301,
      "ĠØµÙĩÛĮÙĪÙĨÛĮØ³ØªÛĮ": 7302,
      "Ø§ÛĮØ³": 7303,
      "ĠØ¯ÛĮØªØ§": 7304,
      "ĠØ¹ÙĦÙĬ": 7305,
      "ĠØ¹ÙħÙĤ": 7306,
      "ĠÙĨÙħØ±Ùĩ": 7307,
      "ĠÛ²Û°Û±Û·": 7308,
      "ĠØ¹ÙħÙĪÙħÙĬ": 7309,
      "ĠÙħØªÙĪØ³": 7310,
      "ØµØ±Ø§Ùģ": 7311,
      "ÙħØ¯ÛĮØ±ÛĮØª": 7312,
      "ĠØ§Ø³ØªØ±Ø§ØŃØª": 7313,
      "ĠØ·Ø¹Ùħ": 7314,
      "Ø§ÙĪÛĮÙĨ": 7315,
      "ÙģØ±Ùĩ": 7316,
      "ĠØ§ÙĪØ¨": 7317,
      "htag": 7318,
      "Ø¬ÛĮÙĨØ§ÙĦ": 7319,
      "Ø§Ø³ÙħÛĮ": 7320,
      "ĠÚ©ÙĨÛĮÙĨ": 7321,
      "ĠØ±Ø³ÙĬØ¯": 7322,
      "ĠØªÙĪÙĦÛĮØ¯Ø§Øª": 7323,
      "ĠÙħÙĨØ·ÙĤÛĮ": 7324,
      "ĠWireless": 7325,
      "ÙĪÙĤØª": 7326,
      "ĠØ¨Ø±ÛĮØª": 7327,
      "Ú©ÙĦÙħØ§Øª": 7328,
      "ĠÙħÚ©Ø§ÙĨÛĮÚ©": 7329,
      "ert": 7330,
      "ĠÙħØ§ÙĩÙĪØ§Ø±Ùĩ": 7331,
      "ĠØ´Ø§ÛĮØ³ØªÙĩ": 7332,
      "ĠØ¬Ø§ÙĪØ§": 7333,
      "ÙĦÙĪØª": 7334,
      "ĠØ±ÙģØªÙħ": 7335,
      "Ø§Ø¯Ø§Øª": 7336,
      "ĠØªØ¨Ø§Ø¯ÙĦ": 7337,
      "ersian": 7338,
      "ÛİØ±": 7339,
      "ÙģÙĬ": 7340,
      "ĠØ¢Ø¨Ø§Ø¯ÛĮ": 7341,
      "ĠÙĨÚ¯": 7342,
      "ĠØ§Ø±Ø§Ø¯Ùĩ": 7343,
      "ĠNews": 7344,
      "ĠØ¨ÙĤ": 7345,
      "ĠØ¹Ø§Ùħ": 7346,
      "ĠØ§ÙĪØ§ÛĮÙĦ": 7347,
      "ĠÙħÙĦØ§ØŃ": 7348,
      "olor": 7349,
      "ĠØ¯Ø³ØªÙĪØ±Ø§ÙĦØ¹ÙħÙĦ": 7350,
      "Link": 7351,
      "ĠØ§Ø³ØªÙĪØ¯ÛĮ": 7352,
      "ĠÙĬÙĥÙĬ": 7353,
      "ĠØ³Ú©ÙĪØª": 7354,
      "ĠØ³Ø±Ø§ÙĨØ¬Ø§Ùħ": 7355,
      "oon": 7356,
      "ÙħØ±Ùĩ": 7357,
      "Ø§ÙĦØ¨ÛĮ": 7358,
      "ĠØ²Ø¹ÙģØ±Ø§ÙĨ": 7359,
      "ĠØ§ÙĨØ¯Ø±ÙĪ": 7360,
      "Ġ04": 7361,
      "ĠØ¹ÙĦÙħÛĮÙĩ": 7362,
      "ĠØ®ÙĪØ´ÙħØ²Ùĩ": 7363,
      "ÙĪÙĦØ§ÛĮ": 7364,
      "ĠØ¢ÙħØ§Ø±ÛĮ": 7365,
      "ĠØ³Ø§ÙĦÙĩØ§ÛĮ": 7366,
      "ĠCO": 7367,
      "[/": 7368,
      "ĠÙĨØ§Ø³": 7369,
      "Ø§Ø®ÛĮØ±": 7370,
      "Ġhashtag": 7371,
      "8000": 7372,
      "ÙĨØ§Ø²": 7373,
      "ØªÙĪÛĮ": 7374,
      "ĠØ¢Øª": 7375,
      "ĠÙģØ±ÙĪØ±Ø¯ÙĬÙĨ": 7376,
      "ĠÙĨØ¯Ø§Ø´ØªÙĨ": 7377,
      "ĠÚĨØ§Ø±ØªØ±": 7378,
      "ĠÙ¾ÙĦÙĩ": 7379,
      "Ù¾ÙĪ": 7380,
      "Ø«Ø±ÛĮ": 7381,
      "Û±Û±Û": 7382,
      "att": 7383,
      "ĠØ´Ø±Ú©ØªÙĩØ§ÛĮ": 7384,
      "ĠÙħØ·Ø§ÙĦØ¨Ø§Øª": 7385,
      "ĠØ¨Ø±Ø²ÛĮÙĦ": 7386,
      "ĠÙ©": 7387,
      "ĠØ¨Ø²Ø±Ú¯ØªØ±": 7388,
      "73": 7389,
      "ÙħØ§Ø´": 7390,
      "âĢĮâĢı": 7391,
      "ĠØªØ§Ú©": 7392,
      "ĠØ§Ø¹Ø¯Ø§Ùħ": 7393,
      "Ú©Ø§ÙĨØª": 7394,
      "led": 7395,
      "ĠØ´Ø§Ø¯ÛĮ": 7396,
      "ĠØ¢ÛĮÙĨÙĩ": 7397,
      "ØŃØ¬Ùħ": 7398,
      "ĠØ¯Ø§Ø±ÙĨ": 7399,
      "anc": 7400,
      "ĠØªØ¹Ø¨ÛĮØ±": 7401,
      "php": 7402,
      "ÙĤØ¨ÙĦÛĮ": 7403,
      "DB": 7404,
      "ĠÙħÙĪØ§ÙĨ": 7405,
      "ĠÙĪÚ©": 7406,
      "ĠØ§ÙĦÙĤ": 7407,
      "ĠØ´ÙĨÛĮØ¯Ùĩ": 7408,
      "ĠØ¨Ø¯ÙĩÙĨØ¯": 7409,
      "indows": 7410,
      "ÙĩÙĩ": 7411,
      "ĠÚ¯Ø²": 7412,
      "ÙħÙĨØª": 7413,
      "ember": 7414,
      "ĠADATA": 7415,
      "Ù¾Ú©": 7416,
      "ĠØªÙĪØ§ÙĦØª": 7417,
      "ild": 7418,
      "ĠÙħÙĨØªØ®Ø¨": 7419,
      "ĠÙħØ§Ø±Ú©": 7420,
      "ÙħØ³Ø¦": 7421,
      "Ø´Ø§ÛĮÛĮ": 7422,
      "Û³Û³": 7423,
      "Û¶Û°": 7424,
      "ĠØ²ÙĨØ¬ÛĮØ±Ùĩ": 7425,
      "Ġz": 7426,
      "ĠØ±Ø§Ø¨Ø·": 7427,
      "Ġ0912": 7428,
      "ĠØ§Ø¶Ø·Ø±Ø§Ø¨": 7429,
      "ĠÙ¾ÙĪÛĮØ§": 7430,
      "ÙĦÛĮØ³Øª": 7431,
      "ĠLED": 7432,
      "ĠÙ¾Ø±Ø³ÙĨÙĦ": 7433,
      "ĠØ¨ÙĦÙĪÚĨØ³ØªØ§ÙĨ": 7434,
      "ĠØªØ±Ø¬ÛĮØŃ": 7435,
      "di": 7436,
      "ĠØ¨ÙĩØ´ØªÛĮ": 7437,
      "ĠÙħØªØ±ÙĪ": 7438,
      "2013": 7439,
      "ĠØ¯Ø§ÙĪØ±ÛĮ": 7440,
      "ha": 7441,
      "ĠØªÚ©Ùĩ": 7442,
      "ĠÙĩÙĪØ§Ù¾ÛĮÙħØ§ÛĮÛĮ": 7443,
      "ĠÛ²Û°Û±Û¶": 7444,
      "ĠÙħØ®Ø§Ø¨Ø±Ø§Øª": 7445,
      "ei": 7446,
      "ÛĮØ§Ø¨Ø¯": 7447,
      "ĠÙħÚĨÛĮ": 7448,
      "ĠØ§ÙħØ´Ø¨": 7449,
      "Ø¯ÛĮØ¯Ú¯Ø§Ùĩ": 7450,
      "ĠØ¯Ø§ÙĨØ´Ø¬ÙĪÛĮ": 7451,
      "Ġpdf": 7452,
      "ĠØ¨Ø±Ø¯Ø§Ø´ØªÙĩ": 7453,
      "ock": 7454,
      "ĠØ²ØŃÙħØª": 7455,
      "ĠØªØ´ÙĪÛĮÙĤ": 7456,
      "ĠØ´ØªØ§Ø¨": 7457,
      "ØµØ±Ùĩ": 7458,
      "ĠÙ¾Ø±ØªØ§Ø¨": 7459,
      "ĠÙ¾Ø´": 7460,
      "ĠØ®ÙĪØ¯Øª": 7461,
      "Ġ99": 7462,
      "Ġdata": 7463,
      "ĠÙħØ¹ØªÙĤØ¯ÙĨØ¯": 7464,
      "ĠSil": 7465,
      "Û±Û³Û¹Û´": 7466,
      "ĠØªØ§Ø³ÛĮØ³Ø§Øª": 7467,
      "ĠØ¹Ø³": 7468,
      "Ø¶Ø§Ø¡": 7469,
      "ĠÙħØªØ£": 7470,
      "ĠÙħØ¬Ø§ÙĩØ¯": 7471,
      "ĠØ§ÙĤØ³": 7472,
      "ĠÙĩØ²Ø§Ø±Ø§ÙĨ": 7473,
      "ĠØ¨Ø§ÛĮØ³ØªÛĮ": 7474,
      "val": 7475,
      "Ø§Ø±ÛĮØ¯": 7476,
      "ĠØ¬Ø§Ø±ÙĪ": 7477,
      "ĠØ®ÙĪØ¯Ø¯Ø§Ø±ÛĮ": 7478,
      "ØªÙĪØ¶ÛĮØŃ": 7479,
      "ĠÚ¯Ø±ÙģØªÙħ": 7480,
      "Ø®Ø§Ø°": 7481,
      "ĠØ¯ÙĪØ§Ø²Ø¯ÙĩÙħ": 7482,
      "ĠÙħØ§ÙĦØ²ÛĮ": 7483,
      "\">": 7484,
      "220": 7485,
      "ĠÙĨÛĮØ´": 7486,
      "Ø§ÙĦØ§": 7487,
      "ĠÙħÙĪØ´Ú©": 7488,
      "Ø§Ø¬Ø±Ø§ÛĮ": 7489,
      "ĠØ§ØªÙħÛĮ": 7490,
      "ĠBlack": 7491,
      "63": 7492,
      "ĠÚ©Ûķ": 7493,
      "ĠÙģÚ©": 7494,
      "Ù¾Úĺ": 7495,
      "ĠØµØ§Ùģ": 7496,
      "ĠLG": 7497,
      "ĠÙħØ§Ø±Ø³": 7498,
      "ĠÙħØ§ÙĨØ¯ÙĨ": 7499,
      "ÙħØ±ÛĮ": 7500,
      "Ø§ÙĨØ¯Ùĩ": 7501,
      "Ø§ÙĩØ§ÛĮÛĮ": 7502,
      "ĠØªÚ©ÛĮÙĩ": 7503,
      "ĠØ¨Ú¯ÛĮØ±ÛĮÙħ": 7504,
      "ÙĨÚ¯ØªÙĨ": 7505,
      "ĠØ±ÛĮØ®Øª": 7506,
      "ĠÙĩÚ©Øª": 7507,
      "Ø±ÙĪÙĦ": 7508,
      "ÙħØ§ÙĨÙĨØ¯": 7509,
      "ize": 7510,
      "Ø¯ÙĪØ³Øª": 7511,
      "ĠÛ³Û±": 7512,
      "ĠÙ¾Ø§Ø³Ø¯Ø§Ø±Ø§ÙĨ": 7513,
      "ĠPlay": 7514,
      "ĠÙħÙĪØ¶Ø¹": 7515,
      "ÙĨÙħØ§": 7516,
      "ÛĮØªÙĪÙĨ": 7517,
      "ĠØ¹ÙĦÙĦ": 7518,
      "ÛĮÛĮØ¯": 7519,
      "ĠÙĪØµ": 7520,
      "ĠÙ¾Ø§Ø±Øª": 7521,
      "ĠÙĥØ§ÙħÙĦ": 7522,
      "Ø§ÙĤØµ": 7523,
      "ĠØ¨ÛĮØ§ÛĮØ¯": 7524,
      "Ġ88": 7525,
      "ĠØ®Ø·Ø§Ø¨": 7526,
      "Ġph": 7527,
      "ĠÙħØ³ÛĮØŃ": 7528,
      "ĠØ«Ø±ÙĪØª": 7529,
      "ĠØŃØ±Ú©Ø§Øª": 7530,
      "ĠÙĤØ§Ø±ÚĨ": 7531,
      "ĠAm": 7532,
      "ĠØ¬Ø²ÙĪÙĩ": 7533,
      "ĠØ¨ÙĦÙĪÚ©": 7534,
      "ĠØ®ÙĦØ§ÙĤÛĮØª": 7535,
      "ĠÙ¾ÛĮÙħ": 7536,
      "ĠÙģØ±ÙĤ": 7537,
      "Ø§Ú©Ùħ": 7538,
      "ĠØªØ¹Ø§ÙĪÙĨ": 7539,
      "ĠØªØ´Ú©": 7540,
      "ĠÙ¡Ù£": 7541,
      "ĠØ§ÙĨØ¹Ø·Ø§Ùģ": 7542,
      "\"ØĮ": 7543,
      "AB": 7544,
      "ĠØ¢ÙħÛĮØ²": 7545,
      "ĠØ§Ø³Ø¯": 7546,
      "ĠØ¢ÙĨØ±Ø§": 7547,
      "ĠÙħØ´Ú©ÛĮ": 7548,
      "Ġdownload": 7549,
      "Ø·Ø±Ø²": 7550,
      "ĠØ¬Ø¯Ø§Ú¯Ø§ÙĨÙĩ": 7551,
      "ĠÙħÙĤØ±Ø±": 7552,
      "ternal": 7553,
      "ĠØ³Ø§Ú©ÙĨ": 7554,
      "ĠØ¯Ø³Ø§ÙħØ¨Ø±": 7555,
      "ĠÙł": 7556,
      "Ú©Ùģ": 7557,
      "ĠØ²Ø§ÙĪÛĮÙĩ": 7558,
      "ĠØ·Ø±ÙģÛĮ": 7559,
      "ĠÙĩØ³ØªÛĮ": 7560,
      "ĠØ¯Ø§ÙĨØ´ÙħÙĨØ¯Ø§ÙĨ": 7561,
      "ĠÙĩØ²Ø§Ø±Ùĩ": 7562,
      "ĠØ§Ú©Ø«": 7563,
      "phone": 7564,
      "Ù¾Ø°ÛĮØ±ÛĮ": 7565,
      "ĠÙĦÙĬÙĨÚ©": 7566,
      "69": 7567,
      "IP": 7568,
      "ĠØ¶Ø®": 7569,
      "ĠÙħØ³ØªÙħØ±": 7570,
      "Ġïº³": 7571,
      "Ø¯Ø§ÙĨØ´Ú¯Ø§Ùĩ": 7572,
      "ĠØ¨Ø´ÙĨØ§Ø³": 7573,
      "Ø³ØªÚ¯Ø§ÙĨ": 7574,
      "ĠØ¯ÙĦØ®ÙĪØ§Ùĩ": 7575,
      "TC": 7576,
      "ĠØ¢ÙĨØªÙĨ": 7577,
      "ĠØ²ÛĮØ§Ø±Øª": 7578,
      "ĠØ¯Ø§Ø¯ÛĮÙħ": 7579,
      "Ø¯Ø§Ø±Ø§ÛĮ": 7580,
      "ØªØµÙĪÛĮØ±": 7581,
      "ĠØ¨ÙĪØ¬ÙĪØ¯": 7582,
      "ĠÙĨÙħÙĪØ¯ÙĨ": 7583,
      "ĠÙ¾Ø§Ø±ÛĮØ³": 7584,
      "ĠØŃØ¨ÛĮ": 7585,
      "ØªØ±ÙĨØª": 7586,
      "ĠØ·ÛĮÙģ": 7587,
      "Ø§Ø³ØªØ§ÙĨØ¯": 7588,
      "ĠÙħØ®Ø±ÙĪ": 7589,
      "ÙģÙĤØ·": 7590,
      "ĠØ¨Ø±ÙĤØ±Ø§Ø±ÛĮ": 7591,
      "ĠØ¨ÙĬØ§ÙĨ": 7592,
      "Ø®ÙĪØ¯Ø±ÙĪ": 7593,
      "ĠØ§Ø®ØªØ±": 7594,
      "ĠÙħÙĩØ±Ùĩ": 7595,
      "ĠÙģÛĮØ²ÛĮ": 7596,
      "ĠBlu": 7597,
      "OR": 7598,
      "ĠÚ©ÙħØªØ±ÛĮ": 7599,
      "ĠÙ¾Ø§Ù¾": 7600,
      "ĠÚ¯Ø±ÙĪ": 7601,
      "ĠMP": 7602,
      "ĠØ®Ø±ÛĮØ¯Ø§Ø±Ø§ÙĨ": 7603,
      "ĠØ®Ø§ÙĨÙĪØ§Ø±": 7604,
      "ÙĨØŃ": 7605,
      "ĠÙĪØµÙĦ": 7606,
      "ĠØªØ±Ø³ÙĨ": 7607,
      "ĠÙģØ±ÙĩÙĨÚ¯ÛĮØ§ÙĨ": 7608,
      "Ø¢Ù¾": 7609,
      "Û¸Û°": 7610,
      "Ø§ÙħÛĮØ±": 7611,
      "ĠØŃØ´": 7612,
      "ĠØ§Ø¯Ø¨": 7613,
      "ĠØªÙĪØ§ÙĨÙħÙĨØ¯": 7614,
      "ĠØ¬ÙĨØ§ÛĮØª": 7615,
      "68": 7616,
      "ĠÚ©Ø§Ø¸": 7617,
      "ĠØªÛĮØ±Ùĩ": 7618,
      "ïº´": 7619,
      "ï»£": 7620,
      "ĠØŃØ¶ÙĪØ±ÛĮ": 7621,
      "ĠØ§Ø³ÙĦØ§ÛĮØ¯": 7622,
      "ĠÙĦÙĨØ¯ÙĨ": 7623,
      "AS": 7624,
      "ĠØ³ÙĪØ³": 7625,
      "Ù¾Ø³Øª": 7626,
      "ĠØ§ØŃÚ©Ø§Ùħ": 7627,
      "ĠØ¨ÙĨØ²": 7628,
      "ĠÙĩÛĮØ±": 7629,
      "ĠØ§ÙĦØªÙĩ": 7630,
      "ĠØ¯ÙĪØ³ØªÛĮ": 7631,
      "ĠØ¨ÛĮÙĨØ¯": 7632,
      "ÙĥÙĨÙĨØ¯": 7633,
      "ĠØªØ³ÙĩÛĮÙĦ": 7634,
      "Ú¯ÛĮØ²": 7635,
      "ÙĢÛĮ": 7636,
      "ĠØªÙĨØ§Ø³Ø¨": 7637,
      "ĠØ§Ø³ØªØ§ÙĨØ¯Ø§Ø±ÛĮ": 7638,
      "ĠØ§Ø®ØªÙĦØ§ÙĦØ§Øª": 7639,
      "ĠØ¦Ûİ": 7640,
      "ĠØªØ¹Ø·ÛĮÙĦØ§Øª": 7641,
      "ĠØ³Ø§ÙħØ§ÙĨØ¯ÙĩÛĮ": 7642,
      "ystem": 7643,
      "400": 7644,
      "ÛĮØ±Ø¯": 7645,
      "ĠÙĪÛĮÙĨ": 7646,
      "ĠØ³Ø§ØŃÙĦ": 7647,
      "ĠØ³Ø§Ø¯Ú¯ÛĮ": 7648,
      "ĠØ¢Øº": 7649,
      "ÚĨÙĨØ§ÙĨ": 7650,
      "ĠÛĮØ§Ø¨ÛĮ": 7651,
      "ĠÙĪÛĮØ²ÛĮØª": 7652,
      "ĠØ³Ø§Ø¹Ø§Øª": 7653,
      "ĠØ¹ÙħØ¯": 7654,
      "ĠØ§ØªØ®Ø§Ø°": 7655,
      "ĠØ±Ø§Ø¶ÛĮ": 7656,
      "Ù¾ÙĪØ±Øª": 7657,
      "##": 7658,
      "Ø±Ø§Ø¨": 7659,
      "Ú©ÙĪØ³": 7660,
      "ĠDDR": 7661,
      "Ø§ÙĤØª": 7662,
      "ĠØ§ÙĪÙĦÛĮ": 7663,
      "ĠØ¨Ø§ÙĦØº": 7664,
      "ĠÛµÛ°Û°": 7665,
      "Ú©ÙĪØ¯": 7666,
      "ĠÚ¯ÙĪØ³": 7667,
      "ĠØ§Ø¯Ø§Ø±Ø§Øª": 7668,
      "ĠØ§ÛĮÙĦÙĨØ§": 7669,
      "Ø´ÙĪÛĮ": 7670,
      "ĠØªØ¯Ø§ÙĪÙħ": 7671,
      "Ø§ØªØ±ÛĮ": 7672,
      "ĠØ¹ÙħÙĪØ¯ÛĮ": 7673,
      "ier": 7674,
      "Ù¾Ø²": 7675,
      "ĠØ¯Ø§Ø±Ø§ÙĬ": 7676,
      "ĠØ®ÛĮØ§ÙĦ": 7677,
      "ĠØ¹ØµØ¨ÛĮ": 7678,
      "ĠÙ¾Ø±Ú©": 7679,
      "ĠØ¹Ø§Ø¯ÙĦ": 7680,
      "Ø§ÙģØ§ØµÙĦÙĩ": 7681,
      "ĠÙ¾Ø±ÙĨØ¯Ùĩ": 7682,
      "ĠIran": 7683,
      "ĠÚ¯ÙĪØ§Ùĩ": 7684,
      "Ø¬Ø³Øª": 7685,
      "ated": 7686,
      "ĠØ§Ø®ÛĮØ±Ø§": 7687,
      "ĠØ¢ÙĦÙĪØ¯Ùĩ": 7688,
      "ĠØ±Ø§ÙĩØ¨Ø±Ø¯ÛĮ": 7689,
      "na": 7690,
      "ÛĮÚ©Ø³": 7691,
      "ĠÛĮØ§Ø¯Ø¢ÙĪØ±ÛĮ": 7692,
      "oy": 7693,
      "Ġ00": 7694,
      "ĠÙĦÙĬ": 7695,
      "Ø¨ÛĮØªÛĮ": 7696,
      "ĠØ³ÙĩÙħÛĮÙĩ": 7697,
      "eth": 7698,
      "ÙħØŃØµÙĪÙĦ": 7699,
      "ĠØ§ØŃØ³Ø§Ø³Ø§Øª": 7700,
      "ĠØŃØ¯ÛĮØ«": 7701,
      "Ø¯Ø§ÙĪÙĦ": 7702,
      "ĠÙħÙĦØ§ÙĤØ§Øª": 7703,
      "ton": 7704,
      "ĠØ§ÙĦØ²Ø§Ùħ": 7705,
      "ĠØ´ÙĨØ§Ø®ØªÛĮ": 7706,
      "ĠØªØ£ÛĮÛĮØ¯": 7707,
      "ÙĦØ§Ø³": 7708,
      "ĠØ§Ú©Ø§ÙĨØª": 7709,
      "ĠØµÙĨÙģÛĮ": 7710,
      "ĠØ¯Ø±ÛĮØ§ÛĮ": 7711,
      "ĠØªØ±ÙħÛĮÙħ": 7712,
      "Ġyou": 7713,
      "ĠÙħØ³Ø§ØŃØª": 7714,
      "ĠØµØŃØª": 7715,
      "GBÙģÙĦØ´": 7716,
      "ĠØ§ÙĨØ¨ÙĪÙĩ": 7717,
      "Ø¯ÙĪØ±": 7718,
      "Ø§ØªÙĩ": 7719,
      "ĠRes": 7720,
      "ĠØ³Ù¾Ø§ÙĩØ§ÙĨ": 7721,
      "ĠDisk": 7722,
      "ĠÙĩÙħØ´ÙĩØ±ÛĮ": 7723,
      "Ġ150": 7724,
      "ĠÙħØŃÙĪØ·Ùĩ": 7725,
      "ĠØªÙĪØ¯Ùĩ": 7726,
      "Ġ120": 7727,
      "ÙħÙĨØ¸": 7728,
      "ĠÚ©ÙħØ±": 7729,
      "ĠØ¨Ø§Ø±Ø³ÙĦ": 7730,
      "ĠÙħØªØ®ØµØµØ§ÙĨ": 7731,
      "ĠØ¨Ø±Ùħ": 7732,
      "ĠÙĥØ§ÙĩØ´": 7733,
      "ĠÙħÙĬØ²Ø§ÙĨ": 7734,
      "ĠØªÛĮÙħÛĮ": 7735,
      "ĠØ³Ø¨Ø²ÛĮØ¬Ø§Øª": 7736,
      "ØŃØ¯ÙĪØ¯": 7737,
      "ĠÙħÙĪØ¸": 7738,
      "Ø®ÙĪØ§ÙĩÛĮ": 7739,
      "ĠØ¢Ø±Ø´": 7740,
      "ĠØ¹Ø§Ø´ÙĪØ±Ø§": 7741,
      "ĠÛ²Û°Û±Û¸": 7742,
      "duct": 7743,
      "ĠØ²ÛĮØ§ÙĨ": 7744,
      "ĠØ¨Ø±Ø®ÙĦØ§Ùģ": 7745,
      "74": 7746,
      "ÙĪØ¶": 7747,
      "ÙĪØ§ØŃ": 7748,
      "ĠØ¨ÙĩØ²ÛĮØ³ØªÛĮ": 7749,
      "ĠØ§ÛĮØ²ÙĪ": 7750,
      "ĠØ¬ÙĨØ¬": 7751,
      "ĠÙĦØ§ÙħÙ¾": 7752,
      "ĠÙ¾ÛĮØ´Ø±ÙĪ": 7753,
      "Ø¨Ø§Ø²Ø§Ø±": 7754,
      "ĠØªØ®ØªÙĩ": 7755,
      "ĠØ³Ø·ØŃÛĮ": 7756,
      "ĠØ´Ú©ÙĦØ§Øª": 7757,
      "ĠÙ¾ÛĮØ±ÙĪØ²": 7758,
      "ĠØ§Ø¯ÛĮ": 7759,
      "ĠÚ©Ø±ÙĪÙħ": 7760,
      "ĠØ§ÛĮÙħÙĨ": 7761,
      "ĠÙĦØ§Ø³ØªÛĮÚ©": 7762,
      "Ġ1000": 7763,
      "ĠØ¨ÛĮØ§ÙĪØ±": 7764,
      "Ø§ØºÙĩ": 7765,
      "ĠØ§ÙģØ²Ø§Ø±ÙĩØ§ÛĮ": 7766,
      "()": 7767,
      "ĠØ¨Ú©Ø´": 7768,
      "Ø´Ú©Ø±": 7769,
      "ĠØ±ÙĪØ³": 7770,
      "ĠØ¯Ø§Ø±ÙĪÛĮ": 7771,
      "ĠÙĩØ³ØªÙĨ": 7772,
      "ÙħØ¯Ø§ÙĨ": 7773,
      "Ġï»«": 7774,
      "ĠÙħØ¨Ø§Ø¯": 7775,
      "ØªØ¹ÙħÛĮØ±": 7776,
      "ÙĦØ·ÙģØ§": 7777,
      "eight": 7778,
      "ĠØ®Ø·ÛĮ": 7779,
      "ÙħØ´Ø§ÙĩØ¯Ùĩ": 7780,
      "ĠÙĪØŃØ´Øª": 7781,
      "Ø®ÙĦØ§ØµÙĩ": 7782,
      "ĠÙĤÙĪØª": 7783,
      "ĠÙħÙĤØ¯Ø§Ø±ÛĮ": 7784,
      "Ø®ØµÛĮØµ": 7785,
      "ĠØ®Ø²": 7786,
      "ĠÙ¾ÙĩÙĨ": 7787,
      "ĠØ¶Ø±ÛĮØ¨": 7788,
      "ĠØ´ÙħØ§Ø³Øª": 7789,
      "ĠØªÚ©ÙħÛĮÙĦÛĮ": 7790,
      "ĠØ±Ø§Ø³": 7791,
      "ĠÙ¾Ø§Ø±Ùĩ": 7792,
      "ĠØ¨Ø§Ø´ÛĮ": 7793,
      "Ú©Ø±Ø¯ÙĨ": 7794,
      "Ġ2008": 7795,
      "Ø³ÙĨØ¬ÛĮ": 7796,
      "ĠØ±Ø§Ø¬Ø¹": 7797,
      "Â·": 7798,
      "ĠØ¨ÙĪÙħ": 7799,
      "ĠÙĦÛĮØª": 7800,
      "ĠÙģØ±Ø§ØªØ±": 7801,
      "ĠØ§ÙĦÙĩØ§Ùħ": 7802,
      "ÛµÛ°Û°": 7803,
      "ĠØ³ÙĪØ§Ø¯": 7804,
      "ĠØ¯Ø§ÙĪØ·ÙĦØ¨": 7805,
      "ĠÙĨÚ©ÙĨØ¯": 7806,
      "ĠØ±Ø§ÙĬ": 7807,
      "ĠGam": 7808,
      ".)": 7809,
      "ÙĪÚ©Ø§Ø±": 7810,
      "ĠØ¬Ø¹ÙģØ±ÛĮ": 7811,
      "1393": 7812,
      "ĠØ¢Ø±Ø§ÛĮØ´ÛĮ": 7813,
      "ĠÙĨØ¹ÙħØª": 7814,
      "Ø¯ÙĩÛĮØ¯": 7815,
      "ĠÙħØ´ÙĪØ±Øª": 7816,
      "ater": 7817,
      "ĠØªÙģØ§ÙĩÙħ": 7818,
      "ĠOn": 7819,
      "ĠØ¯Ø§ÙħÙ¾Ø²Ø´": 7820,
      "ĠØ³Ø§ØŃÙĦÛĮ": 7821,
      "ina": 7822,
      "ĠØ¨Ø§ÙĦØ§Ø®Ø±Ùĩ": 7823,
      "ĠØ§ÙĪØ±Ø¬ÛĮÙĨØ§ÙĦ": 7824,
      "ĠØªÙĬÙħ": 7825,
      "ÚĨÙĪÙĨ": 7826,
      "ĠØªÙĪØ§ÙĨÛĮÙħ": 7827,
      "ĠØ§Ø·ÙĦØ§Ø¹ÛĮÙĩ": 7828,
      "ĠØ¢Ø¬": 7829,
      "ĠÙĤØ§Ø¦Ùħ": 7830,
      "ĠØ±ÙĪÛĮÙĩ": 7831,
      "ÙĪØªØ±ÛĮ": 7832,
      "ĠØ¯Ø±Ø§Ø²": 7833,
      "ĠØ¨Ø±ÙĨ": 7834,
      "ÙĪÛĮÚĨ": 7835,
      "ï»³": 7836,
      "ĠÙħÛĮØ²Ø¨Ø§ÙĨÛĮ": 7837,
      "ĠØ¹Ø¨Ø§Ø³ÛĮ": 7838,
      "ĠØ¨ÙĩØ´": 7839,
      "over": 7840,
      "Ph": 7841,
      "ĠØ³Ø§Ø±ÛĮ": 7842,
      "ĠØ§Ø®Ø±Ø§Ø¬": 7843,
      "ĠØ²ÙĨØ¯Ú¯": 7844,
      "ĠØ¢ÙģØªØ§Ø¨ÛĮ": 7845,
      "ĠØªØ±Ø³ÙĨØ§Ú©": 7846,
      "Ø±Ø§Ø²": 7847,
      "ĠÙĩÛķ": 7848,
      "ĠØ¨ÙĩØ±Ø§Ùħ": 7849,
      "ĠØ¨Ø±Ø¢ÙĪØ±Ø¯": 7850,
      "ĠÙħÙĨØ§Ø¸": 7851,
      "hem": 7852,
      "ĠØ¯Ø®Ø§ÙĦØª": 7853,
      "ĠØ±Ø¯ÛĮÙģ": 7854,
      "ĠÙĪØ§Ø±ÛĮØ²": 7855,
      "ÙĦÛĮÙĨ": 7856,
      "ĠØ¢ÙħÙĪØ²Ø´Ú¯Ø§Ùĩ": 7857,
      "ĠÙĦØ¨Ø§Ø³Ø´ÙĪÛĮÛĮ": 7858,
      "ĠÙħØ®ØµÙĪØµØ§": 7859,
      "ĠÙħÙĤÛĮ": 7860,
      "ĠØ§Ø¹Ø·": 7861,
      "Ġ360": 7862,
      "ĠÙģØ±ÙĪØ´Ú¯Ø§ÙĩÛĮ": 7863,
      "____": 7864,
      "ĠØ§Ùĥ": 7865,
      "ĠØ§ÙĦÙĦ": 7866,
      "ĠÚ©ÙĦÙħ": 7867,
      "ĠÚ¯Ø°Ø±Ø§ÙĨ": 7868,
      "2015": 7869,
      "ĠÙĨÙĬØ±ÙĪ": 7870,
      "ĠØ´ÙĨØ§Ø³Ùĩ": 7871,
      "ĠØ§Ú©ØªØ¨Ø±": 7872,
      "Ø²ÙĦÛĮ": 7873,
      "ĠÙħØ¯Ø§ÙĪÙħ": 7874,
      "ĠÙģØ±Ø¯ÙĪØ³ÛĮ": 7875,
      "ĠÙĥØ±Ø¯ÙĨØ¯": 7876,
      "Ø³ÙĪÙħ": 7877,
      "Ø³Ø§ÙĦÛĮ": 7878,
      "ĠØªÙĬØ±": 7879,
      "ĠØ°Ø±Ø§Øª": 7880,
      "ĠØ³Ù¾Ø§Ø³": 7881,
      "ĠØ¬Ø±Ø§ØŃ": 7882,
      "Ġ$(\"": 7883,
      "ÙĩØªÙĦ": 7884,
      "ĠÙħÛĮØ§ÙĨÙĩ": 7885,
      "Ġ33": 7886,
      "ÙĪÛĮÙĪØ±Ú©": 7887,
      "ĠÙħØŃØ±ÙĪ": 7888,
      "Ġ2000": 7889,
      "ÛĮÚ©Øª": 7890,
      "ĠØ³ÙģÛĮØ±": 7891,
      "ĠØªÛĮÙ¾": 7892,
      "ĠØ·ÙĦØ§ÛĮ": 7893,
      "Ù¾Ø±ÙĪÚĺÙĩ": 7894,
      "âĢľ": 7895,
      "ØŃØ¬Øª": 7896,
      "ĠØ±ÙĪÚ©Ø´": 7897,
      "ĠÙĪØ§Ú¯Ø°Ø§Ø±": 7898,
      "ĠÙģØ±ÙħÙĪÙĦ": 7899,
      "ĠÙħØ²ÛĮØª": 7900,
      "ĠØªØ¹ÙĩØ¯Ø§Øª": 7901,
      "sk": 7902,
      "ĠÙ¾ÙĬØ¯": 7903,
      "ĠØ§Ø³Ø§ÙħÛĮ": 7904,
      "ÛµÛ´": 7905,
      "ĠÚ¯ÙĪØ§ÙĩÛĮ": 7906,
      "ĠØªØŃØµÛĮÙĦØ§Øª": 7907,
      "ĠÙģØ¶Ø§ÙĩØ§ÛĮ": 7908,
      "ÛķÙĪÛķÛĮ": 7909,
      "ĠØ¨Ú¯Ùħ": 7910,
      "raph": 7911,
      "ĠØ§ÛĮÙģØ§": 7912,
      "ĠÙĨØ¸Ùħ": 7913,
      "ĠØ§ÙĨØ¯Ú©ÛĮ": 7914,
      "ĠØ³ÙĪØ§Ø¨ÙĤ": 7915,
      "aster": 7916,
      "ĠÙħÙĨØ¸Ùħ": 7917,
      "ÙĨÚ©ØªÙĩ": 7918,
      "ĠïŃ": 7919,
      "Ø²Ø¯ÙĩÙħ": 7920,
      "ĠÙ¾Ø²": 7921,
      "Ø³ØªØ§": 7922,
      "ĠØ¨Ø±Ø³Ø§ÙĨ": 7923,
      "ĠØŃØ±ÛĮÙģ": 7924,
      "Ú©Ø§ÙĨØ§ÙĦ": 7925,
      "ĠÙĪØ²Ø§Ø±ØªØ®Ø§ÙĨÙĩ": 7926,
      "ĠØ¯Ø±Ø®Ø´Ø§ÙĨ": 7927,
      "ĠÙħÙĪØ§ÙĨØ¹": 7928,
      "ĠÙħØŃØ¨Øª": 7929,
      "Ø§Ø´ÙĨØ§Ø³ÛĮ": 7930,
      "ĠØªØ²ÛĮÛĮÙĨ": 7931,
      "ØµÙĦÛĮ": 7932,
      "Ø§Ø¹ÛĮÙĦ": 7933,
      "ĠÙĨØ´Ø±ÛĮÙĩ": 7934,
      "ĠØ¨Ø°": 7935,
      "Ø²Ø§Ø¨": 7936,
      "ĠÙħØ³Ø§Ø¬Ø¯": 7937,
      "ĠÙĩÙĪØ§ÙĪÛĮ": 7938,
      "ĠÙħØ±Ø§ØªØ¨": 7939,
      "ĠØ§ÙħÙĪØ§ÙĦ": 7940,
      "ĠÙĥØ±": 7941,
      "ĠÙħØ®ØªØµ": 7942,
      "ĠØ¬Ø§ÙĨØ¨": 7943,
      "Ú¯ÙĨØ§ÙĦ": 7944,
      "ĠØªÙħØ§Ø´Ø§ÛĮ": 7945,
      "ĠÙĩÚ©ØªØ§Ø±": 7946,
      "Ġam": 7947,
      "ĠÙĤØµ": 7948,
      "ĠØ¯Ø³ØªÚ¯ÛĮØ±ÛĮ": 7949,
      "ĠØ¨ÙĦØ§ÙģØ§ØµÙĦÙĩ": 7950,
      "ĠØªØ±Ø¯Ø¯": 7951,
      "ĠÙģØ§ÙĨØªØ²ÛĮ": 7952,
      "ÙĨØŃÙĪÙĩ": 7953,
      "uy": 7954,
      "ĠØ´ÙĬØ±": 7955,
      ".....": 7956,
      "ĠÙĨÛĮØ§": 7957,
      "ĠØ§ÙĩØ§ÙĦÛĮ": 7958,
      "âĢıâĢĮ": 7959,
      "ĠÙģÙĪÙĦØ§Ø¯ÛĮ": 7960,
      "ĠÙĩÙĪØ§Ù¾ÛĮÙħØ§ÛĮ": 7961,
      "ĀĀĀĀĀĀĀĀĀĀĀĀĀĀĀĀĀĀĀĀĀĀĀĀĀĀĀĀĀĀĀĀĀĀĀĀĀĀĀĀĀĀĀĀĀĀĀĀĀĀĀĀĀĀĀĀĀĀĀĀĀĀĀĀ": 7962,
      ".(": 7963,
      "ational": 7964,
      "ĠApple": 7965,
      "soft": 7966,
      "ĠØ¯Ø±Ø¢Ùħ": 7967,
      "ĠÙĤØ§Ø¶ÛĮ": 7968,
      "ĠÙĦØ§Ø±ÛĮØ¬Ø§ÙĨÛĮ": 7969,
      "ĠØ¢ÙħÙĪØ²ÛĮ": 7970,
      "ĠØ§ØµÙĦÙĬ": 7971,
      "Comment": 7972,
      "ĠØ¯ÙĥØªØ±": 7973,
      "ĠØ§ÙĦØ³": 7974,
      "ĠØªØŃØ±ÛĮÚ©": 7975,
      "ĠÙĨØ¯Ø§Ø±ÛĮØ¯": 7976,
      "Ø¯Ø±ÛĮØ§ÙģØª": 7977,
      "Ø¯ÛĮØ±ÙĪØ²": 7978,
      "Ø¨Ø²Ø±Ú¯": 7979,
      "ĠØ§ÛĮÙĨÙĩ": 7980,
      "ĠÙĦØ±ÛĮ": 7981,
      "ÙħÛĮØ§ÙĨ": 7982,
      "ĠØ§Ø±ØªÙĤØ§": 7983,
      "âĢĮâĢĮâĢĮâĢĮâĢĮâĢĮâĢĮâĢĮ": 7984,
      "ĠØ®ÙĪØ´Ø¨Ø®ØªØ§ÙĨÙĩ": 7985,
      "Ø§ÙĨØ´": 7986,
      "Ø±ÛĮØ±": 7987,
      "ĠÙħØ§ÙĩÛĮØª": 7988,
      "Ġ48": 7989,
      "ĠÙĤØ¶Ø§ÙĪØª": 7990,
      "ĠÙĨØ§Ø±Ø§ØŃØª": 7991,
      "71": 7992,
      "ÛĮØ¯ÙĨØ¯": 7993,
      "ĠØªØ´Ø¯ÛĮØ¯": 7994,
      "ĠØªÛĮØ²Ø±": 7995,
      "Ø®ÙĪØ§ÙĩÙħ": 7996,
      "ĠØªØ±ÙĪØ±ÛĮØ³Øª": 7997,
      "Ø¨Ø§Ø¹": 7998,
      "Ø³ØªÙĨØ¯": 7999,
      "ĠÙħÙĪØ§ÙģÙĤ": 8000,
      "ĠØ·Ø±Ø§ØŃÙĬ": 8001,
      "ÛĮØ§Øª": 8002,
      "ĠÙħÙĩØ§Ø±": 8003,
      "ĠÙĨØ¨ÙĪØ¯ÙĨ": 8004,
      "ĠØ¨ÙĨØ¯Ø±Ø¹Ø¨Ø§Ø³": 8005,
      "Ø§Ø¯Ùħ": 8006,
      "Ø¨Ø±Ú¯Ø²Ø§Ø±ÛĮ": 8007,
      "Ø§ÙĦÛĮØ§ÛĮÛĮ": 8008,
      "ï»ł": 8009,
      "ÙģÛĮÙĤ": 8010,
      "ĠÙĪØ§Ø´ÙĨÚ¯ØªÙĨ": 8011,
      "co": 8012,
      "ĠÚ©Ø±ÙĪ": 8013,
      "ĠÙ¾ÙĦØ§": 8014,
      "ĠÙħØ¹ÛĮÙĨ": 8015,
      "ĠØ¬Ø±ÛĮÙħÙĩ": 8016,
      "ĠØ®Ø³ØªÚ¯ÛĮ": 8017,
      "ĠÙħØµÙĦØŃ": 8018,
      "ĠØ³ØªØ§Ø±Ú¯Ø§ÙĨ": 8019,
      "ĠØ¬Ø¯Ø§ÛĮÛĮ": 8020,
      "ĠØªÙĤØ§Ø¶Ø§ÛĮ": 8021,
      "ĠØ³ÙĪØ±ÛĮ": 8022,
      "Ø¬ÙĩÛĮØ²": 8023,
      "ØŃØ³Ø§Ø¨": 8024,
      "ĠØ§ÙģØ³Ø§ÙĨÙĩ": 8025,
      "ĠÙħØ³Ø£ÙĦÙĩ": 8026,
      "ÙĨØ³Ø®Ùĩ": 8027,
      "ĠÐ": 8028,
      "Ø±Ø±": 8029,
      "ĠØ¯Ø§Ø¦Ùħ": 8030,
      "ĠØŃØ§ÙħÙĦ": 8031,
      "ĠÛ¸Û°": 8032,
      "ĠÛĮÚ©Ùħ": 8033,
      "ĠÙħØ´ÙħÙĪÙĦ": 8034,
      "ĠÚ¯Ø±Ø§ÙģÛĮÚ©ÛĮ": 8035,
      "ÛµÛ²": 8036,
      "ich": 8037,
      "ĠÙħØªØ¯Ø§ÙĪÙĦ": 8038,
      "ÙħÙĩÙĨØ¯": 8039,
      "ØŃØ§ÙĦØ§": 8040,
      "ĠÙĨÙħØ§ÙĬØ´": 8041,
      "ĠØªØ¨ÛĮÛĮÙĨ": 8042,
      "ĠÙĨØ§Ø´ÙĨ": 8043,
      "ĠØ§ÙħØ±ÛĮ": 8044,
      "ĠØ§Ø±Ø§Ú©": 8045,
      "ĠØªÙĦÙĤÛĮ": 8046,
      "ĠÙ¾ÛĮÚ©Ø±": 8047,
      "ĠØ®ÙĪØ±Ø´ÛĮØ¯ÛĮ": 8048,
      "Ø²Ø¨Ø§ÙĨ": 8049,
      "ĠØ¨Ø§Ø¨Ø§": 8050,
      "mm": 8051,
      "ĠØ¯ÙĦØ§Ø±ÛĮ": 8052,
      "ĠØ¨Ø¯ÙĨØ³Ø§Ø²ÛĮ": 8053,
      "ove": 8054,
      "ĠÙĪØ±ÛĮ": 8055,
      "Ù¾ÙĨ": 8056,
      "ĠÙĨØ´Ø³ØªÙĩ": 8057,
      "ĠØ³ÙĪÙ¾": 8058,
      "ĠØ®Ø·Ø§": 8059,
      "ĠHard": 8060,
      "ĠÛ°Û±": 8061,
      "ĠÙ¾Ø§ÙĬØ§ÙĨ": 8062,
      "ĠÚ©Ø§Ø´Ø§ÙĨ": 8063,
      "ĠØªØ¸": 8064,
      "ĠØ¹ÛĮ": 8065,
      "ĠÙģØ±ÙħØ§ÛĮÛĮØ¯": 8066,
      "ĠÙħØªÙħØ±Ú©Ø²": 8067,
      "Ø§Ø¬Ø§Ø±Ùĩ": 8068,
      "Ġfrom": 8069,
      "ĠÙħØ³ØªÙĤØ±": 8070,
      "=âĢĿ": 8071,
      "function": 8072,
      "ĠØ§Ø³ÙĨ": 8073,
      "ĠÙħÙĪØ§ÙĤØ¹": 8074,
      "ĠÚ©Ø§Ø±Ú¯Ø±ÙĪÙĩ": 8075,
      "----------------": 8076,
      "ĠÙ¾Ø±ÚĨÙħ": 8077,
      "ĠØªØ±ÙħØ²": 8078,
      "ĠØ§ÙĦØ¯ÛĮÙĨ": 8079,
      "Ø¢ÙĦ": 8080,
      "ĠØ´Ø¹Ø¨": 8081,
      "ĠØ³ÙĦØ·Ø§ÙĨ": 8082,
      "ĠØªØ³ÙĦÛĮØª": 8083,
      "ĠØ§ÙħÛĮØ±ÛĮ": 8084,
      "Ġ39": 8085,
      "ĠÙ¾Ø§Ø³Ø®Ú¯ÙĪÛĮÛĮ": 8086,
      "ĠÚ¯ÙĨØ¨Ø¯": 8087,
      "ÙĪØ±ÛĮØªÙħ": 8088,
      "ĠØ¨ØºØ¯Ø§Ø¯": 8089,
      "âĹ": 8090,
      "ØµÙĨ": 8091,
      "ors": 8092,
      "ĠÙ¾ÛĮØ§Ø²": 8093,
      "ents": 8094,
      "ĠÙħÚ©Ø§ÙĨÛĮÚ©ÛĮ": 8095,
      "ÛĮØ¯Ø§ÙĨÙĦÙĪØ¯": 8096,
      "Ø§Ú¯Ùĩ": 8097,
      "Ø¯ÙĪÙĦØª": 8098,
      "ĠØªØ®ØµÛĮØµ": 8099,
      "Ø§ÙĩÙĨ": 8100,
      "ĠØ¬ÙĪØ§ÙĨÛĮ": 8101,
      "ĠØªØŃÙĤÛĮÙĤØ§ØªÛĮ": 8102,
      "order": 8103,
      "Ø¬ÙĨÚ¯": 8104,
      "ĠÚ¯ÙĪØ§Ø±": 8105,
      "Ø§Ø¬Ø¹Ùĩ": 8106,
      "Ø±Ø³Ø§ÙĨ": 8107,
      "ages": 8108,
      "ĠØ¬ÙĪØ§ÙħØ¹": 8109,
      "62": 8110,
      "gram": 8111,
      "ĠØ¯Ø±Ø§Ùħ": 8112,
      "ĠÚ¯ÙĦÛĮ": 8113,
      "Ø¸Ø§Øª": 8114,
      "ĠØ§Ø¯Ú©ÙĦÙĨ": 8115,
      "atter": 8116,
      "Ġï¿½ï¿½ï¿½": 8117,
      "ĠØ¯Ø±ØŃØ§ÙĦ": 8118,
      "ĠØ²ÙĪØ±": 8119,
      "ĠSm": 8120,
      "Û´Û²": 8121,
      "ath": 8122,
      "ĠØªØ§Ø±ÛĮØ®ÚĨÙĩ": 8123,
      "Ġ75": 8124,
      "ðŁĺ": 8125,
      "ĠØ§Ø¯Ø¹Ø§ÛĮ": 8126,
      "ĠÙħÚĨ": 8127,
      "ĠØªØ´Ú©ÙĦ": 8128,
      "ĠÙĪÙĦØªØ§Úĺ": 8129,
      "ĠØ³ÙĦÛĮÙĤÙĩ": 8130,
      "ĠÙħØŃØ§Ø³Ø¨Ø§Øª": 8131,
      "ĠØ¨Ø¯Ùħ": 8132,
      "Ø®ÙĪØ§Ø¨": 8133,
      "Ø³Ø§Ø²ÙĬ": 8134,
      "ĠÚ©ÙĪÙĩÙĨ": 8135,
      "ĠØ¨ÙĦÛĮØª": 8136,
      "ĠØ±ÙĪØ¯Ùĩ": 8137,
      "ĠÙĦÛĮØ²": 8138,
      "ĠÚ©Ø§Ø±ÙĪØ§ÙĨ": 8139,
      "ĠØ§ÙģÚ©Øª": 8140,
      "ĠØµØ¨ØŃØ§ÙĨÙĩ": 8141,
      "ĠØ²ÙĨØ¯Ø§ÙĨÛĮØ§ÙĨ": 8142,
      "ĠÙĤØ§Ø¹Ø¯Ùĩ": 8143,
      "ĠØ¨Ø§Ø±Ø³ÙĦÙĪÙĨØ§": 8144,
      "ÛĮØ¯Ø±ÛĮ": 8145,
      "Ø®Ø§ÙĨÛĮ": 8146,
      "ĠÙĩÙħÚ¯ÛĮ": 8147,
      "ÛµÛ±": 8148,
      "ĠÙģÙĤØ±": 8149,
      "ÙħØ§Ø´ÛĮÙĨ": 8150,
      "NG": 8151,
      "ĠØ¨Ø®ØµÙĪØµ": 8152,
      "ĠÙĪØ·": 8153,
      "ĠØ®Ø´Ùħ": 8154,
      "ØªÙĪÙħØ§ÙĨH": 8155,
      "ĠÙħØŃÙĦÙĪÙĦ": 8156,
      "ĠØªØ¹ÙĦÙĤ": 8157,
      "Ġit": 8158,
      "ĠØªØ§Ø³": 8159,
      "ĠØ´Ø§ÙħÙ¾": 8160,
      "Ù¾ÛĮÙħ": 8161,
      "ĠÚĨÙĨÙĬÙĨ": 8162,
      "ĠØºØ±ÙģÙĩ": 8163,
      "arch": 8164,
      "ĠÛ¹Û¹": 8165,
      "ĠâĢ¦.": 8166,
      "ĠØ¨Ø§Ø²ÙĨØ´Ø³ØªÚ¯Ø§ÙĨ": 8167,
      "ĠÙĤØ³ÙħØªÛĮ": 8168,
      "ĠØ¹Ø§ÛĮÙĤ": 8169,
      "Ù¾ÛĮØ±": 8170,
      "Ú©ÙĦØª": 8171,
      "ĠØ®ÙĪØ¨Ùĩ": 8172,
      "ĠØ§ÙĩÙħ": 8173,
      "ĠÙĥÙĨÙĨØ¯Ùĩ": 8174,
      "1395": 8175,
      "ĠÚĺØ§ÙĨÙĪÛĮÙĩ": 8176,
      "\".": 8177,
      "ĠØ¨Ø²ÙĨØ¯": 8178,
      "ĠØ±Ú¯": 8179,
      "ĠØ¢Ø±Ø¯": 8180,
      "ÙĪÛĮÚĺÙĩ": 8181,
      "ÙģØ±ÙĤÙĩ": 8182,
      "ĠÙĨÙĤØ¶": 8183,
      "ĠØªØµÙħ": 8184,
      "ØªÙĦØ§Ùģ": 8185,
      "ÙĦÙĬÙĩ": 8186,
      "ĠÛ·Û°": 8187,
      "les": 8188,
      "ĠÙħØŃØ¶": 8189,
      "ĠØ§ÙĨÚ¯Ø§Ø±": 8190,
      "ĠØ±ÙĪØ´ÙĨØ§ÛĮÛĮ": 8191,
      "ĠØ¨Ø±Ú¯Ø²ÛĮØ¯Ùĩ": 8192,
      "ĠÚ©Ø§ÙĪØ±": 8193,
      "ĠØŃØ±ÛĮÙħ": 8194,
      "ĠTop": 8195,
      "ĠØ¨Ø±ÙĪØ²Ø±Ø³Ø§ÙĨÛĮ": 8196,
      "ĠØ³Ø¬Ø§Ø¯": 8197,
      "ĠCard": 8198,
      "ÛĨØ±": 8199,
      "ĠÙĨØ®Ø¨": 8200,
      "Ø¨Ø¹Ø¯ÛĮ": 8201,
      "ĠØ§Ø³Ù¾Ø±Øª": 8202,
      "ÙĨÙĪÙĪ": 8203,
      "ĠÙģØ±ÙħØ§ÙĨØ¯Ø§Ø±": 8204,
      "Ø·Ø¨ÙĤ": 8205,
      "ĠØ±Ø§ÙĩÚ©Ø§Ø±ÙĩØ§ÛĮ": 8206,
      "ĠØ®Ø¯ÙħØ§ØªÛĮ": 8207,
      "Ø¯Ø³": 8208,
      "ĠØ¯Ø§ÙĨÙĨØ¯": 8209,
      "ĠØ§ØµØºØ±": 8210,
      "str": 8211,
      "Ø³ÙģØ§ÙĨÙĩ": 8212,
      "ĠØ¢Ø²Ø§Ø±": 8213,
      "ÙģØªÛĮ": 8214,
      "Ú¯Ø±Ø§": 8215,
      "Ġ85": 8216,
      "ĠÚĺÙĨØªÛĮ": 8217,
      "ĠÙħØºØ²ÛĮ": 8218,
      "ĠÙĪØ§Ú©": 8219,
      "ĠØ®ÙĪØ±ÛĮ": 8220,
      "Ø¢ÙĩÙĨ": 8221,
      "ĠØ±ÙĪØ³ÛĮ": 8222,
      "ĠØµØ§ØŃØ¨Ø§ÙĨ": 8223,
      "ĠÙħØ§ÙĦÚ©ÛĮØª": 8224,
      ")ØĽ": 8225,
      "Ø¨Ø³ØªÚ¯ÛĮ": 8226,
      "ĠØ¯Ø±Ø®ØµÙĪØµ": 8227,
      "ØªÙĤØ§ÙĦ": 8228,
      "ĠØ±ÙĩØ¨Ø±Ø§ÙĨ": 8229,
      "ious": 8230,
      "ĠØ®Ø§ÙĦØµ": 8231,
      "ĠÙħÙĤØ¯ÙħØ§ØªÛĮ": 8232,
      "ĠØ§ÙĪØ¨Ø§ÙħØ§": 8233,
      "Ġ@": 8234,
      "ĠÙĨÚ¯ÛĮÙĨ": 8235,
      "ĠØ±Ø´": 8236,
      "ÙĬØ§Ø¨ÙĬ": 8237,
      "ĠÙħÛĮØ´Ùħ": 8238,
      "ï»²": 8239,
      "AF": 8240,
      "ium": 8241,
      "ØµØ§Ø±": 8242,
      "ĠÙĤØ¨Ø±": 8243,
      "ĠÙħÙĪÙĩØ§": 8244,
      "ĠÚ¯Ø±Ú¯Ø§ÙĨ": 8245,
      "ays": 8246,
      "ĠØŃØ§Ú©ÙħÛĮØª": 8247,
      "ĠÙĩÙĪØ±ÙħÙĪÙĨ": 8248,
      "ĠØ§Ø±Ø§Ø¶ÛĮ": 8249,
      "ÙĨÛĮØ§Ø²": 8250,
      "ĠÙħÙĤØ§Ø¯": 8251,
      "ĠÙĨØ¸Ø±Ùħ": 8252,
      "ĠPDF": 8253,
      "Ø§ÙĦÙĪÚ¯": 8254,
      "ĠÙħÙĤÛĮØ§Ø³": 8255,
      "OO": 8256,
      "ÛĮÙħÙĩ": 8257,
      "ĠÙħØŃÚ©Ùħ": 8258,
      "ĠÚ¯Ø±Ùĩ": 8259,
      "Ø§ÙĬÙĩ": 8260,
      "ĠÙĨÙĪÚ©ÛĮØ§": 8261,
      "ĠØ¢Ø°Ø±ÛĮ": 8262,
      "ĠØ¨Ø±Ø®ÙĬ": 8263,
      "ĠØ§Ø¶Ø§ÙģÛĮ": 8264,
      "url": 8265,
      "Û´Û³": 8266,
      "ĠDes": 8267,
      "oss": 8268,
      "');": 8269,
      "ĠÚ¯Ø´": 8270,
      "ĠÙħÙĪØ±Ø¯ÛĮ": 8271,
      "ĠÙĨÛĮØ³ØªÙħ": 8272,
      "ĠØ§Ø³ØªÙĤØ±Ø§Ø±": 8273,
      "ÙĨÙĪÛĮØ³ÛĮ": 8274,
      "Ø§ÙĦØ³": 8275,
      "ĠÙ¾ÛĮØ¯": 8276,
      "ĠØ¨Ø±ÛĮØ²": 8277,
      "ĠØ²ÙĪÙĨ": 8278,
      "ÛĮÙĦÙĨ": 8279,
      "ere": 8280,
      "ĠØ¨Ø§Ø±Ø¨Ø±ÛĮ": 8281,
      "ĠØ±ÙģØªØ§Ø±ÛĮ": 8282,
      "ĠØ¬ÙĪØ¬Ùĩ": 8283,
      "ĠÚ©ÙĪØªØ§ÙĩÛĮ": 8284,
      "ĠÙħØ¬Ø¯Ø¯Ø§": 8285,
      "ĠÙĨÚ¯Ø±Ø´": 8286,
      "Ø§ÙĪØ´": 8287,
      "ØªØ¬ÙĩÛĮØ²": 8288,
      "ØªÙĨÙĩØ§": 8289,
      "ĠÙ¾ÙĪØ³ØªÛĮ": 8290,
      "ĠÙ¾Ø§Ø¯Ø´Ø§Ùĩ": 8291,
      "ĠØ§Ø³ØªÙĨØ§Ø¯": 8292,
      "ĠØ´ÙĨØ§": 8293,
      "logy": 8294,
      "ĠÚ©Ø±Ø¨ÙĦØ§": 8295,
      "ÛĮØ§ÛĮ": 8296,
      "ĠÙĨØªÙĪØ§ÙĨØ³Øª": 8297,
      "Ø®ÙĪØ±ÛĮ": 8298,
      "Ø«Ùĩ": 8299,
      "ĠSM": 8300,
      "2012": 8301,
      "Ø§Ø¨Ø§ÙĨÛĮ": 8302,
      "ĠØ¢ÙĨÙĤØ¯Ø±": 8303,
      "ĠØ§ÙħÙĪ": 8304,
      "ĠDr": 8305,
      "ÙĪÙĪÙĪÙĪ": 8306,
      "Ø´Ø¨Ú©Ùĩ": 8307,
      "ponse": 8308,
      "data": 8309,
      "ÙħØ²": 8310,
      "ĠÙģÙĪØ±ÛĮÙĩ": 8311,
      "ĠÛ±Û³Û·": 8312,
      "ÛµÛ³": 8313,
      "Ø´Ø¯ÙĨ": 8314,
      "ÙĦÙĬÙĦ": 8315,
      "ĠÙģÙĦØ²ÛĮØ§Ø¨": 8316,
      "ĠĠĠĠ": 8317,
      "ĠØªØ§ÛĮÙĦÙĨØ¯": 8318,
      "set": 8319,
      "Ø¯ÙĩØ§ÛĮ": 8320,
      "Ø§ÛĮØ²": 8321,
      "ĠØ³ÙĦÙģ": 8322,
      "ĠØ¢ÙĦÛĮ": 8323,
      "Ø§ÙĩØª": 8324,
      "ĠÚ¯ÙĪÛĮÛĮ": 8325,
      "ĠÙĦÚ©Ùĩ": 8326,
      "ĠSpe": 8327,
      "ĠØ§ÙĨØªØ®Ø§Ø¨ÛĮ": 8328,
      "ĠÙĦÛĮÙĪØ§ÙĨ": 8329,
      "ĠÙħØ§Ø¬Ø±Ø§": 8330,
      "Ø§ÙħØªØ±": 8331,
      "ĠÙģØ±ÙĪØ´ÙĨØ¯Ú¯Ø§ÙĨ": 8332,
      "Ú¯Ø°Ø§Ø±Ø§ÙĨ": 8333,
      "ĠØªÙģÚ©ÛĮÚ©": 8334,
      "mail": 8335,
      "Ø¯Ø¨ÛĮØ±": 8336,
      "ĠØ¨Ú¯Ø°Ø§Ø±Ø¯": 8337,
      "ĠTran": 8338,
      "ÙĬØªÙĬ": 8339,
      "ĠØ±ÙĪØŃÛĮÙĩ": 8340,
      "Ù¾Ø±Ø¯Ø§Ø®Øª": 8341,
      "ĠØ¨Ø§Ø¨Ú©": 8342,
      "ĠØ²ÙħÙĬÙĨ": 8343,
      "Û´Û±": 8344,
      "ĠØ¨ÙĬÙħØ§Ø±ÙĬ": 8345,
      "ØªØ±Ø¬ÙħÙĩ": 8346,
      "ĠÙħØ´Ø±ÙĤ": 8347,
      "Ġ34": 8348,
      "ĠØ¨Ø²Ø±Ú¯Ø§ÙĨ": 8349,
      "Ø¯Ø§ÙĨØ¯": 8350,
      "Ú¯Ø³": 8351,
      "ĠØ§ÙħØª": 8352,
      "ĠÚ©ÙĦØ´": 8353,
      "ï»¬": 8354,
      "Ø¨Ø§Ø±Ø§ÙĨ": 8355,
      "Ú¯Ø´Øª": 8356,
      "ĠØ´ÛĮØ±ÛĮ": 8357,
      "ĠØ§Ø´ØºØ§ÙĦ": 8358,
      "Ø³ÙĦØ·": 8359,
      "ĠØ³Ø±ÙħØ§ÙĬÙĩ": 8360,
      "ØŃØ«": 8361,
      "ØªÙħØ§Ø³": 8362,
      "ĠII": 8363,
      "Ø§Ú©ÙĨÙĪÙĨ": 8364,
      "aker": 8365,
      "ĠØ¢Ø¨Ø§Ø¯Ø§ÙĨ": 8366,
      "ĠÙħØªÙĪØ³Ø·Ùĩ": 8367,
      "VD": 8368,
      "wit": 8369,
      "ØºØ§Øª": 8370,
      "ÙĢØª": 8371,
      "ĠÙĨØ¬Ùģ": 8372,
      "ÙħØ·Ø§ÙĦ": 8373,
      "ĠÚ©ÛĮØ¨": 8374,
      "ĠØ®ÙĨØ¯": 8375,
      "ÙĨØ¬Ø§ÙĨ": 8376,
      "Ú¯ÙĪØ³Øª": 8377,
      "ĠØªØ¹Ø·ÛĮÙĦÛĮ": 8378,
      "ĠØ§Ø²Ø§ÛĮ": 8379,
      "ĠÙĩÙħÚ©Ø§Ø±": 8380,
      "ĠÚ©ÙħØ¯ÛĮ": 8381,
      "ale": 8382,
      "ĠØ¢Ø±Ø²ÙĪ": 8383,
      "Ø¬ÙħÙĩÙĪØ±ÛĮ": 8384,
      "ĠÚ©Ø§Ø±ÙħÙĨØ¯Ø§ÙĨ": 8385,
      "Ø¥": 8386,
      "ĠØ¯Ø±ØŃØ§ÙĦÛĮ": 8387,
      "Ø®Ø¯Ø§": 8388,
      "ĠÙĨÛĮÙĪÛĮÙĪØ±Ú©": 8389,
      "ĠØ§Ø´Ø¹Ø§Ø±": 8390,
      "Ø§Ø¶Ø¹": 8391,
      "ĠÙĨÙģØ±ÛĮ": 8392,
      "ĠØ±Ø¦Ø§ÙĦ": 8393,
      "600": 8394,
      "ÛĮÙħÙĪ": 8395,
      "ĠØµÙĦÛĮ": 8396,
      "Ø§Ø¦ÛĮÙĩ": 8397,
      "ĠÙĩØ³ØªØ´": 8398,
      "ĠØ¨Ú¯ÙĪÛĮÙħ": 8399,
      "ĠØ¯Ø§Ø¦ÙħÛĮ": 8400,
      "AL": 8401,
      "ĠØ¢Ø±Øª": 8402,
      "erg": 8403,
      "err": 8404,
      "ÙħÙĩÙħ": 8405,
      "Ġ37": 8406,
      "lement": 8407,
      "urn": 8408,
      "Ġ2009": 8409,
      "ĠÙħÙĪØªÙĪØ±ÙĩØ§ÛĮ": 8410,
      "Ù¾Ø±Ø¯Ø§Ø²ÙĨØ¯": 8411,
      "ĠØ¢Ø²ÙħØ§ÛĮØ´Ú¯Ø§ÙĩÛĮ": 8412,
      "ĠÙ¾ÙĪØ³ØªÙĩ": 8413,
      "earch": 8414,
      "ĠØ´ÙĦ": 8415,
      "ĠØ¯Ø§ÙĨØ¯": 8416,
      "ĠØ®Ø±Ø¬": 8417,
      "ĠÙ¾Ø§ÛĮØ¯Ø§Ø±ÛĮ": 8418,
      "ĠØ¢ÙģØ±ÛĮÙĨ": 8419,
      "ÛĮØ§Ø±ÛĮ": 8420,
      "ĠØ¨Ø·": 8421,
      "ĠÙħØ§ÛĮÙĦ": 8422,
      "ÙĬÙĬØ±": 8423,
      "Ġtr": 8424,
      "ĠØ±ÙĤØ§Ø¨ØªÛĮ": 8425,
      "ĠØ¢Ø¨ÛĮØ§Ø±ÛĮ": 8426,
      "ĠÚĨØ´ÙħÙĩ": 8427,
      "ÙĨÚ¯Ø±ÛĮ": 8428,
      "ĠØªØ±Ø¨ÛĮØªÛĮ": 8429,
      "ĠØ®ÙĪØ§ÙĩØ±": 8430,
      "ÙĪØ§Ø±Ùħ": 8431,
      "ĠØ³Ø§Ú©": 8432,
      "ĠØ¨Ø±ØªØ±ÛĮ": 8433,
      "ĠØªÙĪÙĩ": 8434,
      "ïºŃ": 8435,
      "ĠØ§ÙħØ§Ú©ÙĨ": 8436,
      "ĠÙħÙĦÙĬ": 8437,
      "ĠØ±ÙĪØŃÛĮ": 8438,
      "ÙĪØ§ÚĺÙĩ": 8439,
      "ĠØ³ÙĪÙĦ": 8440,
      "ĠØ¨Ø±Ø§Ø´": 8441,
      "ĠØ§Ø±Ùħ": 8442,
      "ĠÙħØ¯Ø¯": 8443,
      "Ø¢Ø´ÙĨ": 8444,
      "ĠØ§Ø¹Ø¶Ø§": 8445,
      "Ġïºį": 8446,
      "ÙĨÙĪÙĬØ³": 8447,
      "ĠÙĨÙĪØ³Ø§ÙĨØ§Øª": 8448,
      "ĠØ´Ø±Ú©ØªÛĮ": 8449,
      "AC": 8450,
      "Ø¯Ø§Ø¹": 8451,
      "Ø¨ÙĬÙĨ": 8452,
      "ÙĪØ¯ÙĨ": 8453,
      "ĠØ³ÛĮÚ¯ÙĨØ§ÙĦ": 8454,
      "ĠØ§ÙĪØªÛĮ": 8455,
      "ĠÙĬØ¹ÙĨ": 8456,
      "ĠØ¨Ø´Ú©Ùĩ": 8457,
      "ĠÙģÙĨØ§ÙĪØ±": 8458,
      "ĠÚĨØ±Ø®Ùĩ": 8459,
      "ĠÙĨØ®Ø¨Ú¯Ø§ÙĨ": 8460,
      "ĠØ§ÛĮÙĨÚĨÛĮ": 8461,
      "Ø§Ø³ØªØ±": 8462,
      "ĠÙĩØ§ÛĮØ´": 8463,
      "ĠÙģØ±Ø§Ø²": 8464,
      "ĠÙħØ¯ÛĮ": 8465,
      "2014": 8466,
      "ĠÙħÚ©Ø§ÙĦ": 8467,
      "ĠÚ©ÛĮÙĦÙĪÙħØªØ±ÛĮ": 8468,
      "icrosoft": 8469,
      "ĠØªØ§Ø®ÛĮØ±": 8470,
      "ÙĬØ¬Ùĩ": 8471,
      "ĠÙĨÙĤØµ": 8472,
      "ĠÙĪØŃÛĮØ¯": 8473,
      "ĠÙĨÛĮØ§Ø²ÙħÙĨØ¯ÛĮ": 8474,
      "Ø±ØºÙħ": 8475,
      "ĠØ¢Ø±Ùħ": 8476,
      "ĠØ§ÙĨØµØ±Ø§Ùģ": 8477,
[...]
