{
  "version": "1.0",
  "truncation": null,
  "padding": null,
  "added_tokens": [
    {
      "id": 0,
      "content": "[UNK]",
      "single_word": false,
      "lstrip": false,
      "rstrip": false,
      "normalized": false,
      "special": true
    },
    {
      "id": 1,
      "content": "[PAD]",
      "single_word": false,
      "lstrip": false,
      "rstrip": false,
      "normalized": false,
      "special": true
    },
    {
      "id": 2,
      "content": "[CLS]",
      "single_word": false,
      "lstrip": false,
      "rstrip": false,
      "normalized": false,
      "special": true
    },
    {
      "id": 3,
      "content": "[SEP]",
      "single_word": false,
      "lstrip": false,
      "rstrip": false,
      "normalized": false,
      "special": true
    },
    {
      "id": 4,
      "content": "[MASK]",
      "single_word": false,
      "lstrip": false,
      "rstrip": false,
      "normalized": false,
      "special": true
    }
  ],
  "normalizer": {
    "type": "Sequence",
    "normalizers": [
      {
        "type": "NFD"
      },
      {
        "type": "StripAccents"
      }
    ]
  },
  "pre_tokenizer": {
    "type": "Sequence",
    "pretokenizers": [
      {
        "type": "WhitespaceSplit"
      },
      {
        "type": "Punctuation",
        "behavior": "Isolated"
      }
    ]
  },
  "post_processor": null,
  "decoder": null,
  "model": {
    "type": "WordPiece",
    "unk_token": "[UNK]",
    "continuing_subword_prefix": "##",
    "max_input_chars_per_word": 100,
    "vocab": {
      "[UNK]": 0,
      "[PAD]": 1,
      "[CLS]": 2,
      "[SEP]": 3,
      "[MASK]": 4,
      "\u0000": 5,
      "\u0001": 6,
      "\u0005": 7,
      "\u0006": 8,
      "\b": 9,
      "\u000f": 10,
      "\u0010": 11,
      "\u0011": 12,
      "\u0012": 13,
      "\u0018": 14,
      "\u0019": 15,
      "\u001b": 16,
      "\u001e": 17,
      "\u001f": 18,
      "!": 19,
      "\"": 20,
      "#": 21,
      "$": 22,
      "%": 23,
      "&": 24,
      "'": 25,
      "(": 26,
      ")": 27,
      "*": 28,
      "+": 29,
      ",": 30,
      "-": 31,
      ".": 32,
      "/": 33,
      "0": 34,
      "1": 35,
      "2": 36,
      "3": 37,
      "4": 38,
      "5": 39,
      "6": 40,
      "7": 41,
      "8": 42,
      "9": 43,
      ":": 44,
      ";": 45,
      "<": 46,
      "=": 47,
      ">": 48,
      "?": 49,
      "@": 50,
      "A": 51,
      "B": 52,
      "C": 53,
      "D": 54,
      "E": 55,
      "F": 56,
      "G": 57,
      "H": 58,
      "I": 59,
      "J": 60,
      "K": 61,
      "L": 62,
      "M": 63,
      "N": 64,
      "O": 65,
      "P": 66,
      "Q": 67,
      "R": 68,
      "S": 69,
      "T": 70,
      "U": 71,
      "V": 72,
      "W": 73,
      "X": 74,
      "Y": 75,
      "Z": 76,
      "[": 77,
      "\\": 78,
      "]": 79,
      "^": 80,
      "_": 81,
      "`": 82,
      "a": 83,
      "b": 84,
      "c": 85,
      "d": 86,
      "e": 87,
      "f": 88,
      "g": 89,
      "h": 90,
      "i": 91,
      "j": 92,
      "k": 93,
      "l": 94,
      "m": 95,
      "n": 96,
      "o": 97,
      "p": 98,
      "q": 99,
      "r": 100,
      "s": 101,
      "t": 102,
      "u": 103,
      "v": 104,
      "w": 105,
      "x": 106,
      "y": 107,
      "z": 108,
      "{": 109,
      "|": 110,
      "}": 111,
      "~": 112,
      "": 113,
      "": 114,
      "": 115,
      "": 116,
      "": 117,
      "": 118,
      "": 119,
      "": 120,
      "": 121,
      "": 122,
      "": 123,
      "": 124,
      "": 125,
      "": 126,
      "": 127,
      "": 128,
      "": 129,
      "": 130,
      "": 131,
      "": 132,
      "": 133,
      "": 134,
      "": 135,
      "": 136,
      "": 137,
      "¡": 138,
      "¢": 139,
      "£": 140,
      "¤": 141,
      "¥": 142,
      "¦": 143,
      "§": 144,
      "¨": 145,
      "©": 146,
      "ª": 147,
      "«": 148,
      "¬": 149,
      "­": 150,
      "®": 151,
      "¯": 152,
      "°": 153,
      "±": 154,
      "²": 155,
      "³": 156,
      "´": 157,
      "µ": 158,
      "¶": 159,
      "·": 160,
      "¸": 161,
      "¹": 162,
      "º": 163,
      "»": 164,
      "¼": 165,
      "½": 166,
      "¾": 167,
      "¿": 168,
      "Æ": 169,
      "Ð": 170,
      "×": 171,
      "Ø": 172,
      "ß": 173,
      "æ": 174,
      "ð": 175,
      "÷": 176,
      "ø": 177,
      "þ": 178,
      "đ": 179,
      "ı": 180,
      "Ł": 181,
      "ł": 182,
      "ŋ": 183,
      "Œ": 184,
      "œ": 185,
      "Ŧ": 186,
      "ſ": 187,
      "Ɓ": 188,
      "Ɖ": 189,
      "Ɗ": 190,
      "Ə": 191,
      "ƒ": 192,
      "Ɣ": 193,
      "Ɩ": 194,
      "ƛ": 195,
      "Ɵ": 196,
      "Ƨ": 197,
      "Ʒ": 198,
      "Ƹ": 199,
      "ƹ": 200,
      "ǝ": 201,
      "Ƕ": 202,
      "ȿ": 203,
      "ɀ": 204,
      "ɇ": 205,
      "ɑ": 206,
      "ɒ": 207,
      "ɗ": 208,
      "ə": 209,
      "ɛ": 210,
      "ɞ": 211,
      "ɡ": 212,
      "ɢ": 213,
      "ɣ": 214,
      "ɦ": 215,
      "ɨ": 216,
      "ɪ": 217,
      "ɭ": 218,
      "ɱ": 219,
      "ɳ": 220,
      "ɴ": 221,
      "ɿ": 222,
      "ʀ": 223,
      "ʂ": 224,
      "ʃ": 225,
      "ʌ": 226,
      "ʍ": 227,
      "ʏ": 228,
      "ʒ": 229,
      "ʘ": 230,
      "ʙ": 231,
      "ʜ": 232,
      "ʝ": 233,
      "ʟ": 234,
      "ʻ": 235,
      "ʿ": 236,
      "˂": 237,
      "˃": 238,
      "ˆ": 239,
      "ˇ": 240,
      "ˈ": 241,
      "ˏ": 242,
      "ː": 243,
      "˘": 244,
      "˙": 245,
      "˚": 246,
      "˛": 247,
      "˜": 248,
      "˝": 249,
      "ˢ": 250,
      "ˮ": 251,
      "ͺ": 252,
      "΄": 253,
      "Α": 254,
      "Δ": 255,
      "Ε": 256,
      "Η": 257,
      "Ι": 258,
      "Κ": 259,
      "Λ": 260,
      "Ν": 261,
      "Ξ": 262,
      "Ο": 263,
      "Π": 264,
      "Σ": 265,
      "Τ": 266,
      "Φ": 267,
      "Ψ": 268,
      "Ω": 269,
      "α": 270,
      "β": 271,
      "γ": 272,
      "δ": 273,
      "ε": 274,
      "ζ": 275,
      "η": 276,
      "θ": 277,
      "ι": 278,
      "κ": 279,
      "λ": 280,
      "μ": 281,
      "ν": 282,
      "ξ": 283,
      "ο": 284,
      "π": 285,
      "ρ": 286,
      "ς": 287,
      "σ": 288,
      "τ": 289,
      "υ": 290,
      "φ": 291,
      "ω": 292,
      "ϕ": 293,
      "ϙ": 294,
      "Ϣ": 295,
      "Ђ": 296,
      "Є": 297,
      "І": 298,
      "Њ": 299,
      "А": 300,
      "Б": 301,
      "В": 302,
      "Г": 303,
      "Д": 304,
      "Е": 305,
      "Ж": 306,
      "З": 307,
      "И": 308,
      "К": 309,
      "Л": 310,
      "М": 311,
      "Н": 312,
      "О": 313,
      "П": 314,
      "Р": 315,
      "С": 316,
      "Т": 317,
      "У": 318,
      "Ф": 319,
      "Х": 320,
      "Ц": 321,
      "Ч": 322,
      "Ш": 323,
      "Щ": 324,
      "Ы": 325,
      "Э": 326,
      "Ю": 327,
      "Я": 328,
      "а": 329,
      "б": 330,
      "в": 331,
      "г": 332,
      "д": 333,
      "е": 334,
      "ж": 335,
      "з": 336,
      "и": 337,
      "к": 338,
      "л": 339,
      "м": 340,
      "н": 341,
      "о": 342,
      "п": 343,
      "р": 344,
      "с": 345,
      "т": 346,
      "у": 347,
      "ф": 348,
      "х": 349,
      "ц": 350,
      "ч": 351,
      "ш": 352,
      "щ": 353,
      "ъ": 354,
      "ы": 355,
      "ь": 356,
      "э": 357,
      "ю": 358,
      "я": 359,
      "ђ": 360,
      "є": 361,
      "ѕ": 362,
      "і": 363,
      "ј": 364,
      "љ": 365,
      "ѳ": 366,
      "Ѻ": 367,
      "ғ": 368,
      "Қ": 369,
      "қ": 370,
      "ҡ": 371,
      "ҷ": 372,
      "һ": 373,
      "ә": 374,
      "ӿ": 375,
      "Ա": 376,
      "Թ": 377,
      "Լ": 378,
      "Հ": 379,
      "Ճ": 380,
      "Մ": 381,
      "Ռ": 382,
      "Վ": 383,
      "Ց": 384,
      "ա": 385,
      "բ": 386,
      "դ": 387,
      "ե": 388,
      "ժ": 389,
      "ի": 390,
      "խ": 391,
      "կ": 392,
      "հ": 393,
      "յ": 394,
      "ն": 395,
      "շ": 396,
      "ո": 397,
      "ս": 398,
      "ր": 399,
      "ւ": 400,
      "ֆ": 401,
      "֎": 402,
      "א": 403,
      "ב": 404,
      "ג": 405,
      "ד": 406,
      "ה": 407,
      "ו": 408,
      "ח": 409,
      "ט": 410,
      "י": 411,
      "כ": 412,
      "ל": 413,
      "ם": 414,
      "מ": 415,
      "ן": 416,
      "נ": 417,
      "ס": 418,
      "ע": 419,
      "ף": 420,
      "פ": 421,
      "ץ": 422,
      "צ": 423,
      "ק": 424,
      "ר": 425,
      "ש": 426,
      "ת": 427,
      "׳": 428,
      "״": 429,
      "؁": 430,
      "؋": 431,
      "،": 432,
      "؍": 433,
      "؏": 434,
      "؛": 435,
      "؜": 436,
      "؟": 437,
      "ء": 438,
      "ا": 439,
      "ب": 440,
      "ة": 441,
      "ت": 442,
      "ث": 443,
      "ج": 444,
      "ح": 445,
      "خ": 446,
      "د": 447,
      "ذ": 448,
      "ر": 449,
      "ز": 450,
      "س": 451,
      "ش": 452,
      "ص": 453,
      "ض": 454,
      "ط": 455,
      "ظ": 456,
      "ع": 457,
      "غ": 458,
      "ـ": 459,
      "ف": 460,
      "ق": 461,
      "ك": 462,
      "ل": 463,
      "م": 464,
      "ن": 465,
      "ه": 466,
      "و": 467,
      "ى": 468,
      "ي": 469,
      "٠": 470,
      "١": 471,
      "٢": 472,
      "٣": 473,
      "٤": 474,
      "٥": 475,
      "٦": 476,
      "٧": 477,
      "٨": 478,
      "٩": 479,
      "٪": 480,
      "٫": 481,
      "٬": 482,
      "٭": 483,
      "ٱ": 484,
      "ٲ": 485,
      "ٴ": 486,
      "ٶ": 487,
      "ٹ": 488,
      "ٺ": 489,
      "ټ": 490,
      "پ": 491,
      "ڀ": 492,
      "ځ": 493,
      "څ": 494,
      "چ": 495,
      "ڇ": 496,
      "ڈ": 497,
      "ډ": 498,
      "ڌ": 499,
      "ڑ": 500,
      "ڒ": 501,
      "ړ": 502,
      "ڔ": 503,
      "ڕ": 504,
      "ږ": 505,
      "ڗ": 506,
      "ژ": 507,
      "ښ": 508,
      "ڛ": 509,
      "ڜ": 510,
      "ڟ": 511,
      "ڤ": 512,
      "ڨ": 513,
      "ک": 514,
      "ڪ": 515,
      "ګ": 516,
      "ڭ": 517,
      "گ": 518,
      "ڵ": 519,
      "ڷ": 520,
      "ڸ": 521,
      "ں": 522,
      "ڼ": 523,
      "ھ": 524,
      "ہ": 525,
      "ۃ": 526,
      "ۅ": 527,
      "ۆ": 528,
      "ۇ": 529,
      "ۈ": 530,
      "ۉ": 531,
      "ۊ": 532,
      "ۋ": 533,
      "ی": 534,
      "ۍ": 535,
      "ێ": 536,
      "ې": 537,
      "ے": 538,
      "۔": 539,
      "ە": 540,
      "۞": 541,
      "۩": 542,
      "۰": 543,
      "۱": 544,
      "۲": 545,
      "۳": 546,
      "۴": 547,
      "۵": 548,
      "۶": 549,
      "۷": 550,
      "۸": 551,
      "۹": 552,
      "ۼ": 553,
      "ܐ": 554,
      "ܒ": 555,
      "ܓ": 556,
      "ܕ": 557,
      "ܘ": 558,
      "ܝ": 559,
      "ܡ": 560,
      "ܢ": 561,
      "ܨ": 562,
      "ܩ": 563,
      "ܪ": 564,
      "ݐ": 565,
      "ݕ": 566,
      "ݥ": 567,
      "ݦ": 568,
      "ݩ": 569,
      "ݪ": 570,
      "ݿ": 571,
      "ޒ": 572,
      "आ": 573,
      "उ": 574,
      "क": 575,
      "च": 576,
      "ज": 577,
      "ञ": 578,
      "ठ": 579,
      "ड": 580,
      "ण": 581,
      "त": 582,
      "थ": 583,
      "द": 584,
      "न": 585,
      "प": 586,
      "फ": 587,
      "ब": 588,
      "भ": 589,
      "म": 590,
      "य": 591,
      "र": 592,
      "ल": 593,
      "व": 594,
      "श": 595,
      "ष": 596,
      "स": 597,
      "ह": 598,
      "ব": 599,
      "ল": 600,
      "ਜ": 601,
      "ਪ": 602,
      "ਬ": 603,
      "੭": 604,
      "இ": 605,
      "ஐ": 606,
      "ஜ": 607,
      "த": 608,
      "ம": 609,
      "ழ": 610,
      "வ": 611,
      "గ": 612,
      "త": 613,
      "ల": 614,
      "ಕ": 615,
      "ಡ": 616,
      "ಥ": 617,
      "ನ": 618,
      "മ": 619,
      "യ": 620,
      "ല": 621,
      "ള": 622,
      "ก": 623,
      "ข": 624,
      "ค": 625,
      "ง": 626,
      "จ": 627,
      "ซ": 628,
      "ญ": 629,
      "ต": 630,
      "ถ": 631,
      "ท": 632,
      "น": 633,
      "บ": 634,
      "ป": 635,
      "ม": 636,
      "ย": 637,
      "ร": 638,
      "ล": 639,
      "ว": 640,
      "ศ": 641,
      "ส": 642,
      "ห": 643,
      "อ": 644,
      "ฯ": 645,
      "า": 646,
      "ำ": 647,
      "เ": 648,
      "แ": 649,
      "ไ": 650,
      "๏": 651,
      "๐": 652,
      "๑": 653,
      "๓": 654,
      "ຖ": 655,
      "ລ": 656,
      "ວ": 657,
      "າ": 658,
      "໐": 659,
      "་": 660,
      "ག": 661,
      "ད": 662,
      "བ": 663,
      "ཡ": 664,
      "န": 665,
      "ဘ": 666,
      "မ": 667,
      "သ": 668,
      "ၐ": 669,
      "ა": 670,
      "გ": 671,
      "დ": 672,
      "თ": 673,
      "ი": 674,
      "ლ": 675,
      "მ": 676,
      "ო": 677,
      "რ": 678,
      "უ": 679,
      "ქ": 680,
      "ღ": 681,
      "ᄀ": 682,
      "ᄁ": 683,
      "ᄂ": 684,
      "ᄃ": 685,
      "ᄄ": 686,
      "ᄅ": 687,
      "ᄆ": 688,
      "ᄇ": 689,
      "ᄉ": 690,
      "ᄋ": 691,
      "ᄌ": 692,
      "ᄎ": 693,
      "ᄏ": 694,
      "ᄐ": 695,
      "ᄑ": 696,
      "ᄒ": 697,
      "ᅡ": 698,
      "ᅢ": 699,
      "ᅣ": 700,
      "ᅥ": 701,
      "ᅦ": 702,
      "ᅧ": 703,
      "ᅨ": 704,
      "ᅩ": 705,
      "ᅪ": 706,
      "ᅬ": 707,
      "ᅭ": 708,
      "ᅮ": 709,
      "ᅯ": 710,
      "ᅱ": 711,
      "ᅲ": 712,
      "ᅳ": 713,
      "ᅴ": 714,
      "ᅵ": 715,
      "ᆨ": 716,
      "ᆫ": 717,
      "ᆭ": 718,
      "ᆮ": 719,
      "ᆯ": 720,
      "ᆷ": 721,
      "ᆸ": 722,
      "ᆹ": 723,
      "ᆻ": 724,
      "ᆼ": 725,
      "ᆽ": 726,
      "ᇂ": 727,
      "ሉ": 728,
      "ላ": 729,
      "ሓ": 730,
      "ሕ": 731,
      "መ": 732,
      "ማ": 733,
      "ም": 734,
      "ር": 735,
      "ሰ": 736,
      "ስ": 737,
      "ቀ": 738,
      "ቓ": 739,
      "በ": 740,
      "ብ": 741,
      "ተ": 742,
      "ት": 743,
      "ን": 744,
      "ኛ": 745,
      "አ": 746,
      "ኢ": 747,
      "ኣ": 748,
      "እ": 749,
      "ኩ": 750,
      "ካ": 751,
      "ው": 752,
      "ዘ": 753,
      "ዛ": 754,
      "የ": 755,
      "ይ": 756,
      "ደ": 757,
      "ዲ": 758,
      "ጀ": 759,
      "ገ": 760,
      "ግ": 761,
      "ፋ": 762,
      "ᓄ": 763,
      "ᓅ": 764,
      "ᗧ": 765,
      "ᗩ": 766,
      "ខ": 767,
      "ម": 768,
      "រ": 769,
      "ᥙ": 770,
      "᧐": 771,
      "ᴀ": 772,
      "ᴄ": 773,
      "ᴅ": 774,
      "ᴇ": 775,
      "ᴊ": 776,
      "ᴍ": 777,
      "ᴏ": 778,
      "ᴛ": 779,
      "ᴜ": 780,
      "ᴠ": 781,
      "ᴡ": 782,
      "ᴢ": 783,
      "ᴬ": 784,
      "ᴰ": 785,
      "ᴱ": 786,
      "ᴴ": 787,
      "ᴵ": 788,
      "ᴸ": 789,
      "ᴺ": 790,
      "ᴼ": 791,
      "ᴾ": 792,
      "ᴿ": 793,
      "ᵁ": 794,
      "ᵉ": 795,
      "ᵒ": 796,
      "ᵛ": 797,
      "ᵤ": 798,
      "ᵧ": 799,
      "ᵶ": 800,
      "ᵿ": 801,
      "ᶏ": 802,
      "ᶫ": 803,
      "​": 804,
      "‌": 805,
      "‍": 806,
      "‎": 807,
      "‏": 808,
      "‐": 809,
      "‑": 810,
      "‒": 811,
      "–": 812,
      "—": 813,
      "―": 814,
      "‖": 815,
      "‘": 816,
      "’": 817,
      "‚": 818,
      "“": 819,
      "”": 820,
      "„": 821,
      "†": 822,
      "‡": 823,
      "•": 824,
      "…": 825,
      "‧": 826,
      "‪": 827,
      "‫": 828,
      "‬": 829,
      "‭": 830,
      "‮": 831,
      "‰": 832,
      "′": 833,
      "″": 834,
      "‹": 835,
      "›": 836,
      "※": 837,
      "‼": 838,
      "‿": 839,
      "⁄": 840,
      "⁉": 841,
      "⁠": 842,
      "⁡": 843,
      "⁣": 844,
      "⁦": 845,
      "⁧": 846,
      "⁨": 847,
      "⁩": 848,
      "⁪": 849,
      "⁬": 850,
      "⁮": 851,
      "⁯": 852,
      "⁰": 853,
      "⁺": 854,
      "ⁿ": 855,
      "₀": 856,
      "₁": 857,
      "₂": 858,
      "₃": 859,
      "₄": 860,
      "₅": 861,
      "₆": 862,
      "₇": 863,
      "₈": 864,
      "₉": 865,
      "ₒ": 866,
      "₪": 867,
      "€": 868,
      "₺": 869,
      "℃": 870,
      "ℐ": 871,
      "ℒ": 872,
      "ℓ": 873,
      "™": 874,
      "ℯ": 875,
      "ℳ": 876,
      "ℹ": 877,
      "⅓": 878,
      "⅛": 879,
      "Ⅰ": 880,
      "ⅼ": 881,
      "←": 882,
      "↑": 883,
      "→": 884,
      "↓": 885,
      "↔": 886,
      "↕": 887,
      "↗": 888,
      "↘": 889,
      "↙": 890,
      "↝": 891,
      "↠": 892,
      "↩": 893,
      "↪": 894,
      "↫": 895,
      "↬": 896,
      "↯": 897,
      "↳": 898,
      "↵": 899,
      "↺": 900,
      "↻": 901,
      "⇐": 902,
      "⇓": 903,
      "⇔": 904,
      "⇦": 905,
      "⇨": 906,
      "⇩": 907,
      "∀": 908,
      "∂": 909,
      "∅": 910,
      "∆": 911,
      "∊": 912,
      "∎": 913,
      "∑": 914,
      "−": 915,
      "∕": 916,
      "∗": 917,
      "√": 918,
      "∞": 919,
      "∧": 920,
      "∨": 921,
      "∩": 922,
      "∪": 923,
      "≈": 924,
      "≡": 925,
      "≤": 926,
      "≥": 927,
      "≦": 928,
      "≧": 929,
      "⊕": 930,
      "⊗": 931,
      "⋅": 932,
      "⋆": 933,
      "⋐": 934,
      "⌛": 935,
      "⌣": 936,
      "⌬": 937,
      "⏎": 938,
      "⏩": 939,
      "⏪": 940,
      "⏯": 941,
      "⏰": 942,
      "⏱": 943,
      "⏲": 944,
      "⏳": 945,
      "③": 946,
      "④": 947,
      "⑤": 948,
      "⑩": 949,
      "ⓐ": 950,
      "ⓑ": 951,
      "ⓔ": 952,
      "ⓖ": 953,
      "ⓗ": 954,
      "ⓙ": 955,
      "ⓜ": 956,
      "ⓝ": 957,
      "ⓡ": 958,
      "ⓢ": 959,
      "⓿": 960,
      "─": 961,
      "━": 962,
      "│": 963,
      "┇": 964,
      "┈": 965,
      "┊": 966,
      "├": 967,
      "┤": 968,
      "┳": 969,
      "═": 970,
      "║": 971,
      "╗": 972,
      "╚": 973,
      "╠": 974,
      "╣": 975,
      "╫": 976,
      "╬": 977,
      "▁": 978,
      "▂": 979,
      "▃": 980,
      "▄": 981,
      "▅": 982,
      "▆": 983,
      "▇": 984,
      "█": 985,
      "▌": 986,
      "▐": 987,
      "░": 988,
      "▒": 989,
      "▓": 990,
      "■": 991,
      "□": 992,
      "▪": 993,
      "▫": 994,
      "▬": 995,
      "▲": 996,
      "△": 997,
      "▶": 998,
      "▷": 999,
      "▹": 1000,
      "►": 1001,
      "▻": 1002,
      "▼": 1003,
      "▾": 1004,
      "◀": 1005,
      "◁": 1006,
      "◃": 1007,
      "◄": 1008,
      "◅": 1009,
      "◆": 1010,
      "◇": 1011,
      "◈": 1012,
      "◉": 1013,
      "◊": 1014,
      "○": 1015,
      "●": 1016,
      "◐": 1017,
      "◕": 1018,
      "◙": 1019,
      "◠": 1020,
      "◡": 1021,
      "◢": 1022,
      "◣": 1023,
      "◤": 1024,
      "◥": 1025,
      "◦": 1026,
      "◻": 1027,
      "◼": 1028,
      "◽": 1029,
      "◾": 1030,
      "☀": 1031,
      "☁": 1032,
      "☂": 1033,
      "☄": 1034,
      "★": 1035,
      "☆": 1036,
      "☎": 1037,
      "☑": 1038,
      "☔": 1039,
      "☕": 1040,
      "☘": 1041,
      "☚": 1042,
      "☜": 1043,
      "☝": 1044,
      "☟": 1045,
      "☩": 1046,
      "☫": 1047,
      "☭": 1048,
      "☰": 1049,
      "☹": 1050,
      "☺": 1051,
      "☻": 1052,
      "☼": 1053,
      "☽": 1054,
      "♀": 1055,
      "♂": 1056,
      "♈": 1057,
      "♋": 1058,
      "♏": 1059,
      "♕": 1060,
      "♚": 1061,
      "♛": 1062,
      "♜": 1063,
      "♝": 1064,
      "♠": 1065,
      "♡": 1066,
      "♣": 1067,
      "♥": 1068,
      "♦": 1069,
      "♧": 1070,
      "♨": 1071,
      "♩": 1072,
      "♪": 1073,
      "♫": 1074,
      "♬": 1075,
      "♭": 1076,
      "♯": 1077,
      "♱": 1078,
      "♻": 1079,
      "⚑": 1080,
      "⚕": 1081,
      "⚘": 1082,
      "⚙": 1083,
      "⚛": 1084,
      "⚜": 1085,
      "⚠": 1086,
      "⚡": 1087,
      "⚪": 1088,
      "⚫": 1089,
      "⚽": 1090,
      "⛄": 1091,
      "⛔": 1092,
      "✂": 1093,
      "✅": 1094,
      "✈": 1095,
      "✉": 1096,
      "✊": 1097,
      "✋": 1098,
      "✌": 1099,
      "✍": 1100,
      "✒": 1101,
      "✓": 1102,
      "✔": 1103,
      "✕": 1104,
      "✖": 1105,
      "✗": 1106,
      "✘": 1107,
      "✞": 1108,
      "✤": 1109,
      "✦": 1110,
      "✨": 1111,
      "✪": 1112,
      "✫": 1113,
      "✮": 1114,
      "✰": 1115,
      "✳": 1116,
      "✴": 1117,
      "✶": 1118,
      "✺": 1119,
      "✾": 1120,
      "✿": 1121,
      "❀": 1122,
      "❁": 1123,
      "❃": 1124,
      "❄": 1125,
      "❇": 1126,
      "❈": 1127,
      "❊": 1128,
      "❋": 1129,
      "❌": 1130,
      "❎": 1131,
      "❓": 1132,
      "❔": 1133,
      "❖": 1134,
      "❗": 1135,
      "❝": 1136,
      "❞": 1137,
      "❣": 1138,
      "❤": 1139,
      "❥": 1140,
      "❦": 1141,
      "❶": 1142,
      "❹": 1143,
      "❺": 1144,
      "➉": 1145,
      "➊": 1146,
      "➋": 1147,
      "➌": 1148,
      "➍": 1149,
      "➎": 1150,
      "➏": 1151,
      "➐": 1152,
      "➑": 1153,
      "➕": 1154,
      "➖": 1155,
      "➡": 1156,
      "⟨": 1157,
      "⟸": 1158,
      "⠀": 1159,
      "⦁": 1160,
      "⬅": 1161,
      "⬇": 1162,
      "⭐": 1163,
      "⭕": 1164,
      "⮘": 1165,
      "Ɱ": 1166,
      "Ⲩ": 1167,
      "ⴔ": 1168,
      "ⵄ": 1169,
      "⸭": 1170,
      "、": 1171,
      "。": 1172,
      "〈": 1173,
      "〉": 1174,
      "《": 1175,
      "》": 1176,
      "「": 1177,
      "」": 1178,
      "『": 1179,
      "』": 1180,
      "【": 1181,
      "】": 1182,
      "〖": 1183,
      "〗": 1184,
      "〢": 1185,
      "〣": 1186,
      "〰": 1187,
      "〽": 1188,
      "い": 1189,
      "え": 1190,
      "お": 1191,
      "か": 1192,
      "し": 1193,
      "す": 1194,
      "せ": 1195,
      "た": 1196,
      "ち": 1197,
      "っ": 1198,
      "て": 1199,
      "と": 1200,
      "な": 1201,
      "に": 1202,
      "の": 1203,
      "は": 1204,
      "ま": 1205,
      "み": 1206,
      "め": 1207,
      "も": 1208,
      "ら": 1209,
      "り": 1210,
      "る": 1211,
      "れ": 1212,
      "わ": 1213,
      "ァ": 1214,
      "ア": 1215,
      "イ": 1216,
      "ウ": 1217,
      "エ": 1218,
      "ク": 1219,
      "ケ": 1220,
      "コ": 1221,
      "シ": 1222,
      "ス": 1223,
      "ソ": 1224,
      "ツ": 1225,
      "テ": 1226,
      "ニ": 1227,
      "ハ": 1228,
      "フ": 1229,
      "ホ": 1230,
      "マ": 1231,
      "ム": 1232,
      "メ": 1233,
      "ョ": 1234,
      "リ": 1235,
      "ル": 1236,
      "レ": 1237,
      "ロ": 1238,
      "ン": 1239,
      "・": 1240,
      "ー": 1241,
      "ㄏ": 1242,
      "ㄟ": 1243,
      "ㄨ": 1244,
      "㋡": 1245,
      "㎡": 1246,
      "㬮": 1247,
      "㵼": 1248,
      "㶀": 1249,
      "㷯": 1250,
      "㻆": 1251,
      "䂃": 1252,
      "䡆": 1253,
      "一": 1254,
      "丁": 1255,
      "上": 1256,
      "下": 1257,
      "与": 1258,
      "世": 1259,
      "业": 1260,
      "东": 1261,
      "中": 1262,
      "丰": 1263,
      "丹": 1264,
      "乇": 1265,
      "乐": 1266,
      "习": 1267,
      "了": 1268,
      "二": 1269,
      "亚": 1270,
      "代": 1271,
      "份": 1272,
      "伊": 1273,
      "伐": 1274,
      "会": 1275,
      "传": 1276,
      "伯": 1277,
      "伽": 1278,
      "体": 1279,
      "何": 1280,
      "來": 1281,
      "例": 1282,
      "侍": 1283,
      "便": 1284,
      "保": 1285,
      "僧": 1286,
      "克": 1287,
      "免": 1288,
      "全": 1289,
      "公": 1290,
      "兰": 1291,
      "兴": 1292,
      "典": 1293,
      "冊": 1294,
      "册": 1295,
      "凸": 1296,
      "利": 1297,
      "制": 1298,
      "前": 1299,
      "力": 1300,
      "动": 1301,
      "務": 1302,
      "化": 1303,
      "升": 1304,
      "単": 1305,
      "博": 1306,
      "卢": 1307,
      "印": 1308,
      "原": 1309,
      "友": 1310,
      "台": 1311,
      "号": 1312,
      "司": 1313,
      "吉": 1314,
      "名": 1315,
      "告": 1316,
      "呌": 1317,
      "和": 1318,
      "品": 1319,
      "商": 1320,
      "善": 1321,
      "嘉": 1322,
      "团": 1323,
      "围": 1324,
      "固": 1325,
      "国": 1326,
      "國": 1327,
      "地": 1328,
      "圳": 1329,
      "域": 1330,
      "基": 1331,
      "士": 1332,
      "大": 1333,
      "天": 1334,
      "奔": 1335,
      "妻": 1336,
      "威": 1337,
      "娜": 1338,
      "子": 1339,
      "学": 1340,
      "定": 1341,
      "宛": 1342,
      "实": 1343,
      "客": 1344,
      "家": 1345,
      "専": 1346,
      "小": 1347,
      "尔": 1348,
      "就": 1349,
      "尼": 1350,
      "山": 1351,
      "川": 1352,
      "巨": 1353,
      "市": 1354,
      "希": 1355,
      "年": 1356,
      "庆": 1357,
      "店": 1358,
      "度": 1359,
      "开": 1360,
      "式": 1361,
      "彦": 1362,
      "役": 1363,
      "德": 1364,
      "急": 1365,
      "息": 1366,
      "您": 1367,
      "情": 1368,
      "惠": 1369,
      "意": 1370,
      "成": 1371,
      "户": 1372,
      "手": 1373,
      "技": 1374,
      "拉": 1375,
      "挪": 1376,
      "搜": 1377,
      "改": 1378,
      "文": 1379,
      "斯": 1380,
      "新": 1381,
      "旅": 1382,
      "无": 1383,
      "日": 1384,
      "普": 1385,
      "智": 1386,
      "最": 1387,
      "有": 1388,
      "期": 1389,
      "本": 1390,
      "机": 1391,
      "来": 1392,
      "林": 1393,
      "查": 1394,
      "栏": 1395,
      "株": 1396,
      "械": 1397,
      "業": 1398,
      "機": 1399,
      "次": 1400,
      "武": 1401,
      "求": 1402,
      "汉": 1403,
      "江": 1404,
      "決": 1405,
      "沙": 1406,
      "法": 1407,
      "波": 1408,
      "注": 1409,
      "泰": 1410,
      "洛": 1411,
      "津": 1412,
      "浙": 1413,
      "浪": 1414,
      "消": 1415,
      "深": 1416,
      "港": 1417,
      "湖": 1418,
      "湿": 1419,
      "漫": 1420,
      "激": 1421,
      "灣": 1422,
      "热": 1423,
      "爱": 1424,
      "牙": 1425,
      "牛": 1426,
      "牧": 1427,
      "物": 1428,
      "特": 1429,
      "王": 1430,
      "玩": 1431,
      "班": 1432,
      "瑞": 1433,
      "瓦": 1434,
      "用": 1435,
      "田": 1436,
      "电": 1437,
      "界": 1438,
      "畜": 1439,
      "白": 1440,
      "的": 1441,
      "益": 1442,
      "看": 1443,
      "知": 1444,
      "础": 1445,
      "硼": 1446,
      "礫": 1447,
      "社": 1448,
      "祥": 1449,
      "科": 1450,
      "称": 1451,
      "空": 1452,
      "立": 1453,
      "第": 1454,
      "简": 1455,
      "篇": 1456,
      "簡": 1457,
      "米": 1458,
      "粧": 1459,
      "粵": 1460,
      "素": 1461,
      "索": 1462,
      "網": 1463,
      "繁": 1464,
      "绍": 1465,
      "统": 1466,
      "罗": 1467,
      "美": 1468,
      "翻": 1469,
      "聚": 1470,
      "聞": 1471,
      "股": 1472,
      "肮": 1473,
      "育": 1474,
      "胡": 1475,
      "自": 1476,
      "色": 1477,
      "芜": 1478,
      "芬": 1479,
      "花": 1480,
      "英": 1481,
      "茉": 1482,
      "荷": 1483,
      "莉": 1484,
      "莱": 1485,
      "蓝": 1486,
      "藤": 1487,
      "行": 1488,
      "褐": 1489,
      "西": 1490,
      "見": 1491,
      "言": 1492,
      "註": 1493,
      "語": 1494,
      "讀": 1495,
      "识": 1496,
      "译": 1497,
      "话": 1498,
      "语": 1499,
      "请": 1500,
      "课": 1501,
      "豹": 1502,
      "購": 1503,
      "贛": 1504,
      "贝": 1505,
      "费": 1506,
      "超": 1507,
      "跳": 1508,
      "車": 1509,
      "轉": 1510,
      "车": 1511,
      "轮": 1512,
      "载": 1513,
      "达": 1514,
      "过": 1515,
      "近": 1516,
      "送": 1517,
      "通": 1518,
      "速": 1519,
      "造": 1520,
      "里": 1521,
      "重": 1522,
      "野": 1523,
      "金": 1524,
      "鉄": 1525,
      "鑫": 1526,
      "锡": 1527,
      "門": 1528,
      "閱": 1529,
      "阿": 1530,
      "限": 1531,
      "陶": 1532,
      "集": 1533,
      "雷": 1534,
      "電": 1535,
      "音": 1536,
      "顺": 1537,
      "预": 1538,
      "频": 1539,
      "马": 1540,
      "體": 1541,
      "鸟": 1542,
      "鹅": 1543,
      "鹰": 1544,
      "麦": 1545,
      "ꞌ": 1546,
      "": 1547,
      "": 1548,
      "": 1549,
      "": 1550,
      "": 1551,
      "": 1552,
      "": 1553,
      "": 1554,
      "": 1555,
      "": 1556,
      "": 1557,
      "": 1558,
      "": 1559,
      "": 1560,
      "": 1561,
      "": 1562,
      "": 1563,
      "": 1564,
      "": 1565,
      "": 1566,
      "": 1567,
      "": 1568,
      "": 1569,
      "": 1570,
      "": 1571,
      "": 1572,
      "": 1573,
      "": 1574,
      "": 1575,
      "": 1576,
      "": 1577,
      "": 1578,
      "": 1579,
      "": 1580,
      "": 1581,
      "": 1582,
      "": 1583,
      "": 1584,
      "": 1585,
      "": 1586,
      "": 1587,
      "": 1588,
      "": 1589,
      "": 1590,
      "": 1591,
      "": 1592,
      "": 1593,
      "": 1594,
      "": 1595,
      "": 1596,
      "": 1597,
      "": 1598,
      "": 1599,
      "": 1600,
      "": 1601,
      "": 1602,
      "": 1603,
      "": 1604,
      "": 1605,
      "": 1606,
      "": 1607,
      "": 1608,
      "": 1609,
      "": 1610,
      "": 1611,
      "": 1612,
      "": 1613,
      "": 1614,
      "": 1615,
      "": 1616,
      "": 1617,
      "": 1618,
      "": 1619,
      "": 1620,
      "": 1621,
      "": 1622,
      "": 1623,
      "": 1624,
      "": 1625,
      "": 1626,
      "": 1627,
      "": 1628,
      "": 1629,
      "": 1630,
      "": 1631,
      "": 1632,
      "": 1633,
      "": 1634,
      "": 1635,
      "": 1636,
      "": 1637,
      "": 1638,
      "": 1639,
      "": 1640,
      "": 1641,
      "": 1642,
      "ﬁ": 1643,
      "ﭐ": 1644,
      "ﭑ": 1645,
      "ﭖ": 1646,
      "ﭗ": 1647,
      "ﭘ": 1648,
      "ﭙ": 1649,
      "ﭜ": 1650,
      "ﭝ": 1651,
      "ﭢ": 1652,
      "ﭺ": 1653,
      "ﭻ": 1654,
      "ﭼ": 1655,
      "ﭽ": 1656,
      "ﮊ": 1657,
      "ﮋ": 1658,
      "ﮎ": 1659,
      "ﮏ": 1660,
      "ﮐ": 1661,
      "ﮑ": 1662,
      "ﮒ": 1663,
      "ﮓ": 1664,
      "ﮔ": 1665,
      "ﮕ": 1666,
      "ﮗ": 1667,
      "ﮜ": 1668,
      "ﮥ": 1669,
      "ﮧ": 1670,
      "ﮩ": 1671,
      "ﮫ": 1672,
      "ﮭ": 1673,
      "ﮯ": 1674,
      "ﮱ": 1675,
      "﮼": 1676,
      "ﯗ": 1677,
      "ﯚ": 1678,
      "ﯼ": 1679,
      "ﯽ": 1680,
      "ﯾ": 1681,
      "ﯿ": 1682,
      "ﰲ": 1683,
      "ﱄ": 1684,
      "ﱪ": 1685,
      "ﱰ": 1686,
      "ﱵ": 1687,
      "ﲑ": 1688,
      "ﲡ": 1689,
      "ﲢ": 1690,
      "ﲰ": 1691,
      "ﳏ": 1692,
      "ﳒ": 1693,
      "ﳕ": 1694,
      "ﳘ": 1695,
      "ﴰ": 1696,
      "﴾": 1697,
      "﴿": 1698,
      "ﷲ": 1699,
      "ﷺ": 1700,
      "﷼": 1701,
      "﷽": 1702,
      "﹍": 1703,
      "ﹲ": 1704,
      "ﹼ": 1705,
      "ﺀ": 1706,
      "ﺁ": 1707,
      "ﺂ": 1708,
      "ﺄ": 1709,
      "ﺆ": 1710,
      "ﺋ": 1711,
      "ﺌ": 1712,
      "ﺍ": 1713,
      "ﺎ": 1714,
      "ﺏ": 1715,
      "ﺐ": 1716,
      "ﺑ": 1717,
      "ﺒ": 1718,
      "ﺓ": 1719,
      "ﺔ": 1720,
      "ﺕ": 1721,
      "ﺖ": 1722,
      "ﺗ": 1723,
      "ﺘ": 1724,
      "ﺙ": 1725,
      "ﺚ": 1726,
      "ﺛ": 1727,
      "ﺜ": 1728,
      "ﺝ": 1729,
      "ﺞ": 1730,
      "ﺟ": 1731,
      "ﺠ": 1732,
      "ﺡ": 1733,
      "ﺢ": 1734,
      "ﺣ": 1735,
      "ﺤ": 1736,
      "ﺥ": 1737,
      "ﺦ": 1738,
      "ﺧ": 1739,
      "ﺨ": 1740,
      "ﺩ": 1741,
      "ﺪ": 1742,
      "ﺫ": 1743,
      "ﺬ": 1744,
      "ﺭ": 1745,
      "ﺮ": 1746,
      "ﺯ": 1747,
      "ﺰ": 1748,
      "ﺱ": 1749,
      "ﺲ": 1750,
      "ﺳ": 1751,
      "ﺴ": 1752,
      "ﺵ": 1753,
      "ﺶ": 1754,
      "ﺷ": 1755,
      "ﺸ": 1756,
      "ﺹ": 1757,
      "ﺺ": 1758,
      "ﺻ": 1759,
      "ﺼ": 1760,
      "ﺽ": 1761,
      "ﺾ": 1762,
      "ﺿ": 1763,
      "ﻀ": 1764,
      "ﻁ": 1765,
      "ﻂ": 1766,
      "ﻃ": 1767,
      "ﻄ": 1768,
      "ﻅ": 1769,
      "ﻆ": 1770,
      "ﻇ": 1771,
      "ﻈ": 1772,
      "ﻉ": 1773,
      "ﻊ": 1774,
      "ﻋ": 1775,
      "ﻌ": 1776,
      "ﻍ": 1777,
      "ﻏ": 1778,
      "ﻐ": 1779,
      "ﻑ": 1780,
      "ﻒ": 1781,
      "ﻓ": 1782,
      "ﻔ": 1783,
      "ﻕ": 1784,
      "ﻖ": 1785,
      "ﻗ": 1786,
      "ﻘ": 1787,
      "ﻙ": 1788,
      "ﻚ": 1789,
      "ﻛ": 1790,
      "ﻜ": 1791,
      "ﻝ": 1792,
      "ﻞ": 1793,
      "ﻟ": 1794,
      "ﻠ": 1795,
      "ﻡ": 1796,
      "ﻢ": 1797,
      "ﻣ": 1798,
      "ﻤ": 1799,
      "ﻥ": 1800,
      "ﻦ": 1801,
      "ﻧ": 1802,
      "ﻨ": 1803,
      "ﻩ": 1804,
      "ﻪ": 1805,
      "ﻫ": 1806,
      "ﻬ": 1807,
      "ﻭ": 1808,
      "ﻮ": 1809,
      "ﻯ": 1810,
      "ﻰ": 1811,
      "ﻱ": 1812,
      "ﻲ": 1813,
      "ﻳ": 1814,
      "ﻴ": 1815,
      "ﻵ": 1816,
      "ﻷ": 1817,
      "ﻻ": 1818,
      "ﻼ": 1819,
      "﻿": 1820,
      "（": 1821,
      "）": 1822,
      "，": 1823,
      "１": 1824,
      "２": 1825,
      "３": 1826,
      "４": 1827,
      "：": 1828,
      "Ｅ": 1829,
      "Ｆ": 1830,
      "Ｈ": 1831,
      "Ｏ": 1832,
      "Ｐ": 1833,
      "ｌ": 1834,
      "ｏ": 1835,
      "ｓ": 1836,
      "ｕ": 1837,
      "ｗ": 1838,
      "･": 1839,
      "ﾮ": 1840,
      "￼": 1841,
      "�": 1842,
      "🅱": 1843,
      "🅾": 1844,
      "🆔": 1845,
      "🇦": 1846,
      "🇧": 1847,
      "🇨": 1848,
      "🇩": 1849,
      "🇪": 1850,
      "🇫": 1851,
      "🇬": 1852,
      "🇮": 1853,
      "🇯": 1854,
      "🇰": 1855,
      "🇱": 1856,
      "🇳": 1857,
      "🇴": 1858,
      "🇵": 1859,
      "🇷": 1860,
      "🇸": 1861,
      "🇹": 1862,
      "🇺": 1863,
      "🇻": 1864,
      "🌈": 1865,
      "🌋": 1866,
      "🌍": 1867,
      "🌎": 1868,
      "🌏": 1869,
      "🌐": 1870,
      "🌔": 1871,
      "🌕": 1872,
      "🌙": 1873,
      "🌞": 1874,
      "🌟": 1875,
      "🌪": 1876,
      "🌮": 1877,
      "🌱": 1878,
      "🌲": 1879,
      "🌳": 1880,
      "🌵": 1881,
      "🌶": 1882,
      "🌷": 1883,
      "🌸": 1884,
      "🌹": 1885,
      "🌺": 1886,
      "🌻": 1887,
      "🌼": 1888,
      "🌾": 1889,
      "🌿": 1890,
      "🍀": 1891,
      "🍁": 1892,
      "🍂": 1893,
      "🍃": 1894,
      "🍄": 1895,
      "🍇": 1896,
      "🍉": 1897,
      "🍊": 1898,
      "🍋": 1899,
      "🍌": 1900,
      "🍎": 1901,
      "🍏": 1902,
      "🍒": 1903,
      "🍓": 1904,
      "🍔": 1905,
      "🍕": 1906,
      "🍖": 1907,
      "🍗": 1908,
      "🍚": 1909,
      "🍛": 1910,
      "🍦": 1911,
      "🍨": 1912,
      "🍩": 1913,
      "🍭": 1914,
      "🍰": 1915,
      "🍲": 1916,
      "🍳": 1917,
      "🍹": 1918,
      "🍽": 1919,
      "🎀": 1920,
      "🎁": 1921,
      "🎂": 1922,
      "🎃": 1923,
      "🎆": 1924,
      "🎉": 1925,
      "🎊": 1926,
      "🎒": 1927,
      "🎓": 1928,
      "🎙": 1929,
      "🎞": 1930,
      "🎤": 1931,
      "🎥": 1932,
      "🎧": 1933,
      "🎨": 1934,
      "🎬": 1935,
      "🎭": 1936,
      "🎵": 1937,
      "🎶": 1938,
      "🎷": 1939,
      "🎸": 1940,
      "🎹": 1941,
      "🎻": 1942,
      "🎼": 1943,
      "🏃": 1944,
      "🏆": 1945,
      "🏒": 1946,
      "🏘": 1947,
      "🏞": 1948,
      "🏠": 1949,
      "🏡": 1950,
      "🏨": 1951,
      "🏰": 1952,
      "🏳": 1953,
      "🏴": 1954,
      "🏵": 1955,
      "🏷": 1956,
      "🏻": 1957,
      "🏼": 1958,
      "🏽": 1959,
      "🏾": 1960,
      "🏿": 1961,
      "🐓": 1962,
      "🐝": 1963,
      "🐟": 1964,
      "🐩": 1965,
      "🐰": 1966,
      "👀": 1967,
      "👁": 1968,
      "👂": 1969,
      "👆": 1970,
      "👇": 1971,
      "👈": 1972,
      "👉": 1973,
      "👊": 1974,
      "👋": 1975,
      "👌": 1976,
      "👍": 1977,
      "👎": 1978,
      "👏": 1979,
      "👐": 1980,
      "👑": 1981,
      "👕": 1982,
      "👖": 1983,
      "👗": 1984,
      "👚": 1985,
      "👜": 1986,
      "👞": 1987,
      "👠": 1988,
      "👣": 1989,
      "👤": 1990,
      "👥": 1991,
      "👦": 1992,
      "👧": 1993,
      "👨": 1994,
      "👩": 1995,
      "👪": 1996,
      "👫": 1997,
      "👬": 1998,
      "👭": 1999,
      "👮": 2000,
      "👰": 2001,
      "👱": 2002,
      "👳": 2003,
      "👴": 2004,
      "👵": 2005,
      "👶": 2006,
      "👹": 2007,
      "👻": 2008,
      "💄": 2009,
      "💇": 2010,
      "💈": 2011,
      "💉": 2012,
      "💊": 2013,
      "💋": 2014,
      "💍": 2015,
      "💎": 2016,
      "💐": 2017,
      "💑": 2018,
      "💓": 2019,
      "💔": 2020,
      "💕": 2021,
      "💖": 2022,
      "💗": 2023,
      "💘": 2024,
      "💙": 2025,
      "💚": 2026,
      "💛": 2027,
      "💜": 2028,
      "💝": 2029,
      "💞": 2030,
      "💟": 2031,
      "💠": 2032,
      "💡": 2033,
      "💢": 2034,
      "💣": 2035,
      "💥": 2036,
      "💪": 2037,
      "💫": 2038,
      "💬": 2039,
      "💭": 2040,
      "💯": 2041,
      "💰": 2042,
      "💳": 2043,
      "💵": 2044,
      "💷": 2045,
      "💸": 2046,
      "💻": 2047,
      "💼": 2048,
      "📄": 2049,
      "📅": 2050,
      "📈": 2051,
      "📉": 2052,
      "📊": 2053,
      "📋": 2054,
      "📌": 2055,
      "📍": 2056,
      "📑": 2057,
      "📒": 2058,
      "📕": 2059,
      "📖": 2060,
      "📗": 2061,
      "📘": 2062,
      "📙": 2063,
      "📚": 2064,
      "📛": 2065,
      "📜": 2066,
      "📝": 2067,
      "📞": 2068,
      "📡": 2069,
      "📢": 2070,
      "📣": 2071,
      "📤": 2072,
      "📥": 2073,
      "📦": 2074,
      "📧": 2075,
      "📬": 2076,
      "📰": 2077,
      "📱": 2078,
      "📲": 2079,
      "📳": 2080,
      "📷": 2081,
      "📸": 2082,
      "📼": 2083,
      "📿": 2084,
      "🔁": 2085,
      "🔃": 2086,
      "🔄": 2087,
      "🔅": 2088,
      "🔆": 2089,
      "🔈": 2090,
      "🔉": 2091,
      "🔊": 2092,
      "🔌": 2093,
      "🔍": 2094,
      "🔔": 2095,
      "🔖": 2096,
      "🔗": 2097,
      "🔣": 2098,
      "🔤": 2099,
      "🔥": 2100,
      "🔧": 2101,
      "🔩": 2102,
      "🔬": 2103,
      "🔯": 2104,
      "🔰": 2105,
      "🔳": 2106,
      "🔴": 2107,
      "🔵": 2108,
      "🔶": 2109,
      "🔷": 2110,
      "🔸": 2111,
      "🔹": 2112,
      "🔺": 2113,
      "🔻": 2114,
      "🕊": 2115,
      "🕐": 2116,
      "🕒": 2117,
      "🕖": 2118,
      "🕠": 2119,
      "🕢": 2120,
      "🕪": 2121,
      "🕶": 2122,
      "🕷": 2123,
      "🖋": 2124,
      "🖍": 2125,
      "🖐": 2126,
      "🖕": 2127,
      "🖖": 2128,
      "🖤": 2129,
      "🖥": 2130,
      "🗄": 2131,
      "🗐": 2132,
      "🗓": 2133,
      "🗨": 2134,
      "😀": 2135,
      "😁": 2136,
      "😂": 2137,
      "😃": 2138,
      "😄": 2139,
      "😅": 2140,
      "😆": 2141,
      "😇": 2142,
      "😈": 2143,
      "😉": 2144,
      "😊": 2145,
      "😋": 2146,
      "😌": 2147,
      "😍": 2148,
      "😎": 2149,
      "😏": 2150,
      "😐": 2151,
      "😑": 2152,
      "😒": 2153,
      "😓": 2154,
      "😔": 2155,
      "😕": 2156,
      "😖": 2157,
      "😗": 2158,
      "😘": 2159,
      "😙": 2160,
      "😚": 2161,
      "😛": 2162,
      "😜": 2163,
      "😝": 2164,
      "😞": 2165,
      "😟": 2166,
      "😠": 2167,
      "😡": 2168,
      "😢": 2169,
      "😣": 2170,
      "😤": 2171,
      "😥": 2172,
      "😦": 2173,
      "😨": 2174,
      "😩": 2175,
      "😪": 2176,
      "😫": 2177,
      "😬": 2178,
      "😭": 2179,
      "😮": 2180,
      "😯": 2181,
      "😰": 2182,
      "😱": 2183,
      "😲": 2184,
      "😳": 2185,
      "😴": 2186,
      "😵": 2187,
      "😶": 2188,
      "😷": 2189,
      "😹": 2190,
      "😻": 2191,
      "🙁": 2192,
      "🙂": 2193,
      "🙃": 2194,
      "🙄": 2195,
      "🙇": 2196,
      "🙈": 2197,
      "🙉": 2198,
      "🙊": 2199,
      "🙋": 2200,
      "🙌": 2201,
      "🙏": 2202,
      "🚅": 2203,
      "🚇": 2204,
      "🚈": 2205,
      "🚕": 2206,
      "🚗": 2207,
      "🚙": 2208,
      "🚚": 2209,
      "🚛": 2210,
      "🚦": 2211,
      "🚨": 2212,
      "🚩": 2213,
      "🚫": 2214,
      "🚬": 2215,
      "🚼": 2216,
      "🛋": 2217,
      "🛑": 2218,
      "🛠": 2219,
      "🛡": 2220,
      "🛫": 2221,
      "🤍": 2222,
      "🤒": 2223,
      "🤓": 2224,
      "🤔": 2225,
      "🤕": 2226,
      "🤗": 2227,
      "🤚": 2228,
      "🤠": 2229,
      "🤣": 2230,
      "🤦": 2231,
      "🤨": 2232,
      "🤩": 2233,
      "🤬": 2234,
      "🤭": 2235,
      "🤲": 2236,
      "🤴": 2237,
      "🤼": 2238,
      "🥗": 2239,
      "🥘": 2240,
      "🥪": 2241,
      "🥫": 2242,
      "🥰": 2243,
      "🥺": 2244,
      "🦀": 2245,
      "🦂": 2246,
      "🦅": 2247,
      "🦉": 2248,
      "🦋": 2249,
      "🦸": 2250,
      "🧐": 2251,
      "🧙": 2252,
      "🧡": 2253,
      "🧳": 2254,
      "##i": 2255,
      "##R": 2256,
      "##N": 2257,
      "##A": 2258,
      "##s": 2259,
      "##س": 2260,
      "##ی": 2261,
      "##ل": 2262,
      "##خ": 2263,
      "##ر": 2264,
      "##ه": 2265,
      "##ن": 2266,
      "##گ": 2267,
      "##6": 2268,
      "##ـ": 2269,
      "##2": 2270,
      "##0": 2271,
      "##5": 2272,
      "##T": 2273,
      "##E": 2274,
      "##M": 2275,
      "##ت": 2276,
      "##‌": 2277,
      "##ا": 2278,
      "##د": 2279,
      "##ک": 2280,
      "##۳": 2281,
      "##۰": 2282,
      "##ذ": 2283,
      "##۹": 2284,
      "##و": 2285,
      "##ش": 2286,
      "##م": 2287,
      "##a": 2288,
      "##k": 2289,
      "##e": 2290,
      "##t": 2291,
      "##1": 2292,
      "##9": 2293,
      "##r": 2294,
      "##n": 2295,
      "##g": 2296,
      "##h": 2297,
      "##ﺎ": 2298,
      "##ﻟ": 2299,
      "##ﻚ": 2300,
      "##ي": 2301,
      "##پ": 2302,
      "##ز": 2303,
      "##8": 2304,
      "##v": 2305,
      "##4": 2306,
      "##غ": 2307,
      "##۵": 2308,
      "##ث": 2309,
      "##ب": 2310,
      "##ە": 2311,
      "##ڵ": 2312,
      "##ق": 2313,
      "##O": 2314,
      "##H": 2315,
      "##c": 2316,
      "##l": 2317,
      "##p": 2318,
      "##u": 2319,
      "##۶": 2320,
      "##۸": 2321,
      "##۴": 2322,
      "##۲": 2323,
      "##¢": 2324,
      "##Ø": 2325,
      "##³": 2326,
      "##U": 2327,
      "##Œ": 2328,
      "##¨": 2329,
      "##€": 2330,
      "##ك": 2331,
      "##ﻠ": 2332,
      "##ﻮ": 2333,
      "##ھ": 2334,
      "##Y": 2335,
      "##B": 2336,
      "##o": 2337,
      "##y": 2338,
      "##😂": 2339,
      "##😪": 2340,
      "##ح": 2341,
      "##ۆ": 2342,
      "##۱": 2343,
      "##C": 2344,
      "##d": 2345,
      "##ج": 2346,
      "##ى": 2347,
      "##ع": 2348,
      "##b": 2349,
      "##ڕ": 2350,
      "##3": 2351,
      "##I": 2352,
      "##m": 2353,
      "##ض": 2354,
      "##‎": 2355,
      "##w": 2356,
      "##f": 2357,
      "##ێ": 2358,
      "##ژ": 2359,
      "##L": 2360,
      "##7": 2361,
      "##S": 2362,
      "##­": 2363,
      "##x": 2364,
      "##‏": 2365,
      "##ص": 2366,
      "##ف": 2367,
      "##۷": 2368,
      "##چ": 2369,
      "##ط": 2370,
      "##X": 2371,
      "##Z": 2372,
      "##V": 2373,
      "##ﺴ": 2374,
      "##ﻴ": 2375,
      "##ﻢ": 2376,
      "##ı": 2377,
      "##ﯾ": 2378,
      "##ﯽ": 2379,
      "##F": 2380,
      "##W": 2381,
      "##P": 2382,
      "##‍": 2383,
      "##D": 2384,
      "##G": 2385,
      "##ظ": 2386,
      "##ة": 2387,
      "##z": 2388,
      "##т": 2389,
      "##о": 2390,
      "##ﺰ": 2391,
      "##ء": 2392,
      "##٢": 2393,
      "##٨": 2394,
      "##ﺩ": 2395,
      "##ﮔ": 2396,
      "##ﺮ": 2397,
      "##ﻱ": 2398,
      "##ﻳ": 2399,
      "##ﻦ": 2400,
      "##ﻧ": 2401,
      "##ﻣ": 2402,
      "##ﻪ": 2403,
      "##ﻫ": 2404,
      "##j": 2405,
      "##J": 2406,
      "##K": 2407,
      "##ﺷ": 2408,
      "##ﻨ": 2409,
      "##ﺳ": 2410,
      "##ﻲ": 2411,
      "##‭": 2412,
      "##🍒": 2413,
      "##‮": 2414,
      "##q": 2415,
      "##ﻔ": 2416,
      "##ﺗ": 2417,
      "##ﯿ": 2418,
      "##ﮏ": 2419,
      "##п": 2420,
      "##ы": 2421,
      "##н": 2422,
      "##е": 2423,
      "##ﺟ": 2424,
      "##ﻼ": 2425,
      "##×": 2426,
      "##Q": 2427,
      "##ﺸ": 2428,
      "##ﻥ": 2429,
      "##°": 2430,
      "##ﺣ": 2431,
      "##👍": 2432,
      "##�": 2433,
      "##˚": 2434,
      "##⁦": 2435,
      "##❤": 2436,
      "##⁩": 2437,
      "##ﯼ": 2438,
      "##ے": 2439,
      "##©": 2440,
      "##±": 2441,
      "##ˈ": 2442,
      "##ﻓ": 2443,
      "##ﻞ": 2444,
      "##💕": 2445,
      "##١": 2446,
      "##☆": 2447,
      "##♡": 2448,
      "##ﺠ": 2449,
      "##٠": 2450,
      "##٤": 2451,
      "##٣": 2452,
      "##ﻤ": 2453,
      "##٧": 2454,
      "##㋡": 2455,
      "##ﻗ": 2456,
      "##ﻯ": 2457,
      "##🌙": 2458,
      "##ﮋ": 2459,
      "##ﻜ": 2460,
      "##ﻌ": 2461,
      "##ﺘ": 2462,
      "##ﻘ": 2463,
      "##ﺪ": 2464,
      "##ﻬ": 2465,
      "##ﻡ": 2466,
      "##ﺑ": 2467,
      "##ﺖ": 2468,
      "##ﺯ": 2469,
      "##ﺭ": 2470,
      "##ﮓ": 2471,
      "##ﺶ": 2472,
      "##​": 2473,
      "##ᅵ": 2474,
      "##ᆫ": 2475,
      "##ᄃ": 2476,
      "##ᅩ": 2477,
      "##ᄂ": 2478,
      "##ᅦ": 2479,
      "##ᄉ": 2480,
      "##ᄋ": 2481,
      "##ᅡ": 2482,
      "##ᅳ": 2483,
      "##ڤ": 2484,
      "##⏰": 2485,
      "##ﻛ": 2486,
      "##ﺍ": 2487,
      "##ہ": 2488,
      "##♥": 2489,
      "##‬": 2490,
      "##٥": 2491,
      "##٩": 2492,
      "##ﺵ": 2493,
      "##ﺤ": 2494,
      "##ﺕ": 2495,
      "##ﺼ": 2496,
      "##ﻄ": 2497,
      "##ﺁ": 2498,
      "##˜": 2499,
      "##®": 2500,
      "##ª": 2501,
      "##ﺲ": 2502,
      "##ﺨ": 2503,
      "##ค": 2504,
      "##ຖ": 2505,
      "##໐": 2506,
      "##๓": 2507,
      "##ﮕ": 2508,
      "##▁": 2509,
      "##▂": 2510,
      "##▃": 2511,
      "##▄": 2512,
      "##▅": 2513,
      "##▆": 2514,
      "##▇": 2515,
      "##█": 2516,
      "##▓": 2517,
      "##★": 2518,
      "##💐": 2519,
      "##🌸": 2520,
      "##р": 2521,
      "##б": 2522,
      "##у": 2523,
      "##г": 2524,
      "##ﻩ": 2525,
      "##": 2526,
      "##П": 2527,
      "##л": 2528,
      "##и": 2529,
      "##к": 2530,
      "##а": 2531,
      "##ﮐ": 2532,
      "##ﭘ": 2533,
      "##₃": 2534,
      "##₉": 2535,
      "##ﮑ": 2536,
      "##↑": 2537,
      "##ﻒ": 2538,
      "##٦": 2539,
      "##": 2540,
      "##ȿ": 2541,
      "##": 2542,
      "##º": 2543,
      "##ﻐ": 2544,
      "##ﺧ": 2545,
      "##ﻃ": 2546,
      "##ﺢ": 2547,
      "##ᴀ": 2548,
      "##ʀ": 2549,
      "##ʜ": 2550,
      "##ɴ": 2551,
      "##ɢ": 2552,
      "##¬": 2553,
      "##✨": 2554,
      "##ﺒ": 2555,
      "##∪": 2556,
      "##ﻭ": 2557,
      "##ъ": 2558,
      "##с": 2559,
      "##☺": 2560,
      "##◇": 2561,
      "##◆": 2562,
      "##ڷ": 2563,
      "##д": 2564,
      "##я": 2565,
      "##ﭽ": 2566,
      "##з": 2567,
      "##ь": 2568,
      "##в": 2569,
      "##ۊ": 2570,
      "##ې": 2571,
      "##ᅮ": 2572,
      "##ᄆ": 2573,
      "##ט": 2574,
      "##᧐": 2575,
      "##💪": 2576,
      "##ﺝ": 2577,
      "##В": 2578,
      "##ᆷ": 2579,
      "##ᅣ": 2580,
      "##ᆼ": 2581,
      "##ᄌ": 2582,
      "##ﻻ": 2583,
      "##❗": 2584,
      "##ﻏ": 2585,
      "##✤": 2586,
      "##‫": 2587,
      "##ﺐ": 2588,
      "##х": 2589,
      "##😴": 2590,
      "##²": 2591,
      "##😀": 2592,
      "##ﭼ": 2593,
      "##➡": 2594,
      "##™": 2595,
      "##ﻋ": 2596,
      "##አ": 2597,
      "##ማ": 2598,
      "##ር": 2599,
      "##ኛ": 2600,
      "##👌": 2601,
      "##🏻": 2602,
      "##ڑ": 2603,
      "##ڪ": 2604,
      "##อ": 2605,
      "##ย": 2606,
      "##แ": 2607,
      "##ส": 2608,
      "##ง": 2609,
      "##ก": 2610,
      "##า": 2611,
      "##ญ": 2612,
      "##จ": 2613,
      "##น": 2614,
      "##中": 2615,
      "##文": 2616,
      "##ۇ": 2617,
      "##ж": 2618,
      "##´": 2619,
      "##✅": 2620,
      "##¾": 2621,
      "##": 2622,
      "##": 2623,
      "##ﺌ": 2624,
      "##¹": 2625,
      "##¯": 2626,
      "##ۃ": 2627,
      "##ﻇ": 2628,
      "##ګ": 2629,
      "##У": 2630,
      "##і": 2631,
      "##ڭ": 2632,
      "##ﺏ": 2633,
      "##ں": 2634,
      "##": 2635,
      "##ß": 2636,
      "##ﺻ": 2637,
      "##۩": 2638,
      "##⇔": 2639,
      "##👰": 2640,
      "##🎁": 2641,
      "##💄": 2642,
      "##👜": 2643,
      "##👚": 2644,
      "##👠": 2645,
      "##👗": 2646,
      "##🤍": 2647,
      "##ʿ": 2648,
      "##α": 2649,
      "##Ł": 2650,
      "##ᴏ": 2651,
      "##ʟ": 2652,
      "##ᴡ": 2653,
      "##ﺛ": 2654,
      "##🇫": 2655,
      "##ﻊ": 2656,
      "##ﺿ": 2657,
      "##э": 2658,
      "##ﭗ": 2659,
      "##💫": 2660,
      "##✔": 2661,
      "##←": 2662,
      "##ﺜ": 2663,
      "##🙏": 2664,
      "##ᴅ": 2665,
      "##ﭻ": 2666,
      "##ˮ": 2667,
      "##ﺺ": 2668,
      "##●": 2669,
      "##▪": 2670,
      "##😍": 2671,
      "##☎": 2672,
      "##⁄": 2673,
      "##ዛ": 2674,
      "##🌷": 2675,
      "##♛": 2676,
      "##﻿": 2677,
      "##🌹": 2678,
      "##ท": 2679,
      "##ﺡ": 2680,
      "##ø": 2681,
      "##ш": 2682,
      "##ц": 2683,
      "##日": 2684,
      "##本": 2685,
      "##語": 2686,
      "##ქ": 2687,
      "##ა": 2688,
      "##რ": 2689,
      "##თ": 2690,
      "##უ": 2691,
      "##ლ": 2692,
      "##ი": 2693,
      "##Қ": 2694,
      "##қ": 2695,
      "##ᄒ": 2696,
      "##ᄀ": 2697,
      "##ᆨ": 2698,
      "##ᅥ": 2699,
      "##М": 2700,
      "##": 2701,
      "##😐": 2702,
      "##ۋ": 2703,
      "##ډ": 2704,
      "##ᆸ": 2705,
      "##ᆯ": 2706,
      "##🍃": 2707,
      "##🍂": 2708,
      "##🍁": 2709,
      "##☁": 2710,
      "##☔": 2711,
      "##ﺱ": 2712,
      "##♪": 2713,
      "##ﻑ": 2714,
      "##⚘": 2715,
      "##ਪ": 2716,
      "##ਜ": 2717,
      "##ਬ": 2718,
      "##Р": 2719,
      "##С": 2720,
      "##⁯": 2721,
      "##😊": 2722,
      "##ﺔ": 2723,
      "##ה": 2724,
      "##ר": 2725,
      "##ש": 2726,
      "##מ": 2727,
      "##м": 2728,
      "##✋": 2729,
      "##Ε": 2730,
      "##λ": 2731,
      "##η": 2732,
      "##ν": 2733,
      "##ι": 2734,
      "##κ": 2735,
      "##˝": 2736,
      "##ﻀ": 2737,
      "##💳": 2738,
      "##♣": 2739,
      "##🌺": 2740,
      "##‪": 2741,
      "##と": 2742,
      "##い": 2743,
      "##っ": 2744,
      "##て": 2745,
      "##も": 2746,
      "##🔉": 2747,
      "##🔊": 2748,
      "##И": 2749,
      "##Т": 2750,
      "##ٹ": 2751,
      "##Ξ": 2752,
      "##║": 2753,
      "##⭕": 2754,
      "##മ": 2755,
      "##ല": 2756,
      "##യ": 2757,
      "##ള": 2758,
      "##ﻰ": 2759,
      "##😟": 2760,
      "##🔴": 2761,
      "##◦": 2762,
      "##ː": 2763,
      "##ˏ": 2764,
      "##ω": 2765,
      "##ł": 2766,
      "##ч": 2767,
      "##►": 2768,
      "##🚨": 2769,
      "##ﭙ": 2770,
      "##ल": 2771,
      "##व": 2772,
      "##र": 2773,
      "##🌟": 2774,
      "##œ": 2775,
      "##¦": 2776,
      "##ᄅ": 2777,
      "##務": 2778,
      "##用": 2779,
      "##エ": 2780,
      "##ア": 2781,
      "##コ": 2782,
      "##ン": 2783,
      "##♬": 2784,
      "##▒": 2785,
      "##😁": 2786,
      "##": 2787,
      "##Δ": 2788,
      "##育": 2789,
      "##注": 2790,
      "##册": 2791,
      "##就": 2792,
      "##送": 2793,
      "##ב": 2794,
      "##ל": 2795,
      "##👏": 2796,
      "##\u0001": 2797,
      "##ﮭ": 2798,
      "##ۈ": 2799,
      "##ɱ": 2800,
      "##ʘ": 2801,
      "##ɦ": 2802,
      "##ֆ": 2803,
      "##ℯ": 2804,
      "##ɳ": 2805,
      "##♕": 2806,
      "##Α": 2807,
      "##Æ": 2808,
      "##→": 2809,
      "##🌿": 2810,
      "##ю": 2811,
      "##ﻍ": 2812,
      "##۞": 2813,
      "##ஜ": 2814,
      "##👉": 2815,
      "##ﻁ": 2816,
      "##⇓": 2817,
      "##◾": 2818,
      "##◻": 2819,
      "##ғ": 2820,
      "##ә": 2821,
      "##ړ": 2822,
      "##இ": 2823,
      "##🏨": 2824,
      "##\u001e": 2825,
      "##ᄎ": 2826,
      "##👇": 2827,
      "##ﮊ": 2828,
      "##😅": 2829,
      "##💜": 2830,
      "##כ": 2831,
      "##ร": 2832,
      "##เ": 2833,
      "##ว": 2834,
      "##😑": 2835,
      "##ﺹ": 2836,
      "##💋": 2837,
      "##ݪ": 2838,
      "##ﺋ": 2839,
      "##ˆ": 2840,
      "##ա": 2841,
      "##յ": 2842,
      "##ե": 2843,
      "##ր": 2844,
      "##ն": 2845,
      "##ｏ": 2846,
      "##ｌ": 2847,
      "##ｗ": 2848,
      "##⓿": 2849,
      "##❶": 2850,
      "##ﮧ": 2851,
      "##ə": 2852,
      "##Б": 2853,
      "##一": 2854,
      "##篇": 2855,
      "##◣": 2856,
      "##◥": 2857,
      "##😢": 2858,
      "##פ": 2859,
      "##ﻂ": 2860,
      "##ᅢ": 2861,
      "##ᅭ": 2862,
      "##😣": 2863,
      "##ﻖ": 2864,
      "##ф": 2865,
      "##ﻈ": 2866,
      "##ŋ": 2867,
      "##≈": 2868,
      "##ღ": 2869,
      "##🇪": 2870,
      "##ۉ": 2871,
      "##ƒ": 2872,
      "##ð": 2873,
      "##½": 2874,
      "##ﮫ": 2875,
      "##ꞌ": 2876,
      "##👦": 2877,
      "##👧": 2878,
      "##👨": 2879,
      "##👩": 2880,
      "##👱": 2881,
      "##🏽": 2882,
      "##♀": 2883,
      "##👴": 2884,
      "##🏼": 2885,
      "##👵": 2886,
      "##👳": 2887,
      "##Ω": 2888,
      "##💞": 2889,
      "##贛": 2890,
      "##ע": 2891,
      "##י": 2892,
      "##ת": 2893,
      "##Հ": 2894,
      "##💙": 2895,
      "##ℐ": 2896,
      "##ℒ": 2897,
      "##Ð": 2898,
      "##ᆭ": 2899,
      "##😳": 2900,
      "##👭": 2901,
      "##✿": 2902,
      "##ﻅ": 2903,
      "##↪": 2904,
      "##🗨": 2905,
      "##💚": 2906,
      "##🧡": 2907,
      "##💛": 2908,
      "##ᅱ": 2909,
      "##卢": 2910,
      "##固": 2911,
      "##语": 2912,
      "##🌱": 2913,
      "##£": 2914,
      "##ο": 2915,
      "##ρ": 2916,
      "##ﺬ": 2917,
      "##😘": 2918,
      "##陶": 2919,
      "##宛": 2920,
      "##😃": 2921,
      "##💈": 2922,
      "##✂": 2923,
      "##⭐": 2924,
      "##👑": 2925,
      "##み": 2926,
      "##╠": 2927,
      "##📝": 2928,
      "##㷯": 2929,
      "##名": 2930,
      "##称": 2931,
      "##決": 2932,
      "##定": 2933,
      "##💖": 2934,
      "##✌": 2935,
      "##👀": 2936,
      "##🍀": 2937,
      "##₇": 2938,
      "##О": 2939,
      "##Л": 2940,
      "##ፋ": 2941,
      "##µ": 2942,
      "##😒": 2943,
      "##🙇": 2944,
      "##🍗": 2945,
      "##": 2946,
      "##ह": 2947,
      "##न": 2948,
      "##द": 2949,
      "##ˇ": 2950,
      "##☂": 2951,
      "##ञ": 2952,
      "##ज": 2953,
      "##➕": 2954,
      "##费": 2955,
      "##下": 2956,
      "##载": 2957,
      "##的": 2958,
      "##🤦": 2959,
      "##🎸": 2960,
      "##🍔": 2961,
      "##ﻝ": 2962,
      "##ﺄ": 2963,
      "##æ": 2964,
      "##ɨ": 2965,
      "##\b": 2966,
      "##⁮": 2967,
      "##є": 2968,
      "##Ѻ": 2969,
      "##○": 2970,
      "##ڈ": 2971,
      "##粧": 2972,
      "##か": 2973,
      "##簡": 2974,
      "##単": 2975,
      "##に": 2976,
      "##す": 2977,
      "##ま": 2978,
      "##せ": 2979,
      "##ら": 2980,
      "##れ": 2981,
      "##る": 2982,
      "##便": 2983,
      "##利": 2984,
      "##な": 2985,
      "##メ": 2986,
      "##イ": 2987,
      "##ク": 2988,
      "##品": 2989,
      "##言": 2990,
      "##え": 2991,
      "##は": 2992,
      "##🤣": 2993,
      "##😭": 2994,
      "##🇦": 2995,
      "##体": 2996,
      "##🌐": 2997,
      "##🔧": 2998,
      "##ﮥ": 2999,
      "##⚠": 3000,
      "##🔥": 3001,
      "##习": 3002,
      "##第": 3003,
      "##二": 3004,
      "##─": 3005,
      "##\u0018": 3006,
      "##ၐ": 3007,
      "##": 3008,
      "##ݩ": 3009,
      "##ս": 3010,
      "##ﺆ": 3011,
      "##ѳ": 3012,
      "##ɑ": 3013,
      "##ʝ": 3014,
      "##♠": 3015,
      "##🖤": 3016,
      "##ﻆ": 3017,
      "##≤": 3018,
      "##┊": 3019,
      "##¸": 3020,
      "##ښ": 3021,
      "##牛": 3022,
      "##跳": 3023,
      "##升": 3024,
      "##超": 3025,
      "##过": 3026,
      "##白": 3027,
      "##色": 3028,
      "##围": 3029,
      "##栏": 3030,
      "##乐": 3031,
      "##动": 3032,
      "##开": 3033,
      "##户": 3034,
      "##த": 3035,
      "##ம": 3036,
      "##ழ": 3037,
      "##ไ": 3038,
      "##ʻ": 3039,
      "##β": 3040,
      "##👐": 3041,
      "##◡": 3042,
      "##≦": 3043,
      "##🌵": 3044,
      "##ٴ": 3045,
      "##✓": 3046,
      "##☼": 3047,
      "##ﷲ": 3048,
      "##π": 3049,
      "##👈": 3050,
      "##客": 3051,
      "##家": 3052,
      "##◄": 3053,
      "##ק": 3054,
      "##צ": 3055,
      "##ו": 3056,
      "##😔": 3057,
      "##😖": 3058,
      "##近": 3059,
      "##请": 3060,
      "##求": 3061,
      "##↓": 3062,
      "##🇨": 3063,
      "##🇳": 3064,
      "##⇐": 3065,
      "##๑": 3066,
      "##😄": 3067,
      "##ﱪ": 3068,
      "##μ": 3069,
      "##⁪": 3070,
      "##🙄": 3071,
      "##": 3072,
      "##": 3073,
      "##👕": 3074,
      "##👖": 3075,
      "##▬": 3076,
      "##▐": 3077,
      "##υ": 3078,
      "##💗": 3079,
      "##🔖": 3080,
      "##Н": 3081,
      "##Ч": 3082,
      "##ﺞ": 3083,
      "##": 3084,
      "##ﻉ": 3085,
      "##│": 3086,
      "##⇨": 3087,
      "##−": 3088,
      "##💥": 3089,
      "##ሓ": 3090,
      "##ﮩ": 3091,
      "##": 3092,
      "##Ж": 3093,
      "##Ʒ": 3094,
      "##↳": 3095,
      "##": 3096,
      "##┤": 3097,
      "##": 3098,
      "##❣": 3099,
      "##讀": 3100,
      "##全": 3101,
      "##😲": 3102,
      "##玩": 3103,
      "##法": 3104,
      "##ځ": 3105,
      "##❇": 3106,
      "##А": 3107,
      "##ಕ": 3108,
      "##ನ": 3109,
      "##ಡ": 3110,
      "##🌾": 3111,
      "##😷": 3112,
      "##☹": 3113,
      "##😞": 3114,
      "##来": 3115,
      "##😩": 3116,
      "##🙃": 3117,
      "##💇": 3118,
      "##उ": 3119,
      "##ड": 3120,
      "##ڸ": 3121,
      "##": 3122,
      "##🌋": 3123,
      "##ٲ": 3124,
      "##🎙": 3125,
      "##🎼": 3126,
      "##🎻": 3127,
      "##🎷": 3128,
      "##🎶": 3129,
      "##🔩": 3130,
      "##🙊": 3131,
      "##🙈": 3132,
      "##子": 3133,
      "##浪": 3134,
      "##漫": 3135,
      "##旅": 3136,
      "##行": 3137,
      "##ﺦ": 3138,
      "##Є": 3139,
      "##Щ": 3140,
      "##◕": 3141,
      "##🤗": 3142,
      "##▼": 3143,
      "##🛑": 3144,
      "##ܨ": 3145,
      "##♫": 3146,
      "##☘": 3147,
      "##≥": 3148,
      "##ﲑ": 3149,
      "##⬅": 3150,
      "##¼": 3151,
      "##⛔": 3152,
      "##😕": 3153,
      "##♦": 3154,
      "##ﺚ": 3155,
      "##ڌ": 3156,
      "##÷": 3157,
      "##😋": 3158,
      "##国": 3159,
      "##传": 3160,
      "##统": 3161,
      "##胡": 3162,
      "##音": 3163,
      "##👋": 3164,
      "##📣": 3165,
      "##ܓ": 3166,
      "##ﮯ": 3167,
      "##◀": 3168,
      "##\u0011": 3169,
      "##\u001b": 3170,
      "##江": 3171,
      "##奔": 3172,
      "##豹": 3173,
      "##电": 3174,
      "##车": 3175,
      "##科": 3176,
      "##技": 3177,
      "##股": 3178,
      "##份": 3179,
      "##有": 3180,
      "##限": 3181,
      "##公": 3182,
      "##司": 3183,
      "##▌": 3184,
      "##√": 3185,
      "##ᅧ": 3186,
      "##త": 3187,
      "##ల": 3188,
      "##గ": 3189,
      "##☝": 3190,
      "##ⁿ": 3191,
      "##Г": 3192,
      "##🌻": 3193,
      "##ﬁ": 3194,
      "##ᴢ": 3195,
      "##ᴇ": 3196,
      "##🤲": 3197,
      "##💓": 3198,
      "##🛫": 3199,
      "##🇮": 3200,
      "##🇷": 3201,
      "##₄": 3202,
      "##₀": 3203,
      "##◅": 3204,
      "##😉": 3205,
      "##ﭺ": 3206,
      "##🌔": 3207,
      "##👫": 3208,
      "##ﺀ": 3209,
      "##⟸": 3210,
      "##": 3211,
      "##沙": 3212,
      "##尼": 3213,
      "##亚": 3214,
      "##☕": 3215,
      "##₂": 3216,
      "##ᆹ": 3217,
      "##△": 3218,
      "##К": 3219,
      "##მ": 3220,
      "##გ": 3221,
      "##ד": 3222,
      "##": 3223,
      "##": 3224,
      "##ม": 3225,
      "##ɪ": 3226,
      "##ʃ": 3227,
      "##🤩": 3228,
      "##💎": 3229,
      "##🏆": 3230,
      "##↔": 3231,
      "##原": 3232,
      "##Լ": 3233,
      "##❄": 3234,
      "##典": 3235,
      "##त": 3236,
      "##麦": 3237,
      "##ٱ": 3238,
      "##ﻕ": 3239,
      "##⚫": 3240,
      "##Е": 3241,
      "##✦": 3242,
      "##ㄟ": 3243,
      "##ﻷ": 3244,
      "##ﺥ": 3245,
      "##😎": 3246,
      "##田": 3247,
      "##急": 3248,
      "##電": 3249,
      "##鉄": 3250,
      "##株": 3251,
      "##式": 3252,
      "##会": 3253,
      "##社": 3254,
      "##Ɵ": 3255,
      "##🎹": 3256,
      "##ﱄ": 3257,
      "##ɛ": 3258,
      "##θ": 3259,
      "##ɒ": 3260,
      "##ላ": 3261,
      "##щ": 3262,
      "##手": 3263,
      "##ሉ": 3264,
      "##🍎": 3265,
      "##🍊": 3266,
      "##🍓": 3267,
      "##🍌": 3268,
      "##👆": 3269,
      "##ܐ": 3270,
      "##ܪ": 3271,
      "##ܡ": 3272,
      "##ܝ": 3273,
      "##ҡ": 3274,
      "##σ": 3275,
      "##τ": 3276,
      "##ς": 3277,
      "##丁": 3278,
      "##🌳": 3279,
      "##🌲": 3280,
      "##🏞": 3281,
      "##🌼": 3282,
      "##⁧": 3283,
      "##˙": 3284,
      "##💝": 3285,
      "##ℓ": 3286,
      "##γ": 3287,
      "##▶": 3288,
      "##期": 3289,
      "##肮": 3290,
      "##😌": 3291,
      "##👊": 3292,
      "##ำ": 3293,
      "##บ": 3294,
      "##ล": 3295,
      "##ڼ": 3296,
      "##ﳒ": 3297,
      "##ᅲ": 3298,
      "##😶": 3299,
      "##译": 3300,
      "##和": 3301,
      "##实": 3302,
      "##例": 3303,
      "##ٺ": 3304,
      "##😏": 3305,
      "##➖": 3306,
      "##": 3307,
      "##⚡": 3308,
      "##🏾": 3309,
      "##📜": 3310,
      "##؁": 3311,
      "##🔸": 3312,
      "##ﺫ": 3313,
      "##ﹲ": 3314,
      "##І": 3315,
      "##绍": 3316,
      "##兴": 3317,
      "##天": 3318,
      "##鹅": 3319,
      "##自": 3320,
      "##粵": 3321,
      "##┈": 3322,
      "##": 3323,
      "##ᄇ": 3324,
      "##ɞ": 3325,
      "##😠": 3326,
      "##↵": 3327,
      "##兰": 3328,
      "##🍋": 3329,
      "##ђ": 3330,
      "##Ɩ": 3331,
      "##Ƨ": 3332,
      "##ƛ": 3333,
      "##═": 3334,
      "##ӿ": 3335,
      "##😚": 3336,
      "##🕊": 3337,
      "##स": 3338,
      "##國": 3339,
      "##ᅪ": 3340,
      "##🇴": 3341,
      "##🇩": 3342,
      "##🇧": 3343,
      "##🇱": 3344,
      "##🇺": 3345,
      "##🇹": 3346,
      "##🇯": 3347,
      "##🇸": 3348,
      "##ᆽ": 3349,
      "##ﺓ": 3350,
      "##ɡ": 3351,
      "##ʌ": 3352,
      "##ﯚ": 3353,
      "##դ": 3354,
      "##◼": 3355,
      "##₺": 3356,
      "##ᅯ": 3357,
      "##ᆻ": 3358,
      "##₈": 3359,
      "##🤔": 3360,
      "##😜": 3361,
      "##🆔": 3362,
      "##♧": 3363,
      "##♨": 3364,
      "##ږ": 3365,
      "##ニ": 3366,
      "##¤": 3367,
      "##˛": 3368,
      "##∑": 3369,
      "##🤚": 3370,
      "##ﺂ": 3371,
      "##野": 3372,
      "##鹰": 3373,
      "##业": 3374,
      "##ﻙ": 3375,
      "##΄": 3376,
      "##ⓔ": 3377,
      "##🔹": 3378,
      "##🐰": 3379,
      "##🍭": 3380,
      "##З": 3381,
      "##ஐ": 3382,
      "##Ɱ": 3383,
      "##Ƕ": 3384,
      "##津": 3385,
      "##市": 3386,
      "##世": 3387,
      "##达": 3388,
      "##🎞": 3389,
      "##¥": 3390,
      "##ᵶ": 3391,
      "##ᶏ": 3392,
      "##📷": 3393,
      "##🙂": 3394,
      "##ח": 3395,
      "##ג": 3396,
      "##😈": 3397,
      "##😨": 3398,
      "##🇵": 3399,
      "##▲": 3400,
      "##መ": 3401,
      "##😙": 3402,
      "##泰": 3403,
      "##丰": 3404,
      "##小": 3405,
      "##鸟": 3406,
      "##⠀": 3407,
      "##ァ": 3408,
      "##ー": 3409,
      "##ス": 3410,
      "##ﮒ": 3411,
      "##ল": 3412,
      "##锡": 3413,
      "##嘉": 3414,
      "##特": 3415,
      "##": 3416,
      "##": 3417,
      "##ۅ": 3418,
      "##ݕ": 3419,
      "##ݦ": 3420,
      "##ﺙ": 3421,
      "##☭": 3422,
      "##Х": 3423,
      "##💔": 3424,
      "##♻": 3425,
      "##💻": 3426,
      "##湖": 3427,
      "##吉": 3428,
      "##祥": 3429,
      "##ﮎ": 3430,
      "##ব": 3431,
      "##😻": 3432,
      "##💘": 3433,
      "##🏿": 3434,
      "##◽": 3435,
      "##➉": 3436,
      "##≡": 3437,
      "##ᄄ": 3438,
      "##": 3439,
      "##☀": 3440,
      "##ס": 3441,
      "##੭": 3442,
      "##ᇂ": 3443,
      "##ደ": 3444,
      "##呌": 3445,
      "##ㄨ": 3446,
      "##🗓": 3447,
      "##╣": 3448,
      "##◊": 3449,
      "##🥰": 3450,
      "##ﺾ": 3451,
      "##⁣": 3452,
      "##ټ": 3453,
      "##ﭖ": 3454,
      "##မ": 3455,
      "##န": 3456,
      "##ဘ": 3457,
      "##သ": 3458,
      "##⚽": 3459,
      "##ต": 3460,
      "##❋": 3461,
      "##च": 3462,
      "##क": 3463,
      "##ո": 3464,
      "##ւ": 3465,
      "##ժ": 3466,
      "##🎆": 3467,
      "##の": 3468,
      "##地": 3469,
      "##ᄑ": 3470,
      "##ᄐ": 3471,
      "##⁰": 3472,
      "##א": 3473,
      "##ן": 3474,
      "##威": 3475,
      "##湿": 3476,
      "##リ": 3477,
      "##ム": 3478,
      "##蓝": 3479,
      "##贝": 3480,
      "##⏪": 3481,
      "##⏩": 3482,
      "##汉": 3483,
      "##益": 3484,
      "##商": 3485,
      "##\u001f": 3486,
      "##ζ": 3487,
      "##∂": 3488,
      "##ҷ": 3489,
      "##🔅": 3490,
      "##乇": 3491,
      "##ѕ": 3492,
      "##ף": 3493,
      "##խ": 3494,
      "##բ": 3495,
      "##💍": 3496,
      "##ツ": 3497,
      "##░": 3498,
      "##善": 3499,
      "##✒": 3500,
      "##↙": 3501,
      "##⬇": 3502,
      "##↘": 3503,
      "##👮": 3504,
      "##ᅬ": 3505,
      "##✺": 3506,
      "##ޒ": 3507,
      "##ץ": 3508,
      "##Թ": 3509,
      "##ʍ": 3510,
      "##ɿ": 3511,
      "##Ռ": 3512,
      "##ᴺ": 3513,
      "##ᴰ": 3514,
      "##ˢ": 3515,
      "##╬": 3516,
      "##ի": 3517,
      "##կ": 3518,
      "##灣": 3519,
      "##": 3520,
      "##Ш": 3521,
      "##δ": 3522,
      "##✴": 3523,
      "##□": 3524,
      "##❞": 3525,
      "##ڛ": 3526,
      "##🌎": 3527,
      "##藤": 3528,
      "##♚": 3529,
      "##❌": 3530,
      "##莉": 3531,
      "##花": 3532,
      "##": 3533,
      "##立": 3534,
      "##ち": 3535,
      "##נ": 3536,
      "##": 3537,
      "##彦": 3538,
      "##ݿ": 3539,
      "##🌍": 3540,
      "##": 3541,
      "##マ": 3542,
      "##📱": 3543,
      "##👹": 3544,
      "##⛄": 3545,
      "##ខ": 3546,
      "##ម": 3547,
      "##រ": 3548,
      "##山": 3549,
      "##惠": 3550,
      "##ם": 3551,
      "##金": 3552,
      "##轮": 3553,
      "##集": 3554,
      "##团": 3555,
      "##⚜": 3556,
      "##ſ": 3557,
      "##ۼ": 3558,
      "##🎊": 3559,
      "##₪": 3560,
      "##❔": 3561,
      "##😇": 3562,
      "##😫": 3563,
      "##ﭝ": 3564,
      "##ﭑ": 3565,
      "##ﭢ": 3566,
      "##ﭐ": 3567,
      "##ﯗ": 3568,
      "##": 3569,
      "##ʒ": 3570,
      "##ป": 3571,
      "##🐩": 3572,
      "##😓": 3573,
      "##😹": 3574,
      "##ᗩ": 3575,
      "##〢": 3576,
      "##〣": 3577,
      "##đ": 3578,
      "##∅": 3579,
      "##新": 3580,
      "##消": 3581,
      "##息": 3582,
      "##😝": 3583,
      "##ᅴ": 3584,
      "##✕": 3585,
      "##✊": 3586,
      "##ᅨ": 3587,
      "##♯": 3588,
      "##म": 3589,
      "##ठ": 3590,
      "##搜": 3591,
      "##索": 3592,
      "##了": 3593,
      "##ﲰ": 3594,
      "##🌞": 3595,
      "##ห": 3596,
      "##🚬": 3597,
      "##ण": 3598,
      "##ᵿ": 3599,
      "##ǝ": 3600,
      "##": 3601,
      "##": 3602,
      "##🏒": 3603,
      "##ﷺ": 3604,
      "##❊": 3605,
      "##💰": 3606,
      "##🇬": 3607,
      "##ข": 3608,
      "##\u0010": 3609,
      "##ۍ": 3610,
      "##😬": 3611,
      "##🕢": 3612,
      "##ウ": 3613,
      "##素": 3614,
      "##\u0000": 3615,
      "##ٶ": 3616,
      "##🍄": 3617,
      "##": 3618,
      "##ﱵ": 3619,
      "##❺": 3620,
      "##❹": 3621,
      "##🎓": 3622,
      "##ฯ": 3623,
      "##拉": 3624,
      "##伯": 3625,
      "##ᴼ": 3626,
      "##ᴸ": 3627,
      "##": 3628,
      "##聞": 3629,
      "##Ђ": 3630,
      "##◠": 3631,
      "##🤨": 3632,
      "##ڟ": 3633,
      "##🍚": 3634,
      "##ᄏ": 3635,
      "##ሰ": 3636,
      "##\u0019": 3637,
      "##\u000f": 3638,
      "##🏡": 3639,
      "##💼": 3640,
      "##䡆": 3641,
      "##⌬": 3642,
      "##📛": 3643,
      "##🕒": 3644,
      "##📿": 3645,
      "##ݥ": 3646,
      "##王": 3647,
      "##力": 3648,
      "##ᓄ": 3649,
      "##ᵁ": 3650,
      "##ᴿ": 3651,
      "##ᴵ": 3652,
      "##ᴜ": 3653,
      "##": 3654,
      "##🍉": 3655,
      "##🍕": 3656,
      "##🎂": 3657,
      "##🍩": 3658,
      "##🍨": 3659,
      "##🍹": 3660,
      "##レ": 3661,
      "##テ": 3662,
      "##シ": 3663,
      "##ョ": 3664,
      "##年": 3665,
      "##前": 3666,
      "##🎉": 3667,
      "##顺": 3668,
      "##🤠": 3669,
      "##看": 3670,
      "##購": 3671,
      "##物": 3672,
      "##車": 3673,
      "##🌮": 3674,
      "##🍲": 3675,
      "##┳": 3676,
      "##━": 3677,
      "##畜": 3678,
      "##🥺": 3679,
      "##ⓗ": 3680,
      "##ⓐ": 3681,
      "##ⓑ": 3682,
      "##ⓝ": 3683,
      "##ⓜ": 3684,
      "##ﮱ": 3685,
      "##∩": 3686,
      "##㻆": 3687,
      "##♈": 3688,
      "##ቓ": 3689,
      "##Њ": 3690,
      "##བ": 3691,
      "##ད": 3692,
      "##ڔ": 3693,
      "##": 3694,
      "##💠": 3695,
      "##門": 3696,
      "##店": 3697,
      "##东": 3698,
      "##英": 3699,
      "##克": 3700,
      "##莱": 3701,
      "##☑": 3702,
      "##ε": 3703,
      "##🥫": 3704,
      "##🥘": 3705,
      "##🥗": 3706,
      "##❓": 3707,
      "##∆": 3708,
      "##㵼": 3709,
      "##❀": 3710,
      "##大": 3711,
      "##💵": 3712,
      "##ﻵ": 3713,
      "##通": 3714,
      "##话": 3715,
      "##﷽": 3716,
      "##❁": 3717,
      "##ڇ": 3718,
      "##ག": 3719,
      "##班": 3720,
      "##牙": 3721,
      "##ﮗ": 3722,
      "##庆": 3723,
      "##港": 3724,
      "##鑫": 3725,
      "##机": 3726,
      "##械": 3727,
      "##制": 3728,
      "##造": 3729,
      "##↩": 3730,
      "##ﱰ": 3731,
      "##ﰲ": 3732,
      "##շ": 3733,
      "##ይ": 3734,
      "##✖": 3735,
      "##₆": 3736,
      "##Я": 3737,
      "##♝": 3738,
      "##य": 3739,
      "##ዲ": 3740,
      "##ስ": 3741,
      "##": 3742,
      "##φ": 3743,
      "##╫": 3744,
      "##伽": 3745,
      "##罗": 3746,
      "##ት": 3747,
      "##ግ": 3748,
      "##😆": 3749,
      "##ڨ": 3750,
      "##ɭ": 3751,
      "##ﭜ": 3752,
      "##ລ": 3753,
      "##າ": 3754,
      "##ວ": 3755,
      "##✉": 3756,
      "##📦": 3757,
      "##ው": 3758,
      "##ﹼ": 3759,
      "##🏃": 3760,
      "##": 3761,
      "##🎀": 3762,
      "##ᥙ": 3763,
      "##瓦": 3764,
      "##希": 3765,
      "##里": 3766,
      "##ɇ": 3767,
      "##ɀ": 3768,
      "##林": 3769,
      "##娜": 3770,
      "##频": 3771,
      "##֎": 3772,
      "##Ι": 3773,
      "##士": 3774,
      "##号": 3775,
      "##✳": 3776,
      "##♜": 3777,
      "##度": 3778,
      "##与": 3779,
      "##激": 3780,
      "##情": 3781,
      "##预": 3782,
      "##告": 3783,
      "##😡": 3784,
      "##🤭": 3785,
      "##◤": 3786,
      "##◢": 3787,
      "##🍳": 3788,
      "##☻": 3789,
      "##": 3790,
      "##ͺ": 3791,
      "##🎥": 3792,
      "##🎬": 3793,
      "##Σ": 3794,
      "##Ψ": 3795,
      "##Η": 3796,
      "##Λ": 3797,
      "##Ν": 3798,
      "##Д": 3799,
      "##冊": 3800,
      "##網": 3801,
      "##域": 3802,
      "##": 3803,
      "##ܘ": 3804,
      "##ܢ": 3805,
      "##ܒ": 3806,
      "##洛": 3807,
      "##伐": 3808,
      "##巨": 3809,
      "##ʙ": 3810,
      "##ʏ": 3811,
      "##ⓖ": 3812,
      "##ⓡ": 3813,
      "##🌈": 3814,
      "##": 3815,
      "##": 3816,
      "##⁨": 3817,
      "##څ": 3818,
      "##ル": 3819,
      "##ハ": 3820,
      "##代": 3821,
      "##わ": 3822,
      "##り": 3823,
      "##简": 3824,
      "##": 3825,
      "##🤴": 3826,
      "##ᆮ": 3827,
      "##♂": 3828,
      "##🙋": 3829,
      "##ﺽ": 3830,
      "##ᵒ": 3831,
      "##ᵛ": 3832,
      "##ᵉ": 3833,
      "##ᵧ": 3834,
      "##ₒ": 3835,
      "##ᵤ": 3836,
      "##🖖": 3837,
      "##🤕": 3838,
      "##🤒": 3839,
      "##љ": 3840,
      "##😥": 3841,
      "##थ": 3842,
      "##🤼": 3843,
      "##☽": 3844,
      "##˘": 3845,
      "##ܕ": 3846,
      "##體": 3847,
      "##圳": 3848,
      "##成": 3849,
      "##😦": 3850,
      "##💷": 3851,
      "##ј": 3852,
      "##ﾮ": 3853,
      "##ソ": 3854,
      "##ケ": 3855,
      "##機": 3856,
      "##؏": 3857,
      "##ڒ": 3858,
      "##❖": 3859,
      "##❈": 3860,
      "##∗": 3861,
      "##⑩": 3862,
      "##▫": 3863,
      "##₅": 3864,
      "##👎": 3865,
      "##ᴄ": 3866,
      "##ᴛ": 3867,
      "##😱": 3868,
      "##": 3869,
      "##": 3870,
      "##⁺": 3871,
      "##⚕": 3872,
      "##ڗ": 3873,
      "##🚅": 3874,
      "##🚇": 3875,
      "##🚈": 3876,
      "##🐟": 3877,
      "##🦀": 3878,
      "##ᴍ": 3879,
      "##⇦": 3880,
      "##\u0005": 3881,
      "##■": 3882,
      "##础": 3883,
      "##知": 3884,
      "##识": 3885,
      "##ᴬ": 3886,
      "##😛": 3887,
      "##🍦": 3888,
      "##ष": 3889,
      "##ብ": 3890,
      "##🧐": 3891,
      "##♭": 3892,
      "##🥪": 3893,
      "##🍖": 3894,
      "##⁬": 3895,
      "##ᄁ": 3896,
      "##🖕": 3897,
      "##🚙": 3898,
      "##し": 3899,
      "##め": 3900,
      "##見": 3901,
      "##空": 3902,
      "##た": 3903,
      "##հ": 3904,
      "##ო": 3905,
      "##界": 3906,
      "##🎒": 3907,
      "##ም": 3908,
      "##ጀ": 3909,
      "##ｓ": 3910,
      "##聚": 3911,
      "##友": 3912,
      "##米": 3913,
      "##尔": 3914,
      "##🐓": 3915,
      "##": 3916,
      "##ان": 3917,
      "##ای": 3918,
      "##ار": 3919,
      "##ست": 3920,
      "در": 3921,
      "##ین": 3922,
      "##ند": 3923,
      "به": 3924,
      "##ام": 3925,
      "با": 3926,
      "##ود": 3927,
      "##ور": 3928,
      "##اد": 3929,
      "از": 3930,
      "##ال": 3931,
      "##ید": 3932,
      "بر": 3933,
      "##یر": 3934,
      "می": 3935,
      "##اه": 3936,
      "است": 3937,
      "##ات": 3938,
      "##رد": 3939,
      "ان": 3940,
      "این": 3941,
      "که": 3942,
      "##اب": 3943,
      "##لی": 3944,
      "##ون": 3945,
      "##یم": 3946,
      "را": 3947,
      "##ری": 3948,
      "ام": 3949,
      "##رو": 3950,
      "##شت": 3951,
      "##از": 3952,
      "##های": 3953,
      "##ول": 3954,
      "##اس": 3955,
      "##فت": 3956,
      "##ده": 3957,
      "هم": 3958,
      "رو": 3959,
      "##اری": 3960,
      "های": 3961,
      "##مان": 3962,
      "##ها": 3963,
      "##یت": 3964,
      "##تر": 3965,
      "تو": 3966,
      "##ه‌": 3967,
      "##سی": 3968,
      "##را": 3969,
      "برای": 3970,
      "##لا": 3971,
      "##نگ": 3972,
      "##انی": 3973,
      "کن": 3974,
      "مو": 3975,
      "##تی": 3976,
      "من": 3977,
      "##وی": 3978,
      "دان": 3979,
      "کرد": 3980,
      "##زی": 3981,
      "یک": 3982,
      "می‌": 3983,
      "ال": 3984,
      "##می": 3985,
      "##گر": 3986,
      "##گاه": 3987,
      "کار": 3988,
      "##وان": 3989,
      "دار": 3990,
      "مح": 3991,
      "##خت": 3992,
      "##زار": 3993,
      "##وز": 3994,
      "##اده": 3995,
      "ای": 3996,
      "##هر": 3997,
      "خود": 3998,
      "##ما": 3999,
      "تا": 4000,
      "ها": 4001,
      "اس": 4002,
      "##یل": 4003,
      "##انه": 4004,
      "فر": 4005,
      "##ایی": 4006,
      "ار": 4007,
      "##کن": 4008,
      "##بر": 4009,
      "مد": 4010,
      "نی": 4011,
      "##وم": 4012,
      "##رک": 4013,
      "مع": 4014,
      "شده": 4015,
      "شد": 4016,
      "بود": 4017,
      "بی": 4018,
      "##شن": 4019,
      "اف": 4020,
      "خو": 4021,
      "پی": 4022,
      "##شد": 4023,
      "دا": 4024,
      "##بی": 4025,
      "##مای": 4026,
      "##نی": 4027,
      "##لود": 4028,
      "ایر": 4029,
      "##امه": 4030,
      "مش": 4031,
      "##ورد": 4032,
      "دست": 4033,
      "##‌های": 4034,
      "سال": 4035,
      "##شی": 4036,
      "##به": 4037,
      "##دا": 4038,
      "دی": 4039,
      "سر": 4040,
      "##اره": 4041,
      "##لام": 4042,
      "##له": 4043,
      "دانلود": 4044,
      "دو": 4045,
      "##رف": 4046,
      "##بت": 4047,
      "##گی": 4048,
      "##دید": 4049,
      "مت": 4050,
      "سا": 4051,
      "##قی": 4052,
      "##نده": 4053,
      "مس": 4054,
      "##دی": 4055,
      "##ين": 4056,
      "مر": 4057,
      "##جه": 4058,
      "##شته": 4059,
      "ما": 4060,
      "یا": 4061,
      "##عه": 4062,
      "##کی": 4063,
      "##er": 4064,
      "مق": 4065,
      "##وری": 4066,
      "کش": 4067,
      "##ستان": 4068,
      "##رم": 4069,
      "##وا": 4070,
      "##00": 4071,
      "##اید": 4072,
      "اب": 4073,
      "##عت": 4074,
      "مج": 4075,
      "##ادی": 4076,
      "انت": 4077,
      "ایران": 4078,
      "##ایت": 4079,
      "نظ": 4080,
      "باز": 4081,
      "##عی": 4082,
      "##اف": 4083,
      "##ارد": 4084,
      "۱۳": 4085,
      "##اي": 4086,
      "نو": 4087,
      "تر": 4088,
      "##الی": 4089,
      "قر": 4090,
      "##که": 4091,
      "روز": 4092,
      "اه": 4093,
      "گفت": 4094,
      "شود": 4095,
      "اق": 4096,
      "اد": 4097,
      "وی": 4098,
      "##با": 4099,
      "سی": 4100,
      "گر": 4101,
      "##‌ها": 4102,
      "##اند": 4103,
      "تح": 4104,
      "عم": 4105,
      "شما": 4106,
      "هست": 4107,
      "20": 4108,
      "اخ": 4109,
      "##خص": 4110,
      "اج": 4111,
      "##وت": 4112,
      "##on": 4113,
      "##شگاه": 4114,
      "ده": 4115,
      "##کس": 4116,
      "ساز": 4117,
      "پر": 4118,
      "##عد": 4119,
      "رس": 4120,
      "هر": 4121,
      "باشد": 4122,
      "13": 4123,
      "او": 4124,
      "جه": 4125,
      "##اق": 4126,
      "مه": 4127,
      "اند": 4128,
      "##in": 4129,
      "بد": 4130,
      "کم": 4131,
      "##ورت": 4132,
      "##an": 4133,
      "اص": 4134,
      "اموز": 4135,
      "۱۳۹": 4136,
      "مط": 4137,
      "مرد": 4138,
      "##اسی": 4139,
      "##گان": 4140,
      "##وش": 4141,
      "استف": 4142,
      "کشور": 4143,
      "##نا": 4144,
      "##وه": 4145,
      "##گیر": 4146,
      "بازی": 4147,
      "فرو": 4148,
      "استفاده": 4149,
      "دارد": 4150,
      "نمای": 4151,
      "##ar": 4152,
      "تم": 4153,
      "##رکت": 4154,
      "بخ": 4155,
      "جم": 4156,
      "##فر": 4157,
      "نق": 4158,
      "خر": 4159,
      "پیش": 4160,
      "زی": 4161,
      "##مت": 4162,
      "تص": 4163,
      "##امل": 4164,
      "نش": 4165,
      "##فته": 4166,
      "ات": 4167,
      "جدید": 4168,
      "چه": 4169,
      "خبر": 4170,
      "عل": 4171,
      "##مین": 4172,
      "داد": 4173,
      "##من": 4174,
      "کل": 4175,
      "##کل": 4176,
      "خواه": 4177,
      "##یمت": 4178,
      "##کر": 4179,
      "##قه": 4180,
      "فیل": 4181,
      "شهر": 4182,
      "##بار": 4183,
      "##فی": 4184,
      "##ترین": 4185,
      "باید": 4186,
      "کنید": 4187,
      "##یس": 4188,
      "##جود": 4189,
      "##نامه": 4190,
      "شه": 4191,
      "##حی": 4192,
      "##نج": 4193,
      "##در": 4194,
      "پای": 4195,
      "نام": 4196,
      "مورد": 4197,
      "راه": 4198,
      "اما": 4199,
      "نیز": 4200,
      "##or": 4201,
      "انج": 4202,
      "شرکت": 4203,
      "201": 4204,
      "قرار": 4205,
      "اع": 4206,
      "##توان": 4207,
      "نم": 4208,
      "کند": 4209,
      "افز": 4210,
      "##زش": 4211,
      "توس": 4212,
      "##en": 4213,
      "##اتی": 4214,
      "##اط": 4215,
      "قیمت": 4216,
      "##کت": 4217,
      "##شه": 4218,
      "##ازی": 4219,
      "نظر": 4220,
      "##ینی": 4221,
      "##al": 4222,
      "دور": 4223,
      "فیلم": 4224,
      "اش": 4225,
      "##رای": 4226,
      "##at": 4227,
      "اط": 4228,
      "تن": 4229,
      "##فا": 4230,
      "ساخت": 4231,
      "سو": 4232,
      "تول": 4233,
      "##ونه": 4234,
      "##ایش": 4235,
      "##ونی": 4236,
      "پس": 4237,
      "##کان": 4238,
      "##يد": 4239,
      "##شود": 4240,
      "خرید": 4241,
      "گذ": 4242,
      "##ایل": 4243,
      "##��": 4244,
      "صورت": 4245,
      "##دم": 4246,
      "حس": 4247,
      "##وع": 4248,
      "روی": 4249,
      "تب": 4250,
      "اح": 4251,
      "##ره": 4252,
      "##امی": 4253,
      "##es": 4254,
      "سایت": 4255,
      "بسی": 4256,
      "اهنگ": 4257,
      "اموزش": 4258,
      "##رس": 4259,
      "##وس": 4260,
      "مدیر": 4261,
      "ری": 4262,
      "مي": 4263,
      "##اران": 4264,
      "ماه": 4265,
      "اول": 4266,
      "##وب": 4267,
      "ور": 4268,
      "##وند": 4269,
      "توان": 4270,
      "حال": 4271,
      "##اص": 4272,
      "##است": 4273,
      "##تاب": 4274,
      "دیگر": 4275,
      "##قل": 4276,
      "گو": 4277,
      "تع": 4278,
      "نمی": 4279,
      "زمان": 4280,
      "##هران": 4281,
      "فروش": 4282,
      "139": 4283,
      "داشت": 4284,
      "اگر": 4285,
      "##یه": 4286,
      "##اور": 4287,
      "کرده": 4288,
      "##بان": 4289,
      "مص": 4290,
      "##رح": 4291,
      "سه": 4292,
      "بین": 4293,
      "##لف": 4294,
      "##زر": 4295,
      "پرو": 4296,
      "شن": 4297,
      "کی": 4298,
      "##عات": 4299,
      "قب": 4300,
      "##ير": 4301,
      "باش": 4302,
      "تهران": 4303,
      "##ارت": 4304,
      "گزار": 4305,
      "تولید": 4306,
      "کنند": 4307,
      "اطلا": 4308,
      "##لس": 4309,
      "##یده": 4310,
      "##لو": 4311,
      "بیشت": 4312,
      "##نین": 4313,
      "تاری": 4314,
      "نس": 4315,
      "##نوان": 4316,
      "##رب": 4317,
      "##ازم": 4318,
      "انجام": 4319,
      "##ه‌های": 4320,
      "گزارش": 4321,
      "هی": 4322,
      "وا": 4323,
      "##خاب": 4324,
      "زیر": 4325,
      "تاریخ": 4326,
      "كه": 4327,
      "##۰۰": 4328,
      "##مد": 4329,
      "وجود": 4330,
      "##om": 4331,
      "##\u0000\u0000": 4332,
      "##يه": 4333,
      "سنگ": 4334,
      "شب": 4335,
      "کتاب": 4336,
      "##ic": 4337,
      "اسلام": 4338,
      "##گه": 4339,
      "##ژه": 4340,
      "انها": 4341,
      "##ابل": 4342,
      "##چه": 4343,
      "اين": 4344,
      "گرد": 4345,
      "خان": 4346,
      "استان": 4347,
      "##ریک": 4348,
      "شم": 4349,
      "همچ": 4350,
      "برنامه": 4351,
      "هستند": 4352,
      "تج": 4353,
      "##سب": 4354,
      "انتخاب": 4355,
      "##شم": 4356,
      "##دام": 4357,
      "یکی": 4358,
      "##وق": 4359,
      "عنوان": 4360,
      "حض": 4361,
      "##دار": 4362,
      "##رسی": 4363,
      "##اک": 4364,
      "بار": 4365,
      "##شان": 4366,
      "نیست": 4367,
      "##ضا": 4368,
      "##ادر": 4369,
      "فع": 4370,
      "##مل": 4371,
      "##رین": 4372,
      "دل": 4373,
      "بیم": 4374,
      "فار": 4375,
      "##اپ": 4376,
      "زند": 4377,
      "مردم": 4378,
      "توسط": 4379,
      "ساعت": 4380,
      "##بال": 4381,
      "10": 4382,
      "##ه‌ای": 4383,
      "دید": 4384,
      "##ندی": 4385,
      "بن": 4386,
      "داشته": 4387,
      "برخ": 4388,
      "صن": 4389,
      "همه": 4390,
      "##سته": 4391,
      "##شار": 4392,
      "##as": 4393,
      "##جی": 4394,
      "برگ": 4395,
      "نه": 4396,
      "ارت": 4397,
      "##ویر": 4398,
      "خواهد": 4399,
      "دانشگاه": 4400,
      "##ضی": 4401,
      "##کرد": 4402,
      "بزر": 4403,
      "مست": 4404,
      "چند": 4405,
      "##it": 4406,
      "بخش": 4407,
      "دول": 4408,
      "##لب": 4409,
      "کردن": 4410,
      "توجه": 4411,
      "##روز": 4412,
      "##ــ": 4413,
      "##يت": 4414,
      "##اش": 4415,
      "##مه": 4416,
      "##le": 4417,
      "بعد": 4418,
      "##ینه": 4419,
      "##یمی": 4420,
      "دانش": 4421,
      "علی": 4422,
      "سری": 4423,
      "سازمان": 4424,
      "##راه": 4425,
      "##کار": 4426,
      "##سال": 4427,
      "می‌شود": 4428,
      "##یز": 4429,
      "زن": 4430,
      "##وص": 4431,
      "##تص": 4432,
      "صف": 4433,
      "زمین": 4434,
      "خی": 4435,
      "##تو": 4436,
      "فره": 4437,
      "##قت": 4438,
      "##گو": 4439,
      "##صول": 4440,
      "##صد": 4441,
      "تش": 4442,
      "##داشت": 4443,
      "بان": 4444,
      "عکس": 4445,
      "اینکه": 4446,
      "جن": 4447,
      "گل": 4448,
      "هن": 4449,
      "##تما": 4450,
      "##is": 4451,
      "بیشتر": 4452,
      "دستگاه": 4453,
      "مان": 4454,
      "بسیار": 4455,
      "##ad": 4456,
      "##الب": 4457,
      "ادامه": 4458,
      "مدل": 4459,
      "فعال": 4460,
      "##am": 4461,
      "##گیری": 4462,
      "##لای": 4463,
      "میلی": 4464,
      "##حه": 4465,
      "خودرو": 4466,
      "##ستم": 4467,
      "جام": 4468,
      "گرو": 4469,
      "##گذ": 4470,
      "##ثر": 4471,
      "##لیل": 4472,
      "پرد": 4473,
      "مخت": 4474,
      "رای": 4475,
      "پاس": 4476,
      "##he": 4477,
      "اقتص": 4478,
      "##باره": 4479,
      "##يم": 4480,
      "##ستی": 4481,
      "امریک": 4482,
      "محصول": 4483,
      "کود": 4484,
      "داده": 4485,
      "مرا": 4486,
      "##ابی": 4487,
      "مث": 4488,
      "##ولی": 4489,
      "##فه": 4490,
      "کر": 4491,
      "طرح": 4492,
      "حق": 4493,
      "نا": 4494,
      "##نگی": 4495,
      "ري": 4496,
      "بازار": 4497,
      "افزایش": 4498,
      "##زان": 4499,
      "شی": 4500,
      "بل": 4501,
      "کد": 4502,
      "##شنبه": 4503,
      "قس": 4504,
      "##ویی": 4505,
      "خط": 4506,
      "همراه": 4507,
      "##ران": 4508,
      "خار": 4509,
      "دری": 4510,
      "##راحی": 4511,
      "کلی": 4512,
      "##رت": 4513,
      "بزرگ": 4514,
      "واق": 4515,
      "سلام": 4516,
      "موض": 4517,
      "افر": 4518,
      "##سه": 4519,
      "12": 4520,
      "##اله": 4521,
      "اسلامی": 4522,
      "##بری": 4523,
      "##کند": 4524,
      "##پی": 4525,
      "تغ": 4526,
      "##افت": 4527,
      "##خو": 4528,
      "##وط": 4529,
      "##ion": 4530,
      "تق": 4531,
      "جهت": 4532,
      "##ازه": 4533,
      "##دود": 4534,
      "لی": 4535,
      "اپ": 4536,
      "دولت": 4537,
      "اطلاعات": 4538,
      "چهار": 4539,
      "##re": 4540,
      "ارا": 4541,
      "نرم": 4542,
      "##جاد": 4543,
      "گروه": 4544,
      "امروز": 4545,
      "گرفت": 4546,
      "بررسی": 4547,
      "##ومی": 4548,
      "##کتر": 4549,
      "سب": 4550,
      "شدن": 4551,
      "##مانی": 4552,
      "##دن": 4553,
      "لو": 4554,
      "##ژی": 4555,
      "دارند": 4556,
      "گیر": 4557,
      "کام": 4558,
      "بوده": 4559,
      "##ro": 4560,
      "قسمت": 4561,
      "##برد": 4562,
      "همچنین": 4563,
      "##ظه": 4564,
      "تیم": 4565,
      "مشکل": 4566,
      "بازدید": 4567,
      "هزار": 4568,
      "قط": 4569,
      "غیر": 4570,
      "##عیت": 4571,
      "مخ": 4572,
      "حا": 4573,
      "کو": 4574,
      "##لت": 4575,
      "سپ": 4576,
      "تمام": 4577,
      "پاسخ": 4578,
      "##گری": 4579,
      "##سان": 4580,
      "مرک": 4581,
      "وز": 4582,
      "کال": 4583,
      "##اسب": 4584,
      "رفت": 4585,
      "بدون": 4586,
      "روش": 4587,
      "##اخت": 4588,
      "موضوع": 4589,
      "##ed": 4590,
      "##وار": 4591,
      "11": 4592,
      "حضور": 4593,
      "##مند": 4594,
      "وب": 4595,
      "مهم": 4596,
      "##ه‌ی": 4597,
      "##قیق": 4598,
      "می‌توان": 4599,
      "اجتما": 4600,
      "ثبت": 4601,
      "منت": 4602,
      "##یدی": 4603,
      "امام": 4604,
      "عمل": 4605,
      "افزار": 4606,
      "##زه": 4607,
      "##بود": 4608,
      "کننده": 4609,
      "قبل": 4610,
      "صفحه": 4611,
      "پار": 4612,
      "##ینک": 4613,
      "دوم": 4614,
      "##زاری": 4615,
      "خدم": 4616,
      "کیف": 4617,
      "##ابط": 4618,
      "##شین": 4619,
      "چی": 4620,
      "ترک": 4621,
      "ملی": 4622,
      "##نه": 4623,
      "جهان": 4624,
      "اعلام": 4625,
      "خانه": 4626,
      "ایجاد": 4627,
      "به‌": 4628,
      "زندگی": 4629,
      "امریکا": 4630,
      "شور": 4631,
      "همین": 4632,
      "تعد": 4633,
      "مختلف": 4634,
      "##el": 4635,
      "##et": 4636,
      "##دان": 4637,
      "##صل": 4638,
      "طراحی": 4639,
      "سای": 4640,
      "##رات": 4641,
      "درباره": 4642,
      "##ing": 4643,
      "افت": 4644,
      "##بین": 4645,
      "داخ": 4646,
      "##الات": 4647,
      "رنگ": 4648,
      "نیاز": 4649,
      "##اح": 4650,
      "ولی": 4651,
      "جای": 4652,
      "##ویس": 4653,
      "تل": 4654,
      "منط": 4655,
      "پنج": 4656,
      "عر": 4657,
      "##ضای": 4658,
      "##رایط": 4659,
      "جان": 4660,
      "نشان": 4661,
      "سیستم": 4662,
      "وارد": 4663,
      "##مو": 4664,
      "شرایط": 4665,
      "بع": 4666,
      "ته": 4667,
      "خدمات": 4668,
      "##نت": 4669,
      "خص": 4670,
      "##ou": 4671,
      "جو": 4672,
      "##اهش": 4673,
      "##هایی": 4674,
      "فق": 4675,
      "مدیریت": 4676,
      "هیچ": 4677,
      "مسي": 4678,
      "##باط": 4679,
      "##خانه": 4680,
      "##واع": 4681,
      "ريیس": 4682,
      "ازاد": 4683,
      "##ent": 4684,
      "ایرانی": 4685,
      "ند": 4686,
      "##رفی": 4687,
      "مهر": 4688,
      "##ییر": 4689,
      "ست": 4690,
      "##جا": 4691,
      "ارايه": 4692,
      "کنیم": 4693,
      "شیر": 4694,
      "بهترین": 4695,
      "گرفته": 4696,
      "غذ": 4697,
      "##tt": 4698,
      "##کنند": 4699,
      "اجتماعی": 4700,
      "خصوص": 4701,
      "##nd": 4702,
      "هد": 4703,
      "یاد": 4704,
      "تغییر": 4705,
      "لب": 4706,
      "انواع": 4707,
      "قابل": 4708,
      "##ندان": 4709,
      "اصلی": 4710,
      "فارسی": 4711,
      "مب": 4712,
      "اغ": 4713,
      "افراد": 4714,
      "##کو": 4715,
      "پزش": 4716,
      "تومان": 4717,
      "##گرد": 4718,
      "فرد": 4719,
      "##st": 4720,
      "محمد": 4721,
      "15": 4722,
      "##ac": 4723,
      "دهد": 4724,
      "##ریق": 4725,
      "##il": 4726,
      "اشاره": 4727,
      "##ودی": 4728,
      "اذ": 4729,
      "##داری": 4730,
      "##ه‌ها": 4731,
      "##ag": 4732,
      "پرس": 4733,
      "نفر": 4734,
      "قان": 4735,
      "چرا": 4736,
      "بالا": 4737,
      "نمایش": 4738,
      "تنها": 4739,
      "کاهش": 4740,
      "امکان": 4741,
      "برخی": 4742,
      "کان": 4743,
      "##لم": 4744,
      "علا": 4745,
      "نور": 4746,
      "اینتر": 4747,
      "انتشار": 4748,
      "مشخص": 4749,
      "##لاح": 4750,
      "##\u0000\u0000\u0000\u0000": 4751,
      "همان": 4752,
      "دارای": 4753,
      "19": 4754,
      "حج": 4755,
      "انگ": 4756,
      "درصد": 4757,
      "گذشته": 4758,
      "##مون": 4759,
      "استخ": 4760,
      "##رخ": 4761,
      "ایم": 4762,
      "ارد": 4763,
      "تک": 4764,
      "##ol": 4765,
      "نسبت": 4766,
      "##ذیر": 4767,
      "اعت": 4768,
      "##شر": 4769,
      "۲۰": 4770,
      "مم": 4771,
      "متن": 4772,
      "زبان": 4773,
      "بانک": 4774,
      "کامل": 4775,
      "ره": 4776,
      "##20": 4777,
      "##نتی": 4778,
      "com": 4779,
      "۱۰": 4780,
      "دوره": 4781,
      "##صی": 4782,
      "شک": 4783,
      "##لي": 4784,
      "صد": 4785,
      "کیفیت": 4786,
      "کمک": 4787,
      "##ow": 4788,
      "سط": 4789,
      "جز": 4790,
      "شو": 4791,
      "تعداد": 4792,
      "##زینه": 4793,
      "مشت": 4794,
      "لینک": 4795,
      "عب": 4796,
      "##سازی": 4797,
      "پایان": 4798,
      "بال": 4799,
      "##id": 4800,
      "سریال": 4801,
      "جمه": 4802,
      "##زد": 4803,
      "معم": 4804,
      "##ماي": 4805,
      "##انس": 4806,
      "ارتباط": 4807,
      "ir": 4808,
      "بیان": 4809,
      "گوشی": 4810,
      "نوع": 4811,
      "دلیل": 4812,
      "اسی": 4813,
      "##ابر": 4814,
      "شر": 4815,
      "مواد": 4816,
      "هوا": 4817,
      "خیلی": 4818,
      "##حد": 4819,
      "##امین": 4820,
      "طب": 4821,
      "##شتی": 4822,
      "فایل": 4823,
      "##خواه": 4824,
      "##کاری": 4825,
      "حرف": 4826,
      "نخ": 4827,
      "##ot": 4828,
      "وق": 4829,
      "16": 4830,
      "مناسب": 4831,
      "سف": 4832,
      "اخت": 4833,
      "می‌کند": 4834,
      "##وست": 4835,
      "##تم": 4836,
      "اک": 4837,
      "اقدام": 4838,
      "نمی‌": 4839,
      "میان": 4840,
      "##ttp": 4841,
      "منطقه": 4842,
      "شخص": 4843,
      "شبکه": 4844,
      "##وزه": 4845,
      "##گونه": 4846,
      "##لاین": 4847,
      "ترین": 4848,
      "دنی": 4849,
      "اخبار": 4850,
      "نیر": 4851,
      "پرداخت": 4852,
      "##گران": 4853,
      "سام": 4854,
      "رایگان": 4855,
      "##فق": 4856,
      "افزود": 4857,
      "انقل": 4858,
      "سین": 4859,
      "اي": 4860,
      "##چسب": 4861,
      "شوند": 4862,
      "نص": 4863,
      "فعالیت": 4864,
      "##نان": 4865,
      "سخ": 4866,
      "http": 4867,
      "##باشد": 4868,
      "##ریان": 4869,
      "رسید": 4870,
      "دریافت": 4871,
      "##ویت": 4872,
      "درمان": 4873,
      "اور": 4874,
      "##عث": 4875,
      "خرد": 4876,
      "۰۰۰": 4877,
      "##ct": 4878,
      "اقتصادی": 4879,
      "کا": 4880,
      "سازی": 4881,
      "پژ": 4882,
      "مجلس": 4883,
      "توسعه": 4884,
      "محصولات": 4885,
      "مطال": 4886,
      "باشند": 4887,
      "واقع": 4888,
      "فقط": 4889,
      "مشاه": 4890,
      "شهری": 4891,
      "14": 4892,
      "بیش": 4893,
      "##یدا": 4894,
      "مصرف": 4895,
      "تخ": 4896,
      "تصویر": 4897,
      "باعث": 4898,
      "عض": 4899,
      "هاي": 4900,
      "بح": 4901,
      "نمود": 4902,
      "خانو": 4903,
      "##ثیر": 4904,
      "ابت": 4905,
      "ماشین": 4906,
      "شکن": 4907,
      "##امد": 4908,
      "لوازم": 4909,
      "ویژه": 4910,
      "جوان": 4911,
      "ارسال": 4912,
      "شاه": 4913,
      "##ap": 4914,
      "##em": 4915,
      "مرب": 4916,
      "حم": 4917,
      "دکتر": 4918,
      "##تومان": 4919,
      "دخ": 4920,
      "فوت": 4921,
      "مانند": 4922,
      "عمومی": 4923,
      "##کور": 4924,
      "شنبه": 4925,
      "گی": 4926,
      "فی": 4927,
      "برچسب": 4928,
      "مشاهده": 4929,
      "##هاي": 4930,
      "##تان": 4931,
      "خدا": 4932,
      "##شناس": 4933,
      "اشت": 4934,
      "هفته": 4935,
      "اساس": 4936,
      "معرفی": 4937,
      "مالی": 4938,
      "حتی": 4939,
      "جامعه": 4940,
      "قدر": 4941,
      "خاط": 4942,
      "نامه": 4943,
      "##زارت": 4944,
      "فصل": 4945,
      "##ew": 4946,
      "فرهنگی": 4947,
      "موب": 4948,
      "زمینه": 4949,
      "هایی": 4950,
      "موجود": 4951,
      "##����": 4952,
      "of": 4953,
      "##صر": 4954,
      "حوزه": 4955,
      "##خش": 4956,
      "وزارت": 4957,
      "##واره": 4958,
      "##op": 4959,
      "کودک": 4960,
      "##اري": 4961,
      "شع": 4962,
      "برگزار": 4963,
      "امن": 4964,
      "خوب": 4965,
      "##وین": 4966,
      "فرا": 4967,
      "سرمای": 4968,
      "پیام": 4969,
      "کارت": 4970,
      "##بته": 4971,
      "مرکز": 4972,
      "تحقیق": 4973,
      "مستق": 4974,
      "مقاله": 4975,
      "خاص": 4976,
      "##اهی": 4977,
      "##ابع": 4978,
      "وض": 4979,
      "##الت": 4980,
      "شورای": 4981,
      "##رافی": 4982,
      "انقلاب": 4983,
      "##ابت": 4984,
      "##لیغ": 4985,
      "##نام": 4986,
      "لازم": 4987,
      "۱۲": 4988,
      "ممکن": 4989,
      "تاثیر": 4990,
      "البته": 4991,
      "18": 4992,
      "انلاین": 4993,
      "##ابق": 4994,
      "##ch": 4995,
      "##تل": 4996,
      "جنگ": 4997,
      "تف": 4998,
      "کاربر": 4999,
      "زیادی": 5000,
      "چشم": 5001,
      "اندرو": 5002,
      "نفت": 5003,
      "حل": 5004,
      "صح": 5005,
      "##اون": 5006,
      "تبلیغ": 5007,
      "ندارد": 5008,
      "کردند": 5009,
      "اثر": 5010,
      "اض": 5011,
      "چون": 5012,
      "شا": 5013,
      "هدف": 5014,
      "اظه": 5015,
      "انتق": 5016,
      "##موعه": 5017,
      "##اویر": 5018,
      "شکل": 5019,
      "##ورش": 5020,
      "اگه": 5021,
      "تی": 5022,
      "##ig": 5023,
      "اظهار": 5024,
      "قد": 5025,
      "کسب": 5026,
      "##ter": 5027,
      "اغاز": 5028,
      "ني": 5029,
      "۱۱": 5030,
      "شماره": 5031,
      "تلا": 5032,
      "براي": 5033,
      "قانون": 5034,
      "##ربی": 5035,
      "باشید": 5036,
      "##یط": 5037,
      "كرد": 5038,
      "جهانی": 5039,
      "نقش": 5040,
      "کالا": 5041,
      "میلیون": 5042,
      "پیر": 5043,
      "موبایل": 5044,
      "طور": 5045,
      "موفق": 5046,
      "یه": 5047,
      "مطلب": 5048,
      "ارو": 5049,
      "in": 5050,
      "حک": 5051,
      "نقل": 5052,
      "اخرین": 5053,
      "##یتی": 5054,
      "دن": 5055,
      "##ندگان": 5056,
      "##lo": 5057,
      "نوشته": 5058,
      "تجه": 5059,
      "طول": 5060,
      "سطح": 5061,
      "حساب": 5062,
      "پژوه": 5063,
      "طبی": 5064,
      "تور": 5065,
      "۰۰۰تومان": 5066,
      "بودن": 5067,
      "##ay": 5068,
      "میزان": 5069,
      "تلف": 5070,
      "مجموعه": 5071,
      "##سر": 5072,
      "خوان": 5073,
      "طرف": 5074,
      "شهرستان": 5075,
      "17": 5076,
      "زیب": 5077,
      "دوست": 5078,
      "##طور": 5079,
      "وزیر": 5080,
      "مربوط": 5081,
      "بند": 5082,
      "##صه": 5083,
      "محل": 5084,
      "مک": 5085,
      "مرت": 5086,
      "طریق": 5087,
      "حقوق": 5088,
      "علمی": 5089,
      "رق": 5090,
      "دانشج": 5091,
      "بگیر": 5092,
      "حدود": 5093,
      "هو": 5094,
      "محیط": 5095,
      "سیاسی": 5096,
      "علوم": 5097,
      "تاک": 5098,
      "پوش": 5099,
      "بسیاری": 5100,
      "##شناسی": 5101,
      "سرو": 5102,
      "##عتی": 5103,
      "پیدا": 5104,
      "##ستر": 5105,
      "اولین": 5106,
      "##‌ال": 5107,
      "##خه": 5108,
      "رشته": 5109,
      "فل": 5110,
      "خوش": 5111,
      "##لیت": 5112,
      "دختر": 5113,
      "سفر": 5114,
      "موس": 5115,
      "ارز": 5116,
      "پذیر": 5117,
      "##سانی": 5118,
      "##ضر": 5119,
      "پروژه": 5120,
      "تصاویر": 5121,
      "##iv": 5122,
      "##ab": 5123,
      "منظ": 5124,
      "لباس": 5125,
      "صنعت": 5126,
      "##od": 5127,
      "##وي": 5128,
      "نت": 5129,
      "##us": 5130,
      "بهداشت": 5131,
      "فرهنگ": 5132,
      "ازمون": 5133,
      "مدت": 5134,
      "##افه": 5135,
      "##ومت": 5136,
      "ضر": 5137,
      "##دهد": 5138,
      "الله": 5139,
      "فروشگاه": 5140,
      "جمله": 5141,
      "##فاوت": 5142,
      "واحد": 5143,
      "اندروید": 5144,
      "تواند": 5145,
      "##خوا": 5146,
      "تاب": 5147,
      "اقتصاد": 5148,
      "بدن": 5149,
      "##os": 5150,
      "مذ": 5151,
      "مهند": 5152,
      "رشد": 5153,
      "اجرای": 5154,
      "##گزاری": 5155,
      "##اتر": 5156,
      "تلاش": 5157,
      "##بانی": 5158,
      "بندی": 5159,
      "مل": 5160,
      "##شنه": 5161,
      "ظرف": 5162,
      "اطلاع": 5163,
      "اقای": 5164,
      "برق": 5165,
      "تخص": 5166,
      "200": 5167,
      "##سن": 5168,
      "طی": 5169,
      "##وله": 5170,
      "سن": 5171,
      "##10": 5172,
      "##ونا": 5173,
      "نیم": 5174,
      "ورزش": 5175,
      "وقتی": 5176,
      "##ترل": 5177,
      "نصب": 5178,
      "برابر": 5179,
      "##50": 5180,
      "##‌پ": 5181,
      "##اسم": 5182,
      "##امپ": 5183,
      "مشه": 5184,
      "معاون": 5185,
      "تجهیز": 5186,
      "تیر": 5187,
      "بیماری": 5188,
      "بهتر": 5189,
      "##ري": 5190,
      "انسان": 5191,
      "نز": 5192,
      "یع": 5193,
      "##گرام": 5194,
      "قدرت": 5195,
      "##بیر": 5196,
      "اموزشی": 5197,
      "گفته": 5198,
      "30": 5199,
      "مستقیم": 5200,
      "##وتر": 5201,
      "جشن": 5202,
      "عد": 5203,
      "هزینه": 5204,
      "##انت": 5205,
      "پزشکی": 5206,
      "##مایی": 5207,
      "پي": 5208,
      "the": 5209,
      "کمی": 5210,
      "مي‌": 5211,
      "جد": 5212,
      "##اهای": 5213,
      "عرض": 5214,
      "and": 5215,
      "##ut": 5216,
      "سیم": 5217,
      "خارجی": 5218,
      "##میر": 5219,
      "##ایج": 5220,
      "نمونه": 5221,
      "امور": 5222,
      "۱۳۹۵": 5223,
      "شناس": 5224,
      "زمانی": 5225,
      "تهیه": 5226,
      "امید": 5227,
      "خلا": 5228,
      "جلس": 5229,
      "گرم": 5230,
      "##پا": 5231,
      "مشاور": 5232,
      "سوی": 5233,
      "كن": 5234,
      "ایا": 5235,
      "سایر": 5236,
      "خانواده": 5237,
      "اسف": 5238,
      "شامل": 5239,
      "عالی": 5240,
      "مشکلات": 5241,
      "داخلی": 5242,
      "تماس": 5243,
      "اث": 5244,
      "سوم": 5245,
      "000": 5246,
      "##وزی": 5247,
      "##ریف": 5248,
      "ارزش": 5249,
      "##ایع": 5250,
      "کاری": 5251,
      "دنبال": 5252,
      "##ینگ": 5253,
      "کنم": 5254,
      "ویر": 5255,
      "میر": 5256,
      "کوچ": 5257,
      "زیبا": 5258,
      "پلی": 5259,
      "فوتبال": 5260,
      "جا": 5261,
      "ورز": 5262,
      "نویس": 5263,
      "مثل": 5264,
      "یعنی": 5265,
      "##سل": 5266,
      "##جب": 5267,
      "نتی": 5268,
      "پل": 5269,
      "کنار": 5270,
      "##ولو": 5271,
      "بودند": 5272,
      "09": 5273,
      "منتشر": 5274,
      "مرح": 5275,
      "تامین": 5276,
      "خبرگزاری": 5277,
      "متر": 5278,
      "مسيول": 5279,
      "نگاه": 5280,
      "هنگ": 5281,
      "مدار": 5282,
      "##im": 5283,
      "##کیل": 5284,
      "##هم": 5285,
      "##کنون": 5286,
      "اینترنتی": 5287,
      "##‌‌": 5288,
      "نظام": 5289,
      "منابع": 5290,
      "##ندگی": 5291,
      "جذ": 5292,
      "##فع": 5293,
      "##زن": 5294,
      "سلامت": 5295,
      "22": 5296,
      "حمای": 5297,
      "##روع": 5298,
      "اینده": 5299,
      "نبود": 5300,
      "##ه‌اند": 5301,
      "جمهوری": 5302,
      "##شا": 5303,
      "نخست": 5304,
      "فضای": 5305,
      "ندار": 5306,
      "تجهیزات": 5307,
      "21": 5308,
      "نسخه": 5309,
      "##گار": 5310,
      "##ur": 5311,
      "ابزار": 5312,
      "سي": 5313,
      "۱۹": 5314,
      "کنترل": 5315,
      "وقت": 5316,
      "24": 5317,
      "##un": 5318,
      "##زیک": 5319,
      "محم": 5320,
      "دسته": 5321,
      "هفت": 5322,
      "تحت": 5323,
      "خاطر": 5324,
      "بي": 5325,
      "مغ": 5326,
      "استاند": 5327,
      "خوبی": 5328,
      "##ir": 5329,
      "##میت": 5330,
      "خواب": 5331,
      "صنعتی": 5332,
      "##یند": 5333,
      "۱۵": 5334,
      "ساختمان": 5335,
      "ابر": 5336,
      "پن": 5337,
      "پوست": 5338,
      "نگه": 5339,
      "##خی": 5340,
      "تاکید": 5341,
      "##جر": 5342,
      "##خته": 5343,
      "برخورد": 5344,
      "كار": 5345,
      "خبری": 5346,
      "##بط": 5347,
      "سل": 5348,
      "بس": 5349,
      "حاضر": 5350,
      "۱۳۹۸": 5351,
      "رابط": 5352,
      "##میم": 5353,
      "پیشنه": 5354,
      "نتیجه": 5355,
      "بسته": 5356,
      "لح": 5357,
      "خد": 5358,
      "گردش": 5359,
      "##خواست": 5360,
      "شروع": 5361,
      "دیدگاه": 5362,
      "توانید": 5363,
      "##يل": 5364,
      "وضعیت": 5365,
      "شنا": 5366,
      "معت": 5367,
      "ورود": 5368,
      "##وتی": 5369,
      "ایت": 5370,
      "##ستا": 5371,
      "##تون": 5372,
      "رضا": 5373,
      "25": 5374,
      "بتوان": 5375,
      "##ation": 5376,
      "سرمایه": 5377,
      "##ww": 5378,
      "مید": 5379,
      "مف": 5380,
      "کف": 5381,
      "##مللی": 5382,
      "مبار": 5383,
      "شدند": 5384,
      "وس": 5385,
      "خواست": 5386,
      "جلو": 5387,
      "##تور": 5388,
      "عملی": 5389,
      "فنا": 5390,
      "حمایت": 5391,
      "سوال": 5392,
      "##ارانتی": 5393,
      "قاب": 5394,
      "##ریم": 5395,
      "محدود": 5396,
      "جمع": 5397,
      "##اج": 5398,
      "فرز": 5399,
      "انتظ": 5400,
      "می‌کنند": 5401,
      "##ايل": 5402,
      "مطالب": 5403,
      "خبرنگ": 5404,
      "فوق": 5405,
      "حی": 5406,
      "يك": 5407,
      "##شک": 5408,
      "اضافه": 5409,
      "احتم": 5410,
      "23": 5411,
      "##وهای": 5412,
      "لای": 5413,
      "تلفن": 5414,
      "مراج": 5415,
      "دنیا": 5416,
      "زنان": 5417,
      "##تری": 5418,
      "##نو": 5419,
      "صادر": 5420,
      "کوت": 5421,
      "حضرت": 5422,
      "چگونه": 5423,
      "اسپ": 5424,
      "روح": 5425,
      "کاربرد": 5426,
      "دیگری": 5427,
      "اون": 5428,
      "۱۳۹۷": 5429,
      "مال": 5430,
      "عو": 5431,
      "##افی": 5432,
      "کامپی": 5433,
      "##چی": 5434,
      "##ادت": 5435,
      "فنی": 5436,
      "شهرد": 5437,
      "انگلی": 5438,
      "ضد": 5439,
      "##گل": 5440,
      "خارج": 5441,
      "##اضی": 5442,
      "اجرا": 5443,
      "۱۳۹۶": 5444,
      "کودکان": 5445,
      "2017": 5446,
      "هنر": 5447,
      "سع": 5448,
      "##سم": 5449,
      "##زین": 5450,
      "##مايید": 5451,
      "تبد": 5452,
      "##بع": 5453,
      "مطالعه": 5454,
      "پایگاه": 5455,
      "##ul": 5456,
      "##لیه": 5457,
      "حدا": 5458,
      "##000": 5459,
      "دع": 5460,
      "تد": 5461,
      "دادن": 5462,
      "دلار": 5463,
      "دقی": 5464,
      "بیمار": 5465,
      "همکاری": 5466,
      "فکر": 5467,
      "##گذار": 5468,
      "نزدی": 5469,
      "رض": 5470,
      "چنین": 5471,
      "میکن": 5472,
      "سیاست": 5473,
      "##وک": 5474,
      "تای": 5475,
      "##ظیم": 5476,
      "شهید": 5477,
      "موسی": 5478,
      "ویژ": 5479,
      "اشن": 5480,
      "نح": 5481,
      "پول": 5482,
      "عزی": 5483,
      "##یشه": 5484,
      "مادر": 5485,
      "فرمان": 5486,
      "##شنامه": 5487,
      "پست": 5488,
      "اید": 5489,
      "##اسیون": 5490,
      "##مر": 5491,
      "انتخابات": 5492,
      "##اض": 5493,
      "دهند": 5494,
      "توضی": 5495,
      "##بات": 5496,
      "##گانی": 5497,
      "هتل": 5498,
      "##80": 5499,
      "دوربین": 5500,
      "گارانتی": 5501,
      "پایه": 5502,
      "سرویس": 5503,
      "##\u0000\u0000\u0000\u0000\u0000\u0000\u0000\u0000": 5504,
      "سرد": 5505,
      "نف": 5506,
      "##پر": 5507,
      "اصفه": 5508,
      "۱۴": 5509,
      "پا": 5510,
      "هوش": 5511,
      "##جمه": 5512,
      "سرعت": 5513,
      "حسین": 5514,
      "##خصوص": 5515,
      "اندازه": 5516,
      "www": 5517,
      "##اهم": 5518,
      "خرداد": 5519,
      "علیه": 5520,
      "دي": 5521,
      "لط": 5522,
      "##بهشت": 5523,
      "بهمن": 5524,
      "##یره": 5525,
      "اماده": 5526,
      "اذر": 5527,
      "قالب": 5528,
      "طلا": 5529,
      "تمامی": 5530,
      "##گذاری": 5531,
      "عملکرد": 5532,
      "عضو": 5533,
      "توضیح": 5534,
      "داخل": 5535,
      "##تا": 5536,
      "روابط": 5537,
      "##‌هایی": 5538,
      "امیر": 5539,
      "مقام": 5540,
      "خون": 5541,
      "اخیر": 5542,
      "##طه": 5543,
      "ترکی": 5544,
      "دقیقه": 5545,
      "امد": 5546,
      "##يی": 5547,
      "مار": 5548,
      "##ابه": 5549,
      "اصلاح": 5550,
      "عدم": 5551,
      "##ولا": 5552,
      "##کش": 5553,
      "##og": 5554,
      "##راق": 5555,
      "##زای": 5556,
      "داستان": 5557,
      "راهن": 5558,
      "جلسه": 5559,
      "In": 5560,
      "کسی": 5561,
      "فارس": 5562,
      "يا": 5563,
      "دهید": 5564,
      "کاربران": 5565,
      "پخش": 5566,
      "تبدیل": 5567,
      "##سون": 5568,
      "الم": 5569,
      "عاش": 5570,
      "##فاع": 5571,
      "ارشد": 5572,
      "منظور": 5573,
      "درد": 5574,
      "پشت": 5575,
      "انر": 5576,
      "##رده": 5577,
      "ابان": 5578,
      "فشار": 5579,
      "هنوز": 5580,
      "احس": 5581,
      "تصمیم": 5582,
      "چاپ": 5583,
      "##شوند": 5584,
      "##ess": 5585,
      "##فاق": 5586,
      "مقا": 5587,
      "رم": 5588,
      "ورزشی": 5589,
      "درخواست": 5590,
      "##ویان": 5591,
      "فناوری": 5592,
      "بای": 5593,
      "##12": 5594,
      "رود": 5595,
      "موارد": 5596,
      "روان": 5597,
      "The": 5598,
      "گیری": 5599,
      "##راف": 5600,
      "بهره": 5601,
      "میز": 5602,
      "##روف": 5603,
      "##وبی": 5604,
      "کیل": 5605,
      "برج": 5606,
      "حمل": 5607,
      "رابطه": 5608,
      "اورد": 5609,
      "##مين": 5610,
      "مقابل": 5611,
      "درست": 5612,
      "##زي": 5613,
      "حد": 5614,
      "الع": 5615,
      "راح": 5616,
      "عق": 5617,
      "پژوهش": 5618,
      "استاد": 5619,
      "باشگاه": 5620,
      "##ews": 5621,
      "##روس": 5622,
      "مرحله": 5623,
      "چین": 5624,
      "امار": 5625,
      "بده": 5626,
      "جمعه": 5627,
      "کامپیوتر": 5628,
      "مسیر": 5629,
      "گذا": 5630,
      "##ربه": 5631,
      "مشهد": 5632,
      "سید": 5633,
      "میل": 5634,
      "اگهی": 5635,
      "##ستانی": 5636,
      "۱۶": 5637,
      "مراسم": 5638,
      "روشن": 5639,
      "استخدام": 5640,
      "دستور": 5641,
      "on": 5642,
      "عامل": 5643,
      "۳۰": 5644,
      "تشکیل": 5645,
      "##فون": 5646,
      "##‌تر": 5647,
      "##um": 5648,
      "##پیم": 5649,
      "استقل": 5650,
      "عرضه": 5651,
      "دفت": 5652,
      "فول": 5653,
      "##ادل": 5654,
      "##جو": 5655,
      "اصفهان": 5656,
      "بیمه": 5657,
      "مشخصات": 5658,
      "##لمان": 5659,
      "موتور": 5660,
      "تخصصی": 5661,
      "##ظر": 5662,
      "تاپ": 5663,
      "##ایند": 5664,
      "اتفاق": 5665,
      "حف": 5666,
      "۱۸": 5667,
      "ان‌ها": 5668,
      "فرم": 5669,
      "##لق": 5670,
      "برگزاری": 5671,
      "##يران": 5672,
      "##یدن": 5673,
      "نشست": 5674,
      "##ابان": 5675,
      "یافت": 5676,
      "نشده": 5677,
      "صند": 5678,
      "کارشناس": 5679,
      "نیوز": 5680,
      "##تح": 5681,
      "دیدار": 5682,
      "مى": 5683,
      "نب": 5684,
      "اخر": 5685,
      "##ویه": 5686,
      "می‌دهد": 5687,
      "کوتاه": 5688,
      "نرخ": 5689,
      "شاید": 5690,
      "طبیعی": 5691,
      "##ورتی": 5692,
      "برد": 5693,
      "جی": 5694,
      "مرداد": 5695,
      "##کتری": 5696,
      "##زل": 5697,
      "امده": 5698,
      "ظرفیت": 5699,
      "02": 5700,
      "سود": 5701,
      "##ریح": 5702,
      "##غال": 5703,
      "نوشت": 5704,
      "اسفند": 5705,
      "##30": 5706,
      "می‌تواند": 5707,
      "پرورش": 5708,
      "##‌اند": 5709,
      "اتاق": 5710,
      "##ــــ": 5711,
      "احتمال": 5712,
      "مهدی": 5713,
      "##شق": 5714,
      "انتقال": 5715,
      "سوالات": 5716,
      "الکتر": 5717,
      "پیشر": 5718,
      "بحث": 5719,
      "##دین": 5720,
      "لذ": 5721,
      "روست": 5722,
      "حجم": 5723,
      "تجربه": 5724,
      "##غان": 5725,
      "##ویزی": 5726,
      "بناب": 5727,
      "۲۰۱": 5728,
      "موسیقی": 5729,
      "صب": 5730,
      "پاور": 5731,
      "##ولوژی": 5732,
      "زیاد": 5733,
      "##حل": 5734,
      "##‌ب": 5735,
      "مراجعه": 5736,
      "چیست": 5737,
      "جل": 5738,
      "دوب": 5739,
      "ماس": 5740,
      "داریم": 5741,
      "چیزی": 5742,
      "شهریور": 5743,
      "کوچک": 5744,
      "سمت": 5745,
      "اداره": 5746,
      "مرکزی": 5747,
      "۱۳۹۴": 5748,
      "مطرح": 5749,
      "حالت": 5750,
      "کشاور": 5751,
      "استقلال": 5752,
      "دفتر": 5753,
      "جریان": 5754,
      "گاز": 5755,
      "رسانه": 5756,
      "##هن": 5757,
      "##رار": 5758,
      "میباشد": 5759,
      "##کنان": 5760,
      "کردم": 5761,
      "علاوه": 5762,
      "##av": 5763,
      "قابلیت": 5764,
      "##‌ترین": 5765,
      "تلویزی": 5766,
      "تبلیغات": 5767,
      "27": 5768,
      "##ساز": 5769,
      "پیشنهاد": 5770,
      "حالی": 5771,
      "هنگام": 5772,
      "برند": 5773,
      "۱۷": 5774,
      "##وگ": 5775,
      "زنانه": 5776,
      "انرژی": 5777,
      "##این": 5778,
      "ویژگی": 5779,
      "26": 5780,
      "##ابقه": 5781,
      "میتوان": 5782,
      "رژ": 5783,
      "##مع": 5784,
      "تس": 5785,
      "تکن": 5786,
      "##قدر": 5787,
      "لپ": 5788,
      "##ia": 5789,
      "بعدی": 5790,
      "می‌کن": 5791,
      "سپس": 5792,
      "01": 5793,
      "میلیارد": 5794,
      "##پرس": 5795,
      "گیرد": 5796,
      "معدن": 5797,
      "رسمی": 5798,
      "##طر": 5799,
      "اختی": 5800,
      "تعمیر": 5801,
      "خانم": 5802,
      "بیر": 5803,
      "سخن": 5804,
      "##لاف": 5805,
      "دش": 5806,
      "##تن": 5807,
      "درس": 5808,
      "احساس": 5809,
      "##ht": 5810,
      "حذ": 5811,
      "کشورهای": 5812,
      "موق": 5813,
      "طبق": 5814,
      "دام": 5815,
      "##عیین": 5816,
      "جشنواره": 5817,
      "##se": 5818,
      "سخت": 5819,
      "اردی": 5820,
      "##گي": 5821,
      "امر": 5822,
      "مناط": 5823,
      "2016": 5824,
      "گردد": 5825,
      "##لاگ": 5826,
      "علم": 5827,
      "ساخته": 5828,
      "اینجا": 5829,
      "##رانی": 5830,
      "الب": 5831,
      "روند": 5832,
      "تعیین": 5833,
      "##ov": 5834,
      "حرفه": 5835,
      "علت": 5836,
      "##پولی": 5837,
      "2018": 5838,
      "کنکور": 5839,
      "رز": 5840,
      "حرکت": 5841,
      "ارام": 5842,
      "##هی": 5843,
      "##ob": 5844,
      "##كن": 5845,
      "قران": 5846,
      "##راک": 5847,
      "هشت": 5848,
      "ول": 5849,
      "##مال": 5850,
      "بنی": 5851,
      "فرورد": 5852,
      "اردیبهشت": 5853,
      "##top": 5854,
      "راست": 5855,
      "صرف": 5856,
      "##دهم": 5857,
      "دارم": 5858,
      "گونه": 5859,
      "##گون": 5860,
      "پایین": 5861,
      "##واج": 5862,
      "قهر": 5863,
      "چهارشنبه": 5864,
      "##زا": 5865,
      "دارید": 5866,
      "بو": 5867,
      "##اها": 5868,
      "۲۲": 5869,
      "انجمن": 5870,
      "حفظ": 5871,
      "وال": 5872,
      "ویکی": 5873,
      "�����": 5874,
      "زیست": 5875,
      "ايران": 5876,
      "غذایی": 5877,
      "دوران": 5878,
      "تنظیم": 5879,
      "خصوصی": 5880,
      "سراس": 5881,
      "مهندسی": 5882,
      "##ستگی": 5883,
      "##راح": 5884,
      "قرارد": 5885,
      "##وران": 5886,
      "امنیت": 5887,
      "##گوی": 5888,
      "##ریز": 5889,
      "##سیون": 5890,
      "ساده": 5891,
      "##رمز": 5892,
      "##شون": 5893,
      "نویسنده": 5894,
      "خورد": 5895,
      "دقت": 5896,
      "ابی": 5897,
      "روسی": 5898,
      "##کا": 5899,
      "گوش": 5900,
      "حسن": 5901,
      "##ادث": 5902,
      "کاملا": 5903,
      "جست": 5904,
      "نزدیک": 5905,
      "تحلیل": 5906,
      "لیگ": 5907,
      "دوبله": 5908,
      "همیشه": 5909,
      "##وریه": 5910,
      "صبح": 5911,
      "بینی": 5912,
      "گذاری": 5913,
      "دقیق": 5914,
      "##ers": 5915,
      "رسانی": 5916,
      "##ریه": 5917,
      "##صاص": 5918,
      "مناطق": 5919,
      "##راین": 5920,
      "بلکه": 5921,
      "نماینده": 5922,
      "ماده": 5923,
      "قطع": 5924,
      "فض": 5925,
      "چیز": 5926,
      "درامد": 5927,
      "##ard": 5928,
      "اختیار": 5929,
      "خور": 5930,
      "##نویس": 5931,
      "اجر": 5932,
      "۲۵": 5933,
      "صنایع": 5934,
      "##جان": 5935,
      "عراق": 5936,
      "نتایج": 5937,
      "الکترونی": 5938,
      "ممن": 5939,
      "کمتر": 5940,
      "برنام": 5941,
      "##رز": 5942,
      "بنابراین": 5943,
      "پرسپولی": 5944,
      "28": 5945,
      "##وال": 5946,
      "برتر": 5947,
      "نحوه": 5948,
      "ویدی": 5949,
      "هواپیم": 5950,
      "جانبی": 5951,
      "هند": 5952,
      "29": 5953,
      "##60": 5954,
      "داشتن": 5955,
      "ترکیه": 5956,
      "بلند": 5957,
      "##دال": 5958,
      "##وە": 5959,
      "##13": 5960,
      "##افظ": 5961,
      "انگلیسی": 5962,
      "##ah": 5963,
      "ساله": 5964,
      "##قق": 5965,
      "مرتبط": 5966,
      "##ورس": 5967,
      "انتظار": 5968,
      "##اا": 5969,
      "سق": 5970,
      "##pe": 5971,
      "ازمای": 5972,
      "نوز": 5973,
      "##40": 5974,
      "دستی": 5975,
      "خدمت": 5976,
      "موزیک": 5977,
      "اهمیت": 5978,
      "نخواه": 5979,
      "فراهم": 5980,
      "موجب": 5981,
      "مدرس": 5982,
      "ایس": 5983,
      "اثار": 5984,
      "مشاوره": 5985,
      "حذف": 5986,
      "نکرد": 5987,
      "صدا": 5988,
      "مام": 5989,
      "خواهند": 5990,
      "۲۱": 5991,
      "نظرات": 5992,
      "50": 5993,
      "##ak": 5994,
      "ضمن": 5995,
      "##لات": 5996,
      "عزیز": 5997,
      "میشه": 5998,
      "فرص": 5999,
      "100": 6000,
      "انان": 6001,
      "بی‌": 6002,
      "وزن": 6003,
      "جع": 6004,
      "بیشتری": 6005,
      "##دیا": 6006,
      "شهرداری": 6007,
      "حالا": 6008,
      "##چار": 6009,
      "##نز": 6010,
      "ازد": 6011,
      "اختصاص": 6012,
      "##ايي": 6013,
      "##load": 6014,
      "##and": 6015,
      "##ازند": 6016,
      "نج": 6017,
      "##لاک": 6018,
      "##ile": 6019,
      "نمایشگاه": 6020,
      "##ce": 6021,
      "##یی": 6022,
      "دبیر": 6023,
      "سریع": 6024,
      "سبک": 6025,
      "##GB": 6026,
      "##اخ": 6027,
      "پدر": 6028,
      "138": 6029,
      "گرفتن": 6030,
      "##سیم": 6031,
      "معن": 6032,
      "زیبایی": 6033,
      "المللی": 6034,
      "##اصل": 6035,
      "جمهور": 6036,
      "##ارش": 6037,
      "نمایید": 6038,
      "متفاوت": 6039,
      "مبت": 6040,
      "پاک": 6041,
      "کارشناسی": 6042,
      "##aptop": 6043,
      "اینترنت": 6044,
      "شار": 6045,
      "۰۹": 6046,
      "ملت": 6047,
      "##شو": 6048,
      "اسیب": 6049,
      "##باز": 6050,
      "بروز": 6051,
      "##کته": 6052,
      "32": 6053,
      "##روش": 6054,
      "##ine": 6055,
      "##غل": 6056,
      "##ابد": 6057,
      "عرب": 6058,
      "۲۳": 6059,
      "ارزان": 6060,
      "تلگرام": 6061,
      "خیابان": 6062,
      "لیست": 6063,
      "دانشنامه": 6064,
      "منبع": 6065,
      "دوستان": 6066,
      "نکن": 6067,
      "قض": 6068,
      "پرسپولیس": 6069,
      "عوامل": 6070,
      "##یک": 6071,
      "قرارداد": 6072,
      "کلیک": 6073,
      "مسکن": 6074,
      "رفتار": 6075,
      "کرمان": 6076,
      "##لح": 6077,
      "مسايل": 6078,
      "اروپا": 6079,
      "##صورت": 6080,
      "##ادگی": 6081,
      "مرگ": 6082,
      "##واز": 6083,
      "##طان": 6084,
      "##دای": 6085,
      "غرب": 6086,
      "کافی": 6087,
      "##خیص": 6088,
      "پشتی": 6089,
      "انسانی": 6090,
      "خطر": 6091,
      "قل": 6092,
      "##گین": 6093,
      "ماند": 6094,
      "to": 6095,
      "اعضای": 6096,
      "##افق": 6097,
      "##خصص": 6098,
      "##las": 6099,
      "دفاع": 6100,
      "اکنون": 6101,
      "قم": 6102,
      "ران": 6103,
      "ایشان": 6104,
      "رییس": 6105,
      "##اسف": 6106,
      "##وینت": 6107,
      "عاشق": 6108,
      "کشاورزی": 6109,
      "رمان": 6110,
      "صورتی": 6111,
      "هستیم": 6112,
      "##pp": 6113,
      "ظاه": 6114,
      "نهاد": 6115,
      "عشق": 6116,
      "##ment": 6117,
      "##وده": 6118,
      "##ریب": 6119,
      "تازه": 6120,
      "##ial": 6121,
      "تجارت": 6122,
      "St": 6123,
      "سامسون": 6124,
      "شوید": 6125,
      "##راج": 6126,
      "امتی": 6127,
      "1396": 6128,
      "کلیه": 6129,
      "##کز": 6130,
      "ویکی‌پ": 6131,
      "40": 6132,
      "بهبود": 6133,
      "مساف": 6134,
      "اتش": 6135,
      "مخصوص": 6136,
      "دوشنبه": 6137,
      "دولتی": 6138,
      "شاد": 6139,
      "ویکی‌پدیا": 6140,
      "##ost": 6141,
      "مجازی": 6142,
      "مای": 6143,
      "##کتور": 6144,
      "##روی": 6145,
      "##ont": 6146,
      "سامسونگ": 6147,
      "زاده": 6148,
      "##راي": 6149,
      "##قد": 6150,
      "اصل": 6151,
      "۲۴": 6152,
      "##15": 6153,
      "##داف": 6154,
      "گوگل": 6155,
      "ازدواج": 6156,
      "رون": 6157,
      "##اورد": 6158,
      "جالب": 6159,
      "جامع": 6160,
      "حتما": 6161,
      "مناس": 6162,
      "اهن": 6163,
      "گیاه": 6164,
      "##طی": 6165,
      "متخصص": 6166,
      "##ناک": 6167,
      "##جد": 6168,
      "##پرد": 6169,
      "وظ": 6170,
      "ابتدا": 6171,
      "ارزی": 6172,
      "##کنش": 6173,
      "هوشمند": 6174,
      "خاک": 6175,
      "##امت": 6176,
      "عصر": 6177,
      "عبار": 6178,
      "میشود": 6179,
      "هیات": 6180,
      "بچه": 6181,
      "صحبت": 6182,
      "##اژ": 6183,
      "روزانه": 6184,
      "برس": 6185,
      "فروردین": 6186,
      "باب": 6187,
      "موثر": 6188,
      "مردانه": 6189,
      "روسیه": 6190,
      "دیر": 6191,
      "دندان": 6192,
      "##صیل": 6193,
      "مول": 6194,
      "##ماد": 6195,
      "درجه": 6196,
      "زیرا": 6197,
      "##‌هاي": 6198,
      "مسابق": 6199,
      "##ماه": 6200,
      "مقای": 6201,
      "معمولا": 6202,
      "تحریم": 6203,
      "گردشگری": 6204,
      "چرخ": 6205,
      "##اسان": 6206,
      "رسان": 6207,
      "رژیم": 6208,
      "سبز": 6209,
      "97": 6210,
      "##ظم": 6211,
      "##انو": 6212,
      "لوله": 6213,
      "حداقل": 6214,
      "دیده": 6215,
      "1397": 6216,
      "شاهد": 6217,
      "رفع": 6218,
      "##او": 6219,
      "##كت": 6220,
      "نداشت": 6221,
      "##th": 6222,
      "ببین": 6223,
      "بدان": 6224,
      "##جیت": 6225,
      "رهبر": 6226,
      "03": 6227,
      "سفید": 6228,
      "##ate": 6229,
      "پور": 6230,
      "##داشته": 6231,
      "##جع": 6232,
      "##ip": 6233,
      "عدد": 6234,
      "لطفا": 6235,
      "شخصی": 6236,
      "خانگی": 6237,
      "خودش": 6238,
      "##قا": 6239,
      "امسال": 6240,
      "یافته": 6241,
      "1395": 6242,
      "واقعی": 6243,
      "لە": 6244,
      "اعتبار": 6245,
      "بعضی": 6246,
      "00": 6247,
      "تجاری": 6248,
      "موفقیت": 6249,
      "مرغ": 6250,
      "نگر": 6251,
      "می‌شوند": 6252,
      "عملیات": 6253,
      "افغان": 6254,
      "##سا": 6255,
      "##حال": 6256,
      "##oo": 6257,
      "داره": 6258,
      "پاورپ": 6259,
      "##if": 6260,
      "##‌و": 6261,
      "روزنامه": 6262,
      "##eh": 6263,
      "##قیمت": 6264,
      "مدیران": 6265,
      "بودجه": 6266,
      "04": 6267,
      "كش": 6268,
      "فرصت": 6269,
      "اشپ": 6270,
      "استاندارد": 6271,
      "Pro": 6272,
      "##كه": 6273,
      "المان": 6274,
      "فرایند": 6275,
      "خرو": 6276,
      "نیروی": 6277,
      "اجرایی": 6278,
      "مقایسه": 6279,
      "قبلی": 6280,
      "07": 6281,
      "نکته": 6282,
      "شکست": 6283,
      "کانال": 6284,
      "امتیاز": 6285,
      "جلوگیری": 6286,
      "##يو": 6287,
      "بخشی": 6288,
      "2019": 6289,
      "انچه": 6290,
      "مسابقات": 6291,
      "05": 6292,
      "بلو": 6293,
      "معماری": 6294,
      "تصویری": 6295,
      "دانست": 6296,
      "شاخص": 6297,
      "##لال": 6298,
      "##کات": 6299,
      "##ژن": 6300,
      "جذب": 6301,
      "ترا": 6302,
      "ترجمه": 6303,
      "08": 6304,
      "خبرنگار": 6305,
      "##مات": 6306,
      "زیرنویس": 6307,
      "احمد": 6308,
      "##oc": 6309,
      "نیروهای": 6310,
      "##زاده": 6311,
      "نقد": 6312,
      "حاصل": 6313,
      "اگاه": 6314,
      "تلویزیون": 6315,
      "زد": 6316,
      "روحانی": 6317,
      "رقابت": 6318,
      "##يس": 6319,
      "مراکز": 6320,
      "##16": 6321,
      "صدای": 6322,
      "میدان": 6323,
      "##اجه": 6324,
      "##امبر": 6325,
      "البوم": 6326,
      "بلی": 6327,
      "##سلام": 6328,
      "##مینی": 6329,
      "سوریه": 6330,
      "##نش": 6331,
      "اسم": 6332,
      "ماهی": 6333,
      "96": 6334,
      "##هاج": 6335,
      "کارخانه": 6336,
      "اتوم": 6337,
      "##میل": 6338,
      "نوزاد": 6339,
      "نار": 6340,
      "##own": 6341,
      "اباد": 6342,
      "بیمارستان": 6343,
      "ایست": 6344,
      "می‌گو": 6345,
      "##اکر": 6346,
      "##19": 6347,
      "دیجیت": 6348,
      "ورد": 6349,
      "st": 6350,
      "رح": 6351,
      "محسن": 6352,
      "اولیه": 6353,
      "جوانان": 6354,
      "باشیم": 6355,
      "روغ": 6356,
      "مشترک": 6357,
      "سامانه": 6358,
      "##اتیک": 6359,
      "رهبری": 6360,
      "th": 6361,
      "الی": 6362,
      "دین": 6363,
      "##روم": 6364,
      "پاورپوینت": 6365,
      "دچار": 6366,
      "توی": 6367,
      "##ran": 6368,
      "اعتر": 6369,
      "صاد": 6370,
      "##زب": 6371,
      "تشخیص": 6372,
      "ترامپ": 6373,
      "رت": 6374,
      "گزینه": 6375,
      "دشمن": 6376,
      "چهارم": 6377,
      "##ژاد": 6378,
      "الان": 6379,
      "نمايید": 6380,
      "##دانلود": 6381,
      "خام": 6382,
      "##کری": 6383,
      "بە": 6384,
      "##ack": 6385,
      "##SB": 6386,
      "کلاس": 6387,
      "کرونا": 6388,
      "دانشجویان": 6389,
      "تمرین": 6390,
      "باغ": 6391,
      "مقاومت": 6392,
      "ویدیو": 6393,
      "زنج": 6394,
      "06": 6395,
      "بست": 6396,
      "طل": 6397,
      "مقدار": 6398,
      "وسی": 6399,
      "لا": 6400,
      "الات": 6401,
      "##تي": 6402,
      "بلیط": 6403,
      "مجله": 6404,
      "##انیه": 6405,
      "##رن": 6406,
      "انگی": 6407,
      "حمله": 6408,
      "تایید": 6409,
      "نموده": 6410,
      "جدا": 6411,
      "نهایی": 6412,
      "##شهر": 6413,
      "مخاط": 6414,
      "پرداز": 6415,
      "##iz": 6416,
      "ترب": 6417,
      "واکنش": 6418,
      "موسسه": 6419,
      "پرواز": 6420,
      "تفاوت": 6421,
      "مثال": 6422,
      "##دها": 6423,
      "نماید": 6424,
      "اتح": 6425,
      "توانند": 6426,
      "اداری": 6427,
      "تاریخی": 6428,
      "##گاب": 6429,
      "ادرس": 6430,
      "for": 6431,
      "ویند": 6432,
      "##اظ": 6433,
      "##قي": 6434,
      "مبارزه": 6435,
      "تي": 6436,
      "ذکر": 6437,
      "##شده": 6438,
      "نباید": 6439,
      "1398": 6440,
      "اعتماد": 6441,
      "ثابت": 6442,
      "نهای": 6443,
      "##one": 6444,
      "زنده": 6445,
      "شیمی": 6446,
      "نظامی": 6447,
      "فلس": 6448,
      "##all": 6449,
      "مقدم": 6450,
      "##فل": 6451,
      "جدی": 6452,
      "نیازم": 6453,
      "##ive": 6454,
      "https": 6455,
      "يک": 6456,
      "متاسف": 6457,
      "غذا": 6458,
      "ادبی": 6459,
      "شمال": 6460,
      "سعی": 6461,
      "شناسی": 6462,
      "##az": 6463,
      "##ord": 6464,
      "95": 6465,
      "##کاران": 6466,
      "فرش": 6467,
      "دیگه": 6468,
      "##اموز": 6469,
      "تقویت": 6470,
      "گذاشت": 6471,
      "رفته": 6472,
      "##اهیم": 6473,
      "کفش": 6474,
      "شان": 6475,
      "فن": 6476,
      "۰۲": 6477,
      "##داد": 6478,
      "##گفت": 6479,
      "##ax": 6480,
      "ذخ": 6481,
      "##شاه": 6482,
      "##الیا": 6483,
      "##زمان": 6484,
      "##ویل": 6485,
      "همسر": 6486,
      "اصول": 6487,
      "سنج": 6488,
      "گست": 6489,
      "اخلا": 6490,
      "سپاه": 6491,
      "تست": 6492,
      "##14": 6493,
      "توص": 6494,
      "بازگ": 6495,
      "پسر": 6496,
      "کدام": 6497,
      "عبدال": 6498,
      "##رود": 6499,
      "##ction": 6500,
      "دوباره": 6501,
      "هستید": 6502,
      "دنیای": 6503,
      "روغن": 6504,
      "امکانات": 6505,
      "##ارات": 6506,
      "دارو": 6507,
      "ویندوز": 6508,
      "##وف": 6509,
      "مکانی": 6510,
      "کلید": 6511,
      "اجازه": 6512,
      "جواب": 6513,
      "##مپ": 6514,
      "##خان": 6515,
      "##اصله": 6516,
      "وح": 6517,
      "##ex": 6518,
      "بالای": 6519,
      "قصد": 6520,
      "کمپ": 6521,
      "##ev": 6522,
      "2015": 6523,
      "گام": 6524,
      "عبارت": 6525,
      "حو": 6526,
      "تبریز": 6527,
      "شناسایی": 6528,
      "گستر": 6529,
      "محس": 6530,
      "جاری": 6531,
      "برقی": 6532,
      "مذاکر": 6533,
      "قوان": 6534,
      "۱۳۹۳": 6535,
      "فران": 6536,
      "کسانی": 6537,
      "امتح": 6538,
      "##ec": 6539,
      "##سین": 6540,
      "هنری": 6541,
      "پلیس": 6542,
      "##یته": 6543,
      "امریکایی": 6544,
      "##عود": 6545,
      "باشه": 6546,
      "##بیه": 6547,
      "##گز": 6548,
      "##18": 6549,
      "وید": 6550,
      "مشتریان": 6551,
      "رادی": 6552,
      "رع": 6553,
      "##اشی": 6554,
      "درون": 6555,
      "اهداف": 6556,
      "مبل": 6557,
      "پیشرفت": 6558,
      "پوشش": 6559,
      "بورس": 6560,
      "رخ": 6561,
      "شهرو": 6562,
      "قدیمی": 6563,
      "##eb": 6564,
      "متح": 6565,
      "##بیل": 6566,
      "##قات": 6567,
      "##ه‌و": 6568,
      "##شتر": 6569,
      "معروف": 6570,
      "متاسفانه": 6571,
      "کره": 6572,
      "ناب": 6573,
      "گران": 6574,
      "##لیلی": 6575,
      "##ort": 6576,
      "ازادی": 6577,
      "زي": 6578,
      "انیمی": 6579,
      "شعر": 6580,
      "کوه": 6581,
      "شمار": 6582,
      "۲۷": 6583,
      "بافت": 6584,
      "##90": 6585,
      "تحقیقات": 6586,
      "درمانی": 6587,
      "خراسان": 6588,
      "ویروس": 6589,
      "##غذ": 6590,
      "جنس": 6591,
      "##گیرد": 6592,
      "افغانستان": 6593,
      "دسترسی": 6594,
      "##رافیک": 6595,
      "لغ": 6596,
      "##ناد": 6597,
      "تحصیل": 6598,
      "##وج": 6599,
      "##یتر": 6600,
      "##دهی": 6601,
      "اقدامات": 6602,
      "##est": 6603,
      "خیر": 6604,
      "ندارند": 6605,
      "##ولیت": 6606,
      "سینما": 6607,
      "##يك": 6608,
      "کاربردی": 6609,
      "##وانی": 6610,
      "امیدوار": 6611,
      "پارک": 6612,
      "مدرسه": 6613,
      "مواجه": 6614,
      "یکشنبه": 6615,
      "۲۶": 6616,
      "##ram": 6617,
      "وبلاگ": 6618,
      "امنیتی": 6619,
      "##گردان": 6620,
      "##ire": 6621,
      "##شید": 6622,
      "درب": 6623,
      "D8": 6624,
      "افرادی": 6625,
      "نقشه": 6626,
      "نظارت": 6627,
      "شخصیت": 6628,
      "##ra": 6629,
      "فاصله": 6630,
      "جنوبی": 6631,
      "انیمیشن": 6632,
      "محور": 6633,
      "مخال": 6634,
      "نمایندگی": 6635,
      "استرات": 6636,
      "۲۸": 6637,
      "##ایه": 6638,
      "##our": 6639,
      "جدول": 6640,
      "##ist": 6641,
      "اسیاب": 6642,
      "##دس": 6643,
      "اصلا": 6644,
      "مسيولان": 6645,
      "##وو": 6646,
      "##قیه": 6647,
      "عه": 6648,
      "پشتیبانی": 6649,
      "##بد": 6650,
      "##خر": 6651,
      "متع": 6652,
      "مثلا": 6653,
      "اشتب": 6654,
      "##افظه": 6655,
      "مز": 6656,
      "##ower": 6657,
      "ریال": 6658,
      "برخوردار": 6659,
      "مکان": 6660,
      "ریاست": 6661,
      "##شمی": 6662,
      "عروس": 6663,
      "دهنده": 6664,
      "نیمه": 6665,
      "کمیسیون": 6666,
      "##کسی": 6667,
      "نخستین": 6668,
      "##ودر": 6669,
      "صادرات": 6670,
      "قانونی": 6671,
      "مهاج": 6672,
      "رتبه": 6673,
      "بحران": 6674,
      "استق": 6675,
      "مشار": 6676,
      "خشک": 6677,
      "##شویی": 6678,
      "حر": 6679,
      "طبقه": 6680,
      "واقعا": 6681,
      "متوس": 6682,
      "تغییرات": 6683,
      "رسیده": 6684,
      "جایگاه": 6685,
      "تبلت": 6686,
      "ارزیابی": 6687,
      "##صیلی": 6688,
      "۰۵": 6689,
      "واس": 6690,
      "ریزی": 6691,
      "علاقه": 6692,
      "حقی": 6693,
      "قا": 6694,
      "جذاب": 6695,
      "##eg": 6696,
      "بخو": 6697,
      "صاح": 6698,
      "##ight": 6699,
      "باور": 6700,
      "توافق": 6701,
      "##گانه": 6702,
      "کنندگان": 6703,
      "مسيله": 6704,
      "35": 6705,
      "نخواهد": 6706,
      "۰۱": 6707,
      "ریاضی": 6708,
      "##ep": 6709,
      "۲۹": 6710,
      "سیاه": 6711,
      "هنرم": 6712,
      "سان": 6713,
      "##وسی": 6714,
      "رفتن": 6715,
      "راهنمای": 6716,
      "۰۸": 6717,
      "ناخ": 6718,
      "##\u0000\u0000\u0000\u0000\u0000\u0000\u0000\u0000\u0000\u0000\u0000\u0000\u0000\u0000\u0000\u0000": 6719,
      "اله": 6720,
      "تصریح": 6721,
      "دیجیتال": 6722,
      "خس": 6723,
      "دهه": 6724,
      "##ماشا": 6725,
      "##age": 6726,
      "چهر": 6727,
      "بیت": 6728,
      "قلب": 6729,
      "کرب": 6730,
      "بهر": 6731,
      "تعریف": 6732,
      "نشد": 6733,
      "چال": 6734,
      "مهارت": 6735,
      "نداشته": 6736,
      "متو": 6737,
      "۰۴": 6738,
      "داشتند": 6739,
      "کرم": 6740,
      "##وقی": 6741,
      "##جوان": 6742,
      "##22": 6743,
      "مدارس": 6744,
      "##ownload": 6745,
      "##ویسی": 6746,
      "منزل": 6747,
      "نماز": 6748,
      "##har": 6749,
      "اساسی": 6750,
      "پاي": 6751,
      "##17": 6752,
      "شیراز": 6753,
      "اذرب": 6754,
      "اکس": 6755,
      "ديگر": 6756,
      "##اسیس": 6757,
      "خلاصه": 6758,
      "##عف": 6759,
      "پو": 6760,
      "بازاری": 6761,
      "بزن": 6762,
      "مشتری": 6763,
      "##بوب": 6764,
      "گسترش": 6765,
      "ایسنا": 6766,
      "هماه": 6767,
      "##يا": 6768,
      "ستاره": 6769,
      "تری": 6770,
      "بش": 6771,
      "سهام": 6772,
      "پرونده": 6773,
      "توصیه": 6774,
      "مقالات": 6775,
      "ایمیل": 6776,
      "عص": 6777,
      "اتص": 6778,
      "اشتراک": 6779,
      "##یلات": 6780,
      "۰۳": 6781,
      "همچنان": 6782,
      "جزيی": 6783,
      "زده": 6784,
      "في": 6785,
      "خواهید": 6786,
      "سند": 6787,
      "همس": 6788,
      "قطعات": 6789,
      "خواهیم": 6790,
      "مشابه": 6791,
      "##یری": 6792,
      "##بند": 6793,
      "نهایت": 6794,
      "باد": 6795,
      "ادم": 6796,
      "98": 6797,
      "60": 6798,
      "##خوان": 6799,
      "فرزند": 6800,
      "اینستا": 6801,
      "دهم": 6802,
      "اپارت": 6803,
      "##عده": 6804,
      "شارژ": 6805,
      "##وره": 6806,
      "رف": 6807,
      "چک": 6808,
      "نيز": 6809,
      "شدید": 6810,
      "خنده": 6811,
      "بارد": 6812,
      "شش": 6813,
      "شای": 6814,
      "##ەی": 6815,
      "پیچ": 6816,
      "رسیدن": 6817,
      "وي": 6818,
      "تاسیس": 6819,
      "##ادن": 6820,
      "اهل": 6821,
      "میک": 6822,
      "توضیحات": 6823,
      "سنتی": 6824,
      "##ايی": 6825,
      "##ide": 6826,
      "جنوب": 6827,
      "دکتری": 6828,
      "##کننده": 6829,
      "مقر": 6830,
      "تغذ": 6831,
      "##داران": 6832,
      "گیل": 6833,
      "رک": 6834,
      "##اساس": 6835,
      "روزهای": 6836,
      "##AT": 6837,
      "##حیه": 6838,
      "تروری": 6839,
      "تسه": 6840,
      "راحتی": 6841,
      "کلیپ": 6842,
      "##ian": 6843,
      "اندازی": 6844,
      "می‌رس": 6845,
      "بايد": 6846,
      "2013": 6847,
      "۱۳۸": 6848,
      "حیوان": 6849,
      "زدن": 6850,
      "##24": 6851,
      "##کیشن": 6852,
      "ویرایش": 6853,
      "مجاز": 6854,
      "##واری": 6855,
      "عربستان": 6856,
      "##افع": 6857,
      "ذهن": 6858,
      "می‌کرد": 6859,
      "سبب": 6860,
      "قوانین": 6861,
      "العاده": 6862,
      "کارشناسان": 6863,
      "کردیم": 6864,
      "اعمال": 6865,
      "##گابایت": 6866,
      "جمعیت": 6867,
      "رعایت": 6868,
      "نقطه": 6869,
      "1394": 6870,
      "##مدی": 6871,
      "مفید": 6872,
      "ماج": 6873,
      "محسوب": 6874,
      "##کلی": 6875,
      "##موع": 6876,
      "Bl": 6877,
      "۰۷": 6878,
      "##حیح": 6879,
      "اشنا": 6880,
      "##عهد": 6881,
      "##گن": 6882,
      "دیوار": 6883,
      "اشتباه": 6884,
      "نمایند": 6885,
      "خوز": 6886,
      "##باب": 6887,
      "##art": 6888,
      "مرز": 6889,
      "حکومت": 6890,
      "اذربایج": 6891,
      "عمده": 6892,
      "جدیدترین": 6893,
      "2014": 6894,
      "كند": 6895,
      "بگیرید": 6896,
      "بهداشتی": 6897,
      "ساختار": 6898,
      "سلی": 6899,
      "حزب": 6900,
      "قهرمان": 6901,
      "توزی": 6902,
      "کنس": 6903,
      "##كان": 6904,
      "خودم": 6905,
      "##گرم": 6906,
      "ترتی": 6907,
      "دادند": 6908,
      "##ory": 6909,
      "##دهند": 6910,
      "1393": 6911,
      "##عامل": 6912,
      "##فاظ": 6913,
      "درو": 6914,
      "زم": 6915,
      "روب": 6916,
      "تحصیلی": 6917,
      "سراسر": 6918,
      "##رکز": 6919,
      "##ib": 6920,
      "معتبر": 6921,
      "صندوق": 6922,
      "جراحی": 6923,
      "دعوت": 6924,
      "رست": 6925,
      "لذا": 6926,
      "تدری": 6927,
      "ببر": 6928,
      "عمر": 6929,
      "۰۶": 6930,
      "کمیته": 6931,
      "زود": 6932,
      "##عاد": 6933,
      "زیبای": 6934,
      "نمایندگان": 6935,
      "##ite": 6936,
      "مراحل": 6937,
      "قه": 6938,
      "##يز": 6939,
      "##ity": 6940,
      "سفارش": 6941,
      "تض": 6942,
      "فرام": 6943,
      "جستجو": 6944,
      "##متر": 6945,
      "فرانسه": 6946,
      "سینمایی": 6947,
      "براساس": 6948,
      "اجاره": 6949,
      "استراتژی": 6950,
      "ایفون": 6951,
      "نوجوان": 6952,
      "تشکر": 6953,
      "##ەر": 6954,
      "امتحان": 6955,
      "فت": 6956,
      "عباس": 6957,
      "دم": 6958,
      "##64": 6959,
      "##حات": 6960,
      "مرجع": 6961,
      "مثبت": 6962,
      "هستم": 6963,
      "خاصی": 6964,
      "قلم": 6965,
      "توزیع": 6966,
      "اپلی": 6967,
      "نوا": 6968,
      "مراق": 6969,
      "صوتی": 6970,
      "تکنولوژی": 6971,
      "مطل": 6972,
      "بین‌ال": 6973,
      "##یمان": 6974,
      "##دیگر": 6975,
      "پان": 6976,
      "مجموع": 6977,
      "##اوری": 6978,
      "رد": 6979,
      "کاغذ": 6980,
      "حقوقی": 6981,
      "31": 6982,
      "ایده": 6983,
      "##70": 6984,
      "پدید": 6985,
      "نسل": 6986,
      "تان": 6987,
      "##ایر": 6988,
      "##اسلام": 6989,
      "ویت": 6990,
      "اپارتمان": 6991,
      "بين": 6992,
      "ترم": 6993,
      "شیشه": 6994,
      "مازند": 6995,
      "محقق": 6996,
      "بصورت": 6997,
      "کلیدی": 6998,
      "انجا": 6999,
      "بیرون": 7000,
      "سهم": 7001,
      "چار": 7002,
      "حادث": 7003,
      "سرم": 7004,
      "سوخت": 7005,
      "##ey": 7006,
      "هیيت": 7007,
      "تقری": 7008,
      "نگهداری": 7009,
      "اینستاگرام": 7010,
      "اقا": 7011,
      "نقاط": 7012,
      "##الم": 7013,
      "شدت": 7014,
      "سیل": 7015,
      "اشنایی": 7016,
      "شرح": 7017,
      "##زاد": 7018,
      "جایی": 7019,
      "پزشک": 7020,
      "كشور": 7021,
      "حافظه": 7022,
      "##‌ن": 7023,
      "خوزستان": 7024,
      "متق": 7025,
      "ناشی": 7026,
      "لر": 7027,
      "##غه": 7028,
      "منجر": 7029,
      "دیگران": 7030,
      "##دنی": 7031,
      "حجت": 7032,
      "لحظه": 7033,
      "میده": 7034,
      "سالم": 7035,
      "##ونم": 7036,
      "له‌": 7037,
      "السلام": 7038,
      "شهادت": 7039,
      "ستاد": 7040,
      "حمید": 7041,
      "بوش": 7042,
      "ارتباطات": 7043,
      "پذیرش": 7044,
      "مشارکت": 7045,
      "##ith": 7046,
      "یخ": 7047,
      "حسینی": 7048,
      "##ore": 7049,
      "فاط": 7050,
      "گاهی": 7051,
      "علیر": 7052,
      "زندان": 7053,
      "نیرو": 7054,
      "کانون": 7055,
      "مختل": 7056,
      "اشپز": 7057,
      "تکمیل": 7058,
      "##ef": 7059,
      "محک": 7060,
      "33": 7061,
      "سنت": 7062,
      "مهندس": 7063,
      "##ارف": 7064,
      "مصاح": 7065,
      "بودم": 7066,
      "##جم": 7067,
      "سرطان": 7068,
      "اعتراض": 7069,
      "عبور": 7070,
      "اذربایجان": 7071,
      "لحاظ": 7072,
      "تکر": 7073,
      "ایمنی": 7074,
      "ماد": 7075,
      "تاکنون": 7076,
      "تولد": 7077,
      "##كی": 7078,
      "45": 7079,
      "۲۰۰": 7080,
      "داری": 7081,
      "##عش": 7082,
      "##اکی": 7083,
      "ترتیب": 7084,
      "فرمايید": 7085,
      "درای": 7086,
      "خبرنگاران": 7087,
      "##ell": 7088,
      "##بور": 7089,
      "سالن": 7090,
      "مطمين": 7091,
      "اپلیکیشن": 7092,
      "پنجشنبه": 7093,
      "##بل": 7094,
      "فردی": 7095,
      "Al": 7096,
      "وردپرس": 7097,
      "ترس": 7098,
      "##mp": 7099,
      "تحویل": 7100,
      "##11": 7101,
      "حفاظ": 7102,
      "جوش": 7103,
      "معامل": 7104,
      "محافظ": 7105,
      "##ind": 7106,
      "بازیکن": 7107,
      "معنی": 7108,
      "مسابقه": 7109,
      "HD": 7110,
      "کشت": 7111,
      "دف": 7112,
      "Ch": 7113,
      "##عم": 7114,
      "گال": 7115,
      "##ادیه": 7116,
      "##گاری": 7117,
      "همایش": 7118,
      "لایه": 7119,
      "##انیا": 7120,
      "اختلاف": 7121,
      "تبلیغاتی": 7122,
      "مذه": 7123,
      "مقدس": 7124,
      "تغذیه": 7125,
      "دکور": 7126,
      "##كر": 7127,
      "##ead": 7128,
      "برداری": 7129,
      "کشف": 7130,
      "##کال": 7131,
      "##علی": 7132,
      "##ي‌": 7133,
      "pro": 7134,
      "##باری": 7135,
      "عجی": 7136,
      "1392": 7137,
      "عهده": 7138,
      "دهیم": 7139,
      "##25": 7140,
      "ارش": 7141,
      "##ast": 7142,
      "۹۵": 7143,
      "##پایی": 7144,
      "این‌": 7145,
      "مرور": 7146,
      "نظری": 7147,
      "همچون": 7148,
      "بنا": 7149,
      "##ازدهم": 7150,
      "مجد": 7151,
      "قرمز": 7152,
      "درص": 7153,
      "بازر": 7154,
      "۱۳۹۲": 7155,
      "يە": 7156,
      "##میه": 7157,
      "##���": 7158,
      "ترکیب": 7159,
      "فولاد": 7160,
      "Ar": 7161,
      "##ابله": 7162,
      "محت": 7163,
      "al": 7164,
      "پت": 7165,
      "55": 7166,
      "قبول": 7167,
      "اوری": 7168,
      "اسیا": 7169,
      "همواره": 7170,
      "اورده": 7171,
      "کارهای": 7172,
      "مساله": 7173,
      "زنی": 7174,
      "کاب": 7175,
      "90": 7176,
      "صحیح": 7177,
      "بازگشت": 7178,
      "کت": 7179,
      "فدر": 7180,
      "باقی": 7181,
      "تقد": 7182,
      "##کنندگان": 7183,
      "مطالعات": 7184,
      "نژاد": 7185,
      "چنان": 7186,
      "##ماند": 7187,
      "قادر": 7188,
      "پاد": 7189,
      "کول": 7190,
      "بیست": 7191,
      "افس": 7192,
      "ابعاد": 7193,
      "بگذار": 7194,
      "##طرف": 7195,
      "تحول": 7196,
      "پیروزی": 7197,
      "##يري": 7198,
      "مقابله": 7199,
      "##يي": 7200,
      "##ue": 7201,
      "##برداری": 7202,
      "هواپیما": 7203,
      "رسد": 7204,
      "مستند": 7205,
      "اشتغال": 7206,
      "عید": 7207,
      "ad": 7208,
      "چقدر": 7209,
      "##زم": 7210,
      "خارجه": 7211,
      "ناز": 7212,
      "برو": 7213,
      "پارس": 7214,
      "خداوند": 7215,
      "اسان": 7216,
      "سابق": 7217,
      "شمالی": 7218,
      "36": 7219,
      "پنل": 7220,
      "گم": 7221,
      "معل": 7222,
      "حادثه": 7223,
      "واب": 7224,
      "##ik": 7225,
      "همزمان": 7226,
      "دزد": 7227,
      "دریا": 7228,
      "وسایل": 7229,
      "مبلغ": 7230,
      "صحنه": 7231,
      "##ub": 7232,
      "USB": 7233,
      "##ومتر": 7234,
      "بانکی": 7235,
      "سرخ": 7236,
      "الح": 7237,
      "مسی": 7238,
      "کابل": 7239,
      "نظیر": 7240,
      "##ng": 7241,
      "می‌گوید": 7242,
      "سرور": 7243,
      "نمی‌توان": 7244,
      "جدیدی": 7245,
      "ارتش": 7246,
      "برداشت": 7247,
      "بازیگر": 7248,
      "درک": 7249,
      "قز": 7250,
      "محتو": 7251,
      "##sp": 7252,
      "فهر": 7253,
      "خورش": 7254,
      "می‌توانید": 7255,
      "sh": 7256,
      "##سایت": 7257,
      "94": 7258,
      "عن": 7259,
      "برا": 7260,
      "انتقاد": 7261,
      "cont": 7262,
      "##زام": 7263,
      "ادبیات": 7264,
      "بخوان": 7265,
      "##گردد": 7266,
      "چهره": 7267,
      "نماي": 7268,
      "یزد": 7269,
      "حاشی": 7270,
      "گن": 7271,
      "##اردی": 7272,
      "مسلمان": 7273,
      "##ud": 7274,
      "الا": 7275,
      "##ه‌ر": 7276,
      "نفس": 7277,
      "ذخیره": 7278,
      "اشپزخانه": 7279,
      "کاربری": 7280,
      "کشتی": 7281,
      "##اث": 7282,
      "##عداد": 7283,
      "مستر": 7284,
      "نوروز": 7285,
      "مسجد": 7286,
      "مجوز": 7287,
      "##بندی": 7288,
      "عک": 7289,
      "غربی": 7290,
      "می‌باشد": 7291,
      "بهار": 7292,
      "مدرن": 7293,
      "##عي": 7294,
      "گذشت": 7295,
      "۱۳۹۹": 7296,
      "محبوب": 7297,
      "حساس": 7298,
      "توانست": 7299,
      "حکم": 7300,
      "حیوانات": 7301,
      "فرود": 7302,
      "موقعیت": 7303,
      "چالش": 7304,
      "توانایی": 7305,
      "سیر": 7306,
      "کری": 7307,
      "نیازمند": 7308,
      "34": 7309,
      "مور": 7310,
      "الکترونیک": 7311,
      "پلا": 7312,
      "درج": 7313,
      "انص": 7314,
      "حاک": 7315,
      "##پور": 7316,
      "##35": 7317,
      "مردان": 7318,
      "متوجه": 7319,
      "مهمترین": 7320,
      "تقریبا": 7321,
      "##ینت": 7322,
      "شناخت": 7323,
      "فس": 7324,
      "میتوانید": 7325,
      "##ژانس": 7326,
      "##end": 7327,
      "سعید": 7328,
      "افتاب": 7329,
      "هوایی": 7330,
      "طراح": 7331,
      "##وپ": 7332,
      "شده‌اند": 7333,
      "راحت": 7334,
      "ارایش": 7335,
      "ولت": 7336,
      "اغلب": 7337,
      "پد": 7338,
      "۵۰": 7339,
      "بری": 7340,
      "شف": 7341,
      "تربیت": 7342,
      "مصاحبه": 7343,
      "بازیکنان": 7344,
      "گوشت": 7345,
      "##لبان": 7346,
      "##per": 7347,
      "می‌توانند": 7348,
      "بگو": 7349,
      "##عب": 7350,
      "گفتگو": 7351,
      "نگار": 7352,
      "##ect": 7353,
      "منص": 7354,
      "##ته": 7355,
      "واقعیت": 7356,
      "یون": 7357,
      "##دایی": 7358,
      "80": 7359,
      "ظاهر": 7360,
      "یابد": 7361,
      "##نجی": 7362,
      "##ge": 7363,
      "دینی": 7364,
      "##حث": 7365,
      "داوط": 7366,
      "ساختمانی": 7367,
      "هاشمی": 7368,
      "عرصه": 7369,
      "اتحادیه": 7370,
      "فیلتر": 7371,
      "سک": 7372,
      "مفه": 7373,
      "تهدید": 7374,
      "میوه": 7375,
      "شبیه": 7376,
      "واردات": 7377,
      "كم": 7378,
      "پیگیری": 7379,
      "معتقد": 7380,
      "##obile": 7381,
      "مناق": 7382,
      "عج": 7383,
      "##nt": 7384,
      "##يات": 7385,
      "##ارو": 7386,
      "ادع": 7387,
      "پيش": 7388,
      "تند": 7389,
      "##af": 7390,
      "بزرگترین": 7391,
      "##ختی": 7392,
      "روزی": 7393,
      "می‌خواه": 7394,
      "##ێت": 7395,
      "فهرست": 7396,
      "##الح": 7397,
      "##Laptop": 7398,
      "تون": 7399,
      "جزيیات": 7400,
      "مختلفی": 7401,
      "##ml": 7402,
      "##وریت": 7403,
      "معظم": 7404,
      "داعش": 7405,
      "عاشقانه": 7406,
      "ورودی": 7407,
      "فیزی": 7408,
      "##کده": 7409,
      "دیدن": 7410,
      "اسناد": 7411,
      "مازندران": 7412,
      "##ry": 7413,
      "##ویش": 7414,
      "نقاشی": 7415,
      "وان": 7416,
      "لذت": 7417,
      "##85": 7418,
      "93": 7419,
      "شرق": 7420,
      "اپل": 7421,
      "اموزان": 7422,
      "تاري": 7423,
      "کشی": 7424,
      "##ink": 7425,
      "کیلو": 7426,
      "هوای": 7427,
      "##دامی": 7428,
      "قهوه": 7429,
      "صاحب": 7430,
      "##وگرافی": 7431,
      "گسترده": 7432,
      "##ملل": 7433,
      "وسیله": 7434,
      "شدم": 7435,
      "بازاریابی": 7436,
      "تال": 7437,
      "##اپی": 7438,
      "مزای": 7439,
      "چندین": 7440,
      "پلاس": 7441,
      "قول": 7442,
      "فرمانده": 7443,
      "وظی": 7444,
      "محمود": 7445,
      "##27": 7446,
      "شست": 7447,
      "بگیرد": 7448,
      "##ایق": 7449,
      "ایرنا": 7450,
      "برادر": 7451,
      "کرج": 7452,
      "حاج": 7453,
      "صفر": 7454,
      "##اندن": 7455,
      "Pl": 7456,
      "په": 7457,
      "##pt": 7458,
      "امروزه": 7459,
      "پنجم": 7460,
      "##ضان": 7461,
      "دانشگاهی": 7462,
      "تخم": 7463,
      "برجام": 7464,
      "جنب": 7465,
      "##ریزی": 7466,
      "##65": 7467,
      "##ice": 7468,
      "37": 7469,
      "قوی": 7470,
      "گردید": 7471,
      "صندلی": 7472,
      "##ادا": 7473,
      "مانده": 7474,
      "ششم": 7475,
      "بندر": 7476,
      "شناخته": 7477,
      "قضایی": 7478,
      "عوار": 7479,
      "الود": 7480,
      "بالاتر": 7481,
      "صدور": 7482,
      "فلزی": 7483,
      "سابقه": 7484,
      "##میلی": 7485,
      "طولانی": 7486,
      "علیرضا": 7487,
      "کارکنان": 7488,
      "توپ": 7489,
      "عقب": 7490,
      "رضایت": 7491,
      "یار": 7492,
      "عربی": 7493,
      "خلاق": 7494,
      "##بول": 7495,
      "نان": 7496,
      "بایگانی": 7497,
      "##رسانی": 7498,
      "مدیرعامل": 7499,
      "نبا": 7500,
      "##95": 7501,
      "ازمایش": 7502,
      "پودر": 7503,
      "اخذ": 7504,
      "کرده‌اند": 7505,
      "##درضا": 7506,
      "نيست": 7507,
      "##ایان": 7508,
      "الکترونیکی": 7509,
      "متعد": 7510,
      "vi": 7511,
      "جاده": 7512,
      "##ویب": 7513,
      "محتر": 7514,
      "۴۰": 7515,
      "##پیک": 7516,
      "##مندان": 7517,
      "سرا": 7518,
      "##of": 7519,
      "Ph": 7520,
      "بک": 7521,
      "##وح": 7522,
      "جهاد": 7523,
      "عضویت": 7524,
      "خمینی": 7525,
      "رشت": 7526,
      "قی": 7527,
      "##یار": 7528,
      "بنام": 7529,
      "##45": 7530,
      "غل": 7531,
      "دزدگیر": 7532,
      "بۆ": 7533,
      "راستای": 7534,
      "##جام": 7535,
      "کارگاه": 7536,
      "##فیف": 7537,
      "##يار": 7538,
      "عجیب": 7539,
      "شیوه": 7540,
      "##يان": 7541,
      "##بران": 7542,
      "۰۰۰تومانLaptop": 7543,
      "##۲۰": 7544,
      "##ies": 7545,
      "پرسش": 7546,
      "طرز": 7547,
      "88": 7548,
      "ژاپ": 7549,
      "بین‌المللی": 7550,
      "یکدیگر": 7551,
      "تصویب": 7552,
      "انداز": 7553,
      "ماسه": 7554,
      "می‌کنیم": 7555,
      "دادگاه": 7556,
      "قرن": 7557,
      "۳۱": 7558,
      "دومین": 7559,
      "##امون": 7560,
      "محلی": 7561,
      "مسيولیت": 7562,
      "دیروز": 7563,
      "##اباد": 7564,
      "کنه": 7565,
      "##ank": 7566,
      "2012": 7567,
      "##سور": 7568,
      "تاريخ": 7569,
      "500": 7570,
      "درخت": 7571,
      "مربی": 7572,
      "سرپر": 7573,
      "خوردن": 7574,
      "or": 7575,
      "تعط": 7576,
      "متوسط": 7577,
      "لند": 7578,
      "##اترین": 7579,
      "ممنون": 7580,
      "دلایل": 7581,
      "##پرداز": 7582,
      "38": 7583,
      "پرت": 7584,
      "گیلان": 7585,
      "طبیعت": 7586,
      "##پار": 7587,
      "مقاوم": 7588,
      "ضروری": 7589,
      "##ادار": 7590,
      "سوز": 7591,
      "غم": 7592,
      "##نظر": 7593,
      "##زوم": 7594,
      "چراغ": 7595,
      "سگ": 7596,
      "بازیگران": 7597,
      "##پذیر": 7598,
      "48": 7599,
      "عسل": 7600,
      "حاشیه": 7601,
      "##SU": 7602,
      "سلول": 7603,
      "تخت": 7604,
      "##رفه": 7605,
      "بیشترین": 7606,
      "##ss": 7607,
      "بشر": 7608,
      "گذاشته": 7609,
      "هسته": 7610,
      "##لیم": 7611,
      "##كي": 7612,
      "عدالت": 7613,
      "چربی": 7614,
      "تجربی": 7615,
      "باتری": 7616,
      "رج": 7617,
      "##اتو": 7618,
      "دە": 7619,
      "نوعی": 7620,
      "راهی": 7621,
      "بز": 7622,
      "##گرمی": 7623,
      "پرست": 7624,
      "عنا": 7625,
      "میکند": 7626,
      "ht": 7627,
      "رقم": 7628,
      "##شدار": 7629,
      "احمدی": 7630,
      "استر": 7631,
      "##لاغ": 7632,
      "##ata": 7633,
      "منفی": 7634,
      "##رق": 7635,
      "اتصال": 7636,
      "۱۰۰": 7637,
      "سخنرانی": 7638,
      "##min": 7639,
      "مجمع": 7640,
      "##ill": 7641,
      "اطراف": 7642,
      "زه": 7643,
      "شرقی": 7644,
      "مغز": 7645,
      "۰۰": 7646,
      "ترد": 7647,
      "70": 7648,
      "##nal": 7649,
      "پاید": 7650,
      "خواندن": 7651,
      "مدا": 7652,
      "بالایی": 7653,
      "استاندار": 7654,
      "فرزندان": 7655,
      "می‌رسد": 7656,
      "تولیدی": 7657,
      "وظیفه": 7658,
      "می‌گیرد": 7659,
      "کلمات": 7660,
      "##ومه": 7661,
      "اولویت": 7662,
      "رویکرد": 7663,
      "حداک": 7664,
      "دکوراسیون": 7665,
      "فدراسیون": 7666,
      "##رض": 7667,
      "بدین": 7668,
      "چای": 7669,
      "##الد": 7670,
      "بازرگانی": 7671,
      "##ستری": 7672,
      "ضربه": 7673,
      "معلم": 7674,
      "تابستان": 7675,
      "##پوش": 7676,
      "39": 7677,
      "معاونت": 7678,
      "نیستند": 7679,
      "ویديو": 7680,
      "##سک": 7681,
      "##‌الله": 7682,
      "شهروندان": 7683,
      "فراموش": 7684,
      "##شب": 7685,
      "##ear": 7686,
      "تمای": 7687,
      "زل": 7688,
      "##كرد": 7689,
      "سامان": 7690,
      "##33": 7691,
      "اگاهی": 7692,
      "##ديد": 7693,
      "##‌ای": 7694,
      "انکه": 7695,
      "تصاد": 7696,
      "Laptop": 7697,
      "فردا": 7698,
      "پایت": 7699,
      "عوارض": 7700,
      "سنگین": 7701,
      "خروج": 7702,
      "فال": 7703,
      "مناسبی": 7704,
      "بارداری": 7705,
      "حرم": 7706,
      "كل": 7707,
      "پمپ": 7708,
      "وام": 7709,
      "شیمیایی": 7710,
      "up": 7711,
      "بلک": 7712,
      "##ver": 7713,
      "بنیاد": 7714,
      "خودروهای": 7715,
      "##lash": 7716,
      "بیماران": 7717,
      "##‌‌‌‌": 7718,
      "##پس": 7719,
      "##مندی": 7720,
      "میکنم": 7721,
      "کارتون": 7722,
      "پال": 7723,
      "##ـــ": 7724,
      "محترم": 7725,
      "اچ": 7726,
      "##وذ": 7727,
      "Com": 7728,
      "نویسی": 7729,
      "شیرین": 7730,
      "پیشگیری": 7731,
      "شي": 7732,
      "اختصاصی": 7733,
      "بزرگی": 7734,
      "##77": 7735,
      "انگیز": 7736,
      "##زمین": 7737,
      "##امله": 7738,
      "حقیقت": 7739,
      "گونا": 7740,
      "مراقبت": 7741,
      "##ەوە": 7742,
      "روزه": 7743,
      "بانوان": 7744,
      "Sh": 7745,
      "44": 7746,
      "سکه": 7747,
      "##ly": 7748,
      "مخالف": 7749,
      "##ame": 7750,
      "بگ": 7751,
      "پیوند": 7752,
      "##ext": 7753,
      "بشه": 7754,
      "##AM": 7755,
      "گری": 7756,
      "الف": 7757,
      "گوید": 7758,
      "اکثر": 7759,
      "##ialis": 7760,
      "تقسیم": 7761,
      "##یداد": 7762,
      "نکات": 7763,
      "منح": 7764,
      "بتواند": 7765,
      "استقبال": 7766,
      "سرمایه‌": 7767,
      "##lic": 7768,
      "##یب": 7769,
      "##ail": 7770,
      "تياتر": 7771,
      "اتی": 7772,
      "مهمی": 7773,
      "##نين": 7774,
      "##io": 7775,
      "نشود": 7776,
      "بم": 7777,
      "##ریحی": 7778,
      "نشانه": 7779,
      "##دل": 7780,
      "موقع": 7781,
      "##man": 7782,
      "کنفر": 7783,
      "تحلیلی": 7784,
      "درصدی": 7785,
      "رده": 7786,
      "D9": 7787,
      "92": 7788,
      "##تاح": 7789,
      "##ندم": 7790,
      "وجه": 7791,
      "##sh": 7792,
      "##اع": 7793,
      "مشغ": 7794,
      "##غم": 7795,
      "راهکار": 7796,
      "85": 7797,
      "زخ": 7798,
      "اطلاعاتی": 7799,
      "مبتلا": 7800,
      "استی": 7801,
      "##افر": 7802,
      "چت": 7803,
      "ابتدای": 7804,
      "جديد": 7805,
      "چطور": 7806,
      "رستوران": 7807,
      "ابتدایی": 7808,
      "صادق": 7809,
      "فری": 7810,
      "محاس": 7811,
      "خواص": 7812,
      "گذار": 7813,
      "قوه": 7814,
      "گاه": 7815,
      "##ook": 7816,
      "##ورو": 7817,
      "##مش": 7818,
      "کلمه": 7819,
      "##فری": 7820,
      "جایزه": 7821,
      "پلاستی": 7822,
      "##اصر": 7823,
      "##اوی": 7824,
      "مذهبی": 7825,
      "##وردی": 7826,
      "##کام": 7827,
      "##يده": 7828,
      "صفحات": 7829,
      "تعهد": 7830,
      "ظهر": 7831,
      "##ure": 7832,
      "تعدادی": 7833,
      "عرو": 7834,
      "چینی": 7835,
      "رمز": 7836,
      "##log": 7837,
      "##32": 7838,
      "Th": 7839,
      "##ult": 7840,
      "is": 7841,
      "##cc": 7842,
      "##انلود": 7843,
      "کیش": 7844,
      "##ant": 7845,
      "مناسبت": 7846,
      "خلی": 7847,
      "وضع": 7848,
      "افتتاح": 7849,
      "سونی": 7850,
      "##ايش": 7851,
      "چسب": 7852,
      "محمدرضا": 7853,
      "لغو": 7854,
      "زنگ": 7855,
      "##able": 7856,
      "cialis": 7857,
      "##زیه": 7858,
      "قزوین": 7859,
      "##line": 7860,
      "##الله": 7861,
      "ارامش": 7862,
      "##مح": 7863,
      "##يف": 7864,
      "استخراج": 7865,
      "نتوان": 7866,
      "باره": 7867,
      "##اء": 7868,
      "حمام": 7869,
      "##ه‌هایی": 7870,
      "فاطمه": 7871,
      "##قای": 7872,
      "##ype": 7873,
      "ریس": 7874,
      "فرمت": 7875,
      "چوب": 7876,
      "یادگیری": 7877,
      "هماهنگی": 7878,
      "یاس": 7879,
      "عموم": 7880,
      "##ثی": 7881,
      "##ینال": 7882,
      "##ER": 7883,
      "گیاهان": 7884,
      "کنگ": 7885,
      "رنگی": 7886,
      "سردار": 7887,
      "بهینه": 7888,
      "##روت": 7889,
      "هدایت": 7890,
      "##زله": 7891,
      "مهمان": 7892,
      "بسیج": 7893,
      "47": 7894,
      "##لیک": 7895,
      "Ad": 7896,
      "مدیرکل": 7897,
      "##ain": 7898,
      "##ویا": 7899,
      "تاز": 7900,
      "دک": 7901,
      "##قاد": 7902,
      "##ني": 7903,
      "قطعه": 7904,
      "محتوای": 7905,
      "کتابخانه": 7906,
      "رضوی": 7907,
      "##unction": 7908,
      "تدریس": 7909,
      "انف": 7910,
      "خالی": 7911,
      "عین": 7912,
      "می‌دهند": 7913,
      "الاسلام": 7914,
      "res": 7915,
      "کارگران": 7916,
      "انتی": 7917,
      "شلو": 7918,
      "##ه‌ك": 7919,
      "ابراهیم": 7920,
      "##ايد": 7921,
      "عینک": 7922,
      "##OS": 7923,
      "پنجره": 7924,
      "محاسبه": 7925,
      "ناخن": 7926,
      "42": 7927,
      "##دیه": 7928,
      "سراسری": 7929,
      "قتل": 7930,
      "ثانیه": 7931,
      "كرده": 7932,
      "ar": 7933,
      "هفتم": 7934,
      "64": 7935,
      "کرمانشاه": 7936,
      "ضرورت": 7937,
      "قي": 7938,
      "تخفیف": 7939,
      "دب": 7940,
      "رمضان": 7941,
      "سرک": 7942,
      "معامله": 7943,
      "پیمان": 7944,
      "طال": 7945,
      "وعده": 7946,
      "اسل": 7947,
      "##نشان": 7948,
      "افتخ": 7949,
      "حسابداری": 7950,
      "اسمان": 7951,
      "مهد": 7952,
      "تعوی": 7953,
      "ارتقا": 7954,
      "##اااا": 7955,
      "##ونت": 7956,
      "html": 7957,
      "صلح": 7958,
      "##وين": 7959,
      "##ust": 7960,
      "##جات": 7961,
      "اهواز": 7962,
      "مظ": 7963,
      "پیاده": 7964,
      "نکرده": 7965,
      "App": 7966,
      "##‌جمه": 7967,
      "##ber": 7968,
      "فرودگاه": 7969,
      "سقف": 7970,
      "##37": 7971,
      "##روه": 7972,
      "شركت": 7973,
      "مسافر": 7974,
      "بردن": 7975,
      "##اهد": 7976,
      "شغل": 7977,
      "مشغول": 7978,
      "سازه": 7979,
      "خال": 7980,
      "امین": 7981,
      "حوادث": 7982,
      "قدم": 7983,
      "پیشرفته": 7984,
      "##‌اف": 7985,
      "نوین": 7986,
      "موضوعات": 7987,
      "with": 7988,
      "تماشا": 7989,
      "هشدار": 7990,
      "ولایت": 7991,
      "خلق": 7992,
      "##lass": 7993,
      "بب": 7994,
      "امادگی": 7995,
      "##ang": 7996,
      "الودگی": 7997,
      "رونمایی": 7998,
      "مفهوم": 7999,
      "فاز": 8000,
      "تصور": 8001,
      "بدانید": 8002,
      "تز": 8003,
      "شك": 8004,
      "استع": 8005,
      "معاملات": 8006,
      "ایین": 8007,
      "محدوده": 8008,
      "احتمالا": 8009,
      "جرم": 8010,
      "مسعود": 8011,
      "##کران": 8012,
      "پایتخت": 8013,
      "سرگرمی": 8014,
      "قهرمانی": 8015,
      "حفاظت": 8016,
      "روس": 8017,
      "كنند": 8018,
      "زرد": 8019,
      "گروهی": 8020,
      "شرط": 8021,
      "شفاف": 8022,
      "معنای": 8023,
      "جس": 8024,
      "##نمای": 8025,
      "کنفرانس": 8026,
      "گشت": 8027,
      "مهاجرت": 8028,
      "درم": 8029,
      "کشوری": 8030,
      "شهرهای": 8031,
      "باران": 8032,
      "عطر": 8033,
      "بنده": 8034,
      "نزد": 8035,
      "نکنید": 8036,
      "اقامت": 8037,
      "تسهیلات": 8038,
      "57": 8039,
      "کپی": 8040,
      "سایز": 8041,
      "##ورا": 8042,
      "مناقصه": 8043,
      "##rom": 8044,
      "گفتم": 8045,
      "ارشی": 8046,
      "گیگابایت": 8047,
      "نفوذ": 8048,
      "ایستگاه": 8049,
      "سه‌": 8050,
      "ممنوع": 8051,
      "معدنی": 8052,
      "تحقق": 8053,
      "محمدی": 8054,
      "متحده": 8055,
      "طوری": 8056,
      "همدان": 8057,
      "پروف": 8058,
      "نباشد": 8059,
      "متقاضی": 8060,
      "##گویی": 8061,
      "سازنده": 8062,
      "##اده‌": 8063,
      "می­": 8064,
      "البر": 8065,
      "مین": 8066,
      "مایک": 8067,
      "علايم": 8068,
      "اصط": 8069,
      "کالای": 8070,
      "##رضا": 8071,
      "اسک": 8072,
      "##وای": 8073,
      "فعلی": 8074,
      "Mobile": 8075,
      "On": 8076,
      "مبنی": 8077,
      "##ams": 8078,
      "اخلاق": 8079,
      "content": 8080,
      "ارای": 8081,
      "کیلومتر": 8082,
      "##ارا": 8083,
      "هم‌": 8084,
      "کردستان": 8085,
      "فرض": 8086,
      "منتظر": 8087,
      "PM": 8088,
      "نجات": 8089,
      "49": 8090,
      "فضا": 8091,
      "توليد": 8092,
      "بوشهر": 8093,
      "##زده": 8094,
      "هنرمندان": 8095,
      "##سي": 8096,
      "اینه": 8097,
      "روانی": 8098,
      "شعار": 8099,
      "##شای": 8100,
      "##قان": 8101,
      "##وسف": 8102,
      "موسس": 8103,
      "حداکثر": 8104,
      "ملا": 8105,
      "سخنان": 8106,
      "ملک": 8107,
      "##emory": 8108,
      "برنامه‌": 8109,
      "طنز": 8110,
      "بران": 8111,
      "تبریک": 8112,
      "عمران": 8113,
      "شیخ": 8114,
      "مند": 8115,
      "میلادی": 8116,
      "46": 8117,
      "پارچه": 8118,
      "ازمایشگاه": 8119,
      "محرم": 8120,
      "خودکار": 8121,
      "##عیف": 8122,
      "##احت": 8123,
      "اروپایی": 8124,
      "باق": 8125,
      "دسترس": 8126,
      "گفت‌و": 8127,
      "دانشکده": 8128,
      "تعمیرات": 8129,
      "تکرار": 8130,
      "مقط": 8131,
      "ph": 8132,
      "##وري": 8133,
      "جلب": 8134,
      "خودشان": 8135,
      "300": 8136,
      "##شنگ": 8137,
      "جواد": 8138,
      "روي": 8139,
      "دانشجو": 8140,
      "##انا": 8141,
      "می‌دان": 8142,
      "##فیه": 8143,
      "برسد": 8144,
      "فیزیک": 8145,
      "زير": 8146,
      "کشته": 8147,
      "میراث": 8148,
      "##چین": 8149,
      "منتقل": 8150,
      "ملل": 8151,
      "زهرا": 8152,
      "انگلیس": 8153,
      "رویداد": 8154,
      "نگرانی": 8155,
      "##34": 8156,
      "##‌سازی": 8157,
      "روستایی": 8158,
      "شناسه": 8159,
      "وبسایت": 8160,
      "حدی": 8161,
      "زا": 8162,
      "عادی": 8163,
      "##ug": 8164,
      "اطمین": 8165,
      "##mA": 8166,
      "تقا": 8167,
      "function": 8168,
      "##اني": 8169,
      "شیک": 8170,
      "شغ": 8171,
      "زمینی": 8172,
      "کمبود": 8173,
      "##du": 8174,
      "توج": 8175,
      "میلاد": 8176,
      "اژانس": 8177,
      "##28": 8178,
      "رسیدگی": 8179,
      "قاچ": 8180,
      "##بو": 8181,
      "می‌شد": 8182,
      "##رفت": 8183,
      "ویتامین": 8184,
      "بوی": 8185,
      "رام": 8186,
      "موج": 8187,
      "##بهه": 8188,
      "سران": 8189,
      "داغ": 8190,
      "##لسی": 8191,
      "مدير": 8192,
      "فلش": 8193,
      "2020": 8194,
      "گردن": 8195,
      "احتر": 8196,
      "اکت": 8197,
      "سنجش": 8198,
      "by": 8199,
      "هي": 8200,
      "بازنش": 8201,
      "مربوطه": 8202,
      "الهی": 8203,
      "خاطرنشان": 8204,
      "##oh": 8205,
      "روستای": 8206,
      "سرمربی": 8207,
      "##مم": 8208,
      "بازداشت": 8209,
      "مالک": 8210,
      "بلا": 8211,
      "محدودیت": 8212,
      "راهنمایی": 8213,
      "مانتو": 8214,
      "##usic": 8215,
      "فيلم": 8216,
      "بتن": 8217,
      "##گزار": 8218,
      "سازمانی": 8219,
      "مبارک": 8220,
      "دخترانه": 8221,
      "خن": 8222,
      "ژان": 8223,
      "اتم": 8224,
      "افتاد": 8225,
      "سخنگ": 8226,
      "گلستان": 8227,
      "کریمی": 8228,
      "سيو": 8229,
      "لاغ": 8230,
      "رادیو": 8231,
      "جور": 8232,
      "خواننده": 8233,
      "##تمع": 8234,
      "توصی": 8235,
      "داشتم": 8236,
      "محیطی": 8237,
      "بدست": 8238,
      "غلام": 8239,
      "فا": 8240,
      "هل": 8241,
      "کلام": 8242,
      "هاست": 8243,
      "##99": 8244,
      "انح": 8245,
      "مردمی": 8246,
      "ناپ": 8247,
      "##صاب": 8248,
      "کشورها": 8249,
      "دانشجویی": 8250,
      "جعبه": 8251,
      "اطمینان": 8252,
      "زمين": 8253,
      "##يني": 8254,
      "یو": 8255,
      "کنی": 8256,
      "ایکس": 8257,
      "نانو": 8258,
      "کجا": 8259,
      "کلاه": 8260,
      "خودتان": 8261,
      "وای": 8262,
      "نهم": 8263,
      "پێ": 8264,
      "##ED": 8265,
      "مطب": 8266,
      "روایت": 8267,
      "سختی": 8268,
      "گالری": 8269,
      "معادل": 8270,
      "اندی": 8271,
      "نگران": 8272,
      "ببینید": 8273,
      "##ph": 8274,
      "برترین": 8275,
      "ابلاغ": 8276,
      "سم": 8277,
      "مگ": 8278,
      "دیپ": 8279,
      "دون": 8280,
      "نع": 8281,
      "##ass": 8282,
      "مبانی": 8283,
      "بهره‌": 8284,
      "ماهه": 8285,
      "تمرکز": 8286,
      "باند": 8287,
      "۹۸": 8288,
      "##۵۰": 8289,
      "الملل": 8290,
      "مشهور": 8291,
      "اری": 8292,
      "اسراي": 8293,
      "مجتمع": 8294,
      "##ong": 8295,
      "نشر": 8296,
      "جزو": 8297,
      "مجدد": 8298,
      "شرکت‌های": 8299,
      "پاش": 8300,
      "متری": 8301,
      "صدر": 8302,
      "برده": 8303,
      "قطعا": 8304,
      "مسک": 8305,
      "##ولان": 8306,
      "##نای": 8307,
      "انتظامی": 8308,
      "درام": 8309,
      "ان‌": 8310,
      "تخصص": 8311,
      "1391": 8312,
      "پیشنهادی": 8313,
      "مشکلی": 8314,
      "خروجی": 8315,
      "یك": 8316,
      "##ضه": 8317,
      "##ff": 8318,
      "ده‌": 8319,
      "هشتم": 8320,
      "سور": 8321,
      "نما": 8322,
      "گرامی": 8323,
      "نشانی": 8324,
      "##گردانی": 8325,
      "بهم": 8326,
      "طلایی": 8327,
      "بازي": 8328,
      "پیامبر": 8329,
      "زلزله": 8330,
      "هویت": 8331,
      "پوشاک": 8332,
      "فای": 8333,
      "خطوط": 8334,
      "##act": 8335,
      "وار": 8336,
      "بازديد": 8337,
      "##55": 8338,
      "##زایی": 8339,
      "قاچاق": 8340,
      "هید": 8341,
      "Download": 8342,
      "##اتور": 8343,
      "هرگز": 8344,
      "علاق": 8345,
      "For": 8346,
      "##جانی": 8347,
      "##alax": 8348,
      "گیاهی": 8349,
      "عط": 8350,
      "##ينه": 8351,
      "استرس": 8352,
      "فضایی": 8353,
      "##mAh": 8354,
      "##alaxy": 8355,
      "امپ": 8356,
      "##ary": 8357,
      "دیوان": 8358,
      "روزها": 8359,
      "this": 8360,
      "مذاکره": 8361,
      "##انیان": 8362,
      "پرده": 8363,
      "##ung": 8364,
      "عکاسی": 8365,
      "##ox": 8366,
      "برنج": 8367,
      "ریز": 8368,
      "##06": 8369,
      "منو": 8370,
      "مجبور": 8371,
      "قطر": 8372,
      "##up": 8373,
      "مخلو": 8374,
      "ایرانیان": 8375,
      "وحد": 8376,
      "دارویی": 8377,
      "مجید": 8378,
      "شگفت": 8379,
      "گیم": 8380,
      "خودروی": 8381,
      "دریایی": 8382,
      "##بخت": 8383,
      "##۱۳": 8384,
      "پژوهشی": 8385,
      "##put": 8386,
      "انع": 8387,
      "می‌رود": 8388,
      "برنامه‌های": 8389,
      "سرپرست": 8390,
      "##زنی": 8391,
      "میخ": 8392,
      "پیشواز": 8393,
      "##خوانی": 8394,
      "كردن": 8395,
      "ارشیو": 8396,
      "ون": 8397,
      "##38": 8398,
      "تکنیک": 8399,
      "56": 8400,
      "تدوین": 8401,
      "##qu": 8402,
      "حاوی": 8403,
      "استخدامی": 8404,
      "جناب": 8405,
      "کولر": 8406,
      "مطابق": 8407,
      "خل": 8408,
      "##گزین": 8409,
      "##جوی": 8410,
      "قرص": 8411,
      "##ish": 8412,
      "##ase": 8413,
      "گوناگون": 8414,
      "نبوده": 8415,
      "##97": 8416,
      "مجه": 8417,
      "جمعی": 8418,
      "تابلو": 8419,
      "سقوط": 8420,
      "هدیه": 8421,
      "##عکس": 8422,
      "تسن": 8423,
      "##ote": 8424,
      "هج": 8425,
      "فرار": 8426,
      "فرمود": 8427,
      "بودیم": 8428,
      "تام": 8429,
      "ضعف": 8430,
      "فکری": 8431,
      "فرست": 8432,
      "نماد": 8433,
      "##لان": 8434,
      "##چال": 8435,
      "همکاران": 8436,
      "یازدهم": 8437,
      "سینمای": 8438,
      "54": 8439,
      "قدرتمند": 8440,
      "میکرو": 8441,
      "##wn": 8442,
      "ترانه": 8443,
      "نگاهی": 8444,
      "##میز": 8445,
      "نفتی": 8446,
      "وابسته": 8447,
      "بله": 8448,
      "##وید": 8449,
      "شرایطی": 8450,
      "news": 8451,
      "احدا": 8452,
      "گفت‌وگو": 8453,
      "##94": 8454,
      "همانطور": 8455,
      "کور": 8456,
      "##خره": 8457,
      "سوي": 8458,
      "غذای": 8459,
      "بت": 8460,
      "##نس": 8461,
      "##دیت": 8462,
      "۹۷": 8463,
      "##ذر": 8464,
      "فهم": 8465,
      "۹۶": 8466,
      "مدارک": 8467,
      "چگون": 8468,
      "اوم": 8469,
      "58": 8470,
      "ابراز": 8471,
      "##سیر": 8472,
      "##ومیت": 8473,
      "##ه‌ایم": 8474,
      "##زشکی": 8475,
      "املاک": 8476,
      "رسول": 8477,
      "راهبرد": 8478,
      "##ارم": 8479,
      "بخوانید": 8480,
      "فجر": 8481,
      "نظریه": 8482,
      "له": 8483,
      "واحدهای": 8484,
      "صلاح": 8485,
      "وحدت": 8486,
      "AM": 8487,
      "##98": 8488,
      "کشورمان": 8489,
      "بتوانند": 8490,
      "دهان": 8491,
      "افزونه": 8492,
      "تصفیه": 8493,
      "AD": 8494,
      "سد": 8495,
      "گرافیک": 8496,
      "##۱۰": 8497,
      "روانشناسی": 8498,
      "فلسط": 8499,
      "ثروت": 8500,
      "سرزمین": 8501,
      "البرز": 8502,
      "مدیره": 8503,
      "##خیر": 8504,
      "جاذ": 8505,
      "##36": 8506,
      "##ars": 8507,
      "2011": 8508,
      "Sc": 8509,
      "##هام": 8510,
      "واژه": 8511,
      "کمپانی": 8512,
      "at": 8513,
      "##icro": 8514,
      "استخوان": 8515,
      "##ریت": 8516,
      "مانع": 8517,
      "بچ": 8518,
      "شغلی": 8519,
      "احداث": 8520,
      "نوری": 8521,
      "خواسته": 8522,
      "مستقل": 8523,
      "یادداشت": 8524,
      "ایالات": 8525,
      "ایز": 8526,
      "صاب": 8527,
      "پایی": 8528,
      "##جار": 8529,
      "سالانه": 8530,
      "گذر": 8531,
      "مقامات": 8532,
      "تورم": 8533,
      "مسکونی": 8534,
      "لیزر": 8535,
      "کانادا": 8536,
      "##یدم": 8537,
      "مخاطب": 8538,
      "ناحیه": 8539,
      "مقررات": 8540,
      "##ark": 8541,
      "##\u0000\u0000\u0000\u0000\u0000\u0000\u0000\u0000\u0000\u0000\u0000\u0000\u0000\u0000\u0000\u0000\u0000\u0000\u0000\u0000\u0000\u0000\u0000\u0000\u0000\u0000\u0000\u0000\u0000\u0000\u0000\u0000": 8542,
      "نوجوانان": 8543,
      "post": 8544,
      "شکر": 8545,
      "##AN": 8546,
      "نوبت": 8547,
      "شهدا": 8548,
      "اعتقاد": 8549,
      "کارگردان": 8550,
      "توجیه": 8551,
      "مذاکرات": 8552,
      "سال‌های": 8553,
      "هرچ": 8554,
      "##كتر": 8555,
      "منطق": 8556,
      "##SI": 8557,
      "ابن": 8558,
      "براى": 8559,
      "عده": 8560,
      "فش": 8561,
      "۵۰۰": 8562,
      "سرما": 8563,
      "ایتالیا": 8564,
      "##كار": 8565,
      "زنجان": 8566,
      "Memory": 8567,
      "جایگزین": 8568,
      "صرفا": 8569,
      "کج": 8570,
      "خریداری": 8571,
      "قبیل": 8572,
      "موزه": 8573,
      "نمی‌شود": 8574,
      "دمو": 8575,
      "معنا": 8576,
      "مواردی": 8577,
      "متغ": 8578,
      "سیب": 8579,
      "##ie": 8580,
      "##۱۲": 8581,
      "مبا": 8582,
      "##ON": 8583,
      "اسید": 8584,
      "شری": 8585,
      "معص": 8586,
      "معادن": 8587,
      "قيمت": 8588,
      "دس": 8589,
      "##كند": 8590,
      "ایام": 8591,
      "بدنه": 8592,
      "گردیده": 8593,
      "سبزی": 8594,
      "پنه": 8595,
      "می‌کنم": 8596,
      "دروغ": 8597,
      "باط": 8598,
      "اپارات": 8599,
      "گلکسی": 8600,
      "كتاب": 8601,
      "##غد": 8602,
      "##بازی": 8603,
      "خلیج": 8604,
      "نک": 8605,
      "اوا": 8606,
      "##‌ی": 8607,
      "##ه‌هاي": 8608,
      "Go": 8609,
      "خسته": 8610,
      "پولی": 8611,
      "مدتی": 8612,
      "دیدنی": 8613,
      "توجهی": 8614,
      "فروشنده": 8615,
      "جنبش": 8616,
      "کارکرد": 8617,
      "ستار": 8618,
      "ارشاد": 8619,
      "تمایل": 8620,
      "##كس": 8621,
      "موهای": 8622,
      "تزي": 8623,
      "##نم": 8624,
      "پدیده": 8625,
      "##ual": 8626,
      "مدرک": 8627,
      "کیک": 8628,
      "جبهه": 8629,
      "##ash": 8630,
      "##گذشت": 8631,
      "تسنیم": 8632,
      "بج": 8633,
      "وف": 8634,
      "ریشه": 8635,
      "سخنگوی": 8636,
      "هزین": 8637,
      "سلامتی": 8638,
      "حرک": 8639,
      "شبک": 8640,
      "##ical": 8641,
      "##سنج": 8642,
      "##اما": 8643,
      "##SUS": 8644,
      "بازسازی": 8645,
      "فساد": 8646,
      "اصطلاح": 8647,
      "مجهز": 8648,
      "پورت": 8649,
      "##یتا": 8650,
      "پروژ": 8651,
      "Galaxy": 8652,
      "وات": 8653,
      "منافع": 8654,
      "مقطع": 8655,
      "گنج": 8656,
      "##96": 8657,
      "کالاهای": 8658,
      "##يب": 8659,
      "تنوع": 8660,
      "Inst": 8661,
      "بید": 8662,
      "##ضل": 8663,
      "بيشتر": 8664,
      "وقوع": 8665,
      "##نوعی": 8666,
      "اوردن": 8667,
      "جنسی": 8668,
      "همانند": 8669,
      "اتوماتیک": 8670,
      "##ویز": 8671,
      "نمک": 8672,
      "خات": 8673,
      "مریم": 8674,
      "دهی": 8675,
      "انداخت": 8676,
      "هنگامی": 8677,
      "چپ": 8678,
      "میخو": 8679,
      "##عنوان": 8680,
      "تفکر": 8681,
      "بگذارید": 8682,
      "دای": 8683,
      "سمن": 8684,
      "تزریق": 8685,
      "ديد": 8686,
      "##are": 8687,
      "برگشت": 8688,
      "مالیات": 8689,
      "جغ": 8690,
      "اوقات": 8691,
      "شهرک": 8692,
      "ارتفاع": 8693,
      "43": 8694,
      "ASUS": 8695,
      "مسو": 8696,
      "قدس": 8697,
      "##کم": 8698,
      "الن": 8699,
      "دیواری": 8700,
      "بيم": 8701,
      "عليه": 8702,
      "52": 8703,
      "سالی": 8704,
      "مصوب": 8705,
      "Ex": 8706,
      "چاه": 8707,
      "میلی‌": 8708,
      "اضطر": 8709,
      "تقل": 8710,
      "بقیه": 8711,
      "اندیشه": 8712,
      "شهردار": 8713,
      "سانتی": 8714,
      "توق": 8715,
      "میکنه": 8716,
      "##اهن": 8717,
      "نوار": 8718,
      "##ld": 8719,
      "سايت": 8720,
      "دیپلم": 8721,
      "جاد": 8722,
      "قند": 8723,
      "نمودار": 8724,
      "سیمان": 8725,
      "سعودی": 8726,
      "داوطلبان": 8727,
      "Power": 8728,
      "86": 8729,
      "ردی": 8730,
      "والی": 8731,
      "متعلق": 8732,
      "##ele": 8733,
      "data": 8734,
      "ژاپن": 8735,
      "۳۶": 8736,
      "اسرايیل": 8737,
      "نادر": 8738,
      "##گروه": 8739,
      "##شهری": 8740,
      "مون": 8741,
      "هرک": 8742,
      "نمي": 8743,
      "سبد": 8744,
      "تعویض": 8745,
      "##ەک": 8746,
      "##ورده": 8747,
      "اردبیل": 8748,
      "طلب": 8749,
      "نر": 8750,
      "##شند": 8751,
      "##می‌": 8752,
      "فیس": 8753,
      "هرمز": 8754,
      "ابرو": 8755,
      "##agram": 8756,
      "بومی": 8757,
      "انگشت": 8758,
      "دانه": 8759,
      "می‌اید": 8760,
      "لزوم": 8761,
      "کاشت": 8762,
      "بطور": 8763,
      "هور": 8764,
      "##ress": 8765,
      "##يک": 8766,
      "مخدر": 8767,
      "اختلال": 8768,
      "دامنه": 8769,
      "##ez": 8770,
      "فاض": 8771,
      "##خورد": 8772,
      "قبلا": 8773,
      "رنج": 8774,
      "##df": 8775,
      "مطلوب": 8776,
      "مالیاتی": 8777,
      "سح": 8778,
      "##ari": 8779,
      "مسلح": 8780,
      "خرم": 8781,
      "اسکن": 8782,
      "هرگونه": 8783,
      "##her": 8784,
      "۳۵": 8785,
      "اینچ": 8786,
      "پرچ": 8787,
      "خاطرات": 8788,
      "حاکم": 8789,
      "برش": 8790,
      "##اطر": 8791,
      "عوض": 8792,
      "خش": 8793,
      "##ادي": 8794,
      "گیرند": 8795,
      "##ــــــــ": 8796,
      "ذوب": 8797,
      "می‎": 8798,
      "برنده": 8799,
      "تمیز": 8800,
      "زح": 8801,
      "مصنوعی": 8802,
      "ايت": 8803,
      "احترام": 8804,
      "##هاى": 8805,
      "مخاب": 8806,
      "##مار": 8807,
      "سنسور": 8808,
      "تنگ": 8809,
      "موی": 8810,
      "دانشم": 8811,
      "کارگردانی": 8812,
      "##ایف": 8813,
      "کریم": 8814,
      "فوری": 8815,
      "هسته‌ای": 8816,
      "فراوان": 8817,
      "##گذارد": 8818,
      "شیرینی": 8819,
      "����": 8820,
      "فرنگی": 8821,
      "مگر": 8822,
      "کنونی": 8823,
      "تعامل": 8824,
      "ماش": 8825,
      "نداره": 8826,
      "زای": 8827,
      "اپدیت": 8828,
      "##oft": 8829,
      "##الي": 8830,
      "متهم": 8831,
      "اتوب": 8832,
      "مخلوط": 8833,
      "##عمل": 8834,
      "فعالیت‌های": 8835,
      "المپیک": 8836,
      "##یتور": 8837,
      "views": 8838,
      "ذه": 8839,
      "هارد": 8840,
      "ژن": 8841,
      "رانندگی": 8842,
      "چگونگی": 8843,
      "Man": 8844,
      "New": 8845,
      "##ser": 8846,
      "افزايش": 8847,
      "پروانه": 8848,
      "##RL": 8849,
      "##ساخت": 8850,
      "پیوست": 8851,
      "تلویزیونی": 8852,
      "Dis": 8853,
      "امیدوارم": 8854,
      "##لر": 8855,
      "##44": 8856,
      "تقو": 8857,
      "مباحث": 8858,
      "بوت": 8859,
      "##pl": 8860,
      "شهدای": 8861,
      "ریسک": 8862,
      "ارتباطی": 8863,
      "##وعی": 8864,
      "##92": 8865,
      "jp": 8866,
      "دبی": 8867,
      "##وه‌": 8868,
      "دمای": 8869,
      "والدین": 8870,
      "دما": 8871,
      "##‌اش": 8872,
      "فارکس": 8873,
      "انقلابی": 8874,
      "هواد": 8875,
      "۳۲": 8876,
      "##IN": 8877,
      "##ID": 8878,
      "سایه": 8879,
      "##ix": 8880,
      "بیوگرافی": 8881,
      "2010": 8882,
      "دانش‌": 8883,
      "خاور": 8884,
      "مود": 8885,
      "هادی": 8886,
      "شویم": 8887,
      "حرارت": 8888,
      "جنگل": 8889,
      "##‌بینی": 8890,
      "بستر": 8891,
      "ویل": 8892,
      "##ree": 8893,
      "ندارم": 8894,
      "نیازهای": 8895,
      "اعتی": 8896,
      "75": 8897,
      "سیما": 8898,
      "نوشتن": 8899,
      "امضا": 8900,
      "تنش": 8901,
      "یخچال": 8902,
      "##‌شان": 8903,
      "##93": 8904,
      "##رسي": 8905,
      "کلا": 8906,
      "عام": 8907,
      "قاي": 8908,
      "##AR": 8909,
      "##ایب": 8910,
      "الکتری": 8911,
      "اوج": 8912,
      "ربات": 8913,
      "ایل": 8914,
      "مبتنی": 8915,
      "پناه": 8916,
      "خوراکی": 8917,
      "87": 8918,
      "برچسب‌ها": 8919,
      "سالگی": 8920,
      "سرباز": 8921,
      "تخلف": 8922,
      "جاب": 8923,
      "##اهر": 8924,
      "الگو": 8925,
      "wp": 8926,
      "پخت": 8927,
      "##ونیک": 8928,
      "بسيار": 8929,
      "وکیل": 8930,
      "کاش": 8931,
      "##یدر": 8932,
      "شاع": 8933,
      "روبرو": 8934,
      "##‌گیری": 8935,
      "صهی": 8936,
      "##ok": 8937,
      "##روسافت": 8938,
      "پرداخته": 8939,
      "اخلاقی": 8940,
      "زوج": 8941,
      "افریق": 8942,
      "پیرامون": 8943,
      "##تیک": 8944,
      "پات": 8945,
      "##هزار": 8946,
      "رزرو": 8947,
      "جلد": 8948,
      "فیزیکی": 8949,
      "دکمه": 8950,
      "اعتیاد": 8951,
      "Bank": 8952,
      "تدا": 8953,
      "اسب": 8954,
      "فرمای": 8955,
      "##ony": 8956,
      "برجسته": 8957,
      "##نوشت": 8958,
      "Phot": 8959,
      "توری": 8960,
      "روستا": 8961,
      "##اطی": 8962,
      "هرچه": 8963,
      "##ign": 8964,
      "##ATA": 8965,
      "بدی": 8966,
      "ظه": 8967,
      "##فاوتی": 8968,
      "Sams": 8969,
      "##Flash": 8970,
      "##ولد": 8971,
      "مذکور": 8972,
      "خي": 8973,
      "يه‌": 8974,
      "خسارت": 8975,
      "راز": 8976,
      "1390": 8977,
      "قطار": 8978,
      "صابون": 8979,
      "سینه": 8980,
      "##فاعی": 8981,
      "ترافیک": 8982,
      "امري": 8983,
      "##گا": 8984,
      "قربانی": 8985,
      "تفریحی": 8986,
      "##‌شده": 8987,
      "کنگره": 8988,
      "امدن": 8989,
      "##وشاپ": 8990,
      "مرتضی": 8991,
      "##ome": 8992,
      "افتاده": 8993,
      "بردار": 8994,
      "برطرف": 8995,
      "##ace": 8996,
      "سطوح": 8997,
      "ارایه": 8998,
      "مجلسی": 8999,
      "دز": 9000,
      "هیجان": 9001,
      "بنزین": 9002,
      "افکار": 9003,
      "##کوپ": 9004,
      "بکار": 9005,
      "فانت": 9006,
      "خوشحال": 9007,
      "دختران": 9008,
      "دشمنان": 9009,
      "##اسي": 9010,
      "##ه‌وه‌": 9011,
      "##ازده": 9012,
      "اشک": 9013,
      "عبدالله": 9014,
      "واسه": 9015,
      "فو": 9016,
      "درسی": 9017,
      "##ous": 9018,
      "پستی": 9019,
      "##حسین": 9020,
      "پارسی": 9021,
      "##مانه": 9022,
      "کارگر": 9023,
      "فروشی": 9024,
      "##CO": 9025,
      "همون": 9026,
      "بزنید": 9027,
      "تبی": 9028,
      "has": 9029,
      "باری": 9030,
      "##کنی": 9031,
      "۶۰": 9032,
      "پیشین": 9033,
      "پزشکان": 9034,
      "##يمي": 9035,
      "مي‌شود": 9036,
      "پایدار": 9037,
      "pl": 9038,
      "مصر": 9039,
      "تروریستی": 9040,
      "##وبه": 9041,
      "جزیره": 9042,
      "خورشید": 9043,
      "##aw": 9044,
      "##چرخ": 9045,
      "دارایی": 9046,
      "عزیزان": 9047,
      "کنسرت": 9048,
      "##کیج": 9049,
      "اکبر": 9050,
      "درایور": 9051,
      "رساند": 9052,
      "53": 9053,
      "کیس": 9054,
      "گي": 9055,
      "متنوع": 9056,
      "پتروش": 9057,
      "معرض": 9058,
      "##وقف": 9059,
      "##ردگی": 9060,
      "اینها": 9061,
      "کمترین": 9062,
      "محتوا": 9063,
      "دلم": 9064,
      "پردازش": 9065,
      "ضعیف": 9066,
      "مصط": 9067,
      "انتشارات": 9068,
      "##افرینی": 9069,
      "پنهان": 9070,
      "یورو": 9071,
      "##sc": 9072,
      "بابت": 9073,
      "مشا": 9074,
      "ناد": 9075,
      "غذاهای": 9076,
      "##ogle": 9077,
      "حافظ": 9078,
      "خویش": 9079,
      "خواستار": 9080,
      "##ae": 9081,
      "دیجی": 9082,
      "چندان": 9083,
      "سازد": 9084,
      "هواداران": 9085,
      "بوک": 9086,
      "##فروش": 9087,
      "اسما": 9088,
      "۱۳۹۱": 9089,
      "جلسات": 9090,
      "65": 9091,
      "ضرب": 9092,
      "ex": 9093,
      "بغ": 9094,
      "نوروزی": 9095,
      "افتخار": 9096,
      "اسلامي": 9097,
      "امداد": 9098,
      "عمی": 9099,
      "الکت": 9100,
      "معمولی": 9101,
      "برقرار": 9102,
      "مسيولین": 9103,
      "تصادف": 9104,
      "مشرو": 9105,
      "ماسک": 9106,
      "ویلا": 9107,
      "شهرها": 9108,
      "هرچند": 9109,
      "##چوب": 9110,
      "میکنند": 9111,
      "بگیرند": 9112,
      "همت": 9113,
      "تنهایی": 9114,
      "ایمان": 9115,
      "##حالی": 9116,
      "##انگ": 9117,
      "افزوده": 9118,
      "نگهبان": 9119,
      "##راحت": 9120,
      "##خاص": 9121,
      "شکم": 9122,
      "اوراق": 9123,
      "41": 9124,
      "ch": 9125,
      "۴۵": 9126,
      "##osh": 9127,
      "طلاق": 9128,
      "##یییی": 9129,
      "فلسفه": 9130,
      "نوسان": 9131,
      "پیامک": 9132,
      "محققان": 9133,
      "کلان": 9134,
      "هیدرو": 9135,
      "##‌س": 9136,
      "##اموزی": 9137,
      "سوء": 9138,
      "##گیرند": 9139,
      "اتومبیل": 9140,
      "مسل": 9141,
      "ماساژ": 9142,
      "استانبول": 9143,
      "##اموزش": 9144,
      "URL": 9145,
      "if": 9146,
      "خب": 9147,
      "فاضل": 9148,
      "گازی": 9149,
      "متوقف": 9150,
      "تخریب": 9151,
      "زخم": 9152,
      "لي": 9153,
      "کاپ": 9154,
      "ماست": 9155,
      "##75": 9156,
      "اندام": 9157,
      "##خخ": 9158,
      "ترف": 9159,
      "پکیج": 9160,
      "یاب": 9161,
      "##72": 9162,
      "##ه‌اي": 9163,
      "Vide": 9164,
      "درگیر": 9165,
      "ظریف": 9166,
      "نداریم": 9167,
      "موسسات": 9168,
      "##ثار": 9169,
      "نیک": 9170,
      "نرس": 9171,
      "چنانچه": 9172,
      "##خشی": 9173,
      "مایکروسافت": 9174,
      "فلز": 9175,
      "واری": 9176,
      "##66": 9177,
      "بنویس": 9178,
      "متعدد": 9179,
      "##گيري": 9180,
      "##ایا": 9181,
      "سنی": 9182,
      "شام": 9183,
      "یمن": 9184,
      "تحمل": 9185,
      "News": 9186,
      "خونه": 9187,
      "الوم": 9188,
      "زمستان": 9189,
      "تقدیر": 9190,
      "جلوی": 9191,
      "قلبی": 9192,
      "به‌عنوان": 9193,
      "قطعی": 9194,
      "بنیان": 9195,
      "Tr": 9196,
      "شاپ": 9197,
      "گون": 9198,
      "خلاف": 9199,
      "صهیونی": 9200,
      "پیش‌بینی": 9201,
      "اسباب": 9202,
      "پایانی": 9203,
      "مکمل": 9204,
      "رونق": 9205,
      "##کانس": 9206,
      "فتوشاپ": 9207,
      "انب": 9208,
      "##orm": 9209,
      "مزایای": 9210,
      "##ics": 9211,
      "سيستم": 9212,
      "pr": 9213,
      "جبران": 9214,
      "بخور": 9215,
      "ورق": 9216,
      "بادی": 9217,
      "##ايت": 9218,
      "##ond": 9219,
      "بختی": 9220,
      "برگرد": 9221,
      "عفون": 9222,
      "میتون": 9223,
      "مرحوم": 9224,
      "##odel": 9225,
      "jpg": 9226,
      "زاي": 9227,
      "##پت": 9228,
      "برود": 9229,
      "##78": 9230,
      "##كا": 9231,
      "فعالان": 9232,
      "##مرد": 9233,
      "حلقه": 9234,
      "۳۳": 9235,
      "##خبر": 9236,
      "مسلمانان": 9237,
      "وظایف": 9238,
      "شلوار": 9239,
      "الکتریکی": 9240,
      "##ool": 9241,
      "واگذاری": 9242,
      "رکورد": 9243,
      "عقل": 9244,
      "می‏": 9245,
      "##اطع": 9246,
      "ورژن": 9247,
      "نود": 9248,
      "درگیری": 9249,
      "منحصر": 9250,
      "حامد": 9251,
      "شانه": 9252,
      "اگرچه": 9253,
      "##‌جمهور": 9254,
      "##­های": 9255,
      "ویزای": 9256,
      "شیعه": 9257,
      "خورده": 9258,
      "##كم": 9259,
      "الگوی": 9260,
      "HP": 9261,
      "قضا": 9262,
      "ظهور": 9263,
      "بعنوان": 9264,
      "گندم": 9265,
      "۹۴": 9266,
      "##مج": 9267,
      "همين": 9268,
      "ارم": 9269,
      "نقره": 9270,
      "زار": 9271,
      "ضبط": 9272,
      "قار": 9273,
      "پلاک": 9274,
      "محله": 9275,
      "بارش": 9276,
      "##reat": 9277,
      "اثرات": 9278,
      "مرورگر": 9279,
      "جغرافی": 9280,
      "##ینو": 9281,
      "##int": 9282,
      "حیات": 9283,
      "##ورک": 9284,
      "خانواد": 9285,
      "##tern": 9286,
      "رها": 9287,
      "احی": 9288,
      "میاد": 9289,
      "نیازی": 9290,
      "کلاسی": 9291,
      "ببرید": 9292,
      "نماشا": 9293,
      "موقت": 9294,
      "##اشق": 9295,
      "مهلت": 9296,
      "99": 9297,
      "نوش": 9298,
      "59": 9299,
      "رب": 9300,
      "گرایش": 9301,
      "Pre": 9302,
      "##ینا": 9303,
      "##ه‌ن": 9304,
      "موش": 9305,
      "##گرفت": 9306,
      "تلخ": 9307,
      "ژل": 9308,
      "##Power": 9309,
      "عرف": 9310,
      "پتروشیمی": 9311,
      "ترفند": 9312,
      "##طوری": 9313,
      "مدافع": 9314,
      "برگز": 9315,
      "مطبوع": 9316,
      "خشون": 9317,
      "##فران": 9318,
      "##RE": 9319,
      "##فره": 9320,
      "اعزام": 9321,
      "upload": 9322,
      "انس": 9323,
      "مى‏": 9324,
      "سلاح": 9325,
      "بره": 9326,
      "128": 9327,
      "ايجاد": 9328,
      "##ێن": 9329,
      "چهل": 9330,
      "متناسب": 9331,
      "##عل": 9332,
      "قاسم": 9333,
      "لاک": 9334,
      "معمول": 9335,
      "پژو": 9336,
      "ابتلا": 9337,
      "گفتند": 9338,
      "نقدی": 9339,
      "دقیقا": 9340,
      "والیبال": 9341,
      "پری": 9342,
      "اسات": 9343,
      "شبانه": 9344,
      "تالار": 9345,
      "مدعی": 9346,
      "داشتیم": 9347,
      "باشم": 9348,
      "سراغ": 9349,
      "سرمایه‌گذاری": 9350,
      "جاذبه": 9351,
      "##كز": 9352,
      "متصل": 9353,
      "دود": 9354,
      "##نوع": 9355,
      "##76": 9356,
      "شیوع": 9357,
      "اکشن": 9358,
      "انفجار": 9359,
      "##۸۰": 9360,
      "##اسه": 9361,
      "بیانیه": 9362,
      "خوشم": 9363,
      "##ence": 9364,
      "غير": 9365,
      "گرفتند": 9366,
      "دموکر": 9367,
      "تراکتور": 9368,
      "رفاه": 9369,
      "خشونت": 9370,
      "تار": 9371,
      "بازارهای": 9372,
      "وص": 9373,
      "##ابي": 9374,
      "سرقت": 9375,
      "اسلاید": 9376,
      "میکنیم": 9377,
      "91": 9378,
      "##متی": 9379,
      "پروتي": 9380,
      "می‌کنید": 9381,
      "##21": 9382,
      "میت": 9383,
      "دارا": 9384,
      "رایانه": 9385,
      "حجاب": 9386,
      "واسطه": 9387,
      "##رنگ": 9388,
      "دغد": 9389,
      "##پل": 9390,
      "استیل": 9391,
      "اربع": 9392,
      "بخار": 9393,
      "راستا": 9394,
      "##وزن": 9395,
      "##ینیک": 9396,
      "واح": 9397,
      "محکوم": 9398,
      "وج": 9399,
      "میزبان": 9400,
      "MB": 9401,
      "بدهد": 9402,
      "پردیس": 9403,
      "##ime": 9404,
      "##aj": 9405,
      "اطلاعی": 9406,
      "میانگین": 9407,
      "بیل": 9408,
      "##گیل": 9409,
      "لاغری": 9410,
      "##وانه": 9411,
      "معلمان": 9412,
      "استخر": 9413,
      "##خود": 9414,
      "عفونت": 9415,
      "##۹۹": 9416,
      "##وشی": 9417,
      "گویند": 9418,
      "mp": 9419,
      "##جستان": 9420,
      "سایتهای": 9421,
      "لم": 9422,
      "همد": 9423,
      "شورا": 9424,
      "##oot": 9425,
      "ابوال": 9426,
      "بالاترین": 9427,
      "##راری": 9428,
      "##‌نام": 9429,
      "##pon": 9430,
      "روم": 9431,
      "مدال": 9432,
      "##DF": 9433,
      "برف": 9434,
      "مصد": 9435,
      "مهم‌ترین": 9436,
      "51": 9437,
      "1399": 9438,
      "سمنان": 9439,
      "جر": 9440,
      "شریف": 9441,
      "راننده": 9442,
      "Instagram": 9443,
      "کافه": 9444,
      "##ەڵ": 9445,
      "شهرسازی": 9446,
      "اظهارات": 9447,
      "مخالفت": 9448,
      "Pr": 9449,
      "##‌است": 9450,
      "##‌افزار": 9451,
      "##ازل": 9452,
      "نامزد": 9453,
      "شرک": 9454,
      "##DR": 9455,
      "انگل": 9456,
      "قیم": 9457,
      "هات": 9458,
      "کرک": 9459,
      "شکایت": 9460,
      "سلط": 9461,
      "عز": 9462,
      "##ینتر": 9463,
      "فرس": 9464,
      "##ork": 9465,
      "بام": 9466,
      "فیش": 9467,
      "پاکستان": 9468,
      "And": 9469,
      "##بتی": 9470,
      "##ه‌بندی": 9471,
      "اعتباری": 9472,
      "admin": 9473,
      "کامی": 9474,
      "بارها": 9475,
      "##ach": 9476,
      "نفره": 9477,
      "فراوانی": 9478,
      "لرستان": 9479,
      "عناصر": 9480,
      "##طو": 9481,
      "مصالح": 9482,
      "انبار": 9483,
      "حوز": 9484,
      "##26": 9485,
      "##enov": 9486,
      "##وچ": 9487,
      "##ck": 9488,
      "ماجرای": 9489,
      "هنرمند": 9490,
      "خم": 9491,
      "##ەك": 9492,
      "استانه": 9493,
      "اعضا": 9494,
      "سفارت": 9495,
      "لایحه": 9496,
      "قلعه": 9497,
      "مديريت": 9498,
      "Samsung": 9499,
      "زین": 9500,
      "##NA": 9501,
      "کردی": 9502,
      "##کیه": 9503,
      "اشخاص": 9504,
      "کیلوگرم": 9505,
      "رول": 9506,
      "عالم": 9507,
      "##فش": 9508,
      "كه‌": 9509,
      "##يش": 9510,
      "##ens": 9511,
      "##بک": 9512,
      "مشاغل": 9513,
      "##فس": 9514,
      "##اتب": 9515,
      "pdf": 9516,
      "اکران": 9517,
      "راي": 9518,
      "##ann": 9519,
      "لبنان": 9520,
      "uploads": 9521,
      "یاداور": 9522,
      "لاست": 9523,
      "���������": 9524,
      "همسرش": 9525,
      "##SD": 9526,
      "ارمان": 9527,
      "مدنی": 9528,
      "بفر": 9529,
      "توانسته": 9530,
      "مخاطبان": 9531,
      "##enovo": 9532,
      "it": 9533,
      "جاي": 9534,
      "۳۴": 9535,
      "##اکس": 9536,
      "اختل": 9537,
      "var": 9538,
      "غنی": 9539,
      "##کیا": 9540,
      "دادم": 9541,
      "عظیم": 9542,
      "لين": 9543,
      "دستگیر": 9544,
      "کشیده": 9545,
      "تجزیه": 9546,
      "84": 9547,
      "۵۵": 9548,
      "##ek": 9549,
      "##لیف": 9550,
      "##ولین": 9551,
      "اشکال": 9552,
      "دیدم": 9553,
      "400": 9554,
      "قفل": 9555,
      "درگذشت": 9556,
      "صادقی": 9557,
      "##یان": 9558,
      "اربعین": 9559,
      "میکرد": 9560,
      "نوامبر": 9561,
      "نياز": 9562,
      "ترکیبی": 9563,
      "##ani": 9564,
      "دادگ": 9565,
      "سومین": 9566,
      "انگیزه": 9567,
      "کیمی": 9568,
      "۴۴": 9569,
      "عملیاتی": 9570,
      "دعا": 9571,
      "فقیه": 9572,
      "سري": 9573,
      "بخاطر": 9574,
      "حملات": 9575,
      "مداحی": 9576,
      "وک": 9577,
      "������": 9578,
      "##اذ": 9579,
      "درخ": 9580,
      "مشك": 9581,
      "خراب": 9582,
      "خاطره": 9583,
      "تلفنی": 9584,
      "تومانی": 9585,
      "قهرمانان": 9586,
      "استعداد": 9587,
      "تشریح": 9588,
      "عروسی": 9589,
      "غی": 9590,
      "##فاقی": 9591,
      "##رافیکی": 9592,
      "شعبه": 9593,
      "برزی": 9594,
      "اشپزی": 9595,
      "بپرداز": 9596,
      "زودی": 9597,
      "چش": 9598,
      "##اشت": 9599,
      "کارها": 9600,
      "اردو": 9601,
      "چاق": 9602,
      "##مانت": 9603,
      "کارایی": 9604,
      "جستجوی": 9605,
      "اتمام": 9606,
      "##امع": 9607,
      "##ترين": 9608,
      "کاخ": 9609,
      "##Hz": 9610,
      "استانی": 9611,
      "المانی": 9612,
      "##امیک": 9613,
      "ورزشگاه": 9614,
      "نگارش": 9615,
      "فارغ": 9616,
      "تعطیل": 9617,
      "سینا": 9618,
      "مى‌": 9619,
      "##طوب": 9620,
      "کوین": 9621,
      "متغیر": 9622,
      "##ه‌ام": 9623,
      "##سیل": 9624,
      "##راتور": 9625,
      "اتوبوس": 9626,
      "خاموش": 9627,
      "مجری": 9628,
      "فقه": 9629,
      "كود": 9630,
      "##کشی": 9631,
      "تفسیر": 9632,
      "نهادهای": 9633,
      "معنوی": 9634,
      "Un": 9635,
      "im": 9636,
      "##‌ف": 9637,
      "عس": 9638,
      "لطف": 9639,
      "download": 9640,
      "گیت": 9641,
      "کارد": 9642,
      "##انسور": 9643,
      "اسپانیا": 9644,
      "چا": 9645,
      "##سو": 9646,
      "دستاورد": 9647,
      "پرسشنامه": 9648,
      "zwn": 9649,
      "##بي": 9650,
      "تعبیر": 9651,
      "فعاليت": 9652,
      "ولي": 9653,
      "ید": 9654,
      "##‌تان": 9655,
      "##100": 9656,
      "پیکر": 9657,
      "هواوی": 9658,
      "تضمین": 9659,
      "مصطفی": 9660,
      "##نشین": 9661,
      "بازرسی": 9662,
      "مراجع": 9663,
      "برنامه‌ریزی": 9664,
      "سانت": 9665,
      "شانس": 9666,
      "ناش": 9667,
      "معیار": 9668,
      "هيچ": 9669,
      "احتمالی": 9670,
      "مقدمه": 9671,
      "##86": 9672,
      "ایت‌الله": 9673,
      "حین": 9674,
      "کات": 9675,
      "##جایی": 9676,
      "گمرک": 9677,
      "چرم": 9678,
      "گز": 9679,
      "محروم": 9680,
      "ارومیه": 9681,
      "۰۰۰تومانM": 9682,
      "تنظیمات": 9683,
      "خطرناک": 9684,
      "zwnj": 9685,
      "Link": 9686,
      "am": 9687,
      "بنگ": 9688,
      "بگوی": 9689,
      "راد": 9690,
      "##لیس": 9691,
      "##ana": 9692,
      "اثبات": 9693,
      "مانیتور": 9694,
      "علام": 9695,
      "نبرد": 9696,
      "۴۲": 9697,
      "##کد": 9698,
      "خواند": 9699,
      "فرماندار": 9700,
      "##فلش": 9701,
      "تاسیسات": 9702,
      "عمیق": 9703,
      "گانه": 9704,
      "##ایم": 9705,
      "درستی": 9706,
      "CO": 9707,
      "سلیمانی": 9708,
      "A7": 9709,
      "شوم": 9710,
      "##arg": 9711,
      "کامپ": 9712,
      "ستون": 9713,
      "##old": 9714,
      "تمرینات": 9715,
      "con": 9716,
      "بص": 9717,
      "هماهنگ": 9718,
      "سون": 9719,
      "قدیم": 9720,
      "ایسوس": 9721,
      "کنسول": 9722,
      "فرانس": 9723,
      "##اقد": 9724,
      "as": 9725,
      "id": 9726,
      "##esh": 9727,
      "همراهی": 9728,
      "##ارتی": 9729,
      "مواف": 9730,
      "علي": 9731,
      "تخلیه": 9732,
      "ابزارهای": 9733,
      "an": 9734,
      "مض": 9735,
      "##اهنگ": 9736,
      "دوش": 9737,
      "سوره": 9738,
      "امری": 9739,
      "١٣": 9740,
      "##جت": 9741,
      "کشید": 9742,
      "##فیق": 9743,
      "0912": 9744,
      "##دست": 9745,
      "یاری": 9746,
      "خودمان": 9747,
      "نمیشه": 9748,
      "زایمان": 9749,
      "tr": 9750,
      "مری": 9751,
      "داي": 9752,
      "##ave": 9753,
      "##غر": 9754,
      "ایثار": 9755,
      "##ساعت": 9756,
      "کادر": 9757,
      "##oz": 9758,
      "##ys": 9759,
      "کردید": 9760,
      "سپت": 9761,
      "##‌نامه": 9762,
      "##cer": 9763,
      "برم": 9764,
      "##کسل": 9765,
      "##ouse": 9766,
      "##indow": 9767,
      "مقاومتی": 9768,
      "کس": 9769,
      "##قیب": 9770,
      "اقس": 9771,
      "امو": 9772,
      "اتفاقی": 9773,
      "دستگاه‌های": 9774,
      "##جاع": 9775,
      "خوانده": 9776,
      "پره": 9777,
      "##less": 9778,
      "موافقت": 9779,
      "##نرم": 9780,
      "##ech": 9781,
      "احسان": 9782,
      "صورتیکه": 9783,
      "دفاتر": 9784,
      "جون": 9785,
      "زع": 9786,
      "##نال": 9787,
      "انز": 9788,
      "جعفر": 9789,
      "##ختن": 9790,
      "اتهام": 9791,
      "اساتید": 9792,
      "امیدواریم": 9793,
      "دستورال": 9794,
      "##ابتی": 9795,
      "##خصات": 9796,
      "شوهر": 9797,
      "ایه": 9798,
      "سوار": 9799,
      "فاضلاب": 9800,
      "##یسی": 9801,
      "بابا": 9802,
      "ميلي": 9803,
      "##الز": 9804,
      "کلینیک": 9805,
      "بختیاری": 9806,
      "تما": 9807,
      "سرنوشت": 9808,
      "کمال": 9809,
      "اتحاد": 9810,
      "چوبی": 9811,
      "##ition": 9812,
      "ارزشمند": 9813,
      "نزدیکی": 9814,
      "Lenovo": 9815,
      "تراز": 9816,
      "غمگین": 9817,
      "پاییز": 9818,
      "فاقد": 9819,
      "ژوين": 9820,
      "##23": 9821,
      "ایلام": 9822,
      "انتهای": 9823,
      "پذیری": 9824,
      "دفترچه": 9825,
      "ویدي": 9826,
      "قیمتی": 9827,
      "ناک": 9828,
      "عبارتند": 9829,
      "معلوم": 9830,
      "دانش‌اموز": 9831,
      "##ایات": 9832,
      "##reen": 9833,
      "سایپا": 9834,
      "ظروف": 9835,
      "اشکار": 9836,
      "رييس": 9837,
      "خنک": 9838,
      "الومینی": 9839,
      "su": 9840,
      "لیتر": 9841,
      "انتخاباتی": 9842,
      "۹۰": 9843,
      "##ron": 9844,
      "سپتامبر": 9845,
      "ic": 9846,
      "##ru": 9847,
      "##وتو": 9848,
      "۰۰۰تومانPower": 9849,
      "۳۷": 9850,
      "ارتقاء": 9851,
      "Con": 9852,
      "مکت": 9853,
      "##فرم": 9854,
      "تابناک": 9855,
      "اتو": 9856,
      "مبلمان": 9857,
      "اقایان": 9858,
      "##ull": 9859,
      "یافتن": 9860,
      "تحولات": 9861,
      "app": 9862,
      "نه‌": 9863,
      "بهتری": 9864,
      "بدهی": 9865,
      "محافظت": 9866,
      "مسافرتی": 9867,
      "##In": 9868,
      "احتی": 9869,
      "##چر": 9870,
      "کلم": 9871,
      "فرهاد": 9872,
      "type": 9873,
      "خريد": 9874,
      "be": 9875,
      "##یا": 9876,
      "##گرایی": 9877,
      "ترجی": 9878,
      "##شیر": 9879,
      "بررسي": 9880,
      "فلسطین": 9881,
      "عظ": 9882,
      "##88": 9883,
      "قايم": 9884,
      "##همان": 9885,
      "##ـه": 9886,
      "بتوانیم": 9887,
      "##فو": 9888,
      "##عباس": 9889,
      "سحر": 9890,
      "پذیرفته": 9891,
      "##ابری": 9892,
      "دوچرخ": 9893,
      "##کلت": 9894,
      "۰۰۰تومانFlash": 9895,
      "بمب": 9896,
      "مهران": 9897,
      "##eight": 9898,
      "##يند": 9899,
      "##IT": 9900,
      "##out": 9901,
      "ثبات": 9902,
      "نات": 9903,
      "پاری": 9904,
      "##کلن": 9905,
      "دبستان": 9906,
      "##ri": 9907,
      "ابری": 9908,
      "ریزش": 9909,
      "یارانه": 9910,
      "داروهای": 9911,
      "پرینتر": 9912,
      "فیر": 9913,
      "هرمزگان": 9914,
      "بکن": 9915,
      "جوی": 9916,
      "ماموریت": 9917,
      "##نل": 9918,
      "باکس": 9919,
      "تاج": 9920,
      "معده": 9921,
      "غیره": 9922,
      "دروازه": 9923,
      "##‌م": 9924,
      "بهشت": 9925,
      "مرطوب": 9926,
      "##یتون": 9927,
      "رایج": 9928,
      "بلوچ": 9929,
      "u06": 9930,
      "بور": 9931,
      "##EN": 9932,
      "##حس": 9933,
      "720": 9934,
      "دبیرستان": 9935,
      "بخواه": 9936,
      "لاری": 9937,
      "۳۸": 9938,
      "دربار": 9939,
      "##enc": 9940,
      "Google": 9941,
      "مقصد": 9942,
      "گرجستان": 9943,
      "موسوی": 9944,
      "لحظ": 9945,
      "امپر": 9946,
      "##نیا": 9947,
      "خواهم": 9948,
      "ريال": 9949,
      "منتخ": 9950,
      "Wire": 9951,
      "##بای": 9952,
      "##ازد": 9953,
      "##ilic": 9954,
      "جزوه": 9955,
      "امارات": 9956,
      "##سازان": 9957,
      "##عار": 9958,
      "اینج": 9959,
      "Ed": 9960,
      "کنون": 9961,
      "متولد": 9962,
      "نوشید": 9963,
      "جنبه": 9964,
      "##ode": 9965,
      "##رداد": 9966,
      "سیگار": 9967,
      "##ener": 9968,
      "میتواند": 9969,
      "مایع": 9970,
      "گناه": 9971,
      "تقویم": 9972,
      "سار": 9973,
      "فلا": 9974,
      "##PS": 9975,
      "150": 9976,
      "چراکه": 9977,
      "حساسیت": 9978,
      "متقاضیان": 9979,
      "الزام": 9980,
      "یوسف": 9981,
      "##۳۰": 9982,
      "##ولت": 9983,
      "صرفه": 9984,
      "این‌که": 9985,
      "org": 9986,
      "جک": 9987,
      "##بورد": 9988,
      "بهنام": 9989,
      "محاسب": 9990,
      "##ستند": 9991,
      "اينكه": 9992,
      "تحقي": 9993,
      "رفسنج": 9994,
      "استرالیا": 9995,
      "هندی": 9996,
      "باستان": 9997,
      "استارت": 9998,
      "ضرر": 9999,
      "چارچوب": 10000,
      "عادت": 10001,
      "استث": 10002,
      "تشوی": 10003,
      "مگابایت": 10004,
      "##‌ت": 10005,
      "انقدر": 10006,
      "شهري": 10007,
      "##تواند": 10008,
      "دروس": 10009,
      "ميان": 10010,
      "بدهید": 10011,
      "Ser": 10012,
      "تزی": 10013,
      "پلت": 10014,
      "فاکتور": 10015,
      "MK": 10016,
      "هک": 10017,
      "##‌گذاری": 10018,
      "پیشینه": 10019,
      "رودخانه": 10020,
      "توقف": 10021,
      "ناه": 10022,
      "فرید": 10023,
      "ظاهری": 10024,
      "##رايط": 10025,
      "php": 10026,
      "دامپ": 10027,
      "##کوه": 10028,
      "##91": 10029,
      "انشا": 10030,
      "نمایشگر": 10031,
      "تروی": 10032,
      "##گم": 10033,
      "##انع": 10034,
      "دادگستری": 10035,
      "Am": 10036,
      "##rip": 10037,
      "##یدان": 10038,
      "تمدید": 10039,
      "##یدگی": 10040,
      "##ery": 10041,
      "پیچیده": 10042,
      "درایو": 10043,
      "amp": 10044,
      "ياد": 10045,
      "مدیریتی": 10046,
      "خوشبخت": 10047,
      "ناصر": 10048,
      "چرب": 10049,
      "کوش": 10050,
      "##يط": 10051,
      "##اهرات": 10052,
      "ارتقای": 10053,
      "صعود": 10054,
      "تاخیر": 10055,
      "وت": 10056,
      "گچ": 10057,
      "##ذکر": 10058,
      "##اهو": 10059,
      "##۶۰": 10060,
      "مجازات": 10061,
      "320": 10062,
      "##AD": 10063,
      "An": 10064,
      "##شایی": 10065,
      "اهم": 10066,
      "مربع": 10067,
      "می‌گویند": 10068,
      "600": 10069,
      "PC": 10070,
      "دات": 10071,
      "اموزشگاه": 10072,
      "لوکس": 10073,
      "كنيد": 10074,
      "اتفاقات": 10075,
      "قصه": 10076,
      "علامت": 10077,
      "زغال": 10078,
      "##‌که": 10079,
      "##اك": 10080,
      "جزء": 10081,
      "##خرید": 10082,
      "##son": 10083,
      "##شور": 10084,
      "پیک": 10085,
      "##يست": 10086,
      "ساح": 10087,
      "##۹۰": 10088,
      "الگ": 10089,
      "سپاس": 10090,
      "می‌کردند": 10091,
      "دریاچه": 10092,
      "##التی": 10093,
      "##افل": 10094,
      "##olog": 10095,
      "مسافران": 10096,
      "##بن": 10097,
      "کارافرینی": 10098,
      "مموری": 10099,
      "حرفه‌ای": 10100,
      "قاشق": 10101,
      "افزاری": 10102,
      "تگ": 10103,
      "دستم": 10104,
      "##rans": 10105,
      "پارت": 10106,
      "برات": 10107,
      "اولی": 10108,
      "میدهد": 10109,
      "i7": 10110,
      "##زیت": 10111,
      "2008": 10112,
      "کلاسیک": 10113,
      "Sony": 10114,
      "اشی": 10115,
      "جاس": 10116,
      "اینگونه": 10117,
      "##یما": 10118,
      "##ضاع": 10119,
      "مارکت": 10120,
      "تقدیم": 10121,
      "sc": 10122,
      "##ه‌اش": 10123,
      "تبادل": 10124,
      "زندگي": 10125,
      "HT": 10126,
      "زیرساخت": 10127,
      "مفاهیم": 10128,
      "پروفایل": 10129,
      "شرايط": 10130,
      "اقت": 10131,
      "عضلات": 10132,
      "comment": 10133,
      "##74": 10134,
      "##نیوز": 10135,
      "دشوار": 10136,
      "##ژي": 10137,
      "تغي": 10138,
      "افسردگی": 10139,
      "کیمیا": 10140,
      "نوشیدنی": 10141,
      "##مي": 10142,
      "همچنين": 10143,
      "##‌کننده": 10144,
      "مشکلاتی": 10145,
      "ادی": 10146,
      "ضمانت": 10147,
      "هز": 10148,
      "خاورمی": 10149,
      "مینی": 10150,
      "الت": 10151,
      "گزارشی": 10152,
      "دندانپ": 10153,
      "دستورالعمل": 10154,
      "شکار": 10155,
      "سیستان": 10156,
      "کاندید": 10157,
      "2009": 10158,
      "پلاستیک": 10159,
      "##طوبت": 10160,
      "باکتری": 10161,
      "##یمه": 10162,
      "گرمای": 10163,
      "اعم": 10164,
      "پروت": 10165,
      "دفاعی": 10166,
      "##ومتری": 10167,
      "##اختی": 10168,
      "مصرفی": 10169,
      "استعلام": 10170,
      "##کین": 10171,
      "همشهری": 10172,
      "دیسک": 10173,
      "مخزن": 10174,
      "خانوادگی": 10175,
      "گردشگران": 10176,
      "##وود": 10177,
      "اسامی": 10178,
      "اعد": 10179,
      "تپ": 10180,
      "##ES": 10181,
      "راس": 10182,
      "سپرده": 10183,
      "مارس": 10184,
      "رطوبت": 10185,
      "##کیک": 10186,
      "گربه": 10187,
      "پسند": 10188,
      "##ick": 10189,
      "##سلمین": 10190,
      "##ock": 10191,
      "پرف": 10192,
      "##rap": 10193,
      "کشیدن": 10194,
      "یکبار": 10195,
      "اوب": 10196,
      "##roid": 10197,
      "کوچه": 10198,
      "رضایی": 10199,
      "##‌ان": 10200,
      "##يبهشت": 10201,
      "##word": 10202,
      "1389": 10203,
      "اواخر": 10204,
      "راب": 10205,
      "امت": 10206,
      "نواز": 10207,
      "نواوری": 10208,
      "1080": 10209,
      "پردازنده": 10210,
      "کربن": 10211,
      "متم": 10212,
      "بخش‌های": 10213,
      "مارک": 10214,
      "تایل": 10215,
      "##گرفته": 10216,
      "انگلستان": 10217,
      "##ارستان": 10218,
      "منف": 10219,
      "می‌بین": 10220,
      "##ade": 10221,
      "سرانجام": 10222,
      "صلاحیت": 10223,
      "لنز": 10224,
      "##وام": 10225,
      "فرق": 10226,
      "##ازن": 10227,
      "تمدن": 10228,
      "صبر": 10229,
      "##MB": 10230,
      "ريیس‌جمهور": 10231,
      "تغيير": 10232,
      "زبال": 10233,
      "غد": 10234,
      "دري": 10235,
      "##ندر": 10236,
      "علل": 10237,
      "##صله": 10238,
      "توصیف": 10239,
      "ذهنی": 10240,
      "##00mAh": 10241,
      "مصوبه": 10242,
      "حامی": 10243,
[...]
